#version: 0.2
Ġ ì
Ġ ë
ì Ŀ
Ġ Ġ
Ġ ê
í ķ
ë ĭ
ì Ĺ
ìĿ ´
Ġ í
ëĭ ¤
ë Ĭ
ëĬ Ķ
ìĹ Ĳ
ê ³
ê °
ë ¡
ì Ħ
ì §
íķ ĺ
ë¡ ľ
Ġì Ŀ
ìĿ Ħ
ìĿ ĺ
Ġì ŀ
ì ł
ë ¥
ê° Ģ
ì ŀ
ê³ ł
ì§ Ģ
ë ı
íķ ľ
ë ¦
¸ °
ì ľ
ìĦ ľ
Ġì ķ
ê ²
ì ĭ
ë ĵ
Ġì ł
ëı Ħ
ë¥ ¼
ë §
ìĿ Ģ
ĠìĿ ´
ì ķ
Ĥ ¬
ĸ ´
Ġê °
ë¦ ¬
ê ¸°
ë ©
Ĥ ĺ
ĠĠ ĠĠ
Ġë §
ì Ĭ
ë ł
ìľ ¼
Ġê ²
Į Ģ
ì ļ
Ŀ ¼
Ġë °
Ġì Ĺ
Ī ëĭ¤
ì ĸ´
Ġê ·
ë Ŀ¼
Ġì ĭ
Ī ĺ
ìĿ ¸
íķ ´
Ġë ĭ
ê µ
ìĬ ¤
Ġê· ¸
ê² Į
ìľ¼ ë¡ľ
ìĹĲ ìĦľ
ë Ĥĺ
Ġë ³
ë į
Ġê ³
Ġì Ħ
ëĵ ¤
ì ĺ
ë© ´
ĥ ģ
Ġì §
Ġë ª
ìĭ ľ
Ġì Ĥ¬
ë °
ë§ Į
ë ŀ
Ġì ĺ
ë Ł
¶ Ģ
Ġ 1
ë ¬
ë ³
ì Ľ
Ġìķ Ħ
ì Ļ
£ ¼
ìŀ Ĳ
ì ¹
ë ²
Ġ íķĺ
ë Ĳ
Ġì Īĺ
í ĸ
Ġìŀ Ī
Ġì ľ
Ġ 2
ìķ Ħ
ĠĠ Ġ
ë ĮĢ
ê³ ¼
ë ħ
Ġë ĵ
ì Ĥ¬
Ġê° Ģ
Ġë ¬
Ĭ ¸
Ġë ĮĢ
í ĥ
Ġë ı
Ġë Ĥ
í Ļ
ìŀ ¥
Ġ íķľ
ì ²
Ġê² ĥ
Ġìĭ ľ
í Ĭ¸
ë ª
ëĵ ľ
ìĻ Ģ
Ġë³ ´
¯ ¸
Ġëĭ ¤
í ĺ
¹ Ħ
Ĩ Į
ìł ģ
Ġìł Ħ
¤ ĳ
Ġê µ
Ġê ¸°
Ġë Ĥĺ
Ġìŀ Ĳ
Ġ íķ
ëĭ Ī
Ġì Ĭ
± °
ìł Ħ
ë ¶Ģ
ìł ķ
Ġë Ĳ
ķ Į
ì ĥģ
ë Ĥ
ë© °
ìļ °
í Ħ
ì Īĺ
íķĺ ëĬĶ
Ġì§ Ģ
ìĿ ¼
Ġì ļ
ëį °
ëĲ ĺ
ê ¸
Ġìŀ Īëĭ¤
Ġìł ķ
ì§Ģ ë§Į
ëħ Ħ
ŀ Ī
¡ °
ìĦ ±
ĠìĿ ¼
íĦ °
Ġëª ¨
ìĿ´ ëĭ¤
ì £¼
ëŁ ¬
Ġë ķĮ
Ġë ²
ì °
Ġë§ Ī
Ľ Ħ
Ġí Į
ì¹ ĺ
ìĹ Īëĭ¤
Ġì °
Ġë į
ìļ ©
ĥ Ŀ
Ġì ĥģ
Ġí Ļ
Ġí ĺ
ìł ľ
ìĭ ł
Ġë ¶
ëł ¤
Ġì ¹
í ŀĪ
êµ Ń
ë¬ ¸
í Ķ
ë³ ´
í Į
íĻ Ķ
Ġê² ½
ĠìĹ Ĩ
Ġìľ ł
ĠìĬ ¤
ëł ¥
Ġì £¼
Ġê³ µ
ê ·
Ġí Ķ
Ġì ¶
ë¥ ´
Ġì ²
Ġìł ľ
ĠìĿ ¸
êµ ¬
Ġí ĥ
Ġìķ Ĭ
ë§ Ī
Ġì ¤ĳ
¹ Į
Ġí ı
ê° Ħ
Ġë ¶Ģ
ìķ ¼
ì§ Ħ
ìĹ ¬
Ġì ĸ´
ë £
ëı Ļ
ìĽ Ĳ
ëį ĺ
Ġ 3
ģ ¬
Ġì Ļ
ìĹĲ ê²Į
ìĹ Ī
´ Ģ
Ġìĺ ¤
Ġ2 0
íķ ł
íķĺ ê³ł
ìĺ ¤
í Ĩ
ë ¯¸
Ġë¬ ´
Ġëĵ ±
íĥ Ģ
ì ¦
ëł Ī
ĠëĲ ĺ
ê² ©
Ġì ĨĮ
Ġìľ Ħ
ë ¶
Ġë ¹Ħ
Ġì Ľ
íķľ ëĭ¤
Ĩ į
Ġì ĸ
ê ¹Į
ļ Į
ê ±°
ĠĠĠĠ Ġ
Ġì ¢
Ġ íķ´
ëª ħ
ĠìĹ ¬
ëŀ ĺ
í Ĥ
± ´
Ġê³ ł
Ġí ĸ
Ġë§ Į
Ġë Ķ
ìĦ ł
íĸ Īëĭ¤
ĠìŀĪ ëĬĶ
ĠëĤ ´
ì ĸ
ë² Ħ
ëĲ ľ
ĳ Ĳ
ë Ħ
Ġë° Ķ
ì² ´
ë ¹Ħ
Ġë ¯¸
ì ĨĮ
ë¬ ´
Ġë Ħ
Ġë§ Ĳ
ìľ Ħ
ê³ Ħ
ëĭ ¹
ì Ĥ
Ġì ¡°
ìĺ Ģ
ìŀ ĳ
ìĽ Ķ
ì ¡
ìĿ Į
ìĿ´ ëĿ¼
½ Ķ
Ġê ±°
ĠĠĠĠ ĠĠ
í ĭ
ĠìĿ ĺ
Ġë ©
ĠìĦ ±
Ġì ĥĿ
Ġëı Ļ
ìĭ Ŀ
ìļ ´
Ġì Ĥ
ìĭ ¤
ĠëķĮ ë¬¸
Ġìķ Ī
Ġëı Ħ
íĸ Ī
ì ¶
í ı
ëĭ ¨
Ġë ħ
Ġë° ©
ê³ µ
í ĽĦ
í ģ¬
ĠìĦ ł
ë¶ Ħ
Ġìĺ ģ
ìŀ ¬
ĠìĹ °
ë Ķ
ì ¤
íĤ ¤
ìŀ Ħ
Ġìĭ ł
Ġë° ľ
Ġí ĽĦ
Ġíķľ ëĭ¤
Ġêµ ¬
ë¥ ¸
ìļ Ķ
ëĵ¤ ìĿ´
´ Ī
ìĦ ¸
ì ¡°
Ġìŀ ¥
íķĺ ê²Į
í ļĮ
ê¹Į ì§Ģ
Ġ 4
ë©´ ìĦľ
í ħ
ëĬ ¥
Ġí Ĩ
ì Ī
ì¹ ´
íķ Ļ
ìķ ĺ
ĠìĦ ¸
ì ¤ĳ
ì° ¨
ëĬĶ ëį°
µ ľ
íĸ ī
Ġë Ŀ¼
ìĹĲ ëĬĶ
ë¬ ¼
ëŀ Į
İ ¸
Ġìł ģ
Ġë§ İ
Ġë¶ Ī
ë ¯
Ġê° ľ
Ġìļ °
Ġ 5
Ġê² Į
Ġì µľ
ì¦ Ī
ë£ ¨
íĶ Ħ
ìľ ł
êµ Ĳ
Ġëį Ķ
Ġëĭ ¹
ìł Ĳ
Ġìĭ ¤
ì ĥĿ
ë¦ °
Ġê ¹
ì Ĩį
Ġí Ĭ
Ġë Ĭ
Ġê° Ļ
ê° ľ
Ġê° ķ
Ġê ¸
ëĤ ´
Ġê² °
ë° ĺ
Ġì§ Ħ
ê· ¸
Ġë¬ ¸
Ġë ¹
ĠìĦ ľ
ë ¸
Ġì¹ ´
Ġ20 1
Ġëĵ ¤
ìĹ °
ê° ģ
ìĹ Ń
ĠìĽ Ĳ
ìĬ µ
Ī ¬
Ġìķ Į
íķĺ ëĭ¤
ìĹĲìĦľ ëĬĶ
ĳ ľ
Ġê²½ ìļ°
êµ °
ìłģ ìľ¼ë¡ľ
Ġíĥ Ģ
ĠíĮ Į
ĠíĬ ¹
ĠëķĮë¬¸ ìĹĲ
ëª ¨
Ġë° ĺ
Ġê ´Ģ
ëŁ °
ì ħ
0 0
ê² ½
ĠëĲ ľ
íĨ ł
ê ´Ģ
íĺ ¸
ìłģ ìĿ¸
ì¤ Ģ
ìķ Ī
Ġëħ ¸
ëĵ ł
ìľ¼ ë©°
Ġë ¦
ìł Ģ
ìĤ °
íĭ °
ë° ©
Ġë ĺ
ë³ ¸
ê¸ ī
ë¦¬ ê³ł
ê ±´
Ġìŀ ĳ
Ġë° Ľ
Ġëª »
ĠìĤ¬ ëŀĮ
Ġëĭ ¨
ë¡ Ŀ
Ġíı ¬
ë² Ī
Ġë Ĩ
ĠìĹ Ĳ
ì ¸
Ġì ĵ
± ¸
ĠìĹ Ń
ĠëĤ ¨
ĠìŀĲ ìĭł
íķ´ ìĦľ
ê¸ Ī
ì ¢
Ġì° ¨
Ġë ¡
ëĭ¤ ëĬĶ
Ġë ł
¶ Į
Ġì¢ ĭ
Ġë¬ ¼
ë¶Ģ íĦ°
ë ¨
ë ĥ
ëłĪ ìĿ´
ĠìĿ´ íĽĦ
ë ĳĲ
ìĺ ģ
ĠëĶ °
ì ¼
Ġì¶ Ķ
ëĶ Ķ
íĥ ľ
ë° ľ
Ġíĺ Ħ
Ġì Ī
Ġë¦ ¬
íķĺ ê¸°
Ġë ģ
ĠìķĦ ëĭĪ
Ġë³ ¸
Ġëĺ Ĳ
ëĤ ľ
ĠìĤ¬ ìļ©
ĠíĶ Ħ
íķĺ ìĹ¬
Ġë° °
Ġí Ŀ
ìĺĢ ëĭ¤
ëĭ Īëĭ¤
íĺ ķ
Ġë§ ¤
ë² ķ
Ġë ¨
ë¡ ł
ìĹ ħ
Ġ S
ëĮĢ ë¡ľ
Ġì¶ ľ
Ġëł Ī
ì² ĺ
ìĺ ¨
ĠíĶ ¼
ì ½Ķ
ì¢ ħ
íĮ Į
Ġê³ Ħ
Ġë² Ħ
ë¯ ¼
Ġ1 9
ëį Ķ
Ġëį °
Ġëĭ ¬
ëħ ¸
ë¦ Ħ
íĨ µ
ìŀ ħ
ëĭ¤ ê³ł
Ġí Ĺ
Ġì £
ĠíĨ µ
Ġì ´Ī
Ġ 6
ë¸ Į
Ġí ģ
Ġë Ī
Ġê° Ĳ
Ġë ĳĲ
ëŀ Ģ
íķĺ ë©´
íĶ ¼
íĮ Ĳ
Ġê ±´
Ġì ±
Ġì ¦
í Ĵ
Ġêµ Ń
Ġìĺ Ī
ëĵ¤ ìĿĢ
Ġì ĥ
Ġìłķ ëıĦ
Ġìŀ ¬
ìĪ ł
ìĿ´ ëĤĺ
Ġì º
Ġìł Ģ
ìĭ ¬
Ġìŀ ħ
ìĬ ¹
Ġëĵ ľ
íı ¬
ë° Ķ
ì§ ģ
Ġë¶ Ħ
Ġì Ĩ
Ġëĭ¤ ë¥¸
Ġíķ ł
Ġíķ ¨
Ġì ¤
Ġê³µ ê²©
Ġí ģ¬
ëĵ¤ ìĿĦ
ëĿ¼ ëĬĶ
ìĸ ĳ
Ġê²ĥ ìĿ´
ìł ¸
Ġì ½Ķ
Ġê¹ Ģ
ì ĥ
Ġì° ¸
Ġ 7
Ġë¡ ľ
ìĽ Į
Ġìł Ĳ
í Ĺ
Ġì »
ìĬ¤ íĬ¸
Ġìļ Ķ
Ġí İ¸
íķĺ ì§Ģ
ìĹĲ ëıĦ
ĠìĦ ¤
Ġìŀ ĺ
ê »
Ġêµ Ĳ
í Ī¬
Ġíķĺ ì§Ģë§Į
Ġ 8
ì »
ëĿ¼ ê³ł
ĠëĲľ ëĭ¤
Ġê·¸ ë¦¬ê³ł
ĠíĮ ¨
íħ Į
ëĵ¤ ìĿĺ
ë¦¬ ëĬĶ
ê¸° ë¥¼
ìħ ĺ
ì Ĩ
ê ¶Į
İ ĺ
ëŀ ĳ
Ġì£ ½
Ġëı Į
Ġ A
Ġìĺ ¬
Ġìĵ °
Ġê³ ¼
Ġë Ĵ
Ġíı ī
Ġê ±¸
Ġíķĺ ëĬĶ
ì§Ģ ëĬĶ
ëĲĺ ìĹĪëĭ¤
ìľ¼ ëĤĺ
ê¸° ëıĦ
Ġëª ħ
Ġë ĸ
Ġë ¸
Ġ1 0
ê² ĥ
Ġëĵ± ìŀ¥
Ġ M
Ġê ´
ëŁ ¼
¿ ł
ê¸° ìĹĲ
Ġëĵ¤ ìĸ´
ì§ Ī
ĠíĻ Ķ
ì¡ ±
Ġì² ĺ
ĠìĤ ´
ĠìĤ¬ ìĭ¤
Ġë§ ŀ
Ġì ¡
ĠìĻ ¸
Ġê·¸ ëŁ¬
í ĳľ
Ġê°Ļ ìĿĢ
ĠíĻ ķ
Ġê°Ģ ëĬ¥
íķ ©
íĻ ©
Ġ 9
ëŁ ī
´ Ŀ
ìķ ½
í ģ
íķĺ ë©°
Ġë© Ķ
ĠíĶ Į
íķ ¨
Ġìĭ ¬
į ¼
ìĦ ¤
Ġíķĺ ëĤĺ
Ġì§ ģ
ìĦ Ŀ
ì¶ ľ
ĠëĮĢ íķľ
ëĬĶ ëĭ¤
ë§ ¤
Ġìº Ĳ
Ġë³ Ģ
ĠìķĦ ìĿ´
ëĲĺ ìĸ´
ĠìĥĿ ê°ģ
i n
ìļ ¸
Ġì Ĩį
ĠëĴ ¤
Ġíĺ ¸
Ġí ŀ
ê» ĺ
Ġê²Į ìŀĦ
ìķĺ ëĭ¤
ëĦ ¤
ë£ Į
ª ½
ë³ ĳ
ë³ µ
ë ķĮ
ë³´ ëĭ¤
ë¦ Ń
ì¡ Į
íĴ Ī
ê±° ëĤĺ
ìł Ī
ì² Ń
Ġíķ Ħ
Ġ C
Ġìķ ł
ë§ Ŀ
ìĻ ¸
ë© Ķ
Ġ T
ì¸ ł
í İ¸
ëł ĩ
Ġí ļĮ
ĠëĨ Ĵ
íĸ ¥
ëł ¨
ëĭ¤ ê°Ģ
Ġëª¨ ìĬµ
Ġì¹ ĺ
ë ģ
ë¥ ĺ
ë¨ ¸
ëł ¹
ì ´Ī
e r
ë° °
íĺ Ħ
Ġíķ Ļ
ë¦¬ ë¥¼
Ġìĭľ ìŀĳ
ëĦ Ī
ê² ł
ìĸ ¸
ëħ Ģ
Ġë¬¸ ìłľ
ê° Ĳ
ëĵ ±
Ġì¢ ħ
ì Ķ
Ġíĸ ī
Ġê²ĥ ìĿ´ëĭ¤
Ġìĸ ¸
ê ´
ĠëĤ ł
Ġìķ ½
Ġíĸ Ī
Ġíķ¨ ê»ĺ
Ġìļ ´
Ġê° Ħ
ĠìĹĨ ëĭ¤
Ġëª ©
ë§ Ĳ
Ġí ļ
Ġê²ĥ ìĿĦ
ìĸ´ ìĦľ
ĠĠĠĠ ĠĠĠĠ
ê¸° ê°Ģ
Ġ B
Ġí Ĥ
Ġí ħ
ĠíĻ ľ
ĠëĤĺ ìĺ¤
Ġíķľ êµŃ
íĻ ĺ
Ġë² Ī
ì² ľ
Ġíĸ Īëĭ¤
Ġí Ĭ¸
Ġë° ķ
Ġì² ´
ìŀ Ī
ëĲľ ëĭ¤
Ġë§Į ëĵ¤
Ġíŀ ĺ
Ģ ë¡ľ
ë ¹
Ġì¡ ´
ĠìľĦ íķ´
Ġì§ ĳ
ëĲĺ ëĬĶ
Ġê° ģ
ĠìĨ Ĳ
ìĤ ´
Ġ D
Ġìĸ ĳ
ì²ĺ ëŁ¼
ì ³
Ŀ ½
ĠìĿ´ ìĥģ
ĠìĬ ¹
ëł ¸
Ġëģ Ŀ
ĠëĦ Ī
Ġí ĳľ
ĠìĿ¼ ë³¸
ë¦¬ ê°Ģ
ê¸ ´
ê° ķ
Ģ ìĿ´
Ġëĭ¤ ìĭľ
ĠëĶ° ëĿ¼
ĠìĤ¬ ìĿ´
ë§ ī
Ġ 0
ĠìĬ¤ í
íĹ ĺ
Ġìŀ ¡
ĠëĺĲ íķľ
ĠìĹĨ ëĬĶ
í Ŀ
ĠíĨ ł
Ġìĸ´ ë
ìĹĲìĦľ ëıĦ
ĠìŀĪ ìĹĪ
ìĿ´ëĿ¼ ê³ł
Ġê°Ģ ìŀ¥
ìĨ ¡
ëı ħ
ĠìĪ ľ
ë¦ ¼
ĠìĻ Ħ
ë Ŀ½
Ķ ëĭ¤
Ġëı ħ
ê² °
Ġ P
ĠëĲĺ ìĹĪëĭ¤
ëł¥ ìĿĦ
ìĿ´ëĿ¼ ëĬĶ
ĠìĹ ´
Ġë £
ë¦ ½
o n
ëª ©
ĠìĿ´ ë¦Ħ
ìľ¼ ë©´
ì§Ģ ê³ł
Ġêµ °
ĠëĶ Ķ
ì¦ Į
Ġí Ī¬
ëĭ ´
Ġê· ¼
· ¨
Ġìĥģ íĻ©
Ġëª¨ ëĳĲ
ìĬ¤ íĦ°
Ġìĥ Ī
ìĥ ī
ëĭ ¬
Ġëĭ¹ ìĭľ
Ġíĺ ķ
Ġë³ ¼
Ġê²ĥ ìĿĢ
ì ¿ł
Ġë ¯
ì§Ģ ë¥¼
Ġí ĮĢ
Ġìĥģ ëĮĢ
ĠëĤ ľ
ì ±
Ġê·¸ ëŁ°
íĥ Ħ
ĠíĮ Ĳ
ì§ ĳ
Ġë§ ī
Ġì ´Ŀ
ëĭ Į
ê· ¼
ëł¥ ìĿ´
Ġí Ĵ
ê¸° ëĬĶ
ì ª½
Ġê²° êµŃ
Ġ t
ĠìŀĪ ìĹĪëĭ¤
a n
ë¦Ń íĦ°
Ġìķ ŀ
ê² ¨
ĠíĤ ¤
ëĤ ł
Ġ L
íĺ Ģ
Ġë² ł
Ġ F
Ġì± Ħ
ëĿ¼ ìĿ´
Ġëª¨ ëĵł
ëĬ Ĳ
Ġ20 0
Ġ1 2
íĮ ¨
ĠëĪ Ī
ìķ ħ
Ġë§İ ìĿ´
ë ´
í į¼
ĠìºĲ ë¦ŃíĦ°
Ġìĭľ ê°Ħ
ìĿ´ ê³ł
Ġì¦ Ŀ
Ġíı Ń
Ġíķĺ ê³ł
Ġì¹ ľ
Ġë¹ ł
Ġí ŀĪ
Ġìķ ¼
Ġë¨ ¹
Ġëĭ¤ ë§Į
Ġíģ ´
ìĺ Ī
Ġë³´ ìĹ¬
ĠíĶĮ ëłĪìĿ´
Ġê·¸ëŁ¬ ëĤĺ
ìĹ Ĩ
ĠíĶĦ ë¡ľ
Ġìĸ ¼
Ġê²ĥ ìľ¼ë¡ľ
ĠëĦ ĺ
Ġê·¸ ëŀĺ
Ġë³ Ħ
Ġ G
Ġìļ ©
ì§ ¸
ëĥ Ĳ
ĠìĿ Į
Ġ I
Ġë ´
Ġíĥ ľ
Ġë³´ ë©´
Ł ģ
ĠëĬ ¥
Ġë³ µ
Ġí Ħ
ìĿ´ ë©°
ìĿ´ ëĬĶ
Ġíļ ¨
¨ ìĸ´
ê³ ¡
ĠëĦ ¤
ë° Ľ
ìĿ´ ìĹĪ
ëĥ ¥
ìĻ ķ
íķĺ ìĺĢëĭ¤
ĠëĪ Ħ
Ġëĵ ¯
Ġìĸ´ë ĸ
ìĿ´ ì§Ģ
ì³ Ĳ
ë Ĩ
ĠìŀĲìĭł ìĿĺ
Ġíģ °
Ġìĥģ íĥľ
íķĺ ë©´ìĦľ
Ġì¶ ©
ëĤ ¨
Ġì¡´ ìŀ¬
ì Łģ
ìĿ´ íĬ¸
Ġíķ Ń
Ġê·¸ ëłĩ
Ġíħ Į
ì¡ ´
íĥ Ŀ
Ġê´ ĳ
ìł ĳ
ĠìĻ ķ
Ġì ī
Ġ s
Ġë ĳ
ìĹ Ķ
ìŀĲ ê°Ģ
ĠëĬ Ĳ
Ġë§¤ ìļ°
Ġ E
ìĬ¤ ë¥¼
Ġì» ¤
¿ Ĳ
ë³ Ħ
ë° ķ
Ġë§İ ìĿĢ
ĠìĿ Ģ
Ġíķ ©
ìĦ± ìĿ´
Ġì¶Ķ ê°Ģ
ĠíĺĦ ìŀ¬
Ġì° ¾
Ġë° ı
Ġë¬¼ ë¡ł
Ġì¤ Ħ
ĠìĿ´ ëŁ°
í Ĭ
ìĬ¤ ìĿĺ
ë¯ Ģë¡ľ
ë² Ķ
o r
Ġë£ ¨
Ġê² Ģ
ĠìķĦëĭĪ ëĿ¼
Ġìŀ Ħ
ĠìĤ ¼
Ġë³ ĳ
ĠëĤĺ ìĺ¨
ìĿ´ ìĹĪëĭ¤
Ġì² ľ
ë¦¬ ì¦Ī
ëĲĺ ìĹĪ
ê°Ģ ëĬĶ
í ļ
Ġ1 1
Ġì¤ Ģ
ìĬ¤ ê°Ģ
Ġìķ ħ
íķ Ń
Ġ K
ê ¹
Ġìĥģ ëĭ¹
Ġë¸ Į
Ġì ½
ëĵ¤ ìĹĲê²Į
ĠìĹ Ħ
Ġí Ľ
íĶ Į
Ġê¸ Ī
ë² ¨
Ġë¸ Ķ
Ġì ·¨
Ġìĭľ ì¦Į
Ġ N
a r
Ġìĭ ¸
ĠìĿ´ ìľł
h e
Ġìĸ »
ĠìķĦ ëĭĮ
ìĿ¸ ëĭ¤
ê² ¬
ì» ¤
ĠìŀĲ ì²´
ë¦ ´
ê¸ Ģ
ĠëıĮ ìķĦ
Ġ R
Ġê¸ ¸
Ġìĭ Ŀ
Ġë°Ķ ë¡ľ
ëĵ Ŀ
íķĻ êµĲ
Ġëĭ¤ ìĿĮ
ìĿ¸ ìĿ´
ĠìłĦ íĪ¬
Ġìĭ¤ ìłľ
Ġì ¼
ĠíķĦ ìļĶ
Ġí İĺ
Ġ H
ìĹ ´
Ġë ŀ
Ġì² «
ê°Ģ ì§Ģ
Ġê° Ī
Ġì²ĺ ìĿĮ
ĠìĦ¸ ê³Ħ
Ġìł Ī
ĠìĤ °
ì¹ ľ
ìĽ Ģ
ìĿ¸ ëį°
ĠìķĬ ëĬĶ
íħ ľ
ĠìĿ´ ë¯¸
Ġë° ±
Ġê· ¹
íĥ Ī
Ġë ľ
ĠìĹŃ ìĭľ
ĠìķĦ ë¬´
ĠìĹ¬ ëŁ¬
ìĬµ ëĭĪëĭ¤
ĠìĿ´ ìļ©
ëĵ¤ ê³¼
ëŀ ľ
ìĤ¬ ë¥¼
o u
íĻ ľ
ê ±¸
ĠìĹ ħ
Ġë² Į
íģ ¼
ì¶ Ķ
íĦ ´
ì¡Į ëĭ¤
ĠíĹ Ī
ĠìĻ Ģ
ë¦¬ ìķĦ
ë¸ Ķ
ìĪ ľ
ìĿ¸ ì§Ģ
Ġìĺ ¨
Ġë¯ ¼
íķ´ ìķ¼
Ġê±° ìĿĺ
ì§Ħ ëĭ¤
ĠìĦł ìĪĺ
Ġë¨ ¸
į ¨
a t
ë¶Ģ ë¶Ħ
ĠíĬ¹ íŀĪ
Ġê ½
ëĿ¼ ëıĦ
Ġëª¨ìĬµ ìĿĦ
Ġìĭľ ë¦¬ì¦Ī
ì§Ģ ê°Ģ
ì ½
ĠìķĬ ê³ł
Ġí ĭ
ĠëĲĺ ìĸ´
ĠíĮ ¬
ë² ł
Ġìŀ ł
Ġê¸° ìĪł
íķĺ ìŀĲ
Ġê³ ³
Ġíķ´ ëĭ¹
Ġë° Ģ
ì° ½
ìĭľ íĤ¤
ĠìĿ´ ìķ¼
Ġëª °
Ġë¯¸ êµŃ
í İĺ
ìĤ¬ ê°Ģ
ìĥģ ìĿĦ
Ġë ¥
Ġìĭ ¶
Ġì¢ĭ ìĿĢ
Ġì¹´ ëĵľ
ìĸ´ ëĤĺ
Ġíļ¨ ê³¼
ĠíĻ ©
íĭ Ģ
Ġê¸° ë¡Ŀ
ëıĦ ê°Ģ
Ġ1 5
ê¸° ë¡ľ
ĠìĬ¤í Ĥ¬
Ġì¦ ī
Ġ W
Ġ O
ëĭ ĺ
ëĵ ¯
ì £
ë¦¬ ìĬ¤
ë¥ ł
ì° ¬
Ġê°Ļ ìĿ´
ëı Į
ëŁ ½
íĸĪ ëįĺ
ëĦ Ĳ
ê° Ļ
ĠìŀĪ ìľ¼ë©°
Ġëĸ ¨ìĸ´
ë¶ Ī
Ġì° ½
ĠìĪĺ ëıĦ
ë¦° ëĭ¤
ì¼ Ģ
ë° ±
Ġë¶ Ļ
ì° ©
ìľ ¨
Ġëĳ ĺ
ì¼ ľ
Ġì ¸
ë ĳ
Ġì¢ Ģ
Ġì£¼ ìĿ¸
ĠìĿ¼ ë°ĺ
Ġê²½ ê¸°
Ġíĺ ¼
ì§Ģ ë§ī
ìĿ´ ì§Ģë§Į
ìĹĲ ìĦł
l e
Ġì§Ħ íĸī
ĠíĻ ĺ
ê° Ī
ë§ ģ
ĠíĨµ íķ´
ìľ ¡
ìĦ± ìĿĦ
ĠìŀĪëĬĶ ëį°
ë³ Ģ
ĠìŀĪ ìĿĦ
ĠìĿ¸ ê°Ħ
ìŀ¥ ìĿĦ
Ġê ¼
Ġì§Ģ ê¸Ī
Ġê³ ¡
Ġí ľ
ìĺ ¬
ì¦ Ŀ
ĠìĹ Ķ
Ġì² Ń
ìķĦ ìĦľ
ìĿ´ ê°Ģ
Ġë¶Ģ ë¶Ħ
ê´ ĳ
ì£¼ ëĬĶ
Ġì§Ģ ìĹŃ
ì° °
ĠëĿ¼ ê³ł
ĠëĿ¼ ìĿ´
Ġëĸ ł
ë Ī
Ġê· Ģ
Ġë° Ŀ
ê· ¹
Ġíĥ Ī
íķĺ ì§Ģë§Į
ĠëĲĺ ëĬĶ
ĠĠĠĠ ĠĠĠĠĠĠ
ĠìĬ Ī
Ġìĸ´ ëĬĲ
ê¸ ¸
Ġê³Ħ ìĨį
ĠëĮĢ ë¶Ģë¶Ħ
Ġì ħ
Ġê ¶Į
Ġëª ĩ
Ġë³´ ê³ł
Ġë§Ī ì§Ģë§ī
ĠìķĬ ëĬĶëĭ¤
Ġë ¿Ĳ
Ġë¶ ģ
ĠìŀĪ ìĸ´
ë§ ¨
íĤ ¨
Ġê´Ģ ëł¨
Ġê¸° ë³¸
Ġëª ¸
íĺ ¼
Ġí İ
ë Ĥ¬
Ġê³ ¨
ĠíĦ °
Ġëĭ ´
¶ ģ
ê´ ´
e n
Ġë Ń
ìľ¼ ëĭĪ
ëĨ ĵ
ĠìķĬ ìĿĢ
Ġì°¸ ê³ł
ìłĦ íŀĪ
ìĬ ¬
ì£¼ ìĿĺ
ê· ľ
Ġëĭ¬ ë¦¬
ëģ ¼
Ġê·¸ ëĥ¥
ì² ł
íĿ ¬
ĠìłķëıĦ ë¡ľ
ë¥´ ëĬĶ
Ġì² ł
ìĬ ·
Ġ m
Ġìĺ¬ ëĿ¼
Ġë Ł
ĠìĤ¬ ê±´
ĠëĦĪ ë¬´
ë¡ľ ëĬĶ
ìĿ ĳ
ëł¸ ëĭ¤
íĸĪ ê³ł
ë¨ ¹
Ġë§Įëĵ¤ ìĸ´
Ġìŀĳ íĴĪ
ĠìķĬ ìķĺ
í ŀ
ì ī
ì§ ķ
ĠìĪĺ ì¤Ģ
Ġë¹Ħ ìĬ·
Ġ w
ìłķ ìĿĦ
ĠëĲ ł
Ġê°Ģ ì§Ģê³ł
ĠëĤ´ ìļ©
ĠíĶ¼ íķ´
ĠëĿ¼ ëĬĶ
ĩ ´
ĠìŀĪ ê³ł
ìĸ µ
ìķ ł
ë¡ Ģ
ëĲĺ ê³ł
Ġë² Ķ
ëıĦ ë¡Ŀ
ĠìĿ¼ ë¶Ģ
Ġê²ĥ ëıĦ
Ġë°© ìĨ¡
Ġ3 0
Ġë³´ ìĿ¸ëĭ¤
Ġ Ċ
ëª ¬
Ġë§Ī ë²ķ
ĠìĿ¸ íķ´
a l
Ġì ¿ł
ê³ ¤
Ľ °
ìĸ´ ê°Ģ
ĠìĿ´ ë¥¼
Ġì£¼ìĿ¸ ê³µ
ìĭľ ìķĦ
¾ ¸
Ġíĥ Ħ
Ġíķĺ ëĭ¤
Ġìĺģ íĻĶ
ĠëĤ ®
Ġë§Ī ìĿĮ
Ġìĥģëĭ¹ íŀĪ
Ġ b
ë¦¬ ìĹĲ
ī ´
ĠìĬ¤ íĥĢ
ĠëĮĢ íķ´
ĠëĮĢ ìĭł
ìĿ¸ ìĿĺ
ĠíĴ Ģ
i t
ì± ħ
2 0
ĠìĦ± ê³µ
ĠìĹ¬ ê¸°
ìŀĲ ë¥¼
Ġê·¸ ëħĢ
êµ ´
ìŀĲ ìĿĺ
ëĵľ ëĬĶ
ìĻ Ķ
r e
Ġê·¸ ëĮĢë¡ľ
ĠìĹĨ ìĿ´
ĠìĿ´ ìłĦ
Ġë² ķ
íı ī
ìĬ ¨
ëĵ¤ ëıĦ
íĬ¸ ë¥¼
ĠëłĪ ìĿ´
ìĬ¤ ë¡ľ
i s
ëĵľ ë¥¼
Ġ1 00
ë² Į
ĠíĹ ¤
ĸ ìĹĲ
Ġì¢ĭ ìķĦ
Ġë§ ¡
ëł¤ ê³ł
ë² ¤
ìĪĺ ê°Ģ
ì¶ ķ
Ġ1 8
ĠëĬ ĺ
ìŀ¥ ìĿ´
Ġì§ Ī
ê±° ë¦¬
Ġ19 9
ì§Ģ ëıĦ
Ġìłľ ìŀĳ
ĠìĿĺ ë¯¸
í İ
ĠëĨĴ ìĿĢ
ìĭľ ìĹĲ
ìĬ¤ ëĬĶ
Ġìł ĳ
Ġë Ľ°
íģ ´
ì§ ľ
Ġ1 6
Ġì¤ĳ êµŃ
ìŀ ¡
ĠìĽ Ķ
ë¡ľ ìļ´
ìŀĪ ëĬĶ
Ġëį ķ
Ġ V
í ĮĢ
Ġìłľ ìĻ¸
ĠìĹ ĺ
ë§ Īëĭ¤
ëŀ µ
ì¹ Ń
ëħĦ ìĹĲ
Ġê² ©
Ġìļ° ë¦¬
Ġì§ģ ìłĳ
ĠëĤĺ íĥĢ
ë³ ¼
ì ´Ŀ
ë ·
ĠìĿ´ ëĬĶ
ĠĠĠĠ ĠĠĠ
ĠëĲĺ ìĹĪ
ĠìŀĲ ê¸°
Ġëħ ¼
Ġê²½ìļ° ê°Ģ
ĠíĻľ ëıĻ
ì º
ê· Ģ
ĠìĽ Į
Ġìķ Ķ
ĠëĬ¥ ëł¥
ëĬ ĺ
Ġë§İ ëĭ¤
Ġìĸ¸ ê¸ī
ĠìľĦ ì¹ĺ
Ġë© ´
Ġê·¸ ê²ĥ
ë ľ
ë¥´ ê²Į
Ġê° ĸ
Ġë°Ľ ìķĦ
Ġê·¸ ìĿĺ
ĠíĮ Ķ
Ġê¸° ì¤Ģ
ĠìŀĲìĭł ìĿ´
ìĤ¬ ìĿĺ
ĠìĿ´ ìĸ´
ìŀĲ ëĬĶ
ìľĦ ë¥¼
in g
ìĭľ ê°Ħ
ë° Ģ
ĠìĿ¸ ë¬¼
ìĪĺ ë¥¼
ĠêµŃ ê°Ģ
ĠìŀĪ ì§Ģë§Į
ìĶ ¨
ëıĦ ë¥¼
ìĹĨ ìĿ´
íļ į
ĠìĽĲ ëŀĺ
ĠëĮĢ íĳľ
íķĺ ìĺĢ
Ġì± ħ
ì¸ µ
ëħ Ĳ
Ġê²° ê³¼
ê³ ¨
ĠìĿ´ ê²ĥ
ìłķ ìĿ´
ĠëĤĺìĺ¤ ëĬĶ
ì¹ ¨
ìļ ±
ì¹ĺ ëĬĶ
Ġì¶ ķ
íĮ ħ
ëĤ ¸
Ġê´Ģ ê³Ħ
¤ ë²Ħ
Ġê³¼ ê±°
ëıĦ ë¡ľ
Ġëĵ± ìĿĺ
Ġê´ ´
ìŀ Īëĭ¤
Ġìĵ ¸
Ġìī ½
ëĭ µ
Ġë¨ ¼
Ġì°¾ ìķĦ
ìĻĢ ìĿĺ
ëĶ ©
Ġìľł ìłĢ
ìłĦ ìĿĦ
ĠìĦł íĥĿ
ìĶ ©
íķĺëĬĶ ëį°
íķ Ħ
Ġë°© ìĸ´
Ġìļ ¸
ĠìĦľ ìļ¸
ëĲ ł
ĠìĿ´ ëıĻ
ĠìŀĪ ëįĺ
Ġë§Ĳ ìĿĦ
ìĦľ ëĬĶ
ĠìĿ´ ëłĩ
ĠìĹĦ ì²Ń
ĠëĦ £
ì¸ ¡
Ġ1 3
ëĭ Ľ
Ġ U
Ġìĭľ ìłĪ
ìļ° ëĬĶ
ëĮĢ ìĿĺ
ë Ģ
Ġëı Ī
Ġì§Ģ ëĤĺ
ĠìŀĪëĭ¤ ëĬĶ
Ġê°Ĳ ëıħ
Ġë°© ë²ķ
Ġë© ¤ë²Ħ
ĠíĥĢ ìĿ´
ĠìĤ¬ ëŀĳ
ë¶ ģ
Ġì¡° ê¸Ī
ĠíĻ į
Ĳ ëĭ¤
Ġíģ¬ ê²Į
Ġíĸ ¥
íĻĶ ë¥¼
Ġìĸ´ëĸ ¤
ĠëķĮë¬¸ ìĿ´ëĭ¤
ìłĲ ìĿĦ
ëĵľ ê°Ģ
ĠìĿ´ ëŁ¬
Ġìĭ¤ìłľ ë¡ľ
Ġë§ Ŀ
Ġíıī ê°Ģ
ĠìłĦ ì²´
ëį ¸
e s
íķĺ ëįĺ
Ġìķł ëĭĪ
Ġ f
ê¸° ìĿĺ
ĠìĿ´ ìĹĲ
ì ĩ
Ġë°Ķ ëĢ
ĠìķĦ ëĭĪëĭ¤
íĻ ķ
Ġíĺ ¹
ĠìĻ ľ
ì¤ĳ ìĹĲ
ì¤Ģ ëĭ¤
ë´ ī
ìĿ´ ìĬ¤
ì¤ Ħ
ë¦¬ ìĿĺ
ëĮĢ ë¥¼
ë¦¬ ì§Ģ
Ġê½ ¤
ìĻ Ķëĭ¤
Ġìŀ¥ ë©´
Ġê ¹Į
íı Ń
êµŃ ìĿĺ
ëĵľ ìĿĺ
ĠëıĻ ìķĪ
í Ľ
Ġëį ĺ
Ġìľ ¡
Ġ1 4
Ġê· ľ
ĠìĬ ¬
Ġ c
Ġíķĺ ì§Ģ
Ġê·¸ëŁ° ëį°
ëĭ Ŀ
ìĽĲ ìĿ´
Ġì» ¨
ì¹ĺ ë¥¼
ìĥģ ìĿ´
Ġì ª½
Ġì¦Ŀ ê°Ģ
ê³¼ ëĬĶ
Ġì¹ľ êµ¬
ë¦¬ ìĸ´
ĠìķĮ ëł¤
Ġì¤ĳ ìļĶ
ë©Ķ ìĿ´
ëªħ ìĿ´
í Ĥ¬
Ġë¥ ¼
íĬ¸ ê°Ģ
Ġê¸ ī
Ġìłķ ë§Ĳ
ĠìķĦ ì§ģ
í ľ
ĠëĤĺìĺ¨ ëĭ¤
ĠìĤ¬ëŀĮ ìĿ´
ë¨¸ ëĭĪ
Ġ d
Ġìłľ ëĮĢë¡ľ
ì¹ĺ ê°Ģ
ĠìķĦ ë²Ħ
Ġì´Ī ë°ĺ
ê² ¼
Ġí Ģ
ĠìľĦ íķľ
ìĿ¸ ìĿĦ
ĠëŁ ¬
ìĿ´ ìŀĲ
Ġëĭ Ī
ĠëĨ ĵ
ĠìĬ¤ íĨł
Ġê¸ Ģ
Ġë§Į ëĵł
ĠìĿ´ ëķĮ
ĠëĤĺ ëĬĶ
Ġê·¸ëŀĺ ìĦľ
Ġë¬ ĺ
ĠìķĬ ìķĺëĭ¤
ìķ Ļ
ìĭĿ ìĿĦ
ĠìłĦ ë¶Ģ
ìĹ ¼
ëĲĺ ì§Ģ
Ġëĵ £
Ġìµľ ê³ł
Ġìķ ķ
Ġìľł ëªħ
ëĪ Ħ
Ġì ı
Ġê° ĳ
Ġê°ľ ë°ľ
ĠìĤ¬ ëĿ¼
ë²Ī ì§¸
Ġë¶Ī ê°Ģ
Ġì§Ģ ìĽĲ
ìī ¬
Ġë°ľ ìĥĿ
ĠìŀĲ ì£¼
Ġê ¿
ìĸ ¼
Ġíķ´ ëıĦ
Ġí į¼
ĠìłĦ ìŁģ
Ġìĺģ íĸ¥
ìĿ´ ê¸°
ê² Ģ
ĠìĦľ ë¡ľ
Ġë³´ìĹ¬ ì£¼
Ġìµľ ëĮĢ
ĠíĿ ¬
Ġëª ¬
ë§Į íģ¼
Ġíĭ °
ëªħ ìĿĦ
íķĺê¸° ëıĦ
Ġëĭ¹ ìĹ°
ëĤĺ ëĬĶ
ĠìĿ´ëłĩ ê²Į
Ġì¹ ¨
i c
ë² ½
ĠìĿ´ ë£¨
ìĽ ħ
ĠìĤ´ ìķĦ
ĠìŀĪ ìĸ´ìĦľ
ìŀĲ ë¡ľ
Ġ1 7
Ġë ķ
Ġê¸° ì¡´
Ġ2 5
íŀĪ ëł¤
Ġì°¸ê³ł ë¡ľ
ëį ķ
Ġì Ķ
Ġê¹ ¨
ĠìĤ¬ ë§Ŀ
Ġë¹Ħ íķ´
ìĿ´ ë¥¼
a s
Ġìłģ ìĿ´
ĠìĤ¬ íļĮ
Ġëľ »
Ġìĺ¤ íŀĪëł¤
Ġë§Ī ì°¬
Ġ X
Ġê·¸ëłĩ ê²Į
ĠìĿĺ íķ´
Ġt he
ì į¨
ĠëĨ Ģ
Ġì¹ ¼
ĠìĿ¸ íĦ°
ìĨ Ĳ
Ġìľł ëĭĽ
Ġë¹ ¨
Ġë§Īì°¬ ê°Ģì§Ģ
ëł Į
Ġë¹Ħ êµĲ
® ¤
Ġ20 20
ĠíĻ Ī
ìĬ¤ íĥĢ
Ġíĺ ĳ
ì¼ ĵ
íĽ Ī
ê° ĳ
ĠëłĪ ë²¨
ë¡ Ń
Ġìłķ ìĭł
Ġ201 8
Ġìĸ´ëĸ »
ìĿĮ ìĿĦ
ëĬĶ ì§Ģ
íŀ Į
Ġíı¬ íķ¨
ìłĦ ìĹĲ
ìĿ¼ ìĹĲ
ìĸ´ ë¡ľ
íĸĪ ìĿĦ
Ġì° į
ìłĦ ìĹĲìĦľ
ĠìĿ´ëŁ¬ íķľ
ĠìķĮ ê³ł
ìĻĢ ëĬĶ
Ġì Į
ìľ¼ë¡ľ ëĬĶ
Ġ201 9
ê³ ³
Ġëį° ë¯¸
Ġê°ĢëĬ¥ íķĺëĭ¤
Ġëģ Į
Ġë© Ģ
ĠìĹ° êµ¬
Ġì£¼ ë¡ľ
ĠëĬ Ķ
ìĸ´ ëĤľ
ì ģ
Ġë°Ķ ê
ã ģ
ĠíķĻ ìĥĿ
ĠìĹŃ íķł
Ġë ½
Ġì¸ ¡
íĸĪ ì§Ģë§Į
Ġë ī´
Ġ J
Ġìĸ´ ëł¤
Ġíķĺ ë©´
ĠìĹĨ ìĸ´
íĴ į
Ġìĺģ ìĥģ
íķĺ ëł¤
ì§Ģ ìĸ´
ĠìĦ¤ ìłķ
ìĦ ¼
a c
Ġìĸ´ëĸ» ê²Į
ê²© ìĿĦ
Ġì¶ľ ìĹ°
ëł µ
Ġëħ¸ ëŀĺ
ìĿ¸ ìĿĢ
ĠìĿ´ ë²Ī
ĠíķĻ êµĲ
Ġíĥ ĳ
Ġ o
Ġê ¶ģ
ì» ¬
Ġíķĺ ë©°
Ġê°Ģ ì§Ħ
Ġê°ķ ëł¥
ĠìķĦìĿ´ íħľ
íķĺ ê±°ëĤĺ
a d
Ġë ¹Į
ê°Ļ ìĿĢ
Ġë¬´ ê¸°
ĠìķĦ ìĺĪ
ê³¼ ìĿĺ
Ġì ĩ
Ġìļ´ ìĺģ
Ġì¢ĭ ëĭ¤
ĠìĿ´ ìłľ
Ġë¹ ¼
ëıĻ ìķĪ
Ġ p
ìĿ µ
ĠëĤ´ ê°Ģ
Ġë¨¼ ìłĢ
Ġê²° ìłķ
ĠëĲĺ ê³ł
Ġê²Į ëĭ¤ê°Ģ
ĠìĿ´ ë²¤
Ġë Ĩį
00 0
ĠìĿ¼ ìĿ´
ìĺ¤ ëĬĶ
ì ©
ĠìĹ¬ ìĦ±
Ġê·¸ ëĬĶ
ĠìŀĪëĭ¤ ê³ł
Ġë´ ī
Ġìľł ì§Ģ
o m
ì¶ ©
ĳ ¸
Ġë ĥ
ìłĲ ìĿ´
Ġìłķ ë³´
Ġë´ Ĳ
ì± Ħ
ìĺĢ ëįĺ
ĠíĽĦ ë°ĺ
ìĪ Ļ
ìĥ Ī
Ġ201 7
Ġë°ľ ë§¤
ĠìĤ¬ìĭ¤ ìĥģ
Ġ5 0
Ġì° ©
ëĭĪ ê¹Į
ìĤ¬ ëĬĶ
Ġê³µ ìĭĿ
ìĹĲìĦľ ìĿĺ
ëĵľ ë¡ľ
ĠìĿ¼ ëĭ¨
ê° Ŀ
Ġë°Ķ ëŀĮ
ĠìĹĨ ìĹĪ
ë¬¼ ìĿĦ
Ġíĸī ëıĻ
ëħĦ ëĮĢ
Ġìµľ ì¢ħ
ĠíĮĮ ê´´
ë¶Ħ ìĹĲ
Ġê°Ģ ê¹Į
Ġê·¸ëŀĺ ëıĦ
ëĤĺ ë§Ī
ìĺ ¥
Ġìĭ¬ ì§Ģìĸ´
Ġê°Ģ ì§Ģ
ëĭ¤ ë©´
Ġ201 6
Ġíŀĺ ëĵ¤
Ġìŀ Ķ
Ġë³´ íĨµ
Ġìĸ¼ ë§Ī
ĠìĿ Ħ
ĠìĨĮ ìĨį
Ġëĵ± ìĿĦ
Ġì į¨
ìĿ´ ìĸ´
Ġì¶ľ ìĭł
ĠëĬĲ ëĤ
ĠìĥĪ ë¡ľìļ´
ë° ĸìĹĲ
Ġëĵ¤ìĸ´ ê°Ģ
Ġëª¬ ìĬ¤íĦ°
Ġìķ ¨
ĠíĿ Ķ
íĸĪëĭ¤ ê³ł
Ġë³Ģ ê²½
Ġë¶Ģ ì¡±
Ġê³µ ê°ľ
Ġíĺķ íĥľ
ëŀ ¨
íľ ĺ
ìĬ Ī
ĠìĦ± ëĬ¥
ë¥´ ê³ł
Ġì ¿
ëįĶ ëĿ¼ëıĦ
ĠëĤ´ ëł¤
ĠìĨĮ íĻĺ
ĠìĹĨ ìĹĪëĭ¤
ë¥´ ë©´
ëª »
ìĪĺ ìĿĺ
Ġë¦¬ ê·¸
íĻĶ ê°Ģ
ìŀĦ ìĿĦ
Ġëĵľ ëŁ¬
Ġ h
ëŀ Ļ
ĠìĦ¤ ëªħ
Ġë§Į íģ¼
Ġìļ° ìĬ¹
ĠìķĦ ëŀĺ
Ġë¹ĦìĬ· íķľ
ë¨ ¼
ĠëĶ ľ
ìĽĲ ìĿĦ
e l
íļ ¨
Ġìĸ¼ êµ´
Ġìľł ìĿ¼
ìĽ ł
íĤ ¹
ĠëıĻ ìĭľìĹĲ
ë© ¸
ĠìĻĦ ìłĦíŀĪ
ë£ ¡
a m
ëĤ´ ëĬĶ
Ġê°Ļ ëĭ¤
ìĭľ ì¼ľ
íĺ ĳ
ĠëĮĢíķľ ë¯¼
í ĩ´
ëĤĺ ê°Ģ
íĬ¸ ë¡ľ
ĠíĶĦ ë¦¬
ĠíĶĮëłĪìĿ´ ìĸ´
ìļ´ ëĵľ
ī ìŀ¥
ĠìłĦ íĺĢ
ĠìľĦ íķ´ìĦľ
Ġë°ĶëĢ Į
Ġ19 8
ĠìĽ Ģ
ì§Ģ ìĿĺ
ë³´ ë©´
íĻĶ ìĹĲìĦľ
ëĮĢ ê°Ģ
Ġëª¨ ìĸĳ
íı °
ì ¿
ĠìĿ´ìķ¼ ê¸°
ì ĵ
ĠëıĦ ìĭľ
o w
ĠëķĮ ëĬĶ
u s
ê°Ħ ëĭ¤
ìĿ´ ê¸°ëıĦ
Ġ201 5
Ġíı Ĳ
ìĿ´ íĦ°
Ġë½ ĳ
Ġìŀ ĥ
íĬ ¼
ìĬ¤ íħľ
Ġíķľ ë²Ī
ë¥¸ ëĭ¤
ìŀĲ ìĿ¸
ìĬ¤ ìĻĢ
ĠìłĦ ìĹĲ
ĠìĪľ ê°Ħ
ë³´ ëĭ¤ëĬĶ
Ġë²Ħ ìłĦ
ĠíĻķ ìĿ¸
Ġë§Į ëĤĺ
ë¦¬ ê·¸
ĠëĺĲ ëĬĶ
íħ Ĳ
ëĿ¼ ìĿĺ
ĠìķĬ ìķĦ
ë¡ľ ìĦľ
Ġê¸° ìĸµ
ìĹ ĺ
ĠìĨ ¡
ì ´
ìĶ ¬
a y
Ġë¬¸ ìĦľ
ĠìĬĪ íį¼
Ġë°© ìĭĿ
ĠìĹ¬ ìŀĲ
ìĽ ĥ
Ġë§Ī ìĿ´
ìŀħ ëĭĪëĭ¤
ë¡ ¯
Ġíĺ¹ ìĿĢ
ĠìŀĲ ìĦ¸
Ġê¸° ìĤ¬
Ġê°ķ íĻĶ
ìłģ ìĿ´
Ġìłķ ì¹ĺ
ĠìŀĲ ìľł
Ġë¶Īê°Ģ ëĬ¥
ĠìĦ± ê²©
ëªħ ìĿĺ
Ġ2 1
Ġê·¸ ë¦¬
Ġìłģ ìļ©
ĠëĤľ ìĿ´
ĠìĬ¹ ë¦¬
Ġì£¼ ìŀ¥
í ĥģ
ĠëŃ Ĳ
ëģ Ķ
Ġë¬¸ìłľ ê°Ģ
ëŁ Ń
íķľëĭ¤ ëĬĶ
ìĥģ ìľ¼ë¡ľ
íĶ ½
ĠëĶ°ëĿ¼ ìĦľ
êµ¬ ë¥¼
Ġêµ īìŀ¥
Ġ y
ëľ ¨
ĠíĻľ ìķ½
Ġëĵľ ëŀĺ
ë¦¬ ì¹´
ĠíĿ ĳ
Ġìĭ¤ íĮ¨
ëł ī
Ġëıħ ìĿ¼
ìĸ´ ë²Ħ
ì§Ģ ë¡ľ
ìķ ķ
Ġì¢ Į
Ġìī ¬
Ġë°ľ ê²¬
Ġíľ ´
Ġì£¼ ë³Ģ
e t
Ġê·¸ ëĤĺë§Ī
ì° ¸
Ġìµľ ì´Ī
ĠìĿĮ ìķħ
Ġëª¨ ëį¸
ëĦ ·
i on
ìĸ´ ëıĦ
ì¡° ì°¨
Ġë°° ìļ°
Ġê°Ģ ìł¸
Ġìłķ ë¶Ģ
Ġíĳľ íĺĦ
íķ´ ëıĦ
íĬ¸ ìĿĺ
Ġ n
ìĽĢ ìĿĦ
ĠíĶĦ ëŀĳ
ĠìĽĢ ì§ģ
ĠìĿ ĳ
ëĿ¼ ë§Ī
ĠëıĻ ìĿ¼
Ġê² ¬
ĠìĨ Ķ
Ġì ´
ì° ®
e d
ĠìŀĪ ê¸°
ĠíĮ¨ ë°°
ëĿ¼ ê°Ģ
ê·¸ ëŀ¨
ĠìŀĲìĭł ìĿĦ
Ġêµ¬ ìĦ±
ë¹ ł
ë¡ ¤
º ¼
Ġì¼ ĢìĿ´
ĠíĬ¹ ìĪĺ
ĠìĽĲ ìŀĳ
Ġê²½ìļ° ëıĦ
íĸĪ ëĬĶëį°
Ġíķ´ ìĦľ
Ġë¯ ¿
Ġë°ĺ ìĿĳ
¢ °
ĠìĤ¬ëŀĮ ëĵ¤ìĿ´
ĠëįĶ ìļ±
ĠíļĮ ë³µ
Ġê·¸ ë¦¼
ĠêµŃ ëĤ´
Ġìĭľ ìĬ¤íħľ
ĠìĪ ¨
ë¹Ħ ë¥¼
ĠìĤ¬ ì§Ħ
ĠìĥĿ ìĤ°
Ġíķĺ ë£¨
ê°Ħ ìĹĲ
Ġê¸ ´
ë¦¬ ìĺ¤
ĠìĬ¤ íĬ¸
ëĮĢ ìĹĲ
Ġìĸ´ ëĶĶ
êµ° ìĿĺ
Ġìĵ° ëĬĶ
Ġë¹ Ľ
ìĿ´ ëĵľ
ĠìĽ ĥ
ëŀľ ëĵľ
Ġê¸° ëĬ¥
Ġíŀĺ ìĿĦ
Ġ Y
Ġìłķ íĻķ
Ġ201 4
ìķĦ ê°Ģ
ĠëĶ ¸
ĠëĤĺ ê°Ģ
ìĸ´ ë¥¼
Ġìľ ¤
ìĹ ĩ
Ġëįķ ë¶ĦìĹĲ
Ġìĸ´ ëłµ
ëĿ¼ ë©´
Ġëħ ¹
ìº Ĳ
ĠìĬ¤ íħĮ
íķľ íħĮ
Ġê¿ Ī
Ġë°Ľ ê³ł
ĠíĮ¨ íĦ´
ĠìŀĪ ê²Į
ëĤ¬ ëĭ¤
ëıĦ ìĿĺ
Ġìŀħ ìŀ¥
Ġíķĺ ëĬĶëį°
Ġì°¨ ì§Ģ
ĠíĴ į
Ġì¶ľ ìĭľ
ìĭľ íĤ¨
ìĹĪ ê³ł
ĠëĦĺ ìĸ´
ìĦł ìĿĦ
ĠìĦ ¬
ĠìķĦ ì£¼
ëıĦ ëĬĶ
ë° į
ĠìĦ± ìļ°
Ġíİ¸ ìĿ´ëĭ¤
ĠíĺĦ ìĭ¤
ĠíĸĪ ì§Ģë§Į
Ġ l
Ġë°Ķ ìĿ´
ĠìĿ¸ ìłķ
Ġë³´ ìĬ¤
Ġë¹ Ī
Ġìŀĳ ì¤ĳ
ĠìŀĲì²´ ê°Ģ
íĸĪ ìľ¼ë©°
ëĵ± íķĻêµĲ
ìĽĲ ìĿĺ
ê°Ģ ê°Ģ
ìľ¼ ë¯Ģë¡ľ
ĠìĿ´ë£¨ ìĸ´
Ġìĭľê°Ħ ìĿ´
ĠìĿ´ íķ´
ì£ Ħ
ì§Ģ ìĹĲ
ê²ł ì§Ģë§Į
ì²´ ë¥¼
ëĭ ī
íĥ ķ
ì³ ¤
ë¬¸ ìĿĦ
Ġë§Ĳ ìĿ´
ì¹ ł
ìŀ¥ ìĿĺ
ĠìķĬ ëĭ¤
ëĶĶ ìĺ¤
Ġì½ ĺ
Ġëĵ± ìĿ´
Ġ a
o l
ĠìĿ ½
Ġê³Ħ íļį
ì¹ĺ ê³ł
ì² Ļ
ìĿ´ìĹĪ ëįĺ
ì ·¨
an d
Ġëĭ¤ ìĸĳ
ìļ ķ
ë£ ¹
Ġê² ¨
Ġìĵ ´
Ġì°¨ ëŁī
ĠìĹĨ ê³ł
íĶĦ íĬ¸
Ġê²½ ì°°
Ġëĭ µ
ê· ł
Ġì ³
ê° Ķ
ĠìĦ ¼
Ġëª» íķĺê³ł
Ġìĥ ¤
ĠëĤĺ ìĻĢ
Ġìĩ ¼
ìĬ¤ ëŁ¬
ëĮĢ íķľ
ëł¥ ìĿĢ
íĸĪëĭ¤ ëĬĶ
ĠëĶ ±
Ġìĺģ ìĽħ
i g
Ġë°ľ ëıĻ
Ġëª» íķľ
Ġ2 4
ë©ĶìĿ´ ìħĺ
ë· °
ê°ľ ìĿĺ
ĠëĮĢ ì²´
Ġê ±
Ġê°ľ ìĿ¸
Ġìĥ ī
i l
íĨµ ëł¹
ĠìķĮ ìķĦ
Ġêµīìŀ¥ íŀĪ
v e
ìĬ¤ íģ¬
ĠìķĦ ë§Ī
Ġëĭ¨ ìĪľ
ĠíĻķ ìĭ¤
ĠìĿ µ
ĠëĤ¨ ìŀĲ
ĠíĬ¹ ìĦ±
ã ĥ
Ġë°Ľ ìĿĢ
ìĥģ ìĿĺ
ìłľ ê°Ģ
Ġë§ µ
ĠìĪĺ ê°Ģ
Ġì§Ħ ì§ľ
íļĮ ìĿĺ
Ġë§Ī ìĿĦ
Ġìĸ´ ë¨¸ëĭĪ
ĠíĻķ ë¥ł
Ġëķ ħ
Ġê²½ íĹĺ
ĠíĽ Ī
ĠìĤ¬ìļ© íķĺëĬĶ
Ġíľ ĺ
Ġëĭ´ ëĭ¹
Ġ4 0
ì¼ °
Ġë¬ »
ĠëĮĢ íķ´ìĦľ
ìĿ´ëĿ¼ ë©´
Ġìĭľ ìłĲ
ìłľ ë¥¼
Ġë°Ŀ íĺĢ
ì§Ģ ì§Ģ
ĠìĪĺ ë¡Ŀ
Ġê°ĢëĬ¥ íķľ
Ġëĭ¤ ë¥´
íĺ ģ
Ġì§Ģ ìĨį
ĠíĽ ¨
Ġìī½ ê²Į
ĠëĮĢ íķĻ
ĠìĹĲ íĶ¼
ëĵ¤ ìĹĲ
Ġë§Īì°¬ê°Ģì§Ģ ë¡ľ
Ġìĸ ĺ
ê°Ĳ ìĿĦ
íĺ ¹
ìľ¼ ë©´ìĦľ
Ġo f
ĠíĮĲ ë§¤
ëĭ ¥
ĠíĬ¹ ì§ķ
ìķ ¡
p x
Ġì¤ĳ ìĭ¬
ĠìŀĲ ëıĻ
Ġìĸ´ ë¦°
ìĪĺ ëĬĶ
ĩ Į
ë¹ Ī
ê²ł ëĭ¤
Ġìķ¨ ë²Ķ
ĠìľĦ íĹĺ
ìĹĪ ëįĺ
Ġí ĩ´
Ġì°¸ ìĹ¬
ë ¢°
ê³Ħ ë¥¼
ĠĠĠĠ ĠĠĠĠĠ
ĠìĹŃ ìĤ¬
Ġë¬´ ìĹĩ
ĠìļĶ êµ¬
ë ¿Ĳ
Ġëĭ¹ ìĭł
Ġì½ ľ
ê ¶ģ
ĠíĽ¨ ìĶ¬
Ġê°Ģ ëĬĶ
ê° Ķëĭ¤
ì§ Ŀ
Ġë° ¤
ĠìķĬ ìĿĦ
Ġëĭ¹ìĹ° íŀĪ
Ġë¶Ħ ìľĦ
Ġì£¼ ìĿĺ
ĠìķłëĭĪ ë©ĶìĿ´ìħĺ
ëĭĪ ìķĦ
ĠìĹ¬ê¸° ìĦľ
ëį ¤
ìĭ Ń
Ġë¹Ħ íĮĲ
Ġìĺ Ĩ
Ġì°¸ ì¡°
ĠëĮĢ íĨµëł¹
Ġê³µê²© ìĿĦ
ĠìĹ¬ ìłĦíŀĪ
Ġì¡ ¸
Ġìĥģ ëĮĢë¡ľ
Ġê°ĢëĬ¥ ìĦ±ìĿ´
ĠíĻľ ìļ©
Ġíĺ¼ ìŀĲ
ìĿ´ ìĿĺ
ì¹ Ļ
Ġì¡° ìĦł
Ġ2 2
ëĨĵ ê³ł
Ġëĵ±ìŀ¥ íķĺëĬĶ
ĠìĽĶ ëĵľ
ĠìĹĦì²Ń ëĤľ
ìłĦ ìĿ´
Ġê³¼ ìłķ
Ġê³ł ëł¤
Ġìķ ¡
Ġë¶Ī êµ¬
ìľ¼ë¡ľ ìĦľ
ĠìĪ ł
Ġëĺ ĳ
Ġê ¾¸
ë¦¬ ë¡ľ
Ġê°ķëł¥ íķľ
Ġì¦ Ĳ
Ġìĭ ±
íĸĪ ìľ¼ëĤĺ
ìĭ¬ ìĿĦ
Ġë³´ ëĤ´
ĠìĹĲíĶ¼ ìĨĮ
íķ© ëĭĪëĭ¤
Ġìŀĺ ëª»
Ġíķĺ ìĿ´
ê¶Į ìĿĦ
Ġíķ µ
Ġìĺ¤ ë¸Į
ĠìĹ¬ ëĭ´
Ġëĵľëŀĺ ê³¤
ìłģ ìĿĦ
ĠìŀĪìĹĪ ëįĺ
ê°ľ ë¥¼
ë¶Ģ ë¥¼
Ġì§ ĵ
ĠëĤĺ ë¨¸
ĠëĤ¨ ìķĦ
ĠìĿ´ë¦Ħ ìĿĦ
ìĤ ¼
Ġ g
íĨ ¤
Ġíķ´ ê²°
o t
Ġê°Ģ ë©´
Ġì§Ħ ì¶ľ
íħ Ķ
Ġê°Ģ ì¡±
ìĭĿ ìĿ´
ìĪĺ ë¡ľ
ìĹĨ ëĬĶ
Ġê´ ľ
Ġìļ ķ
Ġë¬´ ìĭľ
ê¹Įì§Ģ ëĬĶ
Ġì± Ķ
ì²´ ê°Ģ
ê²½ ê¸°
Ġë³´ ëĬĶ
ĠìĿ´ë²¤ íĬ¸
ìŀ¥ ìĿĢ
ĠìĤ¬ ê³ł
ë¦ ¿
Ġìļ° ì£¼
ìĻ Ħ
ĠêµĲ ìľ¡
ĠëĤĺ ìĻĶ
íĥĢ ë¥¼
ìĤ¬ ë¡ľ
Ġê°Ģ ê²©
Ġëĭ¤ ìĿ´
Ġì» ´
Ġìķ½ ê°Ħ
Ġë²Į ìĸ´
Ġì£¼ ëĬĶ
á Ħ
ì§ ĵ
Ġë Į
Ġìĺģ êµŃ
ìĹħ ìĿĦ
Ġê³ §
ëł¤ ìĦľ
Ġ201 3
Ġìĭ «
Ġë§ ¥
ëĵ¯ ìĿ´
Ġy ou
ìĭ ¸
ĠìĤ¬ìļ© íķł
ë¦¬ ìĻĢ
ê°Ģ ë¥¼
Ġ2 3
ì° Į
ìĭľíĤ¤ ëĬĶ
ëŁī ìĿ´
ì» µ
Ġê·¸ ê°Ģ
ìŀ¥ ìĹĲ
Ġìŀ¡ ìķĦ
Ġê²° íĺ¼
Ġë² Ĺ
ë¬¸ ìĹĲ
ë¹Ħ ê°Ģ
Ġíķĺ ìŀĲ
ĠëĶ° ë¥´ë©´
ĠìĪ Ļ
ëĤĺ ëĿ¼
Ġë°ľ íĳľ
Ġëħ¸ ìĦł
Ġì£ Ħ
Ġë¬¸ìłľ ëĬĶ
Ġë »
Ġë ¿
íķľëĭ¤ ê³ł
ì½ ĺ
Ġë ļ
íĺ ľ
ëĲĺ ë©´ìĦľ
Ġë¶Īêµ¬ íķĺê³ł
ê²ł ëĭ¤ê³ł
ì¶ °
Ġë³¸ ìĿ¸
Ġì¼ Ģ
Ġëģ Ĭ
Ġìľ ¼
ĠëĬĲëĤ Į
Ġíļ į
ëŁ ´
ĠìĬ¤ ìĬ¤ë¡ľ
Ġì¶© ë¶Ħ
Ġê°ģ ê°ģ
ë§Į íķľ
Ġì¡° ê±´
ë§Į ìĿ´
íŀĪ ëĬĶ
ĠìĿ¼ ìĿĦ
ë· Ķ
ëĤľ ëĭ¤
ìłķ íķľ
ë¶Ģ ìĿĺ
Ġìĵ° ëŁ¬
Ġë§ ¨
ëĶ ľ
Ġí ĳ¸
Ġê°Ĳ ìĨĮ
Ġê°ķ íķľ
ë¦¬ ê¸°
êµ° ìĿ´
Ġìĭľ ì²Ń
ë²Ħ ìĬ¤
Ġëĵľ ëĿ¼ë§Ī
Ġì ¥
ĠìĦ Ŀ
ĠìĿ´ ëģ
Ġ in
ì¹ĺ ë¡ľ
Ġëģ ¼
ëĮĢ ëĬĶ
ìļ° ìĬ¤
íķ´ ì£¼
ĠíĹ ¬
ĠìĥĿ íĻľ
ĠìĿĺ ê²¬
Ġë²Ī ì§¸
ĠìĿ´ìľł ëĬĶ
ĠëĤ Ļ
Ĭ ìĿĢ
Ġì¤ĳìļĶ íķľ
ëł Ģ
ìķ Į
ĠìĬ¤í İĺ
íĸī ìĿĦ
ĠëĲĺ ë©´
ĠíĽĦ ìĹĲ
Ġë§ Ľ
ìŀĲ ê¸°
ĠíıŃ ë°ľ
íĺ Ī
ĠìĿ´ ëĿ¼ëĬĶ
íĭ ´
ĠìĿ¼ ìľ¼
ĠìĦ¤ ì¹ĺ
ĠíĺĦ ëĮĢ
ì¶ ĺ
Ġì§ §
Ġìµľ ê·¼
Ġìĺ¤ ëŀĺ
ì¤ ¬
ë¬¼ ìĿ´
Ġëĵ±ìŀ¥ íķľëĭ¤
Ġêµ¬ ì¡°
ĠëĮĢ íļĮ
ë³´ ëĭĪ
Ġëĵ¤ ê³ł
Ġêµ ´
Ġì·¨ ê¸ī
ìĦ± ìĿĢ
ĠíĹ Į
ìĪĺ ë¡Ŀ
Ġìŀĳ ìĿĢ
ì£ ł
ĠìĦł ë°ľ
ìŀ¥ ìĹĲìĦľ
íĬ ¹
Ġìłľ ê³µ
Ġë©Ķ ìĿ´
Ġë°Ľ ëĬĶ
ĠìŀĲ ìĹ°
ìĿ´ ë©´
ë´ ĩ
ĠìĤ¬ëŀĮ ìĿĢ
Ġì¡° íķ©
ë§Į ìĹĲ
ê ¼
ĠíĶĦë¡ľ ê·¸ëŀ¨
ĠëıĦ ë§Ŀ
ĠëıĻ ë£Į
Ġíķ´ ìķ¼
íķĺëĭ¤ ëĬĶ
Ġëį° ë·Ķ
ë¶Ģ ìĹĲ
ë¯ ¹
Ġê·¸ ë¥¼
ëĤĺ ê²Į
B S
Ġêµ ³
Ġë°© íĸ¥
Ġê²ĥ ìĹĲ
ìłķ ëıĦ
Ġë³´ ìĿ´ëĬĶ
Ġì²ĺ ë¦¬
ëłĪ ë²¨
Ġì´Ī ê¸°
ìľĦ ê°Ģ
ê¸° ê³ł
Ġíĥ ĵ
Ġíķľ ìłķ
ĠíĿ ¥
Ġë°Ľ ìķĺ
Ġíķĺ ìĺĢëĭ¤
Ġìĺģíĸ¥ ìĿĦ
ìŀ¥ ìľ¼ë¡ľ
íĬ¸ ëĬĶ
Ġíĥ Ĳ
ìľĦ ë¡ľ
ë§ ¹
ĠëĤĺ ìģ
ĠíĿ ¡
n d
ĠìłĪ ëĮĢ
ì¹ ¸
íĬ ľ
Ġ201 2
íĶĦ ë¥¼
Ġìļ´ ëıĻ
ìłľ ë¡ľ
Ġì§Ģ êµ¬
Ġë§Į ìķ½
ìĥ ¤
ìĭľ ì¦Į
Ġë Ŀ
Ġíķĺ ê¸°
ĠT he
ĠìĹŃíķł ìĿĦ
ĠìĹ ĳ
ìł ł
ĠëĪĦ êµ¬
ë§Į ìĿĦ
Ġíķľ íİ¸
ëĲĺ ë©°
Ġì «
ĠëĤĺ ìĿ´
ëĥ Īëĭ¤
ìĵ °
Ġëª© ìĨĮ
ĠëĤĺ ìĻĶëĭ¤
ì¦ ĺ
ĵ ¨
Ġìĺ¤ ëĬĺ
ĠëĲĺ ì§Ģ
Ġê²½ìļ° ëĬĶ
Ġíı ´
íĤ¤ ëĬĶ
ìł¸ ìĦľ
ĠìĬ µ
ĠíĥĢ ê³ł
ìĹ Ħ
Ġëħ¼ ëŀĢ
Ġë ®¤
Ġìĥģ ìĬ¹
Ġë§ ģ
Ġê° ¤
ĠìĬ¤íĨł ë¦¬
ĠíķŃ ëª©
Ġì²´ ëł¥
ĠêµŃ ë¯¼
ĠíĬ¹ ë³Ħ
Ġê²½ ìłľ
Ġì¤ĳ ìķĻ
Ġ201 0
ê°Ģ ìĿĺ
ìĿ¼ ìĿĦ
ĠëĮĢíķľë¯¼ êµŃ
ìĦ± ìĿĺ
ëĿ¼ ìĿ¸
Ġê¼ ¬
ê°Ļ ìĿ´
ëĲĺìĹĪ ê³ł
Ġíķĺ ë©´ìĦľ
ìŀĲ ëĵ¤ìĿ´
ĠíĿ Ĳ
ĠìķĦ ë¥´
Ġs t
ëłĪìĿ´ ëĵľ
ë´ Ĳ
ĠëĿ¼ ìĿ¸
ĠíĽĦ ë³´
Ġë°ĺ ë©´
Ġì¤Ģ ë¹Ħ
ê²Į ìŀĦ
Ġìŀ¥ ë¹Ħ
ìľ ¤
Ġíģ´ ë¦¬ìĸ´
ìĸ´ ìķ¼
íĶ¼ ìĸ¸
ë¶ Ļ
ĠëŁ¬ ìĭľìķĦ
í Ģ
ìħ Ķ
Ġ v
Ġíķĺ ìĹ¬
Ġë³´ íĺ¸
Ġì°¸ ê°Ģ
r o
ĠíĢ ĺ
Ġìłľ íķľ
ë§Ĳ ë¡ľ
Ġëĭ¤ ëĭĪ
ĠíķŃ ìĥģ
ë§Ī ìłĢ
Ġëĭ¤ìĸĳ íķľ
ëĿ¼ ìĦľ
ëį° ìĿ´íĬ¸
Ġíļį ëĵĿ
Ġ19 7
ë¡ľ ë¥¼
Ġë¯¸ ìħĺ
ĠìĿ´ìľł ë¡ľ
ëĳ ¥
ì´Ī ìĹĲ
ĠìĪĺ ë¹Ħ
ìĬ¤ ëŁ½
ĠëĤ® ìĿĢ
ìĹĲê²Į ëĬĶ
ëĥĲ ê³ł
i d
ìľ¼ë¡ľ ëıĦ
Ġê³Ħ ìķ½
Ġë¸Ķ ëŀĻ
Ġê°Ģ ëģĶ
Ġëĵ Ģ
Ġì¡° ì§ģ
Ġ k
êµ¬ ê°Ģ
ëł¤ ëĬĶ
ìĿ´ëĿ¼ ëıĦ
Ġìĺ¤ ë¥¸
Ġë² ½
ìĤ¬ ìĻĢ
íĭ° ë¸Į
íķĺëĭ¤ ê³ł
ìĨĮ ë¥¼
ëĿ¼ ë¥¼
íķĻ ìĥĿ
ĠìĹĲ ìĦľ
ĠìĿ¼ ìĸ´ëĤĺ
ĠìĤ¬ìĭ¤ ìĿĦ
ĠìĹħ ëį°ìĿ´íĬ¸
íķĺ ëĤĺ
ĠìłĦ ë¬¸
Ġê º¼
Ġì¤ĳ ìĹĲ
¾ ¼
ê²¼ ëĭ¤
ëįĶ ëĭĪ
i k
ĠëĮĢë¶Ģë¶Ħ ìĿĺ
ìĿ¼ ìĿ´
Ġìħ Ī
ëĵ¤ ë¡ľ
Ġ2 6
ì¤ ĺ
ìĿĺ ë¥¼
ìľł ìĿĺ
ë¡ľ ê°Ģ
ĠìķĦë²Ħ ì§Ģ
íģ¬ ë¥¼
ĠìĹĶ ëĶ©
ĠíĮĮ ìĽĮ
Ġë°ľ ìĤ¬
Ġë²Ħ ìĬ¤
Ġ2 8
ĠíĶ¼íķ´ ë¥¼
íķ¨ ìĿĦ
Ġê±´ ë¬¼
Ġë§Ĳ íķľëĭ¤
ìĥģ ìĹĲ
ëĮĢ íķĻêµĲ
Ġêµ¬ ê°Ħ
ĠìĨĮ ìĦ¤
ë¦¬ ë©°
Ġì° ¬
ĠëĮĢ ë¯¸
ĠìŀĲ ë¦¬
Ġì±Ķ íĶ¼ìĸ¸
ĠíĿ ĺ
¨ ìĿ´
ì§Ģ ê²Į
Ġ Z
Ġë¯¸ ëŀĺ
íģ Ĳ
ĠëĤĺë¨¸ ì§Ģ
Ġë¹Ħ ë¡¯
ê¸° ìĻĢ
ĠìłĦ ìļ©
ëŀ Ħ
ìĤ¬ ìĹĲ
íļĮ ë¥¼
ëĭ¹ íķľ
i m
ĠìĺĪ ìłķ
ìłĲ ìľ¼ë¡ľ
Ġë° ĸìĹĲ
ĠìĬ¤ íĥ
ĠëĨĴ ëĭ¤
ĠìķĦëĭĪ ê³ł
Ġê¸°ì¤Ģ ìľ¼ë¡ľ
Ġíģ¬ ë¡ľ
Ġìĭł ê²½
Ġìłľ êµŃ
Ġì¶Ķ ìłķ
íķĺëĭ¤ ê°Ģ
ĠìĹ¬ëĭ´ ìľ¼ë¡ľ
Ġë¶Ģ íĻľ
ë¥ Ļ
ë¦¬ ë©´
íķĻ ëħĦ
Ġìłģ ìĿĦ
Ġìĸ¸ ìłľ
íı Ĳ
ëł¥ ìľ¼ë¡ľ
Ġìĸ´ ì©
ìľĦ ìĹĲ
ĠìĹ° ê²°
ĠëĴ ·
Ġë°© ìĺģ
Ġë°° ê²½
Ġì¢ĭ ì§Ģ
Ġê´ľ ì°®
c h
ìĭľ ë¥¼
ìĺĢ ê³ł
Ġìľł ëŁ½
Ġì¸ ł
Ġëŀ ľ
ë¦¬ íĭ°
Ġëª© íĳľ
Ġëį ¤
ìłĦ ìĿĺ
Ġë¬´ ìĬ¨
ì§Ģ ê¸°
ĠëĦ ĵ
Ġê²ĥ ê³¼
ĠìĥĿ ê¸´
Ġ2 7
ìĽ ĢìĿ´
Ġë³´ ìĿ´
ìķ Ķ
ĠìłķëıĦ ìĿĺ
ĠëĳĲ ê³ł
ĠìĹĨ ìĿĦ
ìĿ¸ ë¬¼
ë§ ŀ
ë¬´ ë¥¼
Ġê±° ê¸°
Ġëª¨ ë¥´
Ġëĭ¤ ë¥´ê²Į
Ġëª¨ ëĵľ
Ġë¥ ĺ
ëŀ į
Ġê²Ģ ìĿĢ
ìļ´ ëį°
Ġë° ´
ëĤ Ļ
Ġë©Ķ ìĿ¸
ìĦ¸ ë¥¼
Ġê°ĳ ìŀĲê¸°
Ġt o
íĹ Ī
ĠëįĶ ë¶Ī
ëĭ¤ ëĭĪ
Ġë°Ľ ìķĺëĭ¤
Ġë¶ģ íķľ
íģ¬ ë¡ľ
Ġëª» íķĺëĬĶ
Ġìĭľ ëıĦ
Ġìľł ë¦¬
ĠìŀĲ ëŀĳ
Ġê¸° ëĭ¤
Ġëıħ ë¦½
Ġëį ±
ĠëģĿ ëĤĺ
ìľ¼ë¡ľ ìį¨
ê³ł ëĬĶ
ĠìĥĿ ì¡´
Ġíķĺ ëĬĺ
ĠìĥģíĻ© ìĹĲìĦľ
Ġë³´ ëĭĪ
Ġì§Ģ íķĺ
ĠìĹ ¼
ĠìľĦ ìĹĲ
ìĽĲ ìĿĢ
Ġë§Ī ìĬ¤íĦ°
Ġë ±
Ġê²½ìļ° ìĹĲëĬĶ
ĠìĮ ĵ
¯ ¤
ĠìĨĮ ëª¨
ìĬ¤ ìĹĲ
Ġìĸ» ìĿĦ
Ġì į
ĠìĶ ¨
Ġë¶Ģ ìĤ°
ĠíĢĺ ìĬ¤íĬ¸
Ġì¢ħ ë£Į
ĠT V
ĠíĺĦìŀ¬ ëĬĶ
ĠëĤĺ ìĦľ
Ġëĭ¬ ëł¤
ìŀĲ ìĻĢ
í Ī
ĠìłĦ ìŀĳ
ê´Ģ ìĿ´
Ġíĭ Ģ
Ġë¶Ģ ëª¨
ĠëĮĢ ìłĦ
ĠìŀĪëĭ¤ ë©´
Ġë² ¨
ĠëĤĺ ë¦Ħ
ìĸ´ ëĵ¤
ìł ¤
Ġê´Ģ ë¦¬
Ġíİ ¼
ìĿĮ ìĹĲëıĦ
ĠëĬ¥ ëł¥ìĿĦ
Ġìĸ µ
Ġì£¼ ìļĶ
Ġë°ĶëŀĮ ìĹĲ
íĺ Ķëĭ¤
ì¡° ê±´
Ġë²Ī ìĹŃ
ë ¹Į
ìĭ ±
Ġê¸° ê°Ħ
Ġì§Ģ ëĤľ
ëĭ Ĳ
Ġìłķ ìŀĳ
ìĿ´ ëŀĢ
Ġ 000
ĠS t
ĠìĦ± ìŀ¥
Ġë¬¸ íĻĶ
ĠìĿ´ìĥģ ìĿĺ
ì£ ½
Ġìµľ ìĨĮ
ĠìĿ¸íĦ° ë·°
ĠìĹ° ìĨį
ì£¼ ê³ł
ë¶Ģ ê°Ģ
ëĭ¨ ìĿĺ
Ġëª¨ìĬµ ìĿ´
e m
ìĭł ìĿĦ
ìĽĶ ìĹĲ
Ġë¶Ħ ëħ¸
Ġë¶Ī ëŁ¬
ëªħ ìĿĢ
ìĭľ ê°Ģ
Ġì¶ķ êµ¬
íĮ Ķ
Ġë§Į ëĵľëĬĶ
Ġê±´ ëĭ´
Ġê°ģ ì¢ħ
Ġìŀ¥ ì°©
ìľĦ ìĽĲ
ìĹ¬ ìĦľ
ëĿ¼ ìļ´ëĵľ
ë ī´
Ġëĭ¬ ìĦ±
ëł ¬
Ġê¸° ëĮĢ
ĠëįĶë¶Ī ìĸ´
u n
Ġë¹ł ë¥¸
Ġíģ¬ ë¦¬ìĬ¤
ë¦¬ ê²Į
s t
ë¹ Ļ
ëĲĺ ê¸°
Ġìľł íĬľ
ĠìĹĲ ëĦĪ
ìĦ Ń
Ġì³ Ĳ
ĠìĹ° ì¶ľ
ëĤ ¼
ĠëĶ° ë¡ľ
Ġëª» íĸĪëĭ¤
E R
ĠìĺĪ ìĥģ
ìĩ Ħ
Ġì¹ Ń
ĠìķĬ ê²Į
Ġë³Ħ ë¡ľ
Ġ20 00
ì¼ ĢìĿ´
ë° ¥
Ġ201 1
ìĿ´ ë¡ľ
ĠĠĠĠĠĠĠĠ ĠĠĠĠĠĠĠĠ
ī ìĿĢ
Ġìľł ëĭĪ
ĠìłľìĻ¸ íķľ
ëħĦ ë¶ĢíĦ°
i r
Ġìĭ¸ ìļ°
íĭ ±
Ġìľłëªħ íķľ
Ġë°ĺ ëĮĢ
ĠíķĦìļĶ íķľ
ê³ł ë¥¼
ĠìĿ´ ëĿ¼ê³ł
ĠìĿ¼ ìłķ
ëĭ¨ ìĿĦ
ìĦľ ë¥¼
Ġê²½ ìŁģ
ìĻ¸ ë¡ľ
Ġê¹ Ķ
ì¢ħ ìĿĺ
ĠíŀĪ ë¡ľ
Ġì§Ģ ë°©
ĠìĿ´ ê²Į
Ġê·¼ ìłĳ
ìĬ¤ëŁ¬ ìļ´
ì¹´ ìĿ´
Ġëı ¼
ëĤ´ ê³ł
Ġìłľ ìĿ¼
ĠìĹĨ ëĭ¤ëĬĶ
ãĥ ¼
ĠìĪĺ ëĬĶ
ĠìĥģíĻ© ìĿ´
ĠìŀĪ ìľ¼ëĭĪ
ĠìłĦ ë°ĺ
Ġë¶Ħ ëªħ
ë²Ħ ë¦°
Ġìłģ ìĿĢ
ĠìĭĿ ìľ¼ë¡ľ
ìĹĪëĭ¤ ê³ł
ĠìĤ Ń
Ġë¹Ħ íĸī
Ġê³µê²© ëł¥
Ġë¬¼ ê±´
Ġê²ĮìŀĦ ìĿĦ
Ġê°ľ ëħĲ
Ġë¶Ģ ë¥´
Ġë§Į íĻĶ
íĥ ĳ
ĠìĹĲíĶ¼ìĨĮ ëĵľ
ìĪĺ íķľ
íĶ Ī
Ġìŀł ìĭľ
ë³´ ëĬĶ
íĥĢ ë¡ľ
ĠìĿ´ìķ¼ ê¸°ë¥¼
ĠìĹĶ ì§Ħ
ĠìķĦëĭĪ ë©´
ìĦł ìĿ´
ĠìķĦìĿ´ ëıĮ
ĠìłĦ ì°¨
íĺ¸ ê°Ģ
ë¯¸ ê°Ģ
Ġë³¸ ìĿ¸ìĿ´
ĠíĽĪ ëł¨
ê² Ĳ
íķ´ ì§Ħ
ĠìķĪ ìĹĲ
Ġì§ ķ
ëĳ Ķ
íĹ Į
ì§Ģ ë©´
ê¹ Ŀ
ĠìĿ¼ë³¸ ìĿĺ
Ġì§Ģ ì¼ľ
Ġì°¨ ìĿ´ê°Ģ
Ġ6 0
ĠëĤĺ ë¬´
ìĬ ´
ìĭľ ì¼°
ì£¼ ë¥¼
ĠìĦ¸ ìĿ´
Ġë¬¼ ë¦¬
Ġìķķ ëıĦ
ì¢ Į
Ġ2 9
Ġ e
ìķ¼ ë§Ĳë¡ľ
ë§Ī ê°Ģ
Ġë¸Į ëĿ¼
ĠëĤĺ ìĺ¬
Ġë¹ ħ
Ġìĺ ·
ã Ĥ
ĠìĬ¤ íĶ¼
ĠëĴ¤ ìĹĲ
ìĭľ ìĿĺ
ì µľ
ì´ Į
Ġê°ĸ ê³ł
ĠìķĦ íĶĦ
ìĭľ ë¡ľ
ìĥģ ìĿĢ
Ġìķł ì´ĪìĹĲ
Ġëĵ± ìľ¼ë¡ľ
ĠìĺĪ ë¥¼
Ġíı¬ ì¼ĵ
Ġìĭľìŀĳ íĸĪëĭ¤
ê³Ħ ìĿĺ
ì§Ģ ìħĺ
o d
ìķĺ ëįĺ
ĠíĶĦëŀĳ ìĬ¤
ëŀ Ń
ë§Ī ìĿĺ
ìĿ¸ ê°Ģ
ëĤĺ ìĿ´
ĠìĹĨ ëĭ¤ê³ł
Ġì§ĳ ì¤ĳ
m m
ë ®¤
ìķ Ĺ
íĺ¸ ë¥¼
Ġë¬ĺ ìĤ¬
ëıĻ ìĿĦ
ìĽĲ ìľ¼ë¡ľ
Ġê¸° ìĹħ
ëı Ī
Ġê³Ħ ìĹ´
ĠìĨĮ ê°ľ
Ġëľ ¨
ĠíĴ Ī
Ġíķĺ ê²Į
ìĭĿ ìľ¼ë¡ľ
ĠìĪĺ ìłķ
v er
ĠìĿ´ ê±¸
Ġë°Ķê ¿
ìĹĪ ëĬĶëį°
ìĭľ ëĬĶ
ĠíĻķ ìłķ
ĠìĿ´ ìª½
Ġê¼ Ń
ĠëŃ Ķ
ĠìķĪ ìłķ
Ġëĵ£ ê³ł
ĠíĬ¹ ìłķ
ĠS K
íĿ ¥
ë²Ħ ëł¸ëĭ¤
ĠëĤĺíĥĢ ëĤĺ
ĠìŀĪ ìľ¼ë©´
Ġê² ª
ĠêµŃ ìłľ
ëĶĶ ìĸ´
ë© ĺ
Ġë¹ł ìł¸
ëĵľ ìĭľ
ĠìĤ ¶
ê³Ħ ê°Ģ
Ġë¯¼ ì£¼
ĠëĬĲ ëģ¼
ìľ¨ ìĿ´
ë¬ ĺ
ĠìĿ´ ìĻ¸
Ġìĺ Ľ
Ġëĭ¬ ëĿ¼
Ġì§ ľ
ëĮĢ íķĻ
Ġì¶ľ ìłĦ
Ġ3 1
ĠëıĮìķĦ ê°Ģ
Ġë¯¸ ìĤ¬
ĠìĿ¼ íĸī
ĠìĿ´ëģ Į
a k
Ġê²ĥ ìĿ´ëĿ¼ê³ł
ĠìĻ ¼
ìĿ¸ íĬ¸
íģ¬ ê°Ģ
ĠíķŃ ê³µ
ĠìķĦ êµ°
ì° į
ĠìŀĪ ìľ¼ëĤĺ
íķľëĭ¤ ë©´
ĠëĤ ©
ĠìĻ¸ êµŃ
Ġê½ ĥ
ĠìĻ Ķ
ĠìĦľ ë¹Ħ
ĠìĤ¬ëŀĮ ìĿĦ
ìĭ¬ ìĿ´
ìĦ¸ ëĮĢ
ë§Ī ìŀĲ
ê°Ĳ ìĿ´
ĠìŀĲìĦ¸ íķľ
Ġë¨¸ ë¦¬
ëłĪ ìĬ¤
ig h
Ġê³µ ìĹ°
Ġíĥ ±
ë¶Ģ ë¡ľ
ëŀ Ĳ
Ġìĺ µ
Ġëĵ Ŀ
Ġë§Ĳ ìĹĲ
ìĿ´ ì¦Ī
Ġì§Ģ íľĺ
ĠìĤ¼ ìĦ±
Ġë³¸ ëŀĺ
Ġìłľ íĴĪ
ëıĦ ìĹĲ
Ġë¶Ģ ìłķ
ĠìĨĮ ë¦¬
ĠìĿ´ë¦Ħ ìĿ´
u t
Ġì½ ¤
Ġë¬´ ëł¤
Ġíķľëĭ¤ ëĬĶ
Ġì¹ ¸
ĠíĮĲ ëĭ¨
ìħ ī
ĠíĸĪ ëįĺ
Ġë§ ¹
Ġê³µ ì¤ĳ
ĠëĤĺ ì¤ĳìĹĲ
ĠìĦł ê±°
ĠìłĦ ìĦ¤
Ġíļ¨ê³¼ ë¥¼
B C
Ġë¡ ¤
Ġì¡¸ ìĹħ
ĠìĹ¬ ê¸°ìĹĲ
Ġë¹ł ë¥´ê²Į
ëĥĲ ëĬĶ
Ġê°Ģê¹Į ìļ´
ĠíĬ¹ ìĿ´
Ġíı¬ ê¸°
ê ½
ĠìĿ´ íĥĪ
Ġìļ´ íĸī
Ġê¸° íĥĢ
ĠìĨĮ ëħĢ
ĠìĿ´ìļ© íķ´
ìĭł ìĿ´
Ġë°ĺ ëĵľìĭľ
Ġê³¼ íķĻ
Ġìµľê³ł ìĿĺ
Ġìĺģ ìĸ´
en t
a g
ĠìĹĺ ë¦¬
ë ļ
İ ìĿĢ
Ġì¡´ìŀ¬ íķľëĭ¤
Ġë° ĸ
ĠíĦ ¸
ĠìĥĿê°ģ íķ´
ëŀ «
ìĹĪ ì§Ģë§Į
ë¡Ń ê²Į
ĠìĥĪ ë¡ľ
ì½ ľ
Ġìľ¼ ë¡ľ
ĠìĿ´íĽĦ ë¡ľ
Ġìļ° ìĦł
Ġì¿ ¨
Ġë°° íĭĢ
Ġìĺ ®
ĠìļĶ ìĨĮ
Ġìĺ ¥
Ġì¤ĳ ìĹĲìĦľ
Ġìĭľê°Ħ ìĿĦ
Ġìĸ¼ë§Ī ëĤĺ
Ġê± ±
Ġì£½ ìĿĢ
Ġ8 0
Ġë³´ ìķĦ
ĠìĹ° ê¸°
Ġë° ĳ
Ġê¸° ê´Ģ
ĠìĮ į
íķĺìĺĢ ê³ł
ĠëĤł ìķĦ
Ġ19 6
ĠëĲĺìĹĪ ê³ł
5 0
Ġíı¬ì¼ĵ ëª¬
ĠêµĲ ì²´
ê ¾¸
ĠëĿ Ħ
Ġê¸°ë³¸ ìłģìľ¼ë¡ľ
ë ¤
ĠìķĦë¬´ ë¦¬
ëĭ¤ ìļ´
Ġìķ¼ êµ¬
ĠìķĮ ê²Į
ĠìĿ´ ê±´
ĠìĤ¬ëŀĮ ëĵ¤ìĿĢ
ë§Į ìĿĺ
ë¸ Ĳ
Ġë°Ķê ¾¸
Ġìµľ ê°ķ
ìł Ŀ
¨ ìĿĦ
ĠìĤ¬ ë¡Ģ
Ġìķŀ ìĹĲ
Ġìĭľ íĹĺ
ĠëĬ ¦
ĠìĬ¤ íĮĮ
Ġëĥ ī
ĠìŀĪ ìĬµëĭĪëĭ¤
u r
íĮ ©
ĠíĸĪ ìľ¼ëĤĺ
ë³´ ê³ł
Ġê²ĥ ì²ĺëŁ¼
ĠíĥĪ ì¶ľ
ëŁī ìĿĦ
ac k
Ġê²° ìĬ¹
ë°© ìĨ¡
Ġê¸° ëıĻ
Ġê·¼ ì²ĺ
Ġëªħ ëł¹
ĠìĬ¤íħĮ ìĿ´ì§Ģ
ĠëĤĺ ëĿ¼
Ġìı ĺ
ì ¥
ĠíĻĺ ê²½
ĠìŀĪìĹĪ ê³ł
ì§Ģ ìĻĢ
Ġê³¼ìłķ ìĹĲìĦľ
ìĽĲ ìĹĲ
ĠëĤ¨ ìĿĢ
ë¶ĢíĦ° ëĬĶ
Ġíĺ Ī
ĠìĬ¤ íı¬
íĻ į
Ġë³´ ìľł
ë§ ¥
1 0
ëĭ¨ ìĿ´
ìĿ¸ ìľ¼ë¡ľ
ëĵ¤ ìĸ´
ĠìĪĺ íĸī
Ġëĵ±ìŀ¥ íķľ
Ġìłľ ëª©
ĠìłĲ ìłĲ
Ġë°Ľ ìĿĦ
ë²Ħ ë¦°ëĭ¤
ĠìłĲ ìĿĦ
Ġìĭ¬ ê°ģ
ê²ł ëĭ¤ëĬĶ
ĠëķĮ ë§Īëĭ¤
ìĿ´ ëĭĪ
Ġê·¸ ëķĮ
Ġê°Ģ ë¥´
Ġë§İ ìķĦ
Ġt h
ë¯¸ ë¥¼
íķ ĳ
Ġë°ĺ ëĮĢë¡ľ
Ġìĸ´ëł¤ ìļ´
Ġì¢ĭìķĦ íķĺëĬĶ
Ġìĭľ ìłĦ
ì ¯¤
Ġë°Ķ ëĿ¼
Ġìĵ° ê³ł
ë¶Ħ ìĿ´
ĠìĻĦ ìłĦ
Ġì¤Ģ ëĭ¤
Ġë°ľ ìłĦ
Ġì£½ ìĿĮ
ìłľ ìĿĺ
Ġìłĳ ê·¼
ìĦ¸ ê°Ģ
ì§Ħ ìĿ´
ìŀĦ ìĿ´
Ġê·¸ëħĢ ìĿĺ
íĦ° ë¥¼
Ġì§ģ ìĹħ
ĠìľĦ ìĿĺ
íĻĶ ìĿĺ
íķĺ ëĿ¼
Ġë© ¸
ĠìķĬ ìľ¼ë©´
Ġ9 0
Ġíķ´ ìĻ¸
ĠìłĢ ì§Ģ
ĠëıĪ ìĿĦ
ĠìłĦ ëŀµ
t er
ĠìĻĦ ë²½
ĠìŀĲì²´ ëĬĶ
Ġê¸° ë°ĺ
ĠëĮĢ ìĤ¬
ĠìĤ¬ ëĥ¥
ĠìłĦ êµŃ
ìĩ ¼
Ġê·¸ ëŁ¼
ëĤĺ ìĿĺ
ĠíļĮ ìĤ¬
ëĤ¸ ëĭ¤
Ġìĥģ ê´Ģ
ì§Ģ ëĿ¼
Ġëĵ±ìŀ¥ ìĿ¸ë¬¼
Ġì« ĵ
ìļ° ê°Ģ
íİ ľ
ëª ½
ë Į
ìĸ¸ ìĿĦ
ĠìĨĮ ìŀ¬
2 1
Ġìĸ´ë ĳ
ë¹ Ľ
ĠìĹ° ìĬµ
Ġë´Ĳ ëıĦ
Ġìĥģëĭ¹ íķľ
íĥĢ ê°Ģ
ĠëıĦ ìŀħ
ìłĲ ìĿĢ
Ġ and
Ġìĥģíĥľ ìĹĲìĦľ
Ġë¹¨ ë¦¬
ë¬¸ ìĿ´
ĠíĮĮ íĭ°
ì§Ģ ë©´ìĦľ
e c
ë ĸ
ĠíĸĪ ëĬĶëį°
Ġë§Ī ë¬´
Ġê³ł ìĸĳ
Ġíļ¨ê³¼ ê°Ģ
ĠìĤ¬ ìĹħ
ëħĦ ìĹĲëĬĶ
Ġëĭ¤ íĸī
ĠìķĦ ëĵ¤
ĠìĹĨ ìĸ´ìĦľ
ĠëıĦ ì°©
ìĸ´ ìļĶ
ê¸Ī ìĿĦ
Ġë¶Ģ ìĹ¬
ìĨ Ķ
ê°Ħ ìĿĺ
ĠìĹĨ ì§Ģë§Į
Ġê·¸ ë£¹
ĠìŀĲ ë¦¬ë¥¼
ê¹ ¨
Ġê°Ģ ìĦľ
ê²ĥ ëıĦ
ìĹĲ ë§Į
ë¡ ±
ĠìĻĦ ìĦ±
Ġë³´ ëĭ¤
Ġëŀ Ń
Ġìłľ ê±°
Ġìľł ìĤ¬
Ġë¹Ħ ë°Ģ
Ġê³ł ìłķ
Ġë°° ì¹ĺ
ì¹ ¼
ĠìĨĲ ìĿĦ
Ġë¶Ģ íĥģ
ĠìĿ´ ê³³
Ġëĭ¤ ìĨĮ
ĠëĨĴ ìķĦ
ëĶ ĺ
ë§ İìĿĢ
ĠìĿ¸íĦ° ëĦ·
ê ¾¼
ĠìĤŃ ìłľ
Ġëĵ¯ íķĺëĭ¤
Ġêµ¬ ë§¤
ë¹Ħ ìķĦ
ëł¥ ê³¼
Ġëªħ ì¹Ń
Ġë¿ Į
ìľĦ ëĬĶ
ĠíĮĮ ìĿ´
ìĸ´ ìĿĺ
Ġëĸł ëĤĺ
ìĬ¤ íĭ°
ĠíĥĢ ìŀħ
ĠìŀĪìĹĪ ëĬĶëį°
ëĲ Ĳ
ì°¨ ê°Ģ
í ĵ¨
ë£ ¬
Ġê°Ģ ìļ´ëį°
ëĲ Ĳëĭ¤
Ġë²ł ìĿ´
ĠëģĿ ìĹĲ
Ġìłķ ìĥģ
¬ ìĺģ
Ġê¸° ì²´
ëħ ¼
ĠìłľìĻ¸ íķĺë©´
Ġì§Ģ ì§Ģ
Ġê±´ ìĦ¤
ĠëıĻ ìĥĿ
ìĹŃ ìĿĦ
ĠìľłíĬľ ë¸Į
ĠìľłìĿ¼ íķľ
Ġìŀĳ ê³¡
ê» ´
ìĭľ íĤ¬
ëĲĺ ë©´
Ġìĥģ ìľĦ
Ġì§ Ĳ
Ġì§ģ íĽĦ
ë³´ëĭ¤ ëıĦ
íģ¬ ìĿĺ
ìĦ¸ ìļĶ
Ġëĭ¤ ë£¨
Ġë³´ìĹ¬ ì¤Ģëĭ¤
Ġë³Ģ íĻĶ
ĠìĹĲ ìĿ´
Ġê´Ģ íķľ
ĠëĽ° ìĸ´ëĤľ
ĠìĿ´ë¦Ħ ìĿĢ
ìĺ¨ ëĭ¤
Ġíıī ë²Ķ
ĠìĤ¬ìļ© íķľëĭ¤
Ġì¡° ì¢ħ
ĠìľłìĿ¼ íķĺê²Į
Ġì²ĺìĿĮ ìľ¼ë¡ľ
Ġë¬´ ì¡°ê±´
Ġìķ ¤
ĠìĨĮ ë¹Ħ
Ġì¶Ķ ì²ľ
Ġêµ³ ìĿ´
Ġì£¼ ê³ł
Ġì¶©ë¶Ħ íŀĪ
ĠìĦł ìĥĿ
Ġì¶© ê²©
ì¹ĺ ìĿĺ
êµ° ìĿĢ
íķĻ ê³¼
ìĦ ¯
Ġëĭ¤ íģ¬
ĠìĽĮ ëĤĻ
Ġìĭ« ìĸ´
ĠìĤ¬ìĿ´ ìĹĲ
ĠìķĦ ëĤ´
ì°¨ ë¥¼
ëĥ Ī
Ġì¹ ł
Ġë³Ģ ìĭł
Ġì§Ģ ë°°
ĠL G
ĠëĤ¨ ìĦ±
Ġì¹ĺ ë£Į
ì£¼ ê°Ģ
Ġë§Ī ì¹ĺ
ë¶Ģ ëĬĶ
íĭ ¸
ĠíĥĢ ê²©
ë¡ľ ìĿĺ
Ġìĺ¬ ëł¤
Ġ r
Ġê² ¸
Ġë³´ ê¸°
ë³´ ë¥¼
ìłģ ìĿ´ëĭ¤
ĠìĪĺ ìĥģ
Ġë ĩĮ
ĠëıĦ ìĻĢ
Ġìłķ ë¦¬
ìŀ ĸ
ìī ½
ĠíĬ Ģ
Ġì¢ħ ë¥ĺ
Ġë§ŀ ì¶Ķ
ĠìĪĺ ë§İìĿĢ
Ġê·¸ ê±¸
Ġì¶Ķ ì¸¡
Ġë¦ °
ĠìĿĺ ìĻ¸ë¡ľ
Ġíģ´ ëŀĺ
ì§Ħ ìĿĦ
ĠìłĦ ê°ľ
Ġíıī ìĨĮ
Ġíŀ Ĳ
ìľ Ī
ĠìĿ´ ë¡ľ
ìĪł ìĿĦ
ĠëĲĺ ëĬĶëį°
ëĦ ĺ
Ġì§Ģ ëıĦ
ë ±
ëį ´
Ġì¢ħ ì¢ħ
ĠìĿ¼ ëŁ¬
Ġë³µ ê·Ģ
Ġìŀ Ĭ
íĶĦ ê°Ģ
íĬ¸ ìĹĲ
Ġíĳľ ê¸°
Ġê·¸ ìķ¼ë§Ĳë¡ľ
ì¦Ī ìĿĺ
Ġíıī ê·ł
ëĲĺìĹĪ ìľ¼ë©°
Ġì¤ĳ ê°Ħ
ê¹ Ģ
íĦ° ê°Ģ
ìĺĢ ìľ¼ëĤĺ
ëª ĩ
ìļ© ìľ¼ë¡ľ
Ġ7 0
ìĦł ìĿĺ
ĠìŀĪ ì§Ģ
ĠìĨĮ ëł¨
ĠìķĦ ì¹´
ĠëĮĢ ê¸°
ĠìĹħ ê·¸
Ġë§Ĳ íķĺëĬĶ
igh t
ĠëĦ Ĳ
Ġì¹´ ìļ´
íĥĦ ìĿĦ
ë°Ľ ìĿĢ
ĠíĻĶ ë©´
ë°© ìĿĦ
Ġë© ĭ
ëł¤ ë©´
Ġëĵ¯ íķľ
ìĸ´ ì§Ħ
ìĿ´ ìħĺ
íĶĦ ë¡ľ
ë°Ľ ëĬĶ
ì£¼ ë¡ľ
Ġìº ł
Ġë² ¤
ëĦ £
ëĳĲ ê³ł
ĠëĿ¼ìĿ´ ë¸Į
Ġ 00
ì§Ī ìĿĦ
Ġë¹Ħ ì¤ĳ
íĺķ ìĿĦ
Ġëªĩ ëªĩ
Ġê²½ ê¸°ë¥¼
ëı ¼
Ġëĸ ¡
ìĹĪ ìĿĦ
Ġíĥĵ ìĹĲ
Ġì£¼ ë¯¼
ĠëıĦ ì¤ĳ
ëª¨ ê°Ģ
ìĦ¸ ê¸°
ìĦ± ìĹĲ
ìĦĿ ìĿ´
ì Į
Ġì´ ¬ìĺģ
Ġìŀ¥ ìĨĮ
ëĵľ ìĻĢ
Ġëħ Ģ
íĦ ¸
Ġê·¸ ìłĢ
ìŀ Ķ
ĠìĥĿê°ģ íķĺë©´
íĹ ¤
ĠìĿ¸ íķľ
Ġêµ° ìĤ¬
ĠìĤ´ íķ´
Ġë³¸ ê²©
êµ° ìĿĦ
Ġ19 4
in e
Ġëª¸ ìĿĦ
Ġê¸° ê³Ħ
Ġì¤ĳ ë°ĺ
Ġë¶Ī ìķĪ
Ġê³ ¤
ìłķ ìĹĲ
íĤ¤ ê°Ģ
Ġë¬´ ìŀ¥
ë Ĵ
íĸĪ ê¸°
ê´Ģ ìĿĦ
ìłģìľ¼ë¡ľ ëĬĶ
ĠëģĮ ìĸ´
Ġê³µ íı¬
ĠëĨ Ī
ëĶ °
Ġìĥģíĥľ ë¡ľ
ĠìĿ¸ ìĭĿ
íŀ Ĳ
ìĿĮ ìĿ´
ì¹´ ìĻĢ
ĠíķľêµŃ ìĿĺ
ĠëıĻ ë¬¼
ëĵł ì§Ģ
Ġê°ľ ê·¸
ĠìĤ¬ ëĬĶ
ĠëĮĢ ëĭµ
íĻĶ ëĲľ
Ġê±° ê¸°ìĹĲ
ìĺĢ ì§Ģë§Į
Ġìķ ī
ĠĠĠĠĠĠĠĠ ĠĠĠ
Ġìĭ¤ íĹĺ
Ġìĭ¸ ìĽĢ
Ġìķŀ ìĹĲìĦľ
Ġëĭ ¥
Ġìĭ Ń
ĠëĬ¥ ëł¥ìĿ´
ìĽĲ ìĹĲìĦľ
¾ Į
ĠìŀĪìĹĪ ì§Ģë§Į
Ġíı¬ ì§Ģìħĺ
Ġë³¸ ìĿ¸ìĿĺ
ìŀĲ ëĵ¤ìĿĢ
ë ķ
ĠíĬ¹ ìľłìĿĺ
Ġë²Ħ ê·¸
íķĺ ëıĦë¡Ŀ
ĠìĪĺ ë°ĸìĹĲ
Ġë§ĪìĿĮ ìĿĦ
ĠíĪ¬ ìŀħ
ĠëĮĢ ìĥģ
Ġë§ŀ ì¶°
Ġì² Ļ
Ġë°Ķ ëĭ¤
S T
Ġíķ© ë¥ĺ
t h
ĠìĤ¬ëŀĮ ìĿĺ
Ġë°ĺ ë³µ
ì¿ Ħ
Ġë³´ ìĺĢëĭ¤
Ġìĺģ íĺ¼
ê°ľ ë¡ľ
Ġìĸ´ëĳ ł
ĠìķĦ íĤ¤
Ġì§Ģ íĤ¤
ìĦ± ê³¼
Ġìĺ¤ ëŀľ
Ġíĸī ë³µ
ë§Ī ë¥¼
ĠìĿ´ íķĺ
Ġë¨¹ ê³ł
ĠëķĮ ëıĦ
Ġíŀĺ ëĵł
ìħ ľ
Ġë¶Ģ íķĺ
Ġëĭ¤ìĿĮ ê³¼
Ġê° Ķ
ëŁ ¿
ĠíĤ ¹
Ġëª¨ ë¥´ëĬĶ
ĠìłĲ ìĿ´
Ġë¡ ¯
Ġì¢ħ ì¡±
Ġê³µ ê°Ħ
ëıĦ ìĻĢ
ĠìĹ° íķ©
Ġê°Ħ ëĭ¨
Ġìļ´ ìļ©
ê½ ĥ
Ġë¯¸êµŃ ìĿĺ
íĮĲ ìĿĦ
ìķĦ ë²Ħ
Ġìĭľë¦¬ì¦Ī ìĿĺ
Ġìŀĳ ê°Ģ
Ġìĭ± ê¸Ģ
Ġì§Ģê¸Ī ìĿĢ
ìĪĺ ëıĦ
Ġìµľ íĽĦ
ĠìķĪ ìłĦ
ê³µ ê²©
íĸ¥ ìĿ´
ìłķ ìĿĢ
ĠíĻ Ģ
ĠëıĦ ìłĦ
ĠìĽ ¹
Ġì¹´ ìĿ´
íħĲ ì¸ł
ëħ ķ
ë¬¸ ìĿĺ
Ġ200 9
Ġì§Ģ ìĥģ
íļĮ ê°Ģ
Ġë¶Ī ê³¼
íķĺ ëł¤ê³ł
Ġ5 00
ìĬ¤ëŁ½ ê²Į
ĠíĮĢ ìĿĺ
ĠíĥĪ ëĿ½
Ġìķŀ ìľ¼ë¡ľ
ìĬ¤ íħĮ
ĠìĻ¸ ìĹĲëıĦ
ê¹ Ĳ
ëŁ¬ ìĬ¤
Ġìķŀ ìĦľ
ëªħ ìľ¼ë¡ľ
ĠìĬ¤ íģ¬
íı ´
Ġìĺ¤ ë²Ħ
ëª °
ĠëĮĢ êµ¬
Ġìĺ¤ íĶĦ
ì§Ģ ë©°
ëĳ ĺ
ë³´ ìŀĲ
Ġë¬´ íķľ
ëł¥ ìĿĺ
ëĭĪ íĭ°
ĠìĽ ¨
ĠëĪĦ êµ°
Ġë¦¬ ëįĶ
Ġì¡° ìĤ¬
ĠíĿ¬ ìĥĿ
ĠíĬ¸ ìľĦ
ĠëĽ° ìĸ´
Ġëĵ ł
ĠíĸĪ ê³ł
Ġë§ŀ ëĬĶ
ĠìķĬ ì§Ģë§Į
ëł Ľ
ĠìĨĮ ìľł
íķ Ģ
ĠìĬ¤í İ
Ġìłķ ìĭĿ
ìĬ¤ íĨł
ìĿ¸ ê³¼
Ġë© °
ê°ľ ìĽĶ
ĠìķĦ ëĬĶ
al l
ë »
ĠíĦ ´
ìĿ´ ë¯Ģë¡ľ
ë¡ľ ë¶ĢíĦ°
ëĵ ¬
ìĬ¹ ìĿĦ
Ġì¢ħ êµĲ
ĠìľĦ íĺĳ
Ġìŀ¥ë©´ ìĿ´
ĠìĿ¸ ì²ľ
Ġë§Ĳ íĸĪëĭ¤
ìłķ ìľ¼ë¡ľ
Ġëļ «
Ġê¸°ì¡´ ìĿĺ
Ġë» Ķ
ĠíĶĦ ëłĪ
íķĺ ëĭĪ
Ġë¬´ ë¦¬
ìª½ ìľ¼ë¡ľ
ìĹĲê²Į ìĦľ
ĠëĤĺìĺ¤ ì§Ģ
ĠëĮĢ ìĿĳ
ìĦ¸ ê³Ħ
ì§Ģ ìĹĲìĦľ
ëŁ¬ ê°Ģ
Ġì± Ļ
íĬ¸ ìĹĲìĦľ
Ġë§Ĳ ìķĺëĭ¤
ìĭľíĤ¤ ê³ł
ì² ©
ĠëĶĶ ìŀĲìĿ¸
Ġíĸī ìłķ
ì¹ĺ ê²Į
Ġë¯¸ ëĭĪ
Ġìłģ ê·¹
Ġì¹ĺ ëªħ
ë°Ķ ìĿ´
íĬ¸ ìĻĢ
Ġë º
y le
Ġë© ĺ
Ġê³µ ëıĻ
Ġë¡ľ ë´ĩ
Ġíķĺ ëĵľ
íķĺìŀĲ ë©´
ëŀĺ ëıĦ
ĠìĥĿ ëªħ
Ġì»´ íĵ¨
ìĦĿ ìĿĦ
Ġëĭ¤ë¥´ ëĭ¤
Ġê°Ģ ê¹Ŀ
ĠìĤ¬ íĥľ
Ġí Ĥ¬
Ġë¶Ī ë¦¬
íĤ¤ ìĿĺ
ĠëĮĢ ëĭ¨
a p
ĠìĿ¼ ìĿĢ
ĠìĿ´ ìĻĢ
Ġë²Ķ ì£Ħ
ĠìĤ¬ ê¸°
ëĿ¼ ë©°
ĠìķĦ ë¦Ħ
ĠìĿ¼ëŁ¬ ìĬ¤íĬ¸
Ġìłķ ê·ľ
ĠìļĶ ì²Ń
Ġìŀħ ê³ł
ĠìłĦ íĨµ
Ġëŀ Ģ
íĶĮ ëłĪìĿ´
ì²´ ìĿĺ
ìķĪ ìĿĦ
Ġëħ¸ ëł¥
Ġê°Ģ ìĬ´
ëĵľ ìĹĲ
ĠëĮĢ íĺķ
Ġë§ º
ìŀĲ ìĹĲ
Ġëª ½
ĠëĮĢ ì¤ĳ
o s
Ġìĸ» ìĸ´
Ġë¬¸ìłľ ë¥¼
ĠíĨµ íķ©
ĠìĦ ŀ
Ġì¼ Ħ
Ġìŀĳ ìĹħ
ĠìĿ¼ ìĸ´
Ġë© Ī
ì½ ¤
Ġì±Ħ ëĦĲ
Ġìĺµ ìħĺ
Ġê³ł íĨµ
ĠëķĮ ê¹Įì§Ģ
ĠìĿ´ ìłģ
ìŀĲ ëĵ¤ìĿĺ
ĠíĥĢ ì¹´
Ġë°Ľ ëĬĶëĭ¤
ĠëĤĺ ìĿĺ
ëĨ Ī
Ġíĳľ ìĭľ
Ġê´Ģëł¨ ëĲľ
Ġìļ° ë¦¬ëĬĶ
Ġ Q
Ġ3 5
ì²´ ëĬĶ
Ġë¸Ķ ë£¨
Ġëį° ëł¤
ĠìķĶ ìĤ´
ik i
Ġê±° ë¶Ģ
Ġìĥģ ì§ķ
ĠìĿĺ íķĺë©´
êµ¬ ëĤĺ
Ġë¹Ħë¡¯ íķľ
íĬ¸ ëĿ¼
Ġê·¸ ë¦°
ĠíĮĮ ìĿ¼
ĠëĮĢ íĻĶ
ìĬ¤ ì¼Ģ
ĠìĹ° ìŀ¬
Ġê¾¸ ì¤Ģ
Ġìłģ ìłĪ
u m
Ġëĭ¨ìĪľ íŀĪ
ìĭ¤ ìĿĦ
c e
Ġìĺ¬ëĿ¼ ê°Ģ
ëª¨ ë¥¼
ëĿ¼ìĿ´ ëįĶ
Ġì°¨ ìĿ´
í ĳ¸
ĠìĦ± ìļ°ëĬĶ
ĠìķĦëĭĪ ì§Ģë§Į
Ġìŀ¥ ê°ĳ
ĠëĤ «
Ġë¶ īìĿĢ
ìĿ´ìĹĪ ê³ł
ĠëĮĢ ê²°
ĠìĪ «
ì³¤ ëĭ¤
Ġê·¼ ëį°
ìĿ´ ëĭĿ
íĮ ¬
ĠìĥģíĻ© ìĿĦ
Ġë° ¥
ì§ Ĳ
Ġë´ ¤
ë¶Ħ ìĿĦ
ĠìķĦ ìī¬
ìĿ¸ ëĵ¤ìĿ´
ìłķ ìĿĺ
ĠíĮ¨ ì¹ĺ
ìĭł ìĿĺ
ê²½ ìĿĦ
Ġì¡° ìŀĳ
Ġë¶Ħ ë¥ĺ
Ġë°Ķ ëĭ¥
ĠìĿ¸ ëıĦ
êµ¬ ìĿĺ
ĠìĨį ìĹĲìĦľ
ĠìĿ´ë¦Ħ ìľ¼ë¡ľ
Ġ re
ìļ° ê³ł
ĠëĤ¨ íİ¸
Ġë§Ī ì¹¨
Ġë°Ŀ íĺĶëĭ¤
Ġê±± ìłķ
ìĬ¤ ìĹĲìĦľ
ë¡ł ìĿĦ
ĠíķĺëĤĺ ìĿĺ
Ġê°ģ ìĦ±
ĠíĬ¹ìĦ± ìĥģ
ĠëĤ´ìļ© ìĿĢ
ĠëĬĲ ê»´
ĠìĿ´ ê¸°
ìķĺ ê³ł
ì¡Į ê³ł
ë¡ľ ìļ°
Ġê±° ì§ĵ
ì½ ©
ìĽ ¨
ĠìĤ¬ ë¬´
Ġë¯¸ ë¦¬
Ġë¹ Ļ
ë¡ľ ëĵľ
ĠíŀĪ ìĸ´ë¡ľ
Ġëħ Ħ
ĠëĪĪ ìĿĦ
Ġëĵ± ìĹĲ
ë²ķ ìĿĦ
ĠëĬĺ ìĸ´
Ġë¬´ ëĦĪ
ĠíķĺëĤĺ ë¡ľ
ë§Į ìľ¼ë¡ľ
ëĵ Ģ
A R
ĠëĪĪ ìĹĲ
Ł ìķĦ
ĠíĶ ½
íİĺ ìĿ´ì§Ģ
Ġë¶Ļ ìĸ´
ìĹ ½
Ġì¹´ëĵľ ë¥¼
Ġìŀ¥ ëĤľ
ĠíķĦìļĶ ê°Ģ
ĠëŁ °
ëĤĺ ë¥¼
Ġê½¤ ëĤĺ
ĠìĹŃ ëĮĢ
ĠëĤ´ ìĹĲìĦľ
Ġ200 8
ĠìĿ¸ ìĥĿ
ìļ´ ëıĻ
ìĿ¼ ìĿĺ
ĠìłĢ íķŃ
Ġë° ¸
Ġë¶ ķ
ĠëĲĺ ë©´ìĦľ
Ġì į¼
ĠíĮ¨ ëŁ¬
íķĺëł¤ ëĬĶ
Ġìĸ´ ì°Į
ìĽĮ ìĦľ
ë¡ľ ê·¸
Ġë¶Ģë¶Ħ ìĿ´
ĠíĬ¸ ë¦¬
Ġë§Īë¬´ ë¦¬
Ġë§ŀ ìķĦ
ĠìłĲ ìĿĢ
ĠíĽ Į
ĠíĽĦ ìĨį
Ġëª© ìĪ
Ġìħ ĭ
Ġí ĥĿ
ìĺ ·
Ġë¹¼ ìķĹ
ĠìłĲ ìĹĲìĦľ
Ġìµľì´Ī ë¡ľ
íķ´ ì¡Įëĭ¤
ĠìĨį ìĦ±
Ġê²½ê¸° ìĹĲìĦľ
Ġìŀ¬ ë¯¸
íķ´ ì§Ħëĭ¤
Ġë¡¯ ëį°
ìĿ´ ìķ¼
ë²Ħ ë¦¬ëĬĶ
Ġê·¸ ë§Į
Ġì¹´ ë©Ķ
ìĭľ ìĺ¤
ĠëĮĢ ë¹Ħ
Ġê·¹ ìŀ¥
Ġê±° ìķ¼
A N
Ġìļ° ë¦¬ê°Ģ
ĠìĤ´ìķĦ ëĤ¨
Ġì§Ħ ìŀħ
Ġì° Į
ê·¸ ë£¹
ëª¨ ë¡ľ
Ġë§Į íķľ
Ġë© ľ
ĠíĿ ī
Ġw iki
Ġë¡ Ŀ
ìķ½ ìĿĦ
ìĭľ ë§Ī
ìĿ´ ìĻĢ
Ġìĺ¤ ë¦¬ì§Ģ
Ġëª¨ìĬµ ìľ¼ë¡ľ
Ġê°Ĳ ìķĪ
ĠíļĮ íĶ¼
u l
ìĹĲê²Į ëıĦ
1 9
ëĭ¨ ê³Ħ
ë§ Ľ
Ġë§ī ìķĦ
Ġíħ Ĳ
ëĭµ ê²Į
ĠìĽĶëĵľ ì»µ
Ġìłģ ìĿĺ
Ġëį ľ
ĠëĮĢíķľë¯¼ êµŃìĿĺ
ë¶Ģ ìĹĲìĦľ
ĠìĿ´íĥĪ ë¦¬ìķĦ
ĠìĤ¬ ê²©
ìŀĸ ìķĦ
Ġë§Ĳ ê³ł
ëĨĵ ìĿĢ
Ġì²´ ëł¥ìĿ´
êµĲ ìľ¡
ìħ ¨
ìķĦ ìĿĺ
ĠìĿ´ìľł ê°Ģ
Ġëį° ìĿ´íĦ°
ìĿ¼ ë¶ĢíĦ°
ĠëıĮ ëł¤
Ġíģ Ĳ
ìłģ ìĿĢ
ëĭ¤ ë¥¸
Ġst yle
ìĸ´ ëĬĶ
ĠëĦ¤ ìĿ´
ĠíĻķ ìŀ¥
Ġìłķ ì±ħ
íķ´ ë¥¼
Ġê³µ ëŀµ
ëĤĺ ìĻĢ
ë¯¸ ìĿĺ
k m
ĠìĦľ ìĪł
ì¹´ ê°Ģ
ë¤ Ħ
ĠìłĦ ê¸°
ê¹Įì§Ģ ëıĦ
Ġìĭľ ëĮĢ
Ġê² ¹
ĠíĻķìĭ¤ íŀĪ
at ion
Ġê¸°ìĪł ìĿĦ
ĠëĤĺìģ ĺ
ìĬ¤ ì½Ķ
ĠëĶĶ ìŀĲ
ĠëĤĺ ëĪĦ
Ġìłķ ìĿĺ
Ġëľ ¬
ĠìĨĮ ëħĦ
ĠëĮĢíĳľ ìłģìĿ¸
ë ĩĮ
ĠìŀĪìĹĪ ìľ¼ëĤĺ
ìĿ´ëĿ¼ ìĦľ
Ġíķľëĭ¤ ê³ł
ìĿ¼ ìĿĢ
ĠìłĦ ìĤ¬
Ġëĭ ®
íĢ ´
íı ¼
íĬ¸ ë¦¬
ë°© ìĹĲ
Ġ3 2
Ġë³´ ì¡°
Ġìĥģ ì²ĺ
Ġìĭľ ìĦ¤
ĠìĨĲ ìĹĲ
o p
ê³ł ê°Ģ
íĺķ ìĿ´
Ġìĺģ ìŀħ
ëŀ Ĳëĭ¤
Ġìĸ¸ ë¡ł
ìłĦ ìľ¼ë¡ľ
ĠìĨį ëıĦ
ìĽł ëĭ¤
ìĹĪëĭ¤ ëĬĶ
ĠëłĪ ëĵľ
a b
Ġì£½ ìĿĦ
Ġìĭľ ê¸°
ĠëĲ Ĳ
Ġìĭ¶ ìĿĢ
íķĺ ë¯Ģë¡ľ
Ġìħ Ģ
ìļ© íķľ
ë¥´ ìĿĺ
ìĭľíĤ¨ ëĭ¤
ĠíĶĦë¡ľ ìłĿ
ĠëĮĢíķ´ìĦľ ëĬĶ
Ġëĭ¤ ìļ´
Ġìŀ ī
Ġìĸĺ ê¸°
ĠìĿ¸ ê¸°
ì» ¨
ìĹŃ ìľ¼ë¡ľ
Ġ ãĥ¼
ìĹ° íŀĪ
ì¡° ìĿĺ
Ġë°Ľ ì§Ģ
íĴ Ģ
ĠìĤ¬ ê³¼
ëª¨ íĨł
ĠìĿ´ ëĵ¤ìĿĢ
ìħ Ģ
Ġê¸° ëħĲ
ĠëĤĺìĺ¤ ê³ł
ì ¨
ĠìłĦ íĻĺ
ë¦¬ ìŀĲ
ë£Į ë¥¼
Ġê·¸ ëł¤
ĠíĿ¬ ë§Ŀ
ìļ© ìĿ´
ĠìĥģëĮĢ ê°Ģ
êµ¬ ëĬĶ
Ġê¹ Ĭ
ĠíĥĢìĿ´ íĭĢ
ĠìłĢ ê²©
Ġìĸ´ëłµ ëĭ¤
Ġv s
ĠìĦľ ë²Ħ
Ġìł ĬìĿĢ
ĠëĤĺ ë¥¼
ëģ Ħ
Ġê±° ëĮĢíķľ
Ġ áĦ
Ġì¤ĳìĭ¬ ìľ¼ë¡ľ
Ġì§Ģ ìłģ
ëıĻ ìĥĿ
ĠëĤł ëł¤
Ġìĭľ ë¯¼
ĠíĻķ ë³´
Ġëª¨ íĭ°ë¸Į
ĠE X
Ġìĺ¤ ë¥´
Ġê°ľ ì¡°
ĠëĪĦ ê°Ģ
Ġì»¨ ìħī
ĠìĿ¸ ë¥ĺ
Ġì§Ģ ìłķ
ë´ ¤
íķľ ëį°
Ġì§ĳ ìĹĲ
ì§Ģ ìŀĲ
Ġë¹Ħ ëĤľ
íħ Ģ
Ġë¬¼ ìĸ´
ëłĢ ëĭ¤
ĠíĻĪ ëŁ°
ĠëĶ± íŀĪ
ìĤ° ìĿĦ
Ġìĭľ ëĤĺ
ë¥ł ìĿ´
Ġê²¨ ìļ°
ëłĪìĿ´ ìħĺ
Ġë§Ī ë¥´
Ġê·¸ ìĹĲ
Ġëª» íķľëĭ¤
ìłĦ ìĿĢ
ë¦¬ ë©´ìĦľ
ëĿ¼ ìĬ¤
ĠP C
Ġìŀł ê¹Ĳ
Ġë¹ĦêµĲ ìłģ
ĠìłĲ íĶĦ
ĠìĦł ë³´
ĠìĤ´ ìĿ¸
Ġìłľ ìĭľ
íĮ¨ ë¥¼
Ġê¼ ½
ë¦¬ ìĺ¨
ë¡ľ ëıĦ
ìłģ ìĿ´ê³ł
ĠìĽ ¬
ìķ Ĭ
Ġìŀ¡ ê³ł
Ġë¶Ģ ëĭ´
Ġê°Ģ ìĪĺ
ĠíĨµ ê³¼
ìŀ¥ ê³¼
Ġìŀ Ń
Ġëĵ± ê¸ī
Ġë³´ ìĿ´ì§Ģ
Ġë¬´ ìĤ¬
Ġê°¤ ëŁ¬
Ġëĭ¹ ìŀ¥
ĠìĨį ìĹĲ
íļĮ ìĹĲìĦľ
Ġì¢Ģ ë¹Ħ
ĠìĨĮ ë¦¬ë¥¼
ìłĦ ìŁģ
Ġê±¸ ìĸ´
Ġ3 00
ĠëĤĺ ë
ìĺĢ ëĬĶëį°
ìłľ ìĹĲ
Ġê¸¸ ìĿĦ
Ġìķ½ ìĨį
Ġëį°ë¯¸ ì§Ģë¥¼
Ġìłķë³´ ë¥¼
ĠìķĦ ìĬ¤
ì¦Ī ê°Ģ
ê°ľ ê°Ģ
Ġê²Į ìĿ´
ĠìŀĲìĭł ìĿĢ
ĠëĤĺ ëĪ
Ġ i
ĠìĿ¼ë°ĺ ìłģìĿ¸
ë¦¼ íĶ½
ê¸° ìĤ¬
ìª½ ìĹĲ
ìĥĿ íĻľ
ëĬĲ ëĥĲ
ìĦ± ëıĦ
Ġë¬ ¶
ĠëıĦ ì¿Ħ
ĠëıĦ ìĽĢìĿĦ
Ġì¸¡ ë©´
ìľ¼ë¡ľ ë¶ĢíĦ°
ìĩ ł
ĠëĤĺ ìĿ´íĬ¸
Ġê°ľ ìµľ
Ġê°Ģ ê²Į
ĠìĥģëĮĢ ë¥¼
T V
Ġê·¸ê²ĥ ìĿĦ
ĠìĿ´ ëĭ¤
íĺ¸ ìĿĺ
Ġë¨¹ ëĬĶ
ĠìĿ´íĽĦ ìĹĲ
ĠíĶĮ ëŀĺ
íĴĪ ìĿĦ
ĠìľĦì¹ĺ íķľ
Ġë¶Ģ ë¥´ëĬĶ
ĠíĻĶ ìĹ¼
ê ¿
Ġë§ģ íģ¬
Ġë¿Ĳ ìĿ´ëĭ¤
Ġì¢ ģ
Ġìľ Ī
ĠìµľëĮĢ íķľ
íĺ Ķ
ìĭ¬ íŀĪ
íĻĶ ìĹĲ
Ġìº ¡
ìľĦ ìĿĺ
ê¸° ê´Ģ
Ġíĺ Ĳ
íļĮ ìĹĲ
íŀĮ ëĭ¤
ĠìĹĨ ê¸°
ĠíĮĢ ìĿ´
o c
ĠìķĦ íĮĮ
ê° Ĵ
¶ ¤
Ġê·¸ ëŁ´
ëĮĢ ìłĦ
ĠìĬ¤ ì½Ķ
ëĭ¨ ìĹĲ
ĠìĿ´ê²ĥ ìĿĢ
ĠìĿ´ê²ĥ ìĿ´
Ġë§Ī ë¦¬
ì¹ľ ëĭ¤
ìķ¼ ë§Ī
Ġíķ´ ìĦĿ
ĠëĤľìĿ´ ëıĦ
Ġíıīë²Ķ íķľ
ĠìĹ ī
Ġíĥĳ ìŀ¬
Ġë©Ģ ë¦¬
ĠĠĠĠĠĠĠĠ ĠĠĠĠ
ìĻķ ìĿĺ
ĠC h
Ġì»¤ ë®¤
Ġë¿Ĳ ë§Į
Ġìŀ ĩ
Ġê°Ģ ìłķ
ĠìĬ¤íı¬ ì¸ł
Ġìŀ¥ ê¸°
Ġëª° ìķĦ
ëĮĢ íĳľ
Ġìłľ ìķķ
Ġë°© ë¬¸
ìĦł ìĪĺ
ëıĻ ìĿ´
ëłĪ ìĿ¸
Ġê·¸ ê²Į
ë¥ Ń
ìłľ ëĬĶ
Ġìĭľìŀĳ íķľëĭ¤
ëª© ìĿĦ
ìŀĲ ìĹĲê²Į
ëł¥ ìĹĲ
Ġë§ŀ ê³ł
Ġëĭ¤ ë¦Ħ
ĠìĪ ²
Ġìķħ ë§Ī
Ġìĺ¤ë¦¬ì§Ģ ëĦĲ
ëķĮ ë¬¸ìĹĲ
ĠíķĦ ìĤ´
ĠëĲĺ ê¸°
êµ¬ ìĹĲ
Ġb e
O N
ĠìĥĿ ê¸°
ĠìĥĿ ìĦ±
Ġíĺ ģ
Ġíİĺ ìĿ´
ĠíĮĮ ìķħ
ìĿ¼ ëŁ¬
ê° ¤
Ġì¥ Ĳ
Ġíŀĺ ìĿ´
ĠìĹ¬ íĸī
ĠíĪ¬ ìŀĲ
ëĿ½ ìĿĦ
íĮĲ ìĿ´
Ġ200 7
Ġ on
ìĿ´ìĹĪ ìľ¼ëĤĺ
ĠëĮĢ ëĨĵê³ł
Ġë³¸ ìĿ¸ìĿĢ
ìĭľ ë¸Į
Ġê±° ëĳĲ
ĠìĺĪ ìłĦ
ĠìĦ¤ ë¦½
ìĦ¸ ìĿ´
Ġ3 3
ĠëĶĶ ì§Ģ
ì³Ĳ ìĦľ
Ġëħ¼ëŀĢ ìĿ´
ĠìĹĦì²Ń ëĤĺê²Į
Ġìĭ¶ ìĸ´
Ġíİ ľ
Ġë§Į ëĭ¤
Ġë°Ķê¿ Ķ
ìķħ ìĿĺ
ëĿ¼ ìļ°
Ġì§Ģ ëĭĪ
ì§Ģ ìĹŃ
ou nd
ĠìķĦ ì¹¨
Ġëĭ Į
Ġë¯¸ ëĵľ
ê² ģ
ìŀĦ ìĹĲëıĦ
Ġì» ¬
ë°© ìĿĺ
ìĭľ íĶ¼
Ġì½Ķ ìĬ¤
ĠìŀĪ ëıĦë¡Ŀ
ëĮĢ ìĹĲìĦľ
ĠëķĮ ìĿĺ
il l
ë¦¬ ìĹĲìĦľ
íĬ¸ ë¡¤
ë¹ µ
Ġì§§ ìĿĢ
ĠìĹ¬ ë¦Ħ
ë°Ķ ë¡ľ
ëł ´
Ġìµľì´Ī ìĿĺ
ĠF C
Ġ4 5
ë°Ľ ê³ł
ĠìĬ¹ ë¦¬ë¥¼
ĠK BS
ì§Ħ ìĿĺ
ĠìĿ¸ ê¸°ê°Ģ
ĠëģĿ ê¹Įì§Ģ
Ġê¼ ´
ĠìĽĲ íķĺëĬĶ
ĠëŃĶ ê°Ģ
ĠY ou
ëħĦ ìĿ´
ĠìĿĢ íĩ´
ê¸° ë§Į
ëŀ ¬
Ġë°Ķ íĥķ
íĺ¸ ëĬĶ
ê³Ħ ìĹĲ
ìŀ ī
ìĭĿ ìĿĺ
ĠìºĲë¦ŃíĦ° ê°Ģ
ĠëģĿ ëĤ´
íģ¬ ëŀĺ
ì§Ī ìĿ´
Ġíģ¬ ëĭ¤
Ġì§Ģ ëĭĮ
ëĭĺ ìĿ´
Ġë³´ ë³ĳ
ĠëįĶ ë¸Ķ
Ġë°Ģ ìĸ´
Ġê·¸ëħĢ ëĬĶ
Ġê³ł ë¯¼
Ġëħ¸ ëıĻ
ĠëıĦ ìĽĢìĿ´
ìĦľ ê°Ģ
Ġì´Īë°ĺ ìĹĲ
ê¶Į ìĿ´
ê°Ģ ë¡ľ
Ġì£¼ ë¬¸
Ġìĸ´ ìļ¸
ĠìĿ´ìķ¼ ê¸°ê°Ģ
ĠëĴ¤ ë¡ľ
ë°ľ ìĿĦ
ĠI I
ë¥´ ê°Ģ
ĠìĿ¸ê°Ħ ìĿĺ
Ġëĸ ¨
Ġê´ĳ ì£¼
ĠíĻľëıĻ ìĿĦ
Ġê°ľ ìĦł
Ġëĳ Ķ
Ġëª© ë¡Ŀ
Ġê¸Ī ì§Ģ
ìĥģ ìĹĲìĦľ
Ġìĸ´ëĬĲ ìłķëıĦ
Ġì¶Ķê°Ģ ë¡ľ
ĠìĤ¬ ì¿ł
ĠìĦł ìĸ¸
ĠìĥĿ ê²¨
ë³µ ìĿĦ
Ġ x
i e
ĠíķĦ ìĪĺ
Ġìľ Į
íķĺê²Į ëıĦ
Ġë³´ ëĦĪ
ĠìĿĺ íķľ
Ġì´ ī
ì¹´ ìĿĺ
íķ¨ ìĿ´
ĠìĦľ ë¸Į
ĠëħĢ ìĦĿ
Ġ200 6
Ġìĺ¤ íĨł
Ġê³³ ìĹĲ
Ġëª¨ ë¥¸ëĭ¤
íŀĪ ê³ł
ìĿ´ ìĹĲ
ĠìĪĺì¤Ģ ìĿĺ
ĠìŀĲ ê¸°ê°Ģ
Ġë°ľ ìĸ¸
Ġíıīê°Ģ ë¥¼
íģ¬ ëĬĶ
ĠëĿ¼ ë©°
ìĻĢ ìĦľ
ĠëĤ´ìļ© ìĿĦ
ëł¸ ê³ł
ĠìĹ ł
Ġëį°ë¯¸ ì§Ģ
Ġêµ¬ ë¶Ħ
íĨ ¨
ĠëıĦ ë¡ľ
íĦ° ìĿĺ
ar t
ë§Ī íĬ¸
ĠìļĶ ë¦¬
Ġíĸ¥ íķ´
Ġëªħ ìĿĺ
ê²Į ëıĦ
ĠëĤ ¸
Ġìī¬ ìļ´
I N
ë£¨ ê°Ģ
ì½Ķ ê°Ģ
ĠëĮ ĵ
Ġê°ķ ì¡°
Ġë°© íķ´
Ġì±ħ ìŀĦ
ĠìĥģíĻ© ìĹĲ
Ġë¶Ħ ìķ¼
ĠëĲĺ ë©°
Ġë§Ĳ íķ´
Ġë¶Ħ ë¦¬
ĠìĽĲ ê±°ë¦¬
Ġíķ´ ì£¼
Ġëª¨ ìķĦ
Ġë³´ ì»¬
Ġê·¸ ëłĪìĿ´
Ġê·¸ëłĩ ëĭ¤ê³ł
Ġì§Ģê¸Ī ê¹Įì§Ģ
ëį ľ
ĠìĤ¬ëŀĮ ëĵ¤
ĠëĶ° ë¥¸
i z
ĠëģĿ ëĤľ
u p
Ġê¶ģ ê·¹
ëĿ¼ ìĻĢ
Ġë¹Ħ ë¡Ŀ
P C
ìĤ¬ ìĹĲìĦľ
ĠìĿ´ìłĦ ìĹĲ
Ġë¶Ģ ëĮĢ
ì» ·
ĠìķĦë¬´ ëŀĺëıĦ
ë¦ ĩ
ĠìĽĲëŀĺ ëĬĶ
Ġìķ Ļ
Ġíķµ ìĭ¬
ìľ µ
Ġìķ¼ ë§Ī
ĠìŀĲìĭł ìĹĲê²Į
ĠíĪ¬ ìĪĺ
Ġë¬¸ìłľ ë¡ľ
íĤ¤ ë¥¼
ĠìķĮëł¤ ìł¸
ê° ĸ
Ġê³ł ìĨį
ĠìĹ´ ìĭ¬íŀĪ
Ġê² ģ
ĠìľĦíķ´ìĦľ ëĬĶ
ì½Ķ ìĿĺ
ë¯¸ ëĬĶ
Ġì£ ł
Ġë§Įëĵ¤ìĸ´ ì§Ħ
Ġëªħ ì¤ĳ
ê³µ ìĿĦ
íĻĶ ìĹĲìĦľëĬĶ
Ġì§ģ ìłĦ
ëĭĪ ìĬ¤
Ġìķł ë§¤
1 1
ĠìĿ´ìļ© íķľ
ìĿĦ ëķĮ
ìĨĮ ê°Ģ
Ġì´Ī ëĮĢ
Ġê²ĥìĿ´ ìĹĪëĭ¤
or d
Ġëª¨ íĹĺ
ì°¨ ë¡ľ
Ġ3 6
Ġë°ĶëĢĮ ìĹĪëĭ¤
íĻ Ģ
Ġë°ľ íľĺ
Ġê¾¸ì¤Ģ íŀĪ
ĠìĹĦ ë§Ī
Ġë°ĽìķĦ ëĵ¤
Ġíļ¨ ìľ¨
Ġíĭ Ī
Ġë¯¸ ì¹ľ
ê³ł ëĵ±íķĻêµĲ
Ġë¨¸ ë¦¬ë¥¼
ĠìłĲ ëł¹
ĠíĥĢìĿ´ ë°į
ĠíĹĪ ìļ©
ì¹ĺ ì§Ģ
ĠH P
Ġë¡ľ ë§Ī
Ġëª» íķ´
Ġë³ĳ ìĤ¬
íĥĢ ëĬĶ
ìŀĲ ëĵ¤
Ġë¶Ģ ë¥¸ëĭ¤
ì¦Ī ë¥¼
ëĭ¬ ëĿ¼ê³ł
Ġê±¸ ë¡ľ
ĠêµĲ íĨµ
ĠìľĦ ìĹĲìĦľ
Ġê° ±
ìĹĪ ìľ¼ëĤĺ
ìĭľ ëĮĢ
ë¬¼ ë¡ľ
Ġì¤ĳ ìĿ´ëĭ¤
Ġíŀĺëĵ¤ ëĭ¤
ĠìĤ¬ìĭ¤ ìĿĢ
íĿ ĳ
Ġê²ĮìŀĦ ìĿĺ
Ġê³ł ëĮĢ
Ġëĸ¨ìĸ´ ì§Ħ
íı¬ ë¥¼
Ġíĥľ ìĸĳ
ë¥´ ê¸°
ìĹŃ ìĿ´
ĠB G
Ġì²ĺìĿĮ ìĹĲëĬĶ
ĠM P
ì´ ī
Ġm e
ĠìľĦ ë¡ľ
ĠìĨį ëıĦê°Ģ
ìļ° ìĿĺ
Ġë³´ìĹ¬ ì£¼ëĬĶ
ĠíĽĮ ë¥Ń
íĿ Ĳ
ĠìĦł ìłķ
ìĹĲìĦľ ë§Į
Ġëĭ¤ ê°Ģ
ĠíĿĶ íŀĪ
Ġëĸ¨ìĸ´ ìł¸
Ġ19 3
ĠìĥģëĮĢ ìłģìľ¼ë¡ľ
Ġìĺ¤ ëĬĶ
ĠìĹĨ ê²Į
Ġë©Ģ íĭ°
ê°ģ ìĿĦ
Ġëł Į
ì²´ ë¡ľ
ĠëĮ Ħ
Ġê´ĳ ê³ł
Ġê±´ ê°ķ
ìĮ į
ĠìĬ¤íĤ¬ ìĿĦ
Ġíĺķíĥľ ë¡ľ
ì¹´ ëĵľ
Ġëĸ¨ìĸ´ ì§ĢëĬĶ
ĠìĥĿê°ģ ìĿĦ
ĠìĬ¤ ìľĦ
ë¥ ľ
ĠíķĺëĤĺ ê°Ģ
ìĿ¼ ë¡ľ
ĠëĦĺ ìĸ´ê°Ģ
Ġìĺ¨ ê°ĸ
Ġë§Į ì¡±
ĠìŀĦ ë¬´
êµŃ ìĿ´
Ġì§Ģ ê¸ī
o k
Ġê·¸ ëĵ¤ìĿĺ
Ġë©¸ ë§Ŀ
ĠìĦ± íĸ¥
ëł Ĳ
ĠíĮ ©
ĠìĤ¬ìļ© íķľ
Ġì²ĺìĿĮ ë¶ĢíĦ°
ë¡ł ìĿ´
ëŀĢ ëĵľ
Ġë§Ĳ ëıĦ
Ġìĸ´ì© Ķ
ĠìłľìĻ¸ íķĺê³ł
Ġì¤ĳ ìĹĲìĦľëıĦ
ĠìĿ¼ ìĸ´ëĤľ
ëł¥ ëıĦ
Ġë³¸ íİ¸
Ġëį ©
© ëĭĪëĭ¤
ĠëĬĺ ìĸ´ëĤĺ
Ġì¤Ħ ìĸ´ëĵ¤
ĠìķĦíĶĦ ë¦¬ì¹´
íĶĦ ìĿĺ
ĠëķĮ ë¶ĢíĦ°
íĨł ê°Ģ
ĠëĦ¤ ê°Ģ
Ġë§Ī ëł¨
ê·ľ ëª¨
Ġíı¬íķ¨ íķľ
Ġê²ĮìŀĦ ìĿ´
Ġë²Ķ ìľĦ
ĠìķĦ ëĤĺ
ĠìĨĶ ë¡ľ
ìĦľ ìĿĺ
Ġìľł ëıĦ
Ġìŀĳ ìĦ±
ê¶Į ìĿĺ
ìĿ´ìĹĪ ì§Ģë§Į
ê²© ìĿ´
ĠìłĦ ìĪł
ĠìĹ° ì£¼
Ġíĺ ľ
Ġíĺķ ìĦ±
Ġê²¨ ìļ¸
Ġìĭľìŀĳ íķľ
A T
ĠíķĦìļĶ íķĺëĭ¤
ëħĦ ìĿĺ
ĠíĻĪ íİĺìĿ´ì§Ģ
ĠëĤĺìģ ľ
ĠìĦ¤ ê³Ħ
Ġê±° ìłĪ
Ġë°ĺ ìĺģ
ìĥģ íĥľ
ĠëĤ´ ë¶Ģ
Ġê³µ íĨµ
Ġëª¨ ìŀĲ
Ġìĺ¤ íĽĦ
Ġì§Ħ íĻĶ
Ġ it
ìĦ¸ ìĿĺ
ĠíĮĢ ìĿĦ
ĠìĿĺ ìĭ¬
r a
ìĿ´ ëįĺ
ì¡° ê°Ģ
ĠìĬ¤ ì¹´
Ġì¹´ ìĺ¤
Ġê´ĳ ìĹŃ
ĠìķĪ íĥĢ
Ġë³´ ê¸ī
ĠìĿ´íĽĦ ìĹĲëĬĶ
Ġì¶Ķê°Ģ ëĲľ
Ġê´Ģ íĨµ
f f
Ġê±° ëŀĺ
íİ Ļ
ĠìĹ° ìŀ¥
ĠìĹĨ ìľ¼ë©°
Ġëĵ± ë¡Ŀ
Ġê²Į ìĭľ
ĠìĦľë¹Ħ ìĬ¤
ëĿ¼ ë¦¬
ê³¨ ìĿĦ
íĪ °
Ġë¸Į ëłĪìĿ´
Ġê¹ İ
Ġëĭ¹ íĻ©
ĠìĤ¬ê±´ ìĿ´
ĠìĤ´ ì§Ŀ
íķĺê¸° ë¡ľ
Ġë°¸ ëŁ°
Ġêµ¬ ìŀħ
Ġì»¨ íĬ¸ë¡¤
r i
Ġëĸł ìĺ¬
Ġëį° ìĿ´
Ġêµ¬ ì¶ķ
Ġê°ķ ìłľ
Ġë¬´ ê¸°ë¥¼
Ġì½Ķ ëĦĪ
Ġ100 0
ìĪĺ ìĻĢ
on t
Ġê°Ģ ëĵĿ
Ġë´ī ìĿ¸
Ġíİ¸ ì§ĳ
ĠìĤ¬ëŀĮ ëĵ¤ìĿĦ
ìĦł ìĹĲ
ìĸ Ģ
Ġìļ° ëł¤
ĠëĤ ³
ĠìŀĲ ìĤ´
ë¬´ ëĿ¼
Ġê·¼ ê±°
Ġë¶Ħ ìĦĿ
ī ĺ
Ġê³ł ëĵ±íķĻêµĲ
Ġì¤ĳ ëĭ¨
ìĿ¸ì§Ģ ëĿ¼
Ġëĵ± ëĵ±
ëħĦ ê¹Įì§Ģ
Ġê·¸ëħĢ ë¥¼
Ġìĺ¤ ìĺ¤
ëĭ¹ ìĿ´
ĠìĪĺ íĺ¸
ìĭľì¼° ëĭ¤
íĥĢ ìŀĦ
ìĿ´ ìĥģ
Ġì°© ìļ©
ĠìĤ¬ìĿ´ ìĹĲìĦľ
Ġë°©ìĭĿ ìľ¼ë¡ľ
Ġì§Ģ ìĺ¥
ĠíħĮ ëŁ¬
ĠíĶĦë¡ľ ëĵĢ
ĠíķĺëĤĺ ë¥¼
Ġì¶ ¤
ì¹ĺ ê¸°
Ġì¥ ¬
ĠM BC
Ġë¬´ ìĦľ
Ġìĭ¤ ì§Ī
ĠëĨĵ ê³ł
ëģ¼ ë¦¬
ĠíĮĮ íĬ¸
ë©´ìĦľ ëıĦ
ìĭľ íĭ°
ì°¨ íĶ¼
Ġìĭ¤ ìĭľ
ëł ģ
ĠìĿ¸ ê¸°ë¥¼
ĠìŀĪ ìľ¼ë¯Ģë¡ľ
Ġê·¸ ë¦¬ìĬ¤
Ġê°Ħ ëĭ¤
ë¦¬ ìķĪ
ìķĺ ì§Ģë§Į
Ġë§Įëĵ¤ ìĹĪëĭ¤
Ġê°ľ ë´ī
Ġìĸ´ ì°¨íĶ¼
ĠíĬ¸ ëłĪìĿ´
ĠìķĬ ê¸°
íĶĦ ëłĪ
Ġíķ´ êµ°
ĠìĤ¼ êµŃ
ìĤ¬ ìĿ´
ìļĶ ìĿ¼
ĠìĥĿê°ģ íķĺëĬĶ
Ġê¸°ë¡Ŀ íĸĪëĭ¤
ĠìĿĮ ìĭĿ
ëł ĺ
Ġì¦Ŀ ê±°
ëŁī ìĿĺ
ìĥ ·
ĠìķĬ ìľ¼ë©°
ĠëĮĢ ëĭ¤
Ġëĵľ ëĿ¼ìĿ´
ë¬¼ ìĿĺ
Ġ200 5
ĠìĻĦ ë£Į
ĠìĤ¬ëŀĮ ëıĦ
Ġê·¸ ë§Įíģ¼
ĠìĥģëĮĢ ìĿĺ
ĠëłĪìĿ´ ìłĢ
Ġì»´íĵ¨ íĦ°
Ġìļ© ë³ĳ
Ġê³Ħ ìĤ°
ĠíĿ¡ ìĪĺ
Ġëĵ¤ìĸ´ ìĺ¤
ĠìķĦ ëĭĲ
Ġ19 5
Ġì£½ ìĿ´
ĠìļĶ ìĭľ
Ġê±° ëĮĢ
ëıĦ ìĭľ
ĠìĹ´ ë¦°
Ġê´Ģ ê´ĳ
Ń ī
Ġë³´ ìŀĲ
íķĺê¸° ìĹĲ
ĠìĹħê·¸ ëłĪìĿ´ëĵľ
ë© į
Ġëĳĺ ìĿ´
ĠìĿ¼ ì¢ħìĿĺ
ĠìĬ¤íİ Ļ
ë³´ ê°Ģ
l ay
Ġê·¸ ëĭ¤
Ġë²Ĺ ìĸ´ëĤĺ
Ġê²ĥ ìĿ´ëĿ¼
ë¶ ķ
Ġìĥ Į
Ġìľł ìļ°
Ġ200 4
ĠëĴ¤ ì§ĳ
ëĤĺ ëĭ¤
ĠëıĻìĿ¼ íķľ
Ġë§Ī ìĤ¬
Ġê·¸ ëıĻìķĪ
Ġìĸ¼êµ´ ìĿĦ
ìĸ´ ìł¸
Ġì¶ľ ë°ľ
ĠìĿ´ìĥģ íķľ
ĠíĸĪëĭ¤ ê³ł
Ġë§Īì§Ģë§ī ìľ¼ë¡ľ
P S
ìĹĪ ìľ¼ë©°
Ġìŀ¬ ë£Į
ìŀĲ ëĵ¤ìĿĦ
ë¡ľ ëĤĺ
ĠëĤ´ìļ© ìĿ´
Ġê·¸ëłĩ ì§Ģ
ìķĦ ìĽĥ
Ġê²ĥ ìĿ´ëĿ¼ëĬĶ
ĠíĻ© ê¸Ī
at e
ë§Į ìĿĢ
Ġìĭł ì²´
ìŀĪ ëįĺ
Ġëĸ ¼
ĠìķĬ ìķĦìĦľ
Ġìĥģíĥľ ê°Ģ
ĠìĿ´ ëĿ¼
Ġìĸ´ ì¨
ĠìķĦ ìĭľìķĦ
o ve
Ġë²Ħ íĬ¼
ì¤¬ ëĭ¤
Ġëĭ¹ìĭľ ìĹĲëĬĶ
Ġëª» íķł
ĠíĮ¨ëŁ¬ ëĶĶ
Ġì½Ķ ë¯¹
ĠìĦ¤ ëĵĿ
ë¬ µ
Ġê²½ ìĺģ
Ġê±° ì³Ĳ
ìĨĮ ëħĢ
ê» ı
Ġë°° ìĭł
ìłĲ ìĹĲìĦľ
Ġìĺ¨ ëĿ¼ìĿ¸
Ġë°Ģ ëł¤
ĠìĭľëĤĺ ë¦¬ìĺ¤
ìłĦ ìĤ¬
Ġíı¬ ìĿ¸íĬ¸
ĠëĮĢ ë¡ľ
Ġê·¸ ê³³
íĨł ë¦¬
ĠëĵĢ ìĸ¼
ĠíĪ¬ íĳľ
ëį ©
ê¸° ìĿ¸
íķĺ ìĿĺ
ë¹Ħ ìĿĺ
íķĺ ëŁ¬
Ġì¤ĳ ê°ĦìĹĲ
Ġìķ½ íķľ
ê¸° ìĪł
Ġê¸° íļį
Ġê·¸ê²ĥ ìĿ´
íĻĶ ë¡ľ
ĠìķĪ ìĬµ
íĭ° ìĸ´
ĠìķĦ ìĽĥ
ê¸´ ëĭ¤
ìĬ¤ ìĹĲê²Į
ĠëĤ´ ëĤ´
ëĲĺ ëĬĶëį°
ĠìĿĺ ìĤ¬
ĠìĻĢ ìĦľ
ĠëĿ¼ ëĶĶìĺ¤
ĠI n
ìĦ± ìľ¼ë¡ľ
Ġì§Ħ ìĺģ
ĠëĿ¼ ìĿ´íĬ¸
ê³ł ìĨį
ĠìķĦë¬´ ëıĦ
ë¨¹ ëĬĶ
Ġê·¸ê²ĥ ìĿĢ
ëıĦ ìļ°
ĠìĺĨ ìĹĲ
Ġê·¸ê²ĥ ëıĦ
íķĺ ê¸´
es t
Ġ200 2
ì¹ĺ ìĹĲ
ĠìĿĢ ê·¼
Ġëĭ¨ ëıħ
ëĲĺìĹĪ ëĬĶëį°
ìļ© ìĿĦ
Ġíĥĳ ìĬ¹
c m
ìłĲ ìĹĲ
ëįĺ ê°Ģ
ĠìĽĲ ìłķ
ëĭ¹ ìĿĺ
Ġê± ·
t t
ĠëłĪ ìłĦ
ĠìĥĿê°ģ ìĿ´
ì¡° ë¥¼
ë¦¬ ìĬ¤íĬ¸
ìĬ¤ íĤ¬
ĠN o
ĠìķĦë¬´ ëŁ°
ìķĺ ëĬĶëį°
ê º¼
in d
ĠëĳĲ ëł¤
ê´Ģ ìĿĺ
Ġì¹´ íİĺ
ĠìķĬìķĺ ê³ł
ĠìĦł ë°°
Ġëĭ¤íĸī íŀĪ
Ġ9 9
Ġíķ ¸
Ġë§Ĳ ìĿ´ëĭ¤
ĠìĤ´ ê³ł
ĠíŀĪ íĬ¸
Ġë³´ ìĥģ
Ġë§İ ìķĺëĭ¤
íĶ¼ ìķĦ
ĠìĬµ ê²©
ëĲĺ ê¸°ëıĦ
Ġë²Ħ íĭ°
ìķĺ ìĿĦ
Ġë§Įëĵ¤ ê³ł
Ġë¶Ī ë¦¬ëĬĶ
ìĪĺ ìĹĲ
ĠëĪĪ ì¹ĺ
Ġ3 4
ìĺ¤ ê°Ģ
ë¥´ íĬ¸
ë°© ìĿ´
ëł Ļ
ĠìŀĪìĸ´ ìķ¼
Ġì»¤ë®¤ ëĭĪíĭ°
I A
i a
ĠëĦ ¥
Ġë´ Ħ
ĠìĤ¬ìĭ¤ ìĿ´
ëŁī ìĿĢ
ĠíıŃ íĥĦ
Ġíķ´ ê¸Ī
Ġìłķë§Ĳ ë¡ľ
Ġë§Ī ëĤĺ
Ġ7 5
Ġë²Ħ íĶĦ
ĠíĥĢ ìŀĦ
ìłĦ ìĹĲìĦľëĬĶ
Ġìŀ¬ ìĥĿ
ĠìĿ´ ìĤ¬
ì° ¾
Ġëĵ¤ìĸ´ ìĦľ
Ġíķ´ ìĦ¤
Ġëĵ¤ìĸ´ ê°ĢëĬĶ
ĠìĹĲëĦĪ ì§Ģ
Ġë§Ĳ íķł
Ġì»¤ ë²Ħ
Ġìĵ° ì§Ģ
Ġf or
Ġìľł ëŀĺ
Ġë§Ī ì£¼
Ġíķĺ ëĭ¤ê°Ģ
ĠìĭľìłĲ ìĹĲìĦľ
ëĴ ¤
ê°Ģ ìĹĲ
ĠìĿ¸ ìĤ¬
ì¦Ŀ ìĿĦ
íĥĢ ìĿĺ
ë² ¼
Ġê°Ĳ ìĹ¼
Ġìĸ´ ì§¸
I C
Ġíģ´ ëŁ½
Ġë¯¼ ì¡±
ĠëĲ Ĳëĭ¤
íĮĲ ìĹĲ
ëĵ± ìĿĦ
ìķĺ ëĭ¤ê³ł
ĠìĻĢ ì¤ĳìĹĲ
êµ¬ ë¡ľ
ìĦ ¬
Ġìı ŁìķĦ
ĠìĪ¨ ê²¨
ĠìķĦë¬´ ê²ĥëıĦ
ìĺĢ ìľ¼ë©°
ëĵ¤ ìĿ´ëĭ¤
Ġê³µ íĻĶ
Ġì¢ħ íķ©
Ġë§Ĳ íķľ
Ġíĺ¼ ëŀĢ
Ġíķĺ ëįĺ
íĨ ±
ĠìĿĺë¯¸ ê°Ģ
ë§Ĳ ìĿĦ
ì¹ĺ ìĻĢ
Ġê±° ì£¼
ĠìĹĨìĹĪ ëįĺ
ĠìĤ¬ ëł¹
ìĤ¬ ê±´
Ġìĸ´ì¨ Į
ìĽĲ ëĵ¤ìĿ´
ìĭľ ê³ł
ĠìłĦ ìŀĲ
ìĦł ìĿĢ
ĠìłķëıĦ ëĬĶ
ĠìĿĺ ìĭĿ
ĠìĻ¼ ìª½
ĠëĨĢ ëĿ¼
Ġì°¨ ë¡Ģ
Ġê·¸ëħĢ ê°Ģ
ĠíĿ °
Ġìłľ ìķĪ
íķ´ ìł¸
ìĽĲ ê³¼
Ġìŀħ ìĿĢ
ĠëĤľìĿ´ ëıĦê°Ģ
Ġ199 0
ĠëķĮ ëł¤
íģ¬ëŀĺ íĶĦíĬ¸
Ġìłģ ìĹĲê²Į
ĠìĤ ½
ìĦ °
ĠíĶĮëłĪìĿ´ ìĸ´ê°Ģ
ì¼ Ħ
ĠìĤ° ìĹħ
Ġë¬´ ëĤľ
Ġê° ĵ
Ġì½ ©
Ġìĺ¤íĶĦ ëĭĿ
Ġë¶Ļ ìŀ¡
ê²ĥ ìĿ´
ĠíĸīëıĻ ìĿĦ
ê±° ë¦¬ê°Ģ
ì¿ ¨
Ġëĵ¤ìĸ´ ê°Ħ
Ġê±´ ëĦĪ
Ġë½ĳ ìķĦ
ë£¨ ë¥¼
Ġìĸ» ìĿĢ
Ġë§Į ëĤľ
Ġíķĺ ê¸°ëıĦ
Ġë¶Ģ ìĥģ
ĠT h
ĠìķĦì§ģ ëıĦ
ë ĺ
ĠìĬ¤íĥ ł
ĠìĿĺ ëıĦ
ê¸° ìĹĲëĬĶ
ĠìļĶ ì¦ĺ
Ġê·¸ëĭ¤ ì§Ģ
Ġìĺģ ìĽĲ
ĠëĤĺìĺ¤ ëĬĶëį°
Ġìĭł ë¢°
íĻĶ ëĬĶ
Ġê°ĸ ì¶Ķ
Ġë¡ ±
ëħĦ ê°Ħ
ìĺ¤ ìĿĺ
ĠíĿĶ ëĵ¤
Ġì±Ħ ìļ©
ëĶĶ ìħĺ
ë¹Ħ ëĬĶ
Ġìĸ¸ ëĭĪ
ê¶Į ìĹĲìĦľ
íĮ ¡
Ġëįķ ìĹĲ
ë°Ľ ìķĦ
ëĤ ©
Ġì¿ Ħ
ìĭ ¼
ìĨĮ ëħĦ
Ġìĸ´ì© Į
Ġê³µ ë¶Ģ
Ġì§ĳ ìķĪ
íĨł ìĿĺ
íķ´ ì£¼ëĬĶ
Ġê³ĦìĨį íķ´ìĦľ
ĠëĪĪ ìĿ´
íĮĲ ìĹĲìĦľëĬĶ
Ġê·Ģ ì¡±
Ġë°ķ ìĤ´
Ġê´Ģ ìĭ¬ìĿĦ
Ġì§ĳ ëĭ¨
ëĵľ ë¦¬
Ġëį° ìĬ¤
ĠíĻķë¥ł ë¡ľ
ĠìĿ¼ë¶Ģ ëŁ¬
Ġë¬´ ëł¥
Ġê º
ĠìĿ´ ëŀĢ
íķĺì§Ģ ëĬĶ
Ġê°ľ íİ¸
Ġëŀ ĺ
ĠíĻľìķ½ ìĿĦ
Ġì° °
Ġë± Ģ
Ġìĸ¸ìłľ ëĤĺ
ëĮĢ ìĻĢ
Ġ is
ĠëıĻ ë§¹
Ġì¶Ķê°Ģ ëĲĺìĹĪëĭ¤
Ġìľ¡ êµ°
Ġë°Ķíĥķ ìľ¼ë¡ľ
Ġë§Į ìĹĲ
Ġëħ¸ëŀĺ ë¥¼
Ġê°Ģê¹Į ìĿ´
ĠíĨµ íķ´ìĦľ
ĠìĹŃ ìłĦ
Ġì¡´ìŀ¬ íķĺëĬĶ
Ġíķ ĳ
íĨł ë¥¼
O R
ĠR e
Ġê°Ģ ë¡ľ
Ġë³´ìĹ¬ ì¤Ģ
Ġë¶Ģë¶Ħ ìĿĢ
Ġê°Ģë©´ ëĿ¼ìĿ´ëįĶ
ìĸ´ ì£¼
ê³¼ ë¥¼
4 8
ĠìĪĺ ìļĶ
A M
Ġìĵ´ ëĭ¤
ìħ ĭ
ìĤ Ń
Ġì£¼ ëıĦ
ĠìĤ¬ íķŃ
íĺķ ìĿĺ
ì§Ħ ìĿĢ
ĠëķĮë¬¸ ìĿ¸ì§Ģ
ê´ĳ ìĹŃ
Ġëª¨ ìħĺ
íķł ëķĮ
ĠìĦľ íı¬
Ġë©Ķ ê°Ģ
ĠìĿ´ ëĵ¤
ĠëĮĢ ê³µ
ê³Ħ ë¡ľ
ĠìĿ´ ëĵ¤ìĿ´
an t
Ġë°Ľ ê²Į
e a
ëĲĺ ìŀĲ
ĠìŀĲ ë£Į
Ġë§¤ ìĿ¼
Ġê±° ë¦¬
ëĳ ĳ
Ġê ¶¤
ĠìĤ¬ ìĥģ
ìļ° ë¥¼
ĠìĨĮ ìļ¸
Ġì£¼ ëł¥
Ġë¡ľ ì¼ĵ
ìĭľ ìĻĢ
ìĬ¤íĬ¸ ë¡ľ
Ġê¸ į
Ġë§İ ê³ł
ĠìĪľ ìĭĿ
ĠíĻķë¥ł ìĿ´
íķ´ ì§ĢëĬĶ
ĠìłĦ ëĭ¬
Ģ ëĭ¤
¼ Ī
Ġìĺģ ìĥģìĿĦ
Ġëª© ìłģ
ĠíĥĦ ìĥĿ
Ġëĵľ ëĶĶìĸ´
Ġë¹Ħ íķĺë©´
ë¥´ íģ¬
ĠìŀĲ ë¦¬ìĹĲ
Ġëį° ë¦¬ê³ł
ĠìĻ¸ ìĹĲ
Ġë£ °
Ġëį ®
Ġë¶ķ ê´´
Ġëĭ ¿
ĠìĻ Ķëĭ¤
ìĦł ìľ¼ë¡ľ
Ġë°©ë²ķ ìĿĦ
íĦ° ëĬĶ
ĠêµŃ íļĮìĿĺ
íķĻ ìĿĦ
Ġê±¸ ëł¤
Ġë§Ĳ ìĿĢ
Ġìłģ ëıĦ
ë ¿
ë©´ ìĿĦ
Ġë¶Ī íİ¸
Ġëĳĺ ëŁ¬
ĠìķĮ ëłī
Ġëŀľ ëį¤
Ġì¡° ìłķ
Ġê¸Ģ ìĿĦ
ĠëĲĺ ìŀĲ
ëĲĺìĹĪ ëįĺ
íĮĲ ìĿĺ
O S
ĠìķĦìĿ´íħľ ìĿĦ
ĠìĬ¤íĥ ¯
Ġì²ĺ ì¹ĺ
ë§Į ìĽĲ
Ġê¸° ìłĪ
ê°Ģ ìĻĢ
ĠìķĮëł¤ ì§Ħ
ìķĦ ìĿ´
ê´Ģ ìĿĢ
íķĺìĺĢ ìľ¼ë©°
íħ į
ĠìĤ¬ëŀĮ ëĵ¤ìĿĺ
ĠëĳĲ ë²Īì§¸
Ġìĭ¤ íĸī
Ġìĵ° ëłĪ
Ġê¸° íļĮë¥¼
Ġì¹ĺ ê³ł
ê±° ìļ´
ĠìĬ¤ íĤ¨
ĠìłĦì²´ ìłģìľ¼ë¡ľ
Ġìĭľ íĸī
ì» ´
Ġë¦ ´
Ġê³µ ìľł
ëĭĺ ìĿĺ
Ġíİĺ ë¥´
ë¦¬ ëĭ¤
Ġ20 21
ĠìĪľìĭĿ ê°ĦìĹĲ
ìłĢ íŀĪ
ê°Ģ ëĿ½
Ġíķĺ ìľĦ
ê±° ë¦¬ëĬĶ
ëĤĺ ë¬´
Ġì±Ħ ë¡ľ
Ġì»¨ íħĲì¸ł
Ġë¶Ģì¡± íķľ
el l
ĠìķĪ ëĲĺëĬĶ
Ġì¹´ ì¦Ī
Ġë³´ ìĪĺ
ĠìĺĽ ëĤł
Ġê°Ģ ìŀħ
Ġë³µ ìŀ¡
ìĦ¸ íĬ¸
Ġë¬ µ
Ġë¬¸ ìĿĦ
Ġë§ĪìĿĮ ìĹĲ
ëķ ħ
Ġìº Ķ
Ġì£¼ ìĸ´
ĠëĤ© ì¹ĺ
ë¡ ¬
Ġíķľ ëķĮ
Ġë³´ìĹ¬ì£¼ ìĹĪëĭ¤
ĠëĽ° ìĸ´ëĤĺ
Ġìłķ ê¸Ģ
Ġìķ¡ ìħĺ
Ġìŀ¬ ëĬ¥
ë³´ ëĭ¨
ĠìĪĺì¤Ģ ìľ¼ë¡ľ
ë¦ ī
Ġë¶Ī ëªħ
Ġê·¼ ë¬´
Ġê·¸ ëĵ¤ìĿĢ
ĠíĻ© ìłľ
p s
ê¸ī ìĿĺ
Ġì¶© ëıĮ
Ġì¶Ķìłķ ëĲľëĭ¤
Ġ0 1
êµ° ìĹĲ
Ġì£¼ìĿ¸ê³µ ìĿ´
ëĶĶ ìķĦ
Ġìĺ¬ ë¦¼íĶ½
ĠëĿ¼ìĿ´ ë²Į
Ġìłľ ì¡°
ĠëıĮìķĦ ìĺ¤
g r
Ġ3 8
ë²Ħ ë¦¬ê³ł
ĠìĪĺ ìŀħ
ĠìĬ¤íĬ¸ ë¦¬
ĠìłĪ ë°ĺ
Ġê·¸ëŁ° ì§Ģ
Ġë¹ Ķ
e e
Ġìª½ ìľ¼ë¡ľ
Ġê¹ ĬìĿĢ
ìĿ´ìĹĪ ëĬĶëį°
Ġë³´ ìĿ´ê³ł
á ħ
Ġê³³ ìĹĲìĦľ
ĠíħĮ ë§Ī
Ġë°©ë²ķ ìĿ´
ìŀĲ ëıĦ
Ġìĭľ ëĤ´
ĠìĻ¸ ëª¨
ë£¨ ìĿĺ
Ġê·¸ ëŀ¬
Ġì¡° ì¤Ģ
ëĬ¥ ëł¥
ìĭľ íķľ
ĠìŀĪ ê¸´
ĠíĿĺ ëŁ¬
ĠìłķíĻķ íŀĪ
ë³Ħ ë¡ľ
ĠëĤ´ ìĹĲ
Ġê³µ ìĿĦ
ë¯¼ ì£¼
Ġìłľ ë¡ľ
ĠëĤ ļ
ëĵ¤ìĹĲê²Į ëĬĶ
êµŃ ìĿĦ
Ġìĭł ê·ľ
Ġìĺ¤ë¥¸ ìª½
ĠëķĮ ìĹĲëĬĶ
Ġêº¼ ëĤ´
ĠìķĦëĭĪ ìĹĪëĭ¤
ĠëĦĪë¬´ ëĤĺ
ĠíĨµ íķľ
ë İ
ĠíĻį ì½©
it h
ìĥī ìĿ´
Ġìĭ¬ê°ģ íķľ
ĠëıĮ íĮĮ
Ġë°ľ ìĿĮ
Ġëĭ¨ ì§Ģ
Ġìĭľ ìŀ¥
Ġê°ľ ìĿĺ
l d
Ġê »
ìĦł ìĹĲìĦľ
ĠìĦ±ëĬ¥ ìĿ´
00 00
ĠíĸĪ ìĿĦ
Ġìłķ ì²´
Ġíģ´ ë¡ľ
ìĭ¤ ìĹĲ
Ġë®¤ ì§ģ
Ġëĭ¨ ìłĲ
Ġê³¨ ëĵľ
ê¸° ìĹĲìĦľ
Ġìĥģ íĴĪ
ĠìĹ¬ ê²¨
ëľ ©
ëŀ ©
ĠìĹĲ ìĸ´
ëĲ ¨
Ġìĭł ìĿĺ
ê¶Į ìĹĲ
ìĬ¤íĬ¸ ë¥¼
ë¥ĺ ê°Ģ
ëħĦ ìĿĦ
Ġë°©ìĨ¡ ìĿĦ
ë¦¬ ëĤĺ
ĠíĻĶ ìĤ´
ë£¨ ìĬ¤
ìĽ ¨ìĸ´
Ġëįĺ ìłĦ
ìĻķ ìĿ´
Ġìķķ ë°ķ
A C
Ġë¥ ´
ĠìĿµ ìĪĻ
Ġë§ĪìĿĮ ìĿ´
ĠS P
ĠíĻĶ ëł¤
ĠìĤ¬ìļ© íķĺë©´
ĠìĿ´ ìĬ¤
Ġëĵľ ë¦½
Ġ200 3
Ġc om
ĠìĨĮ ë¦¬ê°Ģ
ìĤ¬ ìĿ¸
ĠìĿ´ë¦Ħ ìĿĺ
Ġìłľ ê¸°
Ġì·¨ ìĨĮ
Ġê° Ĵ
ìľ¼ ëł¤
Ġê³µê²© ìĿ´
ĠíĮĲ íĥĢ
Ġíķľ ë§Ī
ĠìĹĲ ìĿ´ìĬ¤
ĠìĥĿ ê²¼ëĭ¤
ë§Ī ìĬ¤
Ġíı¬ ë¥´
Ġíı ¼
ĠìĹ¬ëŁ¬ ê°Ģì§Ģ
Ġìµľ ìķħìĿĺ
Ġìľ µ
is t
Ġëħ¸ íĬ¸
Ġíķĺ ëįĶëĿ¼ëıĦ
ìķħ íķľ
ìĵ ¸
Ġíı °
ĠëĲľ ëĭ¤ëĬĶ
Ġì¡° ìĭ¬
u e
ĠëıĻ ìķĦ
ë£ ©
ĠìĦ¸ íĬ¸
Ġë¨¹ ìĿĦ
Ġì¦ī ìĭľ
Ġìĭ¤ìłľ ë¡ľëĬĶ
íİ ´
ĠìĹŃ ìľ¼ë¡ľ
íĻ Ī
ĠìĻ ĢìĿ´
A L
ĠS h
1 2
ì¤ĳ íķľ
ìĿĢ íĸī
Ġì´Ī ìĽĶ
Ġë³¸ê²© ìłģìľ¼ë¡ľ
Ġëį ´
Ġëĭ¹ìĭľ ìĿĺ
ĠíĨµ ìĿ¼
Ġêµ¬ ëĭ¨
ì į
ĠK T
Ġëª° ëŀĺ
Ġëª¸ ìĿ´
íĸĪëĭ¤ ê°Ģ
Ġë¯¼ ê°Ħ
i f
ë³ĳ ìĿĦ
l y
Ġê´Ģê³Ħ ë¥¼
Ġìł ł
ëį ±
ĠìĦł íĺ¸
Ġìĸ´ ê¹¨
ĠëıĮ ê²©
ĠìĿ´ë¯¸ ì§Ģ
ĠìĿ¼ë°ĺ ìłģìľ¼ë¡ľ
ĠëĲĺ ëıĮ
ĠìĨĮ ë©¸
Ġê¸ Ģë¡ľ
Ġìłľ ìĿ´
ë¹ ¨
ìĤ° ìĿ´
Ġíİ¸ ìĿ´
Ġëĭ¤ëĭĪ ëĬĶ
íĮĲ ìĿĢ
ĠìķĪ ìĹĲìĦľ
ĠëķĮ ê°Ģ
ìĭľ ë¦¬ì¦Ī
ìĭ¤ ìĿ´
Ġê³µ ì£¼
ì¥ ¬
ĠìĿ´ìª½ ìĿĢ
Ġíķ´ ìłľ
ĠS T
ìĿ į
ĠëĶĶ ìĬ¤
Ġë°ĺ ëŀĢ
ëĤ´ ë©°
íĥ Ĳ
ĠëĦ Į
ĠìĥĿ ë¬¼
Ġë¬¼ ëŁ¬
ìĺĢëĭ¤ ê³ł
ĠêµĲ íĻĺ
ëħ ģ
L C
ìĿ¸ ìĹĲê²Į
Ġì£¼ ëª©
Ġìĭ¸ ìļ°ëĬĶ
ëĭ «
Ġì¦Ŀ ëªħ
Ġëį°ë¯¸ ì§Ģê°Ģ
Ġì¶Ķ ì§Ħ
íĸĪ ìĬµëĭĪëĭ¤
ìĦ¼ íĦ°
ëŁ¬ ë¥¼
Ġë§¡ ìĿĢ
ì¹´ ë¥¼
ar d
Ġê¹Ģ ìĦ±
ìĽ ¨ìĿ´
Ġê´´ ë¬¼
Ġìĺ¤ ë¡ľ
ĠìĬ¤ íĶĦ
ĠìĿĺê²¬ ìĿ´
Ġíħ Ķ
Ġì¹´ìļ´ íĦ°
Ġëĵ¤ ìĿĢ
ĠìķĦ ë¹ł
Ġìĵ°ëŁ¬ ëľ¨
ìĺ¤ ë¥¼
Ġêº ¾
Ġìŀ¥ ìķł
ìĨį ëıĦ
Ġë¬´ ê²Į
Ġì¡°ê¸Ī ìĶ©
Ġëĺĳ ê°ĻìĿĢ
Ġê³ł ìľł
ĠìĿ¸ ì§Ģ
Ġìĭł ì²Ń
ĠP S
ĠêµĲ ìĪĺ
i ve
Ġì§Ħ ìłķíķľ
ëł¸ ìĿĦ
íĨ °
Ġíħ ľ
ĠìĹ° ìĺĪ
ĠìĿ´ ë¥´
Ġëĭ¹ íķľ
ëĵľ ìĹĲìĦľ
Ġëĸ¡ ë°¥
ìļ´ ëĭ¤
Ġê· ł
on e
Ġê·¸ëŁ¼ ìĹĲëıĦ
ì¢ ĭ
ê°Ģ ëĬ¥
ĠíĽĦ ìĹĲëĬĶ
Ġë°©íĸ¥ ìľ¼ë¡ľ
Ġíģ¬ ë¦¬
ĠíĮ¨ ì¹ĺë¡ľ
Ġìľł íĤ¤
Ġê±° ëĿ¼ê³ł
Ġìĵ° ë©´
Ġëª¨ìĬµ ìĿĢ
Ġëª» íķĺê²Į
Ġê³ł ê¸ī
Ġëª ¹
Ġê´ľì°® ìĿĢ
ĠìĿ´ ëŀĺ
ìĭĿ ìĿĢ
ĠìĿ´íĽĦ ë¡ľëĬĶ
íĿ ¡
ĠìĿ´ ë¡ł
ê³Ħ ìĹĲìĦľ
Ġë¶Ļ ìĹ¬
ê¹Į ì§Ģë§Į
Ġíĺ¼ìŀĲ ìĦľ
Ġëª¨ëĳĲ ê°Ģ
Ġì£½ ëĬĶ
Ġê²¬ ìłľ
Ġë§ŀ ìĿ´
ĠìŀĲì²´ ë¥¼
Ġìŀ¥ ìłĲ
Ġ3 7
Ġêµ¬ íĺĦ
Ġìĺ¤ ë¹ł
ĠíķľêµŃ ìĸ´
ĠíĶ¼ ìķĦ
ìĹ° êµ¬
ê¹ Ķ
ë§ĪìłĢ ëıĦ
Ġìĸ¸ ìĸ´
ĠìĤ¬ê±´ ìĿĦ
Ġë¹ĦìĬ· íķĺê²Į
ĠëĮĢ ìŀ¥
ĠíĶĦë¡ľ íĨł
er s
an g
ë¯¸ ëĦĲ
Ġìŀĳ ìłĦ
Ġê³ł ìĥĿ
Ġì½¤ ë³´
Ġíĺķ ìłľ
ĠìĦ± ìłģ
ĠìĿ¸ êµ¬
Ġë° Ł
Ġìłģ ìĸ´ëıĦ
ĠìĿ´ ìĬ¹
ĠìĿ´ ëĵ¤ìĿĺ
ë© ľ
Ġëį §
ĠíĮ¨ ìĭľë¸Į
ĠìĪĺ ë¦¬
Ġë°© íĮ¨
Ġëª©ìĪ ¨ìĿĦ
ëĵľ ëĿ¼
ĠìĹ¬ ìľł
Ġë¶Ģë¶Ħ ìĿĦ
Ġìĭ¤ ëł¥
ëĥĲ ë©°
ĠëĤ Ń
ĠìĥĿ ê²¼
ĠíħĮ ìĿ´
Ġëĺĳ ê°ĻìĿ´
ĠA P
ĠëıĮ ì§Ħ
Ġëª¸ ìĹĲ
Ġë©Ķ íĥĪ
Ġë¶Ģ ì§Ħ
Ġê°¤ ëŁŃ
ĠìĬ¤ ë§ĪíĬ¸
Ġì£¼ ì§Ģ
Ġê²½ ê¸°ëıĦ
ĠíĺĦìŀ¬ ìĿĺ
ĠíĮĢ ìĿĢ
Ġê³¡ ìĿĦ
ĠìķĪ ëĵľë¡ľ
ĠíĶĮ ëĿ¼
Ġì§ Ŀ
A S
ê¼ ¬
Ġë³´ ìĿ´ë©°
Ġê²© íĪ¬
ĠìĬ¤íĮĮ ìĿ´
ĠíĬ¸ ëłĪ
Ġë§Īì§Ģë§ī ìĹĲ
Ġì¶Ķ ëĿ½
Ġê¹Į ì§Ģ
Ġb ack
Ġìĸ´ëĸ ł
ĠìĹ¬ëŁ¬ ëª¨ë¡ľ
ĠìĦłìĪĺ ê°Ģ
V E
Ġìĸ´ëĶĶ ê¹Įì§Ģ
ĠíĢ Ħ
ì ¾Į
ĠíķĺëĤĺ ìĿ¸
Ġê³³ ìĿ´
ĠíħĮ íģ¬
Ġëħ¸ ì¶ľ
ê°Ģ ê³ł
ĠìĿ´ ëĵĿ
íĹ ¨
ìķ¼ ê°Ģ
Ġë§Ī ëħĢ
ĠíĻĶ ìŀ¥
ì±ħ ìĿĦ
íĥ ±
Ġ or
ê²ł ì§Ģ
Ġë¹¨ ê°Ħ
Ġì¡° ê°ģ
Ġìµľ ìĥģ
ĠìľłìłĢ ëĵ¤ìĿ´
ĠëĮĵ ê¸Ģ
ë¸Į ë¥¼
Ġìĸ¼ ìĿĮ
er e
Ġë¡ľ ëĵľ
ìĺ¤ íĶĦ
ĠëĦ¤ìĿ´ ë²Ħ
ì¦Ī ëĬĶ
Ġëģ Ķ
Ġìŀħìŀ¥ ìĹĲìĦľëĬĶ
ìĿ¼ ê¹Įì§Ģ
íķ´ ë³´
Ġë£ Į
Ġë¬´ ìĸ¸
ëĦĲ íĭ°
Ġìłľ ë²ķ
ĠëĮĢì²´ ë¡ľ
ĠëĤ´ ëĬĶ
Ġìĵ° ìĿ´ëĬĶ
Ġm y
ë¥ĺ ë¥¼
Ġíķ Ģ
ĠìĺĪ ìĪł
Ġìĥģ íĸ¥
ĠS p
ìĭľê°Ħ ìĿ´
ĠíĻį ë³´
ëħĦ ëıĦ
ê²½ ìĿ´
ìŀĳ ìĿĦ
ìĹ° ìĿ´
Ġë§ ĺ
ìĹŃ ìĹĲìĦľ
Ġê¸°ëĬ¥ ìĿĦ
ìĿ¸ ëĵ¤ìĿĢ
íĺķ ìľ¼ë¡ľ
Ġë°ĺìĿĳ ìĿĦ
íļĮ ëĬĶ
Ġìħ °
Ġ4 8
ĠìĦ Ń
Ġìłķ ëĭ¹
Ġê·¼ ìľ¡
ëĭĪ ê°Ģ
Ġê³µ ìĤ°
ĠìľĦ íķĺìĹ¬
ìĿĺ ê°Ģ
ìķĪ íĥĢ
ê¸° ê°Ħ
ë¬´ ìĽĲ
Ġê²ĥìĿ´ ê³ł
íľ ´
Ġì²« ë²Īì§¸
Ġì²´ íı¬
ĠM S
Ġìĸ» ëĬĶ
ë©´ ìĹĲ
êµĲ íĨµ
ĠìĿĳ ìĽĲ
Ġìĺ¬ ë¦¬
Ġë³¸ìĿ¸ ëıĦ
íĺ¸ ìĦł
ar g
ìĤ¬ íķŃ
ĠìĹ° ê³Ħ
Ġê·¸ ìĹĲê²Į
ĠìĤ¬ì§Ħ ìĿĦ
íĺķ ìĿĢ
ĠëĦĺ ëĬĶ
Ġìļ´ ìłĦ
ĠìĹĨ ìķł
ĠíĽ Ķ
Ġê°Ĳëıħ ìĿ´
ë¡ľìĦľ ìĿĺ
ĠìķĶ íĿĳ
Ġê°ĳ ìĺ·
Ġíı¬ ìĿ¸
ĠìĿ´ ê±°
ĠìķĬìķĦ ëıĦ
ì§Ģ ì»¬
Ġê²½ ê¸°ê°Ģ
Ġëŀ ©
a in
Ġì£½ ìĹ¬
Ġë§Įëĵł ëĭ¤
Ġê°Ģ ìĿ´
ë Ĩį
Ġì§ĳ ìĸ´
ĠìĦ±ëĬ¥ ìĿĦ
c t
ĠëĮĢ ë¥Ļ
Ġì§ ¤
ĠìĿ¸ ìĥģ
Ġìĸ´ ì§Ģ
ì© ¡
Ġíĳľ ì¤Ģ
ìĺ ¹
ëª¨ ë¦¬
Ġìª½ ìĿ´
ĠëĦĵ ìĿĢ
íķĺë©´ìĦľ ëıĦ
ìĤ¬ ì¹´
ë¶Ģ ìĻĢ
íİ ł
Ġì¡° ìļ©
ĠëıĻ ìĽĲ
ìĹĨ ëĭ¤
ìĬ¤ íĮħ
ĠN PC
Ġìļ°ìĬ¹ ìĿĦ
Ġì£¼ ë¨¹
Ġê²° ì½Ķ
Ġíģ´ ë¦¬
ĠìĦľ ìĦľ
Ġê¹ ĥ
Ġëĭ¨ ìĿ¼
Ġì½Ķ ë¡ľëĤĺ
ĠìĹħ ë¬´
ĠìĹ° ìķł
ĠìŀĲëıĻ ì°¨
Ġê·¸ëŀĺ íĶ½
íĮĮ ìĿ´ìĸ´
Ġê³µê²© ëł¥ìĿ´
ìŀ¥ ìĿ¸
Ġíĸī ìĤ¬
ĠëĤĺ ë£¨
ë¯¼ ìĿ´
ĠíĬ¹ë³Ħ íķľ
ĠìŀĲìĭł ê³¼
Ġìŀħ íķĻ
Ġíķĺ ê±°ëĤĺ
Ġê·¸ ìĻĢ
Ġë§¡ ìķĺëĭ¤
ëŁ¬ ìļ´
ĠíķĺëĤĺ ëĬĶ
Ġìŀĳ ëıĻ
Ġë¬´ìĹĩ ë³´ëĭ¤
ĠìĿ´ê²ĥ ìĿĦ
ĠìĬ¤íİĺ ìĿ¸
ìĦł ê±°
ĠëĬ ĳ
ĠëĲĺ ì°¾
1 6
ĠìķĦ ëĿ¼
Ġë§Īë²ķ ìĤ¬
ĠëıĦ ëĭ¬
Ġë¹Ħì¤ĳ ìĿ´
ë¬¸ íĻĶ
Ġê¸į ìłķ
íķĺìĺĢ ìľ¼ëĤĺ
Ġê³ł íĸ¥
ê¹Įì§Ģ ìĿĺ
Ġê±°ê¸° ëĭ¤
íĤ ¥
Ġë¹ł ì§Ħ
Ġì²ł ëıĦ
ĠëĦ£ ìĸ´
Ġëī´ ìĬ¤
Ġíĺ¸ íıī
ĠìĥĿê°ģ íķĺê³ł
Ġì¹´ëĵľ ê°Ģ
ë¯¸ ìķ¼
Ġìĺ¤ íĶĪ
Ġêµ¬ ì²´
ĠìĪĺ ìĿµ
d ing
Ġê·ľ ëª¨
Ġë¯¸ìĤ¬ ìĿ¼
ĠìķĦ ìķ¼
Ġ15 0
Ġì§Ģ ëªħ
ĠëłĪ ìĿ¸
ĠëıĻ ëĦ¤
Ġëĵľ ëŀį
ĠíĬ¸ìľĦ íĦ°
ë²Ħ ë¦¬
Ġë¶ģ ë¯¸
ĠìłķëıĦ ê°Ģ
Ġê²© íĮĮ
ĠìĿ´ ë¤Ħ
ì§ľ ë¦¬
ê´Ģ ê³Ħ
Ġê·¹ìŀ¥ íĮĲ
ĠìĦł ë¬¼
3 0
ĠëĪ Į
ìĹħ ìĿ´
ìĬ¤ íı¬
Ġëĵľ ë¬¼
ĠìķĦ ìĺ¤
ëĭ¨ ìĿĢ
Ġëªħ ìĺĪ
ëĭ¹ íķĺê³ł
ĠìĬ¤ íı°
Ġëĵ±ìŀ¥ íĸĪëĭ¤
ĠìĻ¸ êµĲ
Ġê³ł ìłĦ
ĠìłĢ ëħģ
ĠìĿ¼ ëıĦ
Ġë¶Īê°ĢëĬ¥ íķĺëĭ¤
Ġë§ĪìĿ´ ëĦĪ
ĠìĿ´ ëĤł
Ġ200 1
Ġëªħ ìĿ´
F A
ê²ĥ ìĿĦ
Ġì¶ľ ì²ĺ
ĠëĮĢ ë¦½
ìŀ¥ íķľ
ê³¼ íķĻ
Ġíķ´ ì²´
ìĭľ ìĦ¤
ëĭ¨ ìľ¼ë¡ľ
Ġ0 2
Ġë°Ķ ë¥´
Ġëĭ¬ ìķĦ
Ġê±´ ì¶ķ
ĠìºĲë¦ŃíĦ° ìĿĺ
Ġì°¨ ë³Ħ
Ġíıīê°Ģ ê°Ģ
Ġëĵ± íĮĲ
Ġì°¨ ëĿ¼ë¦¬
ĠìĦ¸ ìĽĶ
ĠëĴ¤ ë¥¼
ìķĦ ë¥¼
ìĿ¸ ìĿ¸
ĠìĬ¤íĬ¸ ëĿ¼ìĿ´
Ġí Ī
Ġê²Ģ ìĥī
ad i
Ġìĸ´ ê·¸
íĳľ ë¥¼
Ġìłľ ì£¼
ì§ģ ìĿĦ
ĠëĳĲ ìĤ°
ĠìĹ¬ ëıĻìĥĿ
íķ´ ì¡Į
Ġê² ī
Ġê³µ ê¸ī
Ġíķ´ëĭ¹ íķĺëĬĶ
ĠìºĲë¦ŃíĦ° ë¥¼
íĤ¤ ìĻĢ
ĠìĤ¬ìĿ´ ê°Ģ
Ġë¬´ ë£Į
Ġê¶Į ì´Ŀ
Ġë³´ìĹ¬ì£¼ ê³ł
Ġh tt
Ġíķĺ ëĭĪ
Ġì§ĢëĤĺ ì¹ĺê²Į
ĠìĿ´íĽĦ ìĹĲëıĦ
s s
ĠB l
ĠëĤ´ êµ¬
Ġëī´ ìļķ
ĠìŀĪìĹĪëĭ¤ ê³ł
Ġê¸° ì´Ī
Ġê²ĥ ìŀħëĭĪëĭ¤
ëĪ Ī
Ġëįĺ ìł¸
Ġëª¨ ë°Ķ
ĠA l
Ġê³ ģ
Ġê´Ģê³Ħ ê°Ģ
ìĭ¤ ìĹĲìĦľ
Ġê°Ĳ ìĤ¬
ëĵł ê°Ģ
Ġê³ °
Ġ5 5
Ġê´´ ë¡Ń
Ġìłģê·¹ ìłģìľ¼ë¡ľ
Ġìĺ¤ ë¦¬
ĠëĤĺ ëıĦ
ĠìĬ¤íİĺ ìħľ
Ġìĺ¤ ëŀ«
ĠìĺĪ ìĻ¸
or t
Ġê°Ģ ê³ł
ĠìĤ´ ëł¤
Ġëĭ¨ìĪľ íķľ
Ġìĺ® ê²¨
ëª ¸
ĠL v
ĠìĤ¬ ìłķ
íķ¨ ìľ¼ë¡ľìį¨
Ġê² Ĳ
Ġíĳ¸ ë¥¸
Ġì¹´ ëĤĺ
Ġë©ĶìĿ´ ìłĢ
Ġì¤ĳ ìĿ¸
ìĭľ ìĬ¤
Ġíķ´ ë°©
ê´Ģ ìĹĲ
êµ° ê³¼
ĠìĺĪ ì¸¡
Ġìĸ´ëĸ»ê²Į ëĵł
ĠìĤ¬ìĿ´ íĬ¸
Ġë°ĸ ìľ¼ë¡ľ
ĠìĤ´ íİ´
ĠëĤ® ìķĦ
ëĲĺìĹĪ ìľ¼ëĤĺ
Ġíķ´ ìłģ
Ġë¶Ģ íĦ°
ĠíļĮ ìłĦ
ìģ ĺ
ĠìķĦ ìī½
Ġë³µ ìĪĺ
ì¹´ ëĬĶ
ë²Ī ìĹĲ
Ġëĵ¤ ìĿ´
ì¡± ìĿĺ
r y
Ġìĸ´ì¨Į ëĵł
ĠN C
Ġê³§ ë°Ķë¡ľ
Ġê²½ ê³Ħ
ĠëĬĲëĤĮ ìĿ´
ìľ¨ ìĿĦ
ë¿Ĳ ë§Į
ĠëıĮìķĦ ìĺ¨
Ġëĭ¤ ìĪĺ
íķ¨ ìĹĲ
Ġì²´ ìľ¡
Ġíĥľ ìĸ´
Ġê°Ģ ë¬¸
Ġê³Ħ ìĬ¹
Ġìĭľ ê°ģ
ĠíıŃ íĴį
ì§Ģ ë§Ī
ìŀĳ ìĿĺ
ëĭ¤ ìĿ´
ĠìĿ´íĽĦ ìĿĺ
ĠìĹ° ìĥģ
Ġì±ħ ìĿĦ
Ġëª° ëł¤
Ġë¶Ī ê½ĥ
ìĿ¸ ëĵ¤ìĿĺ
ë²ķ ìĿ´
Ġë³Ģ íĺ¸
ĠìŀĲ ìĽĲ
ĠìľĦ ê¸°ìĹĲ
Ġëĵ± ìĹĲìĦľ
Ġìĥ ĺ
ĠìķĬìķĺ ëįĺ
Ġìļ°ë¦¬ ìĿĺ
Ġê°Ģ ë¦¬
Ġìĭ¬ íķľ
us t
ĠìĿ´ìłľ ëĬĶ
Ġê²ĥ ë§Į
ê¸° ì§Ģ
Ġì§Ħ ì§Ģ
ĠìķĦ ìĤ¬
íķ´ ê°Ģ
ĠìľĦ íĤ¤
ĠìłĦ íĻĶ
Ġìī½ ëĭ¤
íĶĦ ëĬĶ
ĠìĹĨ ìľ¼ëĭĪ
ëĦ ¬
Ġíķ© ëĭĪëĭ¤
Ġê°Ĳ ìłķ
Ġ0 3
Ġì¡ ±
Ġìłķ ëł¹
ë© Ģ
ĠìĿ´ ëĤ´
ĠíĮĮ ìĿ´íĦ°
Ġíģ¬ ëłĪ
ĠìŀĲ ê°Ģ
ĠìľĦì¹ĺ ë¥¼
ìĹŃ ìĹĲ
ìŀĲ ëĵ¤ìĹĲê²Į
ĠëĮĢ ìĥģìľ¼ë¡ľ
ĠëĮĢ íıŃ
ĠìĹĨìĹĪ ê³ł
Ġí ĵ¨
Ġê¸° ìĸ´
Ġë§Ĳ íķĺë©´
ĠëĶľ ëŁ¬
Ġíģ¬ ê³ł
Ġê·¸ ê±´
ë³ĳ ìĿ´
ĠìĦ¼ íĦ°
ĠìĿ´ ìĬ¬
ĠíĬ¸ ëŀĻ
ë§ģ ìĿĦ
Ġìĩ ł
ĠìĻķ êµŃ
ĠìĬ¤ ì¼Ģ
Ġë³´ ë©°
Ġìĺ ¹
Ġíĺĳ ëł¥
ì½Ķ ëĬĶ
ì§Ģ ëĬĶëį°
Ġìľłëªħ íķĺëĭ¤
ë£ ¸
Ġëª© ìłģìľ¼ë¡ľ
Ġë¬´ ëĮĢ
ìľ¼ ëł¤ê³ł
ì²ł ëıĦ
Ġìĭľ íĤ¤
ë¥´ ë¥¼
Ġë³´ ëıĦ
ĠìĹĨ ìľ¼ë©´
Ġì¡° ìłĪ
ìķĺ ìľ¼ëĤĺ
ĠìĦłìĥĿ ëĭĺ
Ġê¸° ìĬµ
ĠìķĬìķĺ ì§Ģë§Į
ĠS BS
ĠìķĦë²Ħ ì§Ģê°Ģ
Ġê·Ģ ìĹ¬
ĠíĹ¤ ëĵľ
ĠëıĻ ìĺģ
ë¶Ģ ëĮĢ
ìŀ¬ ë¥¼
Ġê°Ģ ë³
ìĤ¬ ëŀĮ
ë§Ī ìĿĦ
ĠíĮ¬ ëĵ¤ìĿ´
Ġíķľ ëį°
ĠëģĿëĤĺ ê³ł
Ġí ĥģ
Ġê·¹ ëĭ¨
Ġì¶© ìłĦ
ĠìŀĦ ëªħ
Ġíħ į
Ġìļ¸ íĬ¸ëĿ¼
Ġê³Ħíļį ìĿĦ
Ġëĭ¨ ì²´
Ġê°Ħ ìĿĺ
ĠìłĪ ë§Ŀ
ëıĻ ìĿĺ
íĸĪ ëĬĶì§Ģ
ëĶĶ ë¡ľ
íĸĪ ìĹĪëĭ¤
Ġì§ĢëĭĪ ê³ł
ĠìłĲ ì°¨
ĠëĵĿ ìłĲ
ìĹ° ìĿĦ
Ġê°Ģë³ į
ëĭ¹ ìĿĦ
Ġíķľ ì°¸
Ġë§ŀ ì§Ģ
ë¦Ħ ìĿĦ
Ġê° Ķëĭ¤
íķĺê¸° ëĬĶ
Ġê³Ħ ê¸ī
ë¨¸ ë¦¬
Ġì§ĢìĨį ìłģìľ¼ë¡ľ
ĠìŀĲ ìĿ´
ì£¼ ë©´
ĠìµľìĨĮ íķľ
Ġì´Ī ì°½
ëĭ´ ìĿĦ
Ġê³łìĸĳ ìĿ´
íĻĶ ëĲĺìĸ´
Ġê±° ë¦¬ê°Ģ
ìĿ¸ ìĹĲ
ìĨĮ ìĹĲ
ìĭľ ìŀ¥
ëıĻ ìĹĲ
ì¡° ë¦¬
Ġíİ¸ ìĿĺ
ì°¨ ìłĦ
ê²© ìľ¼ë¡ľ
Ġì¹´ ë¥´
Ġê³³ ìľ¼ë¡ľ
ĠìĿ´ ì¤ĳ
Ġê°Ģê¹Ŀ ëĭ¤
ìĶ¨ ê°Ģ
Ġë¬¸ íķĻ
ĠíĮ¬ ëĵ¤ìĿĢ
Ġê¸°ëĬ¥ ìĿ´
ĠíĹ¤ ìĸ´
ĠíĮĮìĿ¼ ëŁ¿
Ġì§Ģê¸Ī ëıĦ
Ġìľł ìļ©
ìĨĮ ìĿĺ
íķ´ìĦľ ëĬĶ
ĠìĿ´ìļ© íķĺìĹ¬
Ġíķĺ íķĦ
Ġìĭ¶ ëĭ¤
Ġê¸°ìĸµ ìĿĦ
Ġë Ŀ½
ìŀĲ ë§ĪìŀĲ
ĠíĮĮìĿ´ ëĦĲ
ĠëŁ¬ ë¸Į
ĠëĤĺìĻĢ ìĦľ
Ħ ëĬĶ
ĠìĦ¸ ëł¥
Ġëĭ¬ ë¦°
ĠìķĦ ìļ°
ĠíĶĮëłĪìĿ´ ë¥¼
ëĭ¹ íķĺëĬĶ
Ġ4 2
Ġëĭ¨ ìĸ´
Ġìĺ¤ ìĬ¤
Ġíķľ ê¸Ģ
ìķĪ ìĿ´
ë¨¼ íĬ¸
ìŀĳ ìĿ´
íķł ìĪĺ
ĠìķĦë¦Ħ ëĭ¤ìļ´
Ġê±¸ ë¦°
ë¡ľ ìĬ¤
ĠíĺĦ ìĥģ
ëıħ êµĲ
Ġì¶ľ íĺĦ
Ġë¹ Ĺ
Ġê³¼ ìĹ°
Ġê´Ģ ìĭ¬
Ġëĭ¤ ìĦ¯
o g
ĠìĿ¸ê°Ħ ìĿ´
Ġíıī íĻĶ
ë°Ľ ìķĺëĭ¤
Ġëª¨ ìľ¼
Ġìĸ´ ë¥¸
Ġë¬´ ë¦
e w
ĠëıĦ ìĽĢ
Ġë¯¸ ëĤĺ
ê³¼ ëıĦ
Ġê¹¨ ëĭ«
ĠìĹ ®
Ġë³Ģê²½ ëĲĺìĹĪëĭ¤
Ġê³ł ë°±
Ġíģ¬ ë£¨
ì© į
Ł Ī
ëŀŃ íģ¬
ì§ ±
ĠìĹĲ ìĬ¤
ĠìĹĨ ëĬĶëį°
Ġëħ¸ ìĺĪ
Ġ j
Ġê·ľ ìłķ
ĠíĮĮ ëŀĢ
Ġê° Ŀ
Ġëı ķ
Ġìĺ¤ëŀ« ëıĻìķĪ
ĠíķĻ ìĤ´
ĠìķķëıĦ ìłģìĿ¸
ĠíĻ Ģë¡ľ
Ġê°Ī ëĵ±
Ġìĭ¬ ë¦¬
ìĹŃ ìĿĢ
Ġíİ Ģ
Ġê°Ģ ëĵľ
Ġìŀ¡ ëĬĶ
ë§Ī ë¦¬
ìĹĪ ê¸°
Ġë¹ µ
ĠìķĦëĭĮ ê°Ģ
Ġê¸¸ ìĿ´
ëĶĶ ìĸ¸
Ġìĵ° ìĿ¸ëĭ¤
ëĭ¹ íŀĪ
Ġìĭł ìĿ¸
Ġíķľ ëıĻìķĪ
Ġíİ¼ ì³Ĳ
Ġê°Ļ ìķĦ
Ġêµ¬ íķ´
ê³µ ìĿĺ
P G
ë° ´
Ġíļ¨ê³¼ ëĬĶ
ìĭ¤ íķľ
ĠìµľíĽĦ ìĿĺ
íĮĮ ë¥¼
Ġì¶Ķ ìłģ
Ġê·¹ ë³µ
ĠëıĦ ì¤ĳìĹĲ
ĠìĦ¸ ìĥģìĿĦ
Ġê¹Į ëĭ¤
ìĿĺ ë¡ľ
ĠìĥĿê°ģ ë³´ëĭ¤
Ġê·¸ëłĩ ëĭ¤
4 0
íķ¨ ê³¼
ĠìŀĪ ê¸°ìĹĲ
Ġêµ¬ ì¶ľ
ĠëĤĺë¦Ħ ëĮĢë¡ľ
ìĭľ ìłĪ
ĠìłĦíĪ¬ ë¥¼
Ġë°´ ëĵľ
íķĺê³ł ìŀĲ
ìº ł
Ġê¹ ľ
Ġë§¡ ê³ł
Ġë§ī ìĿĦ
ĠëĮĢ íĻĶë¥¼
ĠìĨĮ íĻĶ
ìĿ´ ê¸´
ĠëįĶ ë¹Ļ
Ġê¸°ë¡Ŀ ìĿĦ
ĠìĦ¸ê³Ħ ìĿĺ
Ġìĸĳ ìĤ°
ëĿ¼ ê¸°
Ġíķ¨ ìłķ
ĠA I
Ġì¤Ħ ìĸ´
Ġë¬´ ìłģ
Ġê¸°ë°ĺ ìľ¼ë¡ľ
Ġê°Ī ìķĦ
Ġì°½ ì¡°
Ġ3 9
ì¢ħ ìĿ´
íķĺëł¤ ë©´
ĠëĲĺ ìĸ´ìĦľ
ĠìķĦ ë©Ķ
Ġë Ĥ¬
ĠíĻĶ ìĿ´íĬ¸
ëĤ´ ê¸°
ì£¼ ìĿ¸
Ġëĵ± ìĿĢ
Ġíķľëĭ¤ ë©´
ĠS S
ĠëĤ ¼
ëĭ¤ëĭĪ ëĬĶ
Ġë¹ĦìĬ· íķĺëĭ¤
ë°° ë¥¼
Ġëĭ ī
ĠìłĦ íĺķ
Ġìķī ìķĦ
Ġë§Ĳ ìķĦ
Ġê²ĥ ìĿ¸ì§Ģ
E D
ĠëĮĢ ì²ĺ
Ġë§İ ìķĦìĦľ
íĻĺ ìĿ´
or e
ìĬ¤íĬ¸ ëĿ¼
ĠìķĬëĬĶ ëĭ¤ëĬĶ
Ġë°ĽìķĦ ëĵ¤ìĿ´
ĠíĽĮë¥Ń íķľ
Ġë¸ĮëĿ¼ ì§Ī
ĠëĦĺ ê²¨
Ġë³´ ëĤ¸
Ġë²Ħ ë¦¬ê³ł
ìĺ¤ ê³ł
ĠìĬ¤íĥĢ ìĿ¼
ĠìĤ¬ëŀĮ ëĵ¤ìĹĲê²Į
Ġìĥģ ìĥģ
ĠëĲĺ ì§Ģë§Į
ĠìħĪ ìĿ´ëĭ¤
Ġê·¸ ëĵ¤ìĿ´
ì¹ĺ ë©°
Ġê´Ģ ê°Ŀ
ĠíĮĮ ìĿ´ìĸ´
ĠìĦ ¹
Ġëĭ¥ íĦ°
ìĺģ ìĿ´
ë¦¬ ëıĦ
ĠëĮĢë¶Ģë¶Ħ ìĿ´
Ġë§Ĳ ë¡ľ
Ġì°© ê°ģ
ìĹ° ìĿĺ
ë¯¸ ìĻĢ
Ġëĭ¹ ìĦł
ĠíĮĮ ê²¬
ê³ł ìĿĺ
ìķ¼ ìĿĺ
Ġê¿Ī ìĿĦ
ëĵ Ń
Ġë§Īì¹¨ ëĤ´
ĠìĤ¬ìĿ´ ìĿĺ
Ġ198 0
ì°¨ ëĬĶ
íķĺ ëĿ¼ê³ł
ì£¼ ì§Ģ
ĠëıĦ ìĦľ
ìĨĮ íķľ
ìĥī ìĿĦ
ĠëĮĢ íķĻêµĲ
ë³´ ìĬ¤
ê´Ģ ìľ¼ë¡ľ
ĠíĨµ ìĭł
ĠíĴĢ ìĸ´
u b
E C
ëľ »
ĠíĬĢ ìĸ´ëĤĺ
Ġì¤ĳ ìĹĲëĬĶ
ì²´ ìĹĲ
ìĤ¬ ìĹħ
ĠíĮ Ŀ
Ġë¶ĦìľĦ ê¸°
ë§Įíģ¼ ìĿĢ
Ġê³µ íķŃ
Ġìį ©
ìľ¼ ë¡ł
Ġìŀĳì¤ĳ ìĹĲìĦľ
ĠìĦ¸ ìĽĮ
Ġê°ľ íĨµ
ĠëıĻ ìĭľ
ëĭĪ ìĸ´
ĠìłĢ ê·¸
ìĭ¬ ìľ¼ë¡ľ
Ġìľł íĸī
ĠìĥģíĻ© ìĿ´ëĭ¤
íıī ê°Ģ
ĠìķĦ ë¨¸
Ġëª¨ ìĹ¬
ĠëĮĢ ëŀµ
Ġëĳ ¥
ëĵľ ë¦½
1 5
ĠëĮĢ íķĺìĹ¬
ĠìŀĲìĭł ëĵ¤ìĿĺ
Ġì°½ ìŀĳ
Ġë°©ë²ķ ìĿĢ
ìŀĲ ê³ł
ĠìłĲ ìĿ´ëĭ¤
Ġë§¤ ëĭĪ
Ġë³´ ìĿ¼
ĠëģĮ ê³ł
ĠíĥĢ ìĽĮ
ĠìĤ¬ ìŀ¥
Ġê°Ħ íĺ¹
ê¸Ī ìĿ´
Ġë²ł ë¥´
ĠìĿ¼ë³¸ ìĸ´
V P
ĠìĪĺ ì§ĳ
ĠM C
ĠíĶĦë¦¬ ë¯¸
Ġì½Ķ ëĵľ
íĬ¹ ë³Ħ
Ġê´Ģ ìĭ¬ìĿ´
Ġë³Ģ íĺķ
ĠìłĦ ê¹Įì§Ģ
Ġë¶Ī ë²ķ
ĠìķĮ íĮĮ
Ġìŀħ ìĿĦ
ê´ĳìĹŃ ìĭľ
Ġì¶Ķ ê²©
ĠìĪĺ ìĤ¬
Ġê¸° ìļ¸
Ġëĳĺ ì§¸
Ġì»¤ ë§¨
ê¸° ìĹħ
ìĿ´ëĿ¼ ë©°
Ġíĺķíĥľ ìĿĺ
Ġìłľ êµŃìĿĺ
Ġìį¨ ìĦľ
Ġìĸ´ëĶĶê¹Įì§Ģ ëĤĺ
Ġë³´ ìŀ¥
Ġëª¨ ë¥¸
Ġ4 00
íĺĦ ìĿ´
ĠìĿ´ ëĵ¤ìĿĦ
íĥĢ ìĿ´
Ġ9 5
Ġìĭľ íĭ°
Ġì§Ģíķĺ ì²ł
on g
ĠëĤĺíĥĢ ëĤľ
Ġê²½ ìľł
ĠíıĲ ì§Ģ
ĠìĪľ ìĪĺ
Ġíķľ íĻĶ
it y
ĠíĬ¹ìĿ´ íķľ
ĠìĥĪ ë²½
Ġì¡´ìŀ¬ íķĺì§Ģ
ĠìĿ¼ ìĥģ
ìłķ ë³´
Ġë¦¬ ë²Ħ
Ġê·¸ ë¡ľ
Ġìĭľ ê¸°ìĹĲ
ĠìĤ¬ëŀĳ ìĿĦ
ĠìĬ¤íĤ¬ ìĿ´
ĠìĪĺ ìļ©
ar e
Ġë© į
Ġë²Ħ ëł¤
ĠìŀĪëĬĶ ì§Ģ
ìĥī ìľ¼ë¡ľ
ĠìĦ±ê²© ìĿ´
as t
ëĬĶ ê°Ģ
ìľ Ļ
ĠìľĦíĹĺ íķľ
Ġëĭ¤ ëĵ¤
ìķ ŀ
ĠìĦ± ìĿ¸
ë¯¼ ìĿĺ
Ġëļ ľ
Ġë¦¬ ë©ĶìĿ´
Ġë©Ķ ì¹´
ĠìĪĺ ìĽĲ
ĠìķĪ ëĤ´
Ġê¸°ìĪł ìĿ´
Ġìĺ· ìĿĦ
Ġìľł ëł¹
ëĲĺìĹĪ ì§Ģë§Į
ĠìĻ ł
ĠìĦ¤ ìłķìĿ´
ìĹ° íķ©
ĠìĿ¸ ê·¼
ĠìłķëıĦ ëĭ¤
íģ¬ ìĻĢ
Ġìĵ° ê¸°
ĠìĬ¹ ê°ķ
ë¶Ħ ìĿĺ
ëįĶ ëĿ¼
en d
Ġë¹ł ë¥´
ĠìĪĺ íķĻ
O L
Ġìŀħ ëł¥
ìŁģ ìĿ´
ĠëĮĢ ê·ľëª¨
Ġìľł íĿ¬
ĠìĥĿíĻľ ìĿĦ
ĠëĬ¥ëł¥ ìĿĢ
Ġë³´ ì§Ģ
ë²ł ë¥´
ĠëĤ´ ëĨĵ
Ġìŀĳ ìļ©
Ġì´Ŀ ìĿĦ
Ġê²ĥ ìĿ¼
ë¦¬ ìĸ¸
Ġìħ Ķ
Ġë¶Ļ ìĿĢ
Ġëĵ¤ ìĿĦ
Ġë¹ ¡
ëĭĪ ìĿĺ
Ġì£¼ë³Ģ ìĹĲ
ĠíĮĲ ìłķ
ĠìŀĲìĭł ëıĦ
ì¥ Ĳ
Ġíķł ë¨¸ëĭĪ
ëį° ë¯¸
Ġìĭľ ì¼ľ
ĠìķĦëĭĪ ëĥĲëĬĶ
ìĿ¼ ìĹĲëĬĶ
íĥĢ ìŀħ
Ġì¤ĳ ìĹĲìĦľëĬĶ
ê¶Į ìĿĢ
ĠìĦ¸ê³Ħ ë¥¼
Ġìŀ ¦
ĠìĿĺ ì¡´
Ġë ¼Ī
ê´Ģ ë¦¬
ĠM A
íģ °
Ġìŀ¡ ìĿĦ
ìĺĢ ëĭ¤ëĬĶ
Ġì§Ģê¸Ī ìĿĺ
Ġíķł ìķĦë²Ħ
ĠìłĦíĪ¬ ìĹĲìĦľ
Ġê¹ ¨ìĸ´
ìŀĪ ê³ł
ĠëĤ¨ ê²¨
ĠëĤĺ ìķĦ
ëĵ± ê¸ī
ëĲľ ëĭ¤ëĬĶ
Ġëª© ê²©
ĠëĤĺë īĺ
ĠìĻ¸ ìĹĲëĬĶ
Ġíķ© ì³Ĳ
ëĭ¹ ìĹĲ
ìĪ Ń
Ġì°¸ ìłĦ
ĠìŀĳíĴĪ ìĿĺ
ë§Ī ëĬĶ
ĠC P
ë²Ħ ëł¤
ĠA K
Ġêµ¬ ìĨį
Ġê·¼ì²ĺ ìĹĲ
ĠìĹĨ ëįĺ
ìĬ¤íĬ¸ ê°Ģ
ë¹Ħ íĬ¸
ë¦¬ìķĦ ìĿĺ
ĠíĶĦë¡ľìłĿ íĬ¸
ĠìĦľ ìĸĳ
ĠìĿ¼ ìĿ´ëĭ¤
ĠëĤĺ ì¹´
ĠìĿ¼ ì°į
ĠìłķíĻķ íķľ
Ġì²´ ëł¥ìĿĦ
Ġë§İìĿĢ ëį°
ê°ľ ë°ľ
ëĵ¤ê³¼ ëĬĶ
Ġì§ĢìĹŃ ìĿĺ
Ġë§ŀ ëĭ¤
I T
ì¤ĺ ìķ¼
Ġìĸ´ ëĳĲ
ìĿ´ìĹĪëĭ¤ ê³ł
ĠìĪľ ìľĦ
ĠìºĲë¦ŃíĦ° ë¡ľ
Ġíķ© ê²©
ìĭł ìĿĢ
Ġíļ Ł
Ġê²Ģ ìĤ¬
Ġê³µê²© ìĹĲ
ĠD LC
ĠëĮĢ ì¶©
ĠìĹ° ìĤ¬
Ġìĸ´ëĸł íķľ
ìĭ¤ ë¡ľ
ëĬĲ ëĿ¼
ĠëŃ ĺ
ĠëłĪìłĦ ëĵľ
Ġë©Ī ì¶Ķ
ĠìłķíĻķ íŀĪëĬĶ
ë©´ ìľ¼ë¡ľ
Ġìĭ¤ ëł¥ìĿĦ
ëĶĶ ê°Ģ
ì¡°ì°¨ ëıĦ
Ġìłľ ê°Ģ
Ġì«ĵ ìķĦ
ĠíıŃ ì£¼
íĬ¸ ëĤ¨
ìłķ ë¶Ģ
ëĭ¤ ë³´ëĭĪ
ak e
ĠíĮ¬ ëį¤
Ġëĺĳ ê°Ļ
Ġê²½ ìĥģ
Ġíĥ± ì»¤
Ġíĺĳ ë°ķ
Ġëĵ¤ ëł¤
ĠëģĮ ëł¤
Ġê¸° ëıħêµĲ
ìĸĳ ìĿ´
ë¡ Ģë¡ľ
Ġê°Ģ ìķ¼
Ġì£½ ìĿĮìĿĦ
ĠëĿ¼ìĿ´ ëįĶ
Ġê·¸ëŁ¬ íķľ
Ġì§ģ ìĽĲ
ĠS N
Ġë°ĺìĿĳ ìĿ´
ë²Ī ìĿĺ
ĠëĮĢ ìĥģìĿ´
ìķĺ ëĭ¤ëĬĶ
Ġê²°ê³¼ ë¥¼
ĠìĨĮ ì´Ŀ
Ġì¤ĳ íĻĶ
E N
ĠìĽĲ ì¹Ļ
Ġìĭł ê¸°
Ġì¤ ĺ
ĠìĿ´ ìĦ±
Ġëĭ¤ ë¥¼
ìĤ¬ íĤ¤
ĠC D
íĨµ ìĿĦ
ĠìĿ¸ ê³µ
gr ound
Ġëĭ¤ ë¦¬
ìĬ¤ íĦ´
Ġëª¨ë°Ķ ìĿ¼
Ġëĵ± ê³¼
ĠëĵľëŁ¬ ëĤĺ
ĠìķĦ íĭ°
Ġìĥ ·
Ġê°¤ëŁŃ ìĭľ
ĠëįĶ ëįĶ
Ġ19 2
8 0
ĠìļĶ ìĥĪ
ĠBG M
ë£ °
Ġê²½ íĸ¥ìĿ´
Ġêµ¬ ë©į
Ġë³´ ìĿ¸
Ġìłģ ìĿĳ
ĠìĺĪ ëĬ¥
ê ¶
ĠìĪĺ ìĨ¡
Ġëĵ¤ìĸ´ ê°Ħëĭ¤
Ġë°ĶëĢ Ĳ
ĠìĿ´ ë¦¬
ĠêµŃê°Ģ ëĮĢíĳľ
ĠìĻ¸êµŃ ìĿ¸
Ġíķľ ê³Ħ
Ġê° ĩ
ĠìłĪ ëĮĢë¡ľ
ĠíĸĪëĭ¤ ëĬĶ
Ġ4 7
Ġë¹ ļ
Ġëĭ¤ë£¨ ëĬĶ
Ĭ ľ
Ġê³ł ê°Ŀ
Ġíı¬ íĥĳ
Ġë³´ ê²Į
ìľĦìĽĲ íļĮ
íķĺëĬĶ ê²Į
ĠìĿĺ ë¢°
Ġë§Ī êµ¬
ĠìŀĪìĸ´ ëıĦ
ĠíĻķ ì§Ħ
ë¬´ ê¸°
Ġë©Ķ ìĭľ
ĠA n
Ġê¹Ģ ìĺģ
ĠíĢĦ ë¦¬íĭ°
s e
ĠìĬ¤í Ĭľ
ĠìŀĪëĭ¤ ê°Ģ
ĠíĺĦ ì§Ģ
ĠìĿĢ íĸī
ĠìłĦ ìĽĲ
ĠìĦ±ê³µ íĸĪëĭ¤
Ġ199 9
Ġë§ī ìŀ¥
Ġëº ı
Ġë¹Ħ ìļ©
Ġì½ľ ëĿ¼
ĠìĤ¬ ê±°ë¦¬
Ġë§ī ê¸°
ëĭ¹ íķ´
Ġë¬¼ ìĿĦ
Ġìĭł ìĿ´
Ġíķĺ ëĿ½
Ġë¸Į ëŀľëĵľ
Ġëĭ¬ ê³ł
Ġìĸ´ ë¦´
Ġì¦ Ī
ĠíĸĪ ìľ¼ë©°
ĠìĪĺ ìĭŃ
Ġëį ¸
ĠìķĦ ìĭľ
ì¤ĳ ìĿ¸
ê²ł ìĬµëĭĪëĭ¤
ìĬ¤ íĥĦ
ìĹŃ ìĿĺ
ìĨĮ ìĹĲìĦľ
ìłĦ íĪ¬
Ġíģ¬ë¡ľ ìĬ¤
ìĸ´ë²Ħ ë¦°
ê³µ íķŃ
Ġìŀ¥ ìĭĿ
Ġì ¾Į
Ġì¶ ĺ
ìĦ¸ ìĹĲ
ë¦¼ ìĿĦ
ĠëıĪ ìĿ´
ë» Ĳ
íķĺ ìĹĲ
1 4
ĠëįĶëįĶ ìļ±
ë¦° ìĿ´
Ġê²½ ë¹Ħ
Ġë³´ ìĿ´ì§Ģë§Į
Ġê²½ìļ° ìĹĲ
ëĿ¼ ìĹĲ
ĠìĿĺ ë£Į
Ġë¶ĦìľĦ ê¸°ë¥¼
Ġë©Ģ ì©¡
is p
6 0
ìŀ¬ ê°Ģ
Ġìłķ ë¥ĺ
ĠìŀĲ ìĭĿ
Ġëķ Ĳ
ìĦľ ë¡ľ
ĠëłĪ ìĺ¤
ìŀ ĺ
iz e
Ġëıħ ìŀĲ
ìłľ íķľ
Ġìĭł ê³ł
ĠìŀĪìĹĪ ìľ¼ë©°
ĠìĹĳ ìĬ¤
Ġë§ŀ ìĿĢ
íĮĮ ìĿĺ
ĠìĪĺ ì¹ĺ
Ġê³¼ê±° ìĿĺ
Ġë§ŀ ê²Į
ê¸° ê¹Įì§Ģ
ĠìĽĲ ë³¸
Ġë¶ĦìľĦ ê¸°ê°Ģ
ĠíĮ¬ ëĵ¤ìĿĺ
Ġ4 4
Ġê°ķ ìłľë¡ľ
Ġìŀĥ ìĿĢ
ĠíĢ ¸
Ġë¯¸ ìķĪ
ĠìĿ´ìĥģ ìľ¼ë¡ľ
Ġíŀĺ ìľ¼ë¡ľ
ĠíķĦ ëĵľ
Ġë§Į ëĤ¬
Ġê¸° ë¶Ħ
Ġë§Ī ì¸ł
Ġë§Ī ëıĦ
Ġì°¾ ëĬĶ
íķ µ
ĠìĹ¬ ìĻķ
Ġìµľê°ķ ìĿĺ
1 3
Ġë¯¿ ê³ł
Ġì¤ĳêµŃ ìĿĺ
Ġì£¼ ìłĦ
ĠìĿĺ íĺ¹
Ġì§ĳ ìĹĲìĦľ
Ġê¸°ë³¸ ìłģìĿ¸
Ġw h
ĠíķĻ ìĽĲ
Ġê°ķ íķĺê²Į
ĠìłĦìŁģ ìĿĦ
ë¬¼ ìĹĲ
Ġì¹Ń ì°¬
Ġìłģ ëĮĢ
ëĳ¥ ìĿ´
ê¸ ĭ
ì¦ Ĳ
Ġëĭ¨ ê³Ħ
i p
ĠìĻ¸ ë¶Ģ
Ġ he
ĠìķĦëĭĪ ëĿ¼ëĬĶ
Ġëĭ¤ ë£¬
Ġ199 8
ĠìķĦëĭĪ ëĿ¼ê³ł
ĠíĽ Ĺ
ĠëĤĺ ê°ĢëĬĶ
Ġë°ĺ ë°ľ
ĠìĤ¬ëŀĮ ëĵ¤ëıĦ
Ġì¢ĭ ìĿĦ
ĠìĿ¸ ìĪĺ
Ġê²Į ìĿ´ì§Ģ
ê³¡ ìĿĦ
ĠëŃ ī
Ġì¤ĳ íķĻêµĲ
ëĭ¹ íķľëĭ¤
ĠìĨĮ íĶĦíĬ¸
Ġê´Ģê³Ħ ë¡ľ
ìĬ¤ ëıĦ
Ġê·¸ëłĩ ì§Ģë§Į
ĠìĿĢê·¼ íŀĪ
ë ®
ĠìĻ¸ ê³Ħ
Ġê¸° ìĹ¬
Ġê³µ êµ°
Ġì½ĺ ìĦľ
ĠìĤ¬ìļ© íķĺê³ł
ĠíĨµ ìłľ
ĠëĦĪ ìĿĺ
ìĦ¸ ëĬĶ
Ġë§Ī ìĪł
Ġë¯¸ ì¸ł
ì¦Ī íĤ¤
ĠêµŃ ë°©
Ġëľ ¯
ĠíĮĲíĥĢ ì§Ģ
Ġì£¼ ê¸°
Ġíıī ìĿ´
Ġìĺ¤ íķ´
ë¸Į ë¦¬
E M
Ġíķľ ìŀĲ
íĮĢ ìĿ´
ë²ķ ìĿĢ
Ġê°Ĳ ìĭľ
Ġìĭľ ìķ¼
Ġê°Ī ìĪĺë¡Ŀ
1 8
ìĦĿ ìĿĢ
Ġë°© ìĹĲ
Ġë§Īë²ķ ìĿĦ
Ġìĭ¸ ìļ¸
Ġëĵ¤ìĸ´ ê°Ī
ĠìĦ± ìłģìĿĦ
íħĮ ìĿ´
Ġë§Ī ìĿ¸
ëıĻ ìľ¼ë¡ľ
Ġë²ķ ë¥ł
ĠC C
Ġìķ ±
ë§Ŀ ìĿĦ
ìĦ¤ ìĿĦ
Ġíĸī ìĦ±
ĠëĤĺëĪ ł
ĠíĻľ ìĦ±
Ġì£¼ ìĹĪëĭ¤
ĠëŀŃ íģ¬
l ine
ëĲĺ ì§Ģë§Į
Ġìĺ¤ ì§ģ
ĠìĤ¬ìļ© íķ´
Ġë°Ķ ë³´
ëĭ¹ íĸĪëĭ¤
ĠëĲĺìĹĪëĭ¤ ê³ł
Ġëĥ Ħ
Ġë¶Īê°ĢëĬ¥ íķľ
Ġì» ·
Ġìĭ¤ ëł¥ìĿ´
ĠìĿĺ ë¬´
ëŁī ìľ¼ë¡ľ
Ġback ground
Ġì²ĺ ë²Į
Ġë¸Ķ ë¡Ŀ
ĠìĿ´ ê¸¸
ìŀ ł
ëŁ¬ ìĿĺ
Ġíķ «
ĠìŀĪìĹĪ ê¸°
ĠìłĢ ì£¼
ĠëĤ´ ìĦ¸
ĠìłĦ ëł¥
Ġê·¸ëŁ¬ ìŀĲ
Ġíķĺ ìĸĢ
ĠíĶĮ ëłĪ
Ġëĭ¹ íķ´
íİ¸ ìĹĲìĦľ
ĠíĬ ľ
ìĿ´ ê²Į
ĠìĿ´ìĸ´ ì§ĢëĬĶ
Ġp ad
ëĲĺìĹĪëĭ¤ ê³ł
ĠìłĦ ìĹĲëĬĶ
ëħ¸ ê°Ģ
Ġ12 0
ìķĦ ëĬĶ
ĠD J
Ġë¬´ë¦ İ
ëĤ¨ ëıĦ
Ġê°Ĳ ìĺ¥
Ġ4 3
ĠíĮĮíĬ¸ ëĦĪ
Ġë¶Ģ íĴĪ
Ġê·ľ ì¹Ļ
ë°Ľ ìĿĦ
Ġëª©ìĨĮ ë¦¬ê°Ģ
ìĿ¸ ì§ĢëĬĶ
ì¡° ëĬĶ
íĦ° ë¦¬
ìĭ¬ íķľ
ê³µ ìĿ´
ĠìłģìłĪ íķľ
Ġìŀ¥ êµĲ
Ġë´Ĳ ìķ¼
Ġìŀ¥ë©´ ìĿĦ
ĠìŀĲë¦¬ ìĹĲìĦľ
ĠìĿ´ìłĦ ìĿĺ
ì§Ģ ìĽĲ
Ġê²ĥìĿ´ ë©°
Ġê°ķ ì²ł
Ġë¹Ħ ìĭ¸
Ġê³ł ìļ©
ë¹Ħ ìĹĲ
ĠëĮĢ ìĤ¬ë¥¼
Ġì¶Ķ êµ¬
ĠìļĶ ê´´
Ġê°Ģê²© ìĿ´
ĠíĶ¼ ë¥¼
ĠìĪĺ ëł¨
arg in
ĠëĮĢ ë§Į
Ġë³Ħ ëĭ¤ë¥¸
Ġpad ding
Ġìĸ¼êµ´ ìĿ´
ëį° ëĭ¤
Ġë¯¸ ìķ¼
Ġìĺ¤ëĬĺ ëĤł
Ġì§Ģ ëĤ´
ìĭĿ ìĹĲ
ĠíĬ¸ ë¡ľ
ĠíħĶ ëłĪ
Ġìłķì¹ĺ ìłģ
Ġë³´ ëĿ¼
ĠìķĦ ë¦¬
Ġê½ Ĥ
Ġë°ľ ëĭ¬
Ġìĸ´ëĳł ìĿĺ
ĠëĮĢíĳľ ìłģìľ¼ë¡ľ
ëĭ¤ ëŀĢ
ëĲĺìĹĪ ìĿĦ
ëĿ¼ìĿ´ ìĸ¸
Ġë© ķ
Ġíİ¸ ìĦ±
ëł¸ ëįĺ
ìĦ¸ ë¡ľ
Ġì°¾ìķĦ ê°Ģ
ĠíĶĦ ë¦°
ë¡ł ìĿĺ
Ġë¬´ ê¸°ë¡ľ
ĠìłĦ íĽĦ
Ġíķľ íĥĢ
ĠìŀĪìĹĪ ìĿĦ
ëħ Ķ
íĶ¼ ìĬ¤
ĠëĤľ ëĭ¤
Ġì£Ħ ëĭ¤
Ġë§Ī ìĭľ
ĠìľĦ ì£¼ë¡ľ
ì¦Ŀ ìĿ´
Ġëĵ¤ ìĹĪëĭ¤
ìĺ µ
ĠìķĦ ê°Ģ
ìĺĢ ê¸°
ĠìĽ¹ íĪ°
Ġíĥľ ìĸ´ëĤľ
Ġê²Ģ ì°°
ĠìĦ¸ ìĥģ
Ġì§ĵ ìĿĦ
ĠìĤ¶ ìĿĦ
ĠëĦ ·
Ġì¢Į ìļ°
ĠìĿ¼ìľ¼ íĤ¤
ëŀĢ ëĭ¤
íĻĺ ìĿĦ
ĠíĹĪ ëĤĺ
Ġì§ĳ ìĿĦ
ĠëĮĢ íķŃ
ĠìĤ¬ìļ© íķĺì§Ģ
íĪ¬ ë¥¼
íĮĲ ìĹĲìĦľ
Ġë¶Ģ ìĥģìĿĦ
Ġìĥģ íĺ¸
ĠíĹ Ľ
Ġëıħ íĬ¹
Ġì°¨ ëĭ¨
ëĮĢ íļĮ
íķ´ ì§Ģê³ł
íİ¸ ìĿĺ
ĠìłĦ ìĦ±
Ġíİĺ ìĿ´ìĬ¤
ĠëĨĴ ìĿ´
Ġìĸ´ì§Ģ ê°Ħ
ĠH D
ë¡ľ ë¡ľ
ëĭ¤ ìĭľ
Ġëª¨ ë¥´ê³ł
ĠëĤ´ ìĿĺ
êµ¬ ìĻĢ
ou r
Ġë°ķ ìłķ
Ġë§Ī ë¦¬ìĺ¤
Ġê·¸ ëĿ¼
ĠH e
Ġì¹ĺ ëĬĶ
ĠìĿĺë¯¸ ë¥¼
ĠìķĦìī¬ ìļ´
Ġë³´ ìķĪ
ì¸ Ħ
Ġìł ¤
Ġìĺ¬ ë¦°
Ġê°ķ íķĺëĭ¤
ĠìĿ´ ìŀ¬
ìĭľíĤ¤ ê¸°
E S
ìĿ´ ê¸°ìĹĲ
Ġê°Ĳëıħ ìĿĺ
Ġëħ¹ ìĿĮ
ĠëĤĺ ëĤĺ
Ġì¿ł ë¡ľ
ĠìĿ´ë£¨ìĸ´ ì§Ħ
Ġìłķìĭł ìĿĦ
Ġê°Ļ ì§Ģë§Į
ĠT H
Ġì§ĢìĹŃ ìĹĲ
ĠëĦĪ íĿ¬
ĠíĹ ĺ
ĠëĮĢë¯¸ ì§Ģë¥¼
ĠìĪĺë¡Ŀ ê³¡
ë´Ĳ ìķ¼
Ġë°ĿíĺĢ ì¡Įëĭ¤
ìľ¼ ëŁ¬
ĠìłĦ ë©´
Ġëª¨ìĸĳ ìĿ´ëĭ¤
Ġìı ´
ëĲĺìĸ´ ìĦľ
Ġm argin
ĠíķľêµŃ ìĹĲìĦľ
Ġì»¤ íĶĮ
ìĭł ìľ¼ë¡ľ
Ġëĵľ ëĬĶ
Ġì¡° ìĦ±
ĠìĿĮ ë°ĺ
ì£¼ ëħĦ
íķĺê¸° ê°Ģ
ĠíħĮ ëŀĢ
Ġìį¨ ë¨¹
ë°© ìĹĲìĦľ
Ġíĺ¸ íħĶ
ĠëĬĲëĤ Ħ
Ġê·¸ ëĵ¤ìĿĦ
Ġ199 7
ê³ł ë¡ľ
k g
Ġìļ¸ ìĤ°
ê²½ ì°°
Ġíĸī ìľĦ
ë° ¤
ëł¹ ìĿĦ
Ġìĸ´ëł¤ ìĽĮ
Ġìŀĥ ê³ł
Ġê°Ģ ìĨį
ĠëĲľ ëĭ¤ê³ł
ĠìłĢ ìŀ¥
Ġë°ĺ ê²©
ĠëĤĺìģĺ ì§Ģ
ĠíĮ¨íĦ´ ìĿ´
ĠìĨĲ ìľ¼ë¡ľ
ì¸ł ìĿĺ
ĠìĿ´ ì§Ģ
ĠëĮĢ ê°ľ
ĠìŀĲ ê·¹
íĻĶ ìĻĢ
ĠìĺĪ ë¹Ħ
ìłģ ìĿĺ
ĠF A
íĥĢ ìĻĢ
ìĽĶ ë¶ĢíĦ°
Ġ0 9
Ġìŀĳ ê°Ģê°Ģ
Ġëĭ «
Ġì²ĺ ëŁ¼
ìĭľ ì½Ķ
Ġìĸ´ ë§Ī
ìŀĲ ë¦¬
ec t
ĠìłĦ ì§ģ
íķĺ ìĭľ
Ġ6 4
ĠO n
o od
Ġì£½ ìĿ¸
Ġì±Ļ ê²¨
ìĦľ ìĹĲ
Ġê³¼ ìłķìĿĦ
Ġìłķ ì§Ģ
ë°© ìľ¼ë¡ľ
Ġì¢ĭ ê²Į
ë± ħ
Ġìĸ´ ëĵľ
Ġìĵ°ëłĪ ê¸°
ĠìĤ¬ ìļ´ëĵľ
ĠëĶĶ ë²Ħ
ë¬ĺ íķľ
ë¯¸ ëĭĪ
ì§ĳ ìĿĦ
ag e
ĠìĦłìĪĺ ëĵ¤ìĿ´
ĠëĤĺ ìķĦê°Ģ
Ġìļ° ìĹ°íŀĪ
Ġëĭ¤ìĿĮ ëĤł
íķ´ ì¤Ģëĭ¤
Ġê³ ½
Ġìĺ¬ ë¦¬ëĬĶ
ĠìºĲ ëĤĺëĭ¤
Ġë³Ħ ê°ľë¡ľ
ĠìĪĺ ìĺģ
Ġ19 0
ê² Ł
ëĭ¹ íķł
Ġê°ķ ëĤ¨
íĨ ¡
ĠëĤ´ ì§Ģ
ëĮĢ ìŀ¥
Ġê³µê²© íķĺëĬĶ
ë¥´ ì§Ģ
ì¡ ¸
ĠëĮĢë¯¸ ì§Ģ
ĠìĺĪ ê³ł
Ġë¶Ī ìĿĦ
ĠìķĦìĿ´ ë¥¼
Ġ0 5
Ġì£½ ìĸ´
ĠìŀĲìĦ¸ íŀĪ
Ġì±Ħ ìĽĮ
Ġìĭ¬ íķĺê²Į
ë²Ī ìĿ´
íĻĪ ëŁ°
ĠìĿ´ë²Ī ìĹĲëĬĶ
ĠìĿ´ ë¥¸
ë²Ī ìĿĦ
Ġë§ĪìĿ´ íģ´
ìĨį ìĦ±
íİĺ ìĿ´
Ġë³´ìĹ¬ì£¼ ë©°
íĶ Ķ
Ġëĵ¤ìĸ´ ìĺ¨
Ġìĭ¸ ìĽĢìĿĦ
Ġìĸ¸ ìłł
Ġì£½ ìĿ¼
Ġë¬´ íļ¨
ĠìķĦë§Ī ëıĦ
Ġë°©ìĸ´ ëł¥
Ġìłķ ì°©
ìĬ¤ íĨ¤
Ġê¹Ģ ìłķ
ĠìĿ¼ ë°©
Ġë°ľë§¤ ëĲľ
ĠĠĠĠĠĠĠĠĠĠĠĠĠĠĠĠ ĠĠĠĠĠĠĠĠĠĠĠĠĠĠĠĠ
ĠìĿ´ìĻ¸ ìĹĲëıĦ
Ġë°©ë²ķ ìľ¼ë¡ľ
Ġs h
ë¡ł ìĿĢ
Ġëį° ëĭ¤ê°Ģ
íĨł ëĬĶ
ĠìĬ¹ ë¶Ģ
Ġë¶Ī ë¦°ëĭ¤
Ġìŀł ìĪĺ
ĠìŀĲëŀĳ íķľëĭ¤
ĠìŀĲ ë³¸
ĠìŀĦ ìĭľ
ĠìĹ° ëĿ½
ĠëĦ£ ê³ł
Ġìĥģ ìĪł
I I
ĠìĬ¤ ì¹´ìĿ´
ĠëĪĪ ë¬¼ìĿĦ
Ġíı¬ ìĬ¤íĬ¸
Ġê°ĢëĬ¥ íķĺë©°
Ġì» ¸
ĠìľłìłĢ ê°Ģ
ĠA T
Ġê³ł êµ¬
Ġëĭ¹ìĭł ìĿ´
Ġíķĺ ìĪĺ
ĠìŀĲ ë§¤
Ġíĸ¥ ìĥģ
Ġë§Ĳ íķĺê³ł
Ġìĭł ìĦ±
ĠëĴ¤ ìĹĲìĦľ
Ġê°Ģ ì¡Į
Ġê°ĢëĬ¥ ìĦ±ëıĦ
Ġì² ¨
Ġì± ķ
Ġê°Ģ ì§ľ
Ġíĥľ ìĸ´ëĤĺ
Ġê·Ģ ì°®
ĠìĿ¼ ìĭľ
Ġë³¸ ëĭ¤
ĠìĦ¸ê³Ħ ê´Ģ
ì°¨ ìĹĲ
ĠìķĦ ë°Ķ
ĠìķĮ ê²łì§Ģë§Į
Ġì¤ĳ ê³Ħ
Ġìķ½ê°Ħ ìĿĺ
ĠëĶĶì§Ģ íĦ¸
íĮĮ ê°Ģ
Ġë¸Ķ ëŁ¬
Ġë¹Ħ ëĶĶìĺ¤
ë¦° ìĿĺ
ĠìĿĺë¯¸ ë¡ľ
Ġê±¸ ì³Ĳ
Ġìķ µ
ĠëĤ´ ë¦¬
Ġê°ľ ìŀħ
ĠA r
ĠìĿ´ ìĿµ
Ġë©Ķ ëī´
Ġìŀ¬ íĺĦ
Ġëĵ¤ ë©´
ord er
ë§ī ìĿĦ
ĠìĬ¤ë§ĪíĬ¸ íı°
Ġë¶Ģ ëĶ
Ġê³ł ëĵ±
Ġë°ķ ê·¼
ĠD e
Ġìĭľ ëĭ¬
Ġê³µê°ľ ëĲľ
Ġëĸ¨ìĸ´ ì§Ħëĭ¤
ĠíĨł ëª¨
íķľ ìĿĦ
ĠW h
ë¦¬ ëĿ¼
ìŀĪ ìĸ´
ĠíĽĹ ëĤł
Ġìŀ¡ íĺĢ
ëªħ íķľ
Ġìļ© ìĿĺ
ĠíĽĦìĨį ìŀĳ
ĠìĽ ¨ìĿ´
Ġê°ĲìķĪ íķĺë©´
ĠìĿ¸ íĺķ
Ġìŀ¥ ìĪĺ
Ġw ith
Ġë¹Ħ ìĭ¼
Ġê°Ģ ì¹ĺ
Ġìī ´
Ġf ont
ou t
Ġê·¸ëŁ¬ ëĭĪê¹Į
ĠìłĦíĺķ ìłģìĿ¸
Ġë¦¬ë©ĶìĿ´ íģ¬
Ġëª¨ ì¡°ë¦¬
Ġìľł ìłĦ
Ġì¶ľ íĮĲ
êµĲ ë¥¼
ë§Ī ë£¨
íĮĮ ìĿ´
ëĭĪ ìĻĢ
Ġì° Ķ
ĠP D
ĠíĮĮ ëĿ¼
ĠíķĺëĤĺ ëıĦ
Ġëĸł ìĺ¤
ĠíļĮ ìĿĺ
isp lay
ĠíĽĦ ì§Ģ
íĮħ ìĿĦ
ĠëłĪë²¨ ìĿ´
ĠìŀĲ ëĬĶ
Ġì§Ģ ìĸ´
Ġë¬´ ëłµ
u re
Ġì§Ģ ìĭĿ
ĠìķĦë²Ħ ì§ĢìĿĺ
ĠìķĬ ëıĦë¡Ŀ
Ġë§ĮëĤĺ ê²Į
íĸ¥ ìĿĦ
i v
Ġë¬´ ë°©
ĠëĤł ê°ľ
Ġë²Ħ ëł¸ëĭ¤
ĠíĻķìĿ¸ íķł
Ġíķĺ ìķ¼
Ġë¶Ģ ë¥¸
Ġíŀĺëĵ¤ ìĸ´
íĨ¨ ë¦Ń
Ġë¬¼ ê³ł
ì¢ħ ìĿĦ
Ġê²ĮìŀĦ ìĹĲìĦľ
Ġëĵ¤ ìĹ¬
Ġëª° ëĿ¼ëıĦ
ìĸ´ ìĻĢ
ìģ ľ
ĠíĻĶ ë¥¼
ĠëĲĺìĹĪ ëĬĶëį°
ìķ¼ êµ¬
ìĹĲ ëĭ¤
M A
ĠëĤ´ ê²Į
ĠìĤ¬ëĿ¼ ì§Ħ
ĠíĿ¥ íĸī
Ġì£½ ê³ł
Ġth at
ĠëĤĺ ìĿ´ê°Ģ
Ġìłĳ ì´ī
ĠìĪĺì¤Ģ ìĿ´ëĭ¤
Ġì§Ī ë¬¸
ĠìĨĮ íĺķ
ĠìķĬìķĺ ìĿĦ
ë²Ħ ëł¸
ìĨĮ ë¡ľ
ìķ ¤
ĳ ¼
Ġê·¼ ë³¸
ëļ ±
Ġyou r
Ġë¹Ħ ìĥģ
íļ¨ ê³¼
ê¸° ëĤĺ
Ġë²ł ìĿ´ìĬ¤
Ġë£¨ íĬ¸
ĠíĹ ¨
im e
R A
Ġíķ´ ë³ĳ
ĠíĶĦ ëĿ¼
ìľł ë¥¼
ë§ µ
ĠìĪ ¨ìĸ´
Ġìļ°ë¦¬ ëĤĺëĿ¼
ĠìłĦ ë©¸
ĠìŀĪ ìĿĮìĿĦ
Ġê¹Ģ íĥľ
ìŀ ĩ
ê¸ī ìľ¼ë¡ľ
ĠìłĦ ë¶ĢíĦ°
Ġì¼ ľ
ĠìĻĦë²½ íķľ
ĠíĽĦ ì¿ł
ëłĪìĿ´ íĦ°
ë¦¬ íĬ¸
Ġê¸Ī ìľµ
Ġê³¼ê±° ìĹĲ
íĺĦ ìĿĺ
Ġê²½ ê¸°ëĬĶ
ìĤ° ìĹħ
ĠìĨĮ ìĪĺ
ìĭľ ëĭ¤
ĠìĿ´ìĬ¬ ëŀĮ
íļĮ ë§Ĳ
Ġëªħ íĻķ
i re
ĠìĿ´ìĥģ ìĿĦ
ĠìŀĲëıĻ ìľ¼ë¡ľ
ĠìĿ¸íĦ°ë·° ìĹĲìĦľ
ĠA R
Ġìŀ¡ ìĿĢ
ë¹Ħ ìĬ¤
ĠëĦ ī
Ġë£¨ ìĭľ
ĠG T
Ġê¹Ģ ì¢ħ
ìĽĮ ëĵľ
ìĺĢ ìĿĦ
ĠìĿĺ ìĽĲ
1 7
ĠS C
Ġíĺ¹ ìĭľ
Ġì¤Ģ ìļ°
ĠìłĦ íķ¨
ĠìĤ¬ê±´ ìĿĺ
Ġìļķ ìĿĦ
ĠíĻĺ ìĺģ
Ġê¹Ķ ëģĶ
ĠëĪĮ ëŁ¬
Ġíİ ł
ëł¹ ìĿ´
ì½Ķ ë¥¼
ĠëĦ¤ ëįľ
ĠìĭľìłĪ ìĿĺ
Ġëģ Ī
ìħ °
ĠëĦĲ ë¦¬
Ġì¢ĭ ê³ł
ë³´ ê¸°
Ġìŀĳ ê°ĢìĿĺ
Ġìłģ íĺĢ
Ġë§Ī ìĻķ
ì§ģ íķľ
ĠìĿ¼ë³¸ ìĹĲìĦľ
ĠìłĲ ìĪĺ
Ġìī½ ì§Ģ
Ġëĭ¤ ìĪĺìĿĺ
ĠìłĢ ëĬĶ
ĠíĻľ ë°ľ
F C
ìļķ ìĿĦ
Ġêµ° ëĭ¨
I S
ìłĦ ì°¨
Ġë¹Ľ ìĿĦ
Ġê³Ħìķ½ ìĿĦ
ĠêµŃíļĮìĿĺ ìĽĲ
ìķ½ ìĿ´
Ġë¯¸ ìĬ¤
ĠëĨĴ ê³ł
ëª¨ ëį¸
íŀĪ ì§Ģ
ëħ¸ ìĿĺ
ë¬¼ ìĿĢ
ĠëĲĺìĹĪ ìľ¼ë©°
9 9
Ġë²Ħ íĶĦë¥¼
Ġì£¼ìĿ¸ê³µ ìĿĺ
ĠíĿ ł
Ġê°Ģ ëĿ¼
Ġìĸ¸ê¸ī íķľ
íķĺ ê°Ģ
Ġ0 4
om e
Ġê³¡ ìĿ´
ë¹Ħ ë¡ľ
ĠìĨĮ ìĭĿìĿĦ
ĠìĿ´ ëĤĺ
ìĸ´ ë¦¬
êµŃ ìĿĢ
Ġë°° ìļ°ëĬĶ
ĠíĥĢ ì¼Ģ
ĠìĶ ¹
íı¬ ê°Ģ
ìº Ķ
Ġê°Ģ ë§Į
Ġíľĺ ëĳĲ
ìĨĮ ë¦¬
íĶ¼ ë¥¼
B O
Ġìľł ë¡ľ
êµŃ ìĹĲ
Ġë§Ī íģ¬
Ġ199 5
ĠìĤ¬ëŀĮ ìĹĲê²Į
Ġíķľ ìª½
ĠìĬµ ëĵĿ
Ġì§ĳ ìľ¼ë¡ľ
ë©´ ìĹĲìĦľ
Ġëĭ¤ìĿĮ ìĹĲ
íĸĪëĭ¤ ë©´
Ġê±° ëĵŃ
ĠU S
ìķ½ íķľ
Ġëĭ¤ìĿ´ ìķĦ
Ġë¬´ ëį¤
ìĿ´ ëĵł
ĠìĬ¤ ìĬ¹
ĠìĹĨ ìĿĮ
Ġ0 8
Ġê³³ ìĿĢ
ĠìĹ´ ìĩł
ĠëĤ´ ë³´
Ġêµ¬ ìĤ¬
Ġë¨¸ ë¦¬ê°Ģ
ĠëĤĺ ë©´
o b
Ġëª¨ ë¦¬
ĠìĻľ ëĥĲ
ìĿ¸ ìĿ´ëĭ¤
ìŀĲ ëıĻ
ĠëĤĺìĺ¤ ê¸°
ĠF I
íļĮ ìĤ¬
ìħĺ ìĿĦ
Ġìĸ´ì§¸ ìĦľ
ĠìĤ¬íļĮ ìłģ
ë°Ľ ëĬĶëĭ¤
êµĲ ìĿĺ
Ġì¿ł íĤ¤
Ġì²ľ ìŀ¬
Ġë¶Ģ ìĦľ
Ġìłĳ ìĨį
ĠìĪĺ ìĹħ
Ġëį§ ë¶Ļ
Ġì¼ĢìĿ´ ìĬ¤
2 5
Ġë§Ĳ íķĺìŀĲë©´
ì§Ģ ë°©
Ġê¹¨ ëĭ¬
Ġ0 7
ê°Ģ ë©°
Ġë²ł íĬ¸ëĤ¨
ëį° ìĬ¤
íķĺ ìĿ´
ĠíĦ° ëľ¨
Ġìºł íİĺ
ìĹĲ ê²Ĳ
Ġì§ĢìĽĲ ìĿĦ
Ġëı ĭ
ĠA C
Ġì° ¢
ë¦¬ ìĸ¼
ĠíĽĦ ìĪł
ì¸ł ê°Ģ
ĠíķĻìĥĿ ëĵ¤ìĿ´
ĠìĤ¬ ìĸĳ
Ġì£½ìĿĮ ìĿĺ
Ġíİĺ ìĿ´ì§Ģ
ìľ¼ë¡ľìĦľ ìĿĺ
ìķĦ íĮĮ
ìĥĿ ìĿĦ
Ġê³ł ìŀĳ
Ġì¡° ì§Ģ
ë³ ĢìĿ´
Ġê·¸ëŁ¬ ëĭ¤ê°Ģ
ë¡ľ ìĻĢ
Ġíļ ¡
ë§Ī ë²ķ
Ġê°Ģë³į ê²Į
íķĺ ëįĶëĿ¼ëıĦ
Ġì£¼ ìĹ°
Ġíķľìłķ ìľ¼ë¡ľ
ĠìĬ¹ ê²©
Ġë¬´ ì²Ļ
ëªħ ìĹĲ
íĥĦ ìĿ´
Ġë¶Ģ ìĪĺ
ĠíļĮ ìĪĺ
Ġê°ķ ìĽĲ
íķĺ ëĿ¼ëĬĶ
ëłĪ ëĤĺ
Ġìĺ ³
Ġì¶© ê²©ìĿĦ
Ġëĭ¹ìĹ° íķľ
ĠëıĻ ë°©
Ġë¹łìł¸ ëĤĺ
Ġê°Ħ ìĭł
Ġì¶ľ ìŀ¥
íĺ¸ ìĻĢ
ìĤ° ìĿĺ
ì± ł
Ġë¬¼ë¡ł ìĿ´ê³ł
ĠìľłìĤ¬ íķľ
ĠìłĢ ëŁ°
Ġì§Ģ ëĬ¥
Ġê²°ê³¼ ìłģìľ¼ë¡ľ
ĠìĿ´ ìĭĿ
Ġê°Ģ ìĤ¬
ê²½ ìĹĲ
ìĿ¸ ëĵ¤
ìĦĿ ìĿĺ
Ġëľ» ìĿĦ
ĠìĿ´ê²ĥ ëıĦ
ëĤĺ ëĿ¼ìĿĺ
íĻĶ íķľ
ĠëĦĪ ëĬĶ
ĠìĿ´ëģĮ ê³ł
Ġëľ¬ ê¸Ī
ĠíħĮ ìĬ¤íĬ¸
ìĤ¬ ëŀĳ
ê±° ìķ¼
ĠìĭĿ ìĿĺ
Ġë§Į ëĤł
ĠìŀĪìĹĪëĭ¤ ëĬĶ
Ġì¤ ¬
ëıĦ ìĹĲìĦľ
ìķ¼ ë§Į
ĠìŀĲì²´ ìĿĺ
Ġì¶Ķ ìĸµ
ì¤ĳ íķĻêµĲ
Ġìĭľê°Ħ ìĹĲ
Ġin line
ë¨¹ ê³ł
Ġë³´ëĦĪ ìĬ¤
ê±´ ìĿĦ
ì½Ķ ìĻĢ
Ġëĳĺ ìĿĢ
ìłĦ ê³¼
ĠìĿ¼ìľ¼ íĤ¨
ìĭľ íĹĺ
íĬ Ģ
ĠëĮĢ ìĤ¬ê°Ģ
ĠìłĢ ëł´
ĠíĹĮ íĦ°
Ġê±° ë¦¬ë¥¼
ĠìĬ¤ íĭ°
ëĮ Ħ
ĠV S
Ġë°ķ ìĤ¬
Ġì²Ń ëħĦ
Ġê·¸ëŁ¬ ë©´
ìŀĪ ê²Į
id e
Ġb order
Ġëªħëł¹ ìĿĦ
oc k
íĥĿ ìĿĦ
Ġë§Ĳ íķĺë©°
ìĥī ìĿĺ
ĠëıĦ ë°ľ
ë² ħ
ëģĦ ëŁ¬
ĠìĨĲ ê°ĢëĿ½
ĠìĨĮ ëĭī
ĠíĨµ ìĥģ
ìĬ¤ íĤ¤
ĠìĿ´ ìĺģ
ë§Ŀ ìĿ´
es s
Ġê°Ĳ ìłķìĿĦ
Ġê°ķ ìļĶ
Ġë¬´ ê´Ģ
Ġì»¤ ëĭ¤ëŀĢ
ë¡ľ ìĽĮ
ìĦĿ ìĹĲ
Ġë¶Ħëªħ íŀĪ
ĠëĤĺíĥĢ ëĤľëĭ¤
ëĭĺ ìĿĦ
ë§ģ ìĿ´
Ġë¬´ìĭľ íķĺê³ł
ĠìķĦ ìĿ¼
ìĤ¬ ëł¹
as s
u c
Ġì°į ìĸ´
ë¥ł ìĿĦ
Ġëĭ¬ ëŁ¬
ĠìºĲ ìĬ¤íĮħ
Ġìľł ì¹ĺ
ì¦Ī ìĻĢ
Ġëĭ¨ ëĭ¨
Ġê°ľ ë§ī
ìĭľ íķĺëĬĶ
ĠìĹĨëĭ¤ ë©´
Ġìĸ´ë¦° ìĿ´
ì¹ĺ ë©´
Ġìľµ íķ©
ê¹ ¥
adi us
Ġë¶ĢëĶ ª
ë³´ ëĵľ
ëł¬ íķľ
Ġê²ĮìŀĦ ìĹĲ
ĠìĿ´ ê²¨
ĠìķĪ íĭ°
Ġíľ´ ëĮĢ
ìĬĪ íĥĢ
Ġëĭ¹ íķĺëĬĶ
ë¹Ħ ìĻĢ
Ġê¸° ìŀĲ
Ġíķ© ìĦ±
ëĶ §
Ġë¬´ ìŀĳ
Ġê±°ê¸° ìĦľ
íĮĢ ìĿĺ
ĠìĤ¬ìļ© íķĺìĹ¬
ë¡ľ ë´ĩ
ëĲĺìĹĪëĭ¤ ëĬĶ
Ġìłķ ì²´ë¥¼
Ġëª¨ ë¥¼
