{
  "!": 5,
  "\"": 6,
  "#": 7,
  "$": 8,
  "%": 9,
  "&": 10,
  "'": 11,
  "(": 12,
  ")": 13,
  "*": 14,
  "+": 15,
  ",": 16,
  "-": 17,
  ".": 18,
  "/": 19,
  "0": 20,
  "00": 710,
  "000": 2075,
  "0000": 5702,
  "1": 21,
  "10": 3558,
  "11": 4853,
  "12": 5780,
  "13": 7103,
  "14": 7053,
  "15": 6714,
  "16": 6148,
  "17": 7708,
  "18": 7170,
  "19": 4323,
  "2": 22,
  "20": 1624,
  "21": 3631,
  "25": 7825,
  "3": 23,
  "30": 6190,
  "4": 24,
  "40": 6585,
  "48": 5489,
  "5": 25,
  "50": 3503,
  "6": 26,
  "60": 7064,
  "7": 27,
  "8": 28,
  "80": 6972,
  "9": 29,
  "99": 7754,
  ":": 30,
  ";": 31,
  "<": 32,
  "</s>": 2,
  "<mask>": 4,
  "<pad>": 1,
  "<s>": 0,
  "<unk>": 3,
  "=": 33,
  ">": 34,
  "?": 35,
  "@": 36,
  "A": 37,
  "AC": 5730,
  "AL": 5778,
  "AM": 5491,
  "AN": 4302,
  "AR": 4245,
  "AS": 5971,
  "AT": 4993,
  "B": 38,
  "BC": 3446,
  "BO": 7778,
  "BS": 2813,
  "C": 39,
  "D": 40,
  "E": 41,
  "EC": 6687,
  "ED": 6634,
  "EM": 7163,
  "EN": 6951,
  "ER": 3206,
  "ES": 7355,
  "F": 42,
  "FA": 6210,
  "FC": 7738,
  "G": 43,
  "H": 44,
  "I": 45,
  "IA": 5304,
  "IC": 5341,
  "II": 7515,
  "IN": 4793,
  "IS": 7741,
  "IT": 6896,
  "J": 46,
  "K": 47,
  "L": 48,
  "LC": 5835,
  "M": 49,
  "MA": 7640,
  "N": 50,
  "O": 51,
  "OL": 6817,
  "ON": 4632,
  "OR": 5481,
  "OS": 5566,
  "P": 52,
  "PC": 4821,
  "PG": 6571,
  "PS": 5172,
  "Q": 53,
  "R": 54,
  "RA": 7666,
  "S": 55,
  "ST": 3943,
  "T": 56,
  "TV": 4552,
  "U": 57,
  "V": 58,
  "VE": 5984,
  "VP": 6730,
  "W": 59,
  "X": 60,
  "Y": 61,
  "Z": 62,
  "[": 63,
  "\\": 64,
  "]": 65,
  "^": 66,
  "_": 67,
  "`": 68,
  "a": 69,
  "ab": 4405,
  "ac": 2036,
  "ack": 3536,
  "ad": 2054,
  "adi": 6235,
  "adius": 7978,
  "ag": 3467,
  "age": 7447,
  "ain": 6088,
  "ak": 3392,
  "ake": 6927,
  "al": 1599,
  "all": 4048,
  "am": 2183,
  "an": 1161,
  "and": 2445,
  "ang": 5929,
  "ant": 5509,
  "ap": 4105,
  "ar": 1316,
  "ard": 5848,
  "are": 6781,
  "arg": 6068,
  "argin": 7261,
  "art": 4785,
  "as": 1959,
  "ass": 7962,
  "ast": 6787,
  "at": 1393,
  "ate": 5182,
  "ation": 4368,
  "ay": 2244,
  "b": 70,
  "c": 71,
  "ce": 4175,
  "ch": 3048,
  "cm": 5258,
  "ct": 6095,
  "d": 72,
  "ding": 6171,
  "e": 73,
  "ea": 5511,
  "ec": 3646,
  "ect": 7426,
  "ed": 2324,
  "ee": 5653,
  "el": 2173,
  "ell": 5604,
  "em": 3170,
  "en": 1538,
  "end": 6814,
  "ent": 3466,
  "er": 1009,
  "ere": 6009,
  "ers": 5928,
  "es": 1817,
  "ess": 7948,
  "est": 5250,
  "et": 2297,
  "ew": 6526,
  "f": 74,
  "ff": 5022,
  "g": 75,
  "gr": 5645,
  "ground": 6961,
  "h": 76,
  "he": 1319,
  "i": 77,
  "ia": 5305,
  "ic": 1940,
  "id": 2944,
  "ide": 7932,
  "ie": 4753,
  "if": 5795,
  "ig": 2470,
  "igh": 3415,
  "ight": 3835,
  "ik": 2974,
  "iki": 4158,
  "il": 2481,
  "ill": 4682,
  "im": 3018,
  "ime": 7665,
  "in": 965,
  "ind": 5274,
  "ine": 3887,
  "ing": 1725,
  "ion": 2304,
  "ip": 7121,
  "ir": 3222,
  "ire": 7694,
  "is": 1644,
  "isp": 7063,
  "isplay": 7607,
  "ist": 5759,
  "it": 1622,
  "ith": 5690,
  "ity": 6769,
  "iv": 7620,
  "ive": 5872,
  "iz": 4815,
  "ize": 7072,
  "j": 78,
  "k": 79,
  "kg": 7394,
  "km": 4359,
  "l": 80,
  "lay": 5153,
  "ld": 5698,
  "le": 1472,
  "line": 7190,
  "ly": 5797,
  "m": 81,
  "mm": 3336,
  "n": 82,
  "nd": 2837,
  "o": 83,
  "ob": 7805,
  "oc": 4580,
  "ock": 7935,
  "od": 3327,
  "og": 6519,
  "ok": 4948,
  "ol": 2438,
  "om": 2084,
  "ome": 7762,
  "on": 1117,
  "one": 5884,
  "ong": 6763,
  "ont": 5051,
  "ood": 7431,
  "op": 4394,
  "or": 1282,
  "ord": 4859,
  "order": 7561,
  "ore": 6638,
  "ort": 6281,
  "os": 4129,
  "ot": 2632,
  "ou": 1370,
  "ound": 4669,
  "our": 7340,
  "out": 7590,
  "ove": 5192,
  "ow": 2211,
  "p": 84,
  "ps": 5633,
  "px": 2539,
  "q": 85,
  "r": 86,
  "ra": 5011,
  "re": 1633,
  "ri": 5042,
  "ro": 2922,
  "ry": 6316,
  "s": 87,
  "se": 7010,
  "ss": 6256,
  "st": 3195,
  "t": 88,
  "ter": 3609,
  "th": 3945,
  "tt": 5264,
  "u": 89,
  "ub": 6686,
  "uc": 7963,
  "ue": 5767,
  "ul": 4321,
  "um": 4172,
  "un": 3191,
  "up": 4817,
  "ur": 3529,
  "ure": 7614,
  "us": 2213,
  "ust": 6352,
  "ut": 3432,
  "v": 90,
  "ve": 2485,
  "ver": 3352,
  "w": 91,
  "x": 92,
  "y": 93,
  "yle": 4088,
  "z": 94,
  "{": 95,
  "|": 96,
  "}": 97,
  "~": 98,
  "¡": 99,
  "¡°": 442,
  "¢": 100,
  "¢°": 2342,
  "£": 101,
  "£¼": 367,
  "¤": 102,
  "¤ë²Ħ": 1754,
  "¤ĳ": 410,
  "¥": 103,
  "¦": 104,
  "§": 105,
  "¨": 106,
  "¨ìĸ´": 1223,
  "¨ìĿ´": 3005,
  "¨ìĿĦ": 3521,
  "©": 107,
  "©ëĭĪëĭ¤": 4966,
  "ª": 108,
  "ª½": 976,
  "«": 109,
  "¬": 110,
  "¬ìĺģ": 3712,
  "®": 111,
  "®¤": 1979,
  "¯": 112,
  "¯¤": 3115,
  "¯¸": 403,
  "°": 113,
  "±": 114,
  "±°": 418,
  "±´": 546,
  "±¸": 744,
  "²": 115,
  "³": 116,
  "´": 117,
  "´Ģ": 513,
  "´Ī": 621,
  "´Ŀ": 943,
  "µ": 118,
  "µľ": 641,
  "¶": 119,
  "¶¤": 4583,
  "¶Ģ": 360,
  "¶ģ": 1536,
  "¶Į": 755,
  "·": 120,
  "·¨": 1128,
  "¸": 121,
  "¸°": 295,
  "¹": 122,
  "¹Ħ": 406,
  "¹Į": 496,
  "º": 123,
  "º¼": 2333,
  "»": 124,
  "¼": 125,
  "¼Ī": 5532,
  "½": 126,
  "½Ķ": 579,
  "¾": 127,
  "¾¸": 1607,
  "¾¼": 2971,
  "¾Į": 3927,
  "¿": 128,
  "¿Ĳ": 1264,
  "¿ł": 922,
  "À": 129,
  "Á": 130,
  "Â": 131,
  "Ã": 132,
  "Ä": 133,
  "Å": 134,
  "Æ": 135,
  "Ç": 136,
  "È": 137,
  "É": 138,
  "Ê": 139,
  "Ë": 140,
  "Ì": 141,
  "Í": 142,
  "Î": 143,
  "Ï": 144,
  "Ð": 145,
  "Ñ": 146,
  "Ò": 147,
  "Ó": 148,
  "Ô": 149,
  "Õ": 150,
  "Ö": 151,
  "×": 152,
  "Ø": 153,
  "Ù": 154,
  "Ú": 155,
  "Û": 156,
  "Ü": 157,
  "Ý": 158,
  "Þ": 159,
  "ß": 160,
  "à": 161,
  "á": 162,
  "áĦ": 2664,
  "áħ": 5658,
  "â": 163,
  "ã": 164,
  "ãģ": 2019,
  "ãĤ": 3310,
  "ãĥ": 2493,
  "ãĥ¼": 3247,
  "ä": 165,
  "å": 166,
  "æ": 167,
  "ç": 168,
  "è": 169,
  "é": 170,
  "ê": 171,
  "ê°": 276,
  "ê°¤": 4639,
  "ê°Ģ": 288,
  "ê°Ģê°Ģ": 2417,
  "ê°Ģê³ł": 5992,
  "ê°Ģë¡ľ": 4729,
  "ê°Ģë¥¼": 2679,
  "ê°Ģë©°": 7830,
  "ê°ĢëĬ¥": 5887,
  "ê°ĢëĬĶ": 1294,
  "ê°ĢëĿ½": 5597,
  "ê°Ģì§Ģ": 1346,
  "ê°ĢìĹĲ": 5334,
  "ê°ĢìĻĢ": 5572,
  "ê°ĢìĿĺ": 2889,
  "ê°ģ": 689,
  "ê°ģìĿĦ": 4926,
  "ê°Ħ": 498,
  "ê°Ħëĭ¤": 2214,
  "ê°ĦìĹĲ": 2354,
  "ê°ĦìĿĺ": 3662,
  "ê°Ī": 1475,
  "ê°Ĳ": 1020,
  "ê°ĲìĿ´": 3411,
  "ê°ĲìĿĦ": 2531,
  "ê°ĳ": 1986,
  "ê°Ĵ": 4582,
  "ê°Ķ": 2458,
  "ê°Ķëĭ¤": 2564,
  "ê°ķ": 1082,
  "ê°ĸ": 4838,
  "ê°Ļ": 1448,
  "ê°ĻìĿ´": 2895,
  "ê°ĻìĿĢ": 2056,
  "ê°ľ": 673,
  "ê°ľê°Ģ": 4530,
  "ê°ľë¡ľ": 3951,
  "ê°ľë¥¼": 2622,
  "ê°ľë°ľ": 6892,
  "ê°ľìĽĶ": 4046,
  "ê°ľìĿĺ": 2476,
  "ê°Ŀ": 2107,
  "ê±°": 538,
  "ê±°ë¦¬": 1660,
  "ê±°ë¦¬ê°Ģ": 5402,
  "ê±°ë¦¬ëĬĶ": 5599,
  "ê±°ëĤĺ": 984,
  "ê±°ìķ¼": 7900,
  "ê±°ìļ´": 5584,
  "ê±´": 731,
  "ê±´ìĿĦ": 7914,
  "ê±¸": 1372,
  "ê²": 299,
  "ê²¨": 1164,
  "ê²©": 527,
  "ê²©ìľ¼ë¡ľ": 6471,
  "ê²©ìĿ´": 4986,
  "ê²©ìĿĦ": 2038,
  "ê²¬": 1323,
  "ê²°": 1109,
  "ê²¼": 1883,
  "ê²¼ëĭ¤": 2972,
  "ê²½": 711,
  "ê²½ê¸°": 2646,
  "ê²½ì°°": 7396,
  "ê²½ìĹĲ": 7888,
  "ê²½ìĿ´": 6034,
  "ê²½ìĿĦ": 4203,
  "ê²Ģ": 1926,
  "ê²ģ": 4673,
  "ê²ĥ": 917,
  "ê²ĥëıĦ": 3668,
  "ê²ĥìĿ´": 5400,
  "ê²ĥìĿĦ": 6211,
  "ê²Į": 339,
  "ê²ĮëıĦ": 4790,
  "ê²ĮìŀĦ": 2908,
  "ê²Ĳ": 3282,
  "ê²Ł": 7459,
  "ê²ł": 1016,
  "ê²łëĭ¤": 2546,
  "ê²łëĭ¤ê³ł": 2708,
  "ê²łëĭ¤ëĬĶ": 3570,
  "ê²łì§Ģ": 6001,
  "ê²łì§Ģë§Į": 2424,
  "ê²łìĬµëĭĪëĭ¤": 7037,
  "ê³": 275,
  "ê³¡": 1224,
  "ê³¡ìĿĦ": 7135,
  "ê³¤": 1601,
  "ê³¨": 1743,
  "ê³¨ìĿĦ": 5031,
  "ê³³": 2008,
  "ê³µ": 601,
  "ê³µê²©": 3989,
  "ê³µìĿ´": 7242,
  "ê³µìĿĦ": 4848,
  "ê³µìĿĺ": 6570,
  "ê³µíķŃ": 7044,
  "ê³¼": 381,
  "ê³¼ë¥¼": 5488,
  "ê³¼ëĬĶ": 1861,
  "ê³¼ëıĦ": 6529,
  "ê³¼ìĿĺ": 2059,
  "ê³¼íķĻ": 6215,
  "ê³Ħ": 569,
  "ê³Ħê°Ģ": 3376,
  "ê³Ħë¡ľ": 5507,
  "ê³Ħë¥¼": 2553,
  "ê³ĦìĹĲ": 4709,
  "ê³ĦìĹĲìĦľ": 5905,
  "ê³ĦìĿĺ": 3325,
  "ê³ł": 290,
  "ê³łê°Ģ": 4395,
  "ê³łë¡ľ": 7393,
  "ê³łë¥¼": 3228,
  "ê³łëĬĶ": 3102,
  "ê³łëĵ±íķĻêµĲ": 4872,
  "ê³łìĨį": 5242,
  "ê³łìĿĺ": 6668,
  "ê´": 1027,
  "ê´´": 1537,
  "ê´Ģ": 714,
  "ê´Ģê³Ħ": 6187,
  "ê´Ģë¦¬": 6852,
  "ê´ĢìĹĲ": 6297,
  "ê´Ģìľ¼ë¡ľ": 6683,
  "ê´ĢìĿ´": 3131,
  "ê´ĢìĿĢ": 5575,
  "ê´ĢìĿĦ": 3898,
  "ê´ĢìĿĺ": 5276,
  "ê´ĳ": 1496,
  "ê´ĳìĹŃ": 5500,
  "ê´ĳìĹŃìĭľ": 6742,
  "êµ": 336,
  "êµ¬": 491,
  "êµ¬ê°Ģ": 2952,
  "êµ¬ë¡ľ": 5349,
  "êµ¬ë¥¼": 2278,
  "êµ¬ëĤĺ": 4162,
  "êµ¬ëĬĶ": 4442,
  "êµ¬ìĹĲ": 4630,
  "êµ¬ìĻĢ": 7339,
  "êµ¬ìĿĺ": 4208,
  "êµ°": 699,
  "êµ°ê³¼": 6298,
  "êµ°ìĹĲ": 5638,
  "êµ°ìĿ´": 2736,
  "êµ°ìĿĢ": 3755,
  "êµ°ìĿĦ": 3885,
  "êµ°ìĿĺ": 2360,
  "êµ´": 1629,
  "êµĲ": 661,
  "êµĲë¥¼": 7597,
  "êµĲìľ¡": 4340,
  "êµĲìĿĺ": 7817,
  "êµĲíĨµ": 6063,
  "êµŃ": 471,
  "êµŃìĹĲ": 7780,
  "êµŃìĿ´": 4946,
  "êµŃìĿĢ": 7768,
  "êµŃìĿĦ": 5680,
  "êµŃìĿĺ": 1842,
  "ê¶": 6981,
  "ê¶ģ": 2561,
  "ê¶Į": 896,
  "ê¶ĮìĹĲ": 5718,
  "ê¶ĮìĹĲìĦľ": 5433,
  "ê¶ĮìĿ´": 4728,
  "ê¶ĮìĿĢ": 6847,
  "ê¶ĮìĿĦ": 2615,
  "ê¶ĮìĿĺ": 4984,
  "ê·": 484,
  "ê·¸": 680,
  "ê·¸ë£¹": 4307,
  "ê·¸ëŀ¨": 2328,
  "ê·¹": 1506,
  "ê·¼": 1153,
  "ê·Ģ": 1703,
  "ê·ľ": 1547,
  "ê·ľëª¨": 4975,
  "ê·ł": 2456,
  "ê¸": 436,
  "ê¸°": 313,
  "ê¸°ê°Ģ": 1041,
  "ê¸°ê°Ħ": 6054,
  "ê¸°ê³ł": 2823,
  "ê¸°ê´Ģ": 4574,
  "ê¸°ê¹Įì§Ģ": 7083,
  "ê¸°ë¡ľ": 1432,
  "ê¸°ë¥¼": 893,
  "ê¸°ë§Į": 4705,
  "ê¸°ëĤĺ": 7661,
  "ê¸°ëĬĶ": 1156,
  "ê¸°ëıĦ": 912,
  "ê¸°ì§Ģ": 6355,
  "ê¸°ìĤ¬": 4537,
  "ê¸°ìĪł": 5224,
  "ê¸°ìĹħ": 6748,
  "ê¸°ìĹĲ": 923,
  "ê¸°ìĹĲëĬĶ": 5417,
  "ê¸°ìĹĲìĦľ": 5710,
  "ê¸°ìĻĢ": 3012,
  "ê¸°ìĿ¸": 5218,
  "ê¸°ìĿĺ": 1821,
  "ê¸´": 1081,
  "ê¸´ëĭ¤": 5231,
  "ê¸¸": 1513,
  "ê¸Ģ": 1327,
  "ê¸Ī": 749,
  "ê¸ĪìĿ´": 6727,
  "ê¸ĪìĿĦ": 3659,
  "ê¸ī": 729,
  "ê¸īìľ¼ë¡ľ": 7677,
  "ê¸īìĿĺ": 5634,
  "ê¸ĭ": 7118,
  "ê¹": 1302,
  "ê¹¥": 7977,
  "ê¹¨": 3666,
  "ê¹Ģ": 3822,
  "ê¹Į": 536,
  "ê¹Įì§Ģ": 627,
  "ê¹Įì§Ģë§Į": 5907,
  "ê¹Įì§ĢëĬĶ": 2643,
  "ê¹Įì§ĢëıĦ": 4364,
  "ê¹Įì§ĢìĿĺ": 6157,
  "ê¹Ĳ": 4011,
  "ê¹Ķ": 5921,
  "ê¹Ŀ": 3289,
  "êº¼": 5273,
  "ê»": 880,
  "ê»´": 3723,
  "ê»ı": 5204,
  "ê»ĺ": 971,
  "ê¼": 2802,
  "ê¼¬": 5972,
  "ê½": 3455,
  "ê½ĥ": 3978,
  "ê¾¸": 3506,
  "ê¾¼": 3688,
  "ê¿": 4563,
  "ë": 172,
  "ë¡": 277,
  "ë¡¤": 2332,
  "ë¡¬": 5619,
  "ë¡¯": 2252,
  "ë¡±": 3670,
  "ë¡Ģ": 1586,
  "ë¡Ģë¡ľ": 6937,
  "ë¡ľ": 281,
  "ë¡ľê°Ģ": 2983,
  "ë¡ľê·¸": 4273,
  "ë¡ľë¡ľ": 7335,
  "ë¡ľë¥¼": 2934,
  "ë¡ľë´ĩ": 7996,
  "ë¡ľë¶ĢíĦ°": 4052,
  "ë¡ľëĤĺ": 5176,
  "ë¡ľëĬĶ": 1562,
  "ë¡ľëıĦ": 4499,
  "ë¡ľëĵľ": 4234,
  "ë¡ľìĦľ": 2238,
  "ë¡ľìĦľìĿĺ": 6079,
  "ë¡ľìĬ¤": 6511,
  "ë¡ľìĻĢ": 7855,
  "ë¡ľìļ°": 4227,
  "ë¡ľìļ´": 1677,
  "ë¡ľìĽĮ": 7953,
  "ë¡ľìĿĺ": 3776,
  "ë¡Ŀ": 737,
  "ë¡ł": 791,
  "ë¡łìĿ´": 4956,
  "ë¡łìĿĢ": 7503,
  "ë¡łìĿĦ": 4218,
  "ë¡łìĿĺ": 7289,
  "ë¡Ń": 1988,
  "ë¡Ńê²Į": 3477,
  "ë¢°": 2552,
  "ë£": 504,
  "ë£¡": 2182,
  "ë£¨": 658,
  "ë£¨ê°Ģ": 4794,
  "ë£¨ë¥¼": 5407,
  "ë£¨ìĬ¤": 5725,
  "ë£¨ìĿĺ": 5665,
  "ë£©": 5769,
  "ë£¬": 3706,
  "ë£°": 6975,
  "ë£¸": 6401,
  "ë£¹": 2448,
  "ë£Į": 975,
  "ë£Įë¥¼": 4437,
  "ë¤": 3509,
  "ë¤Ħ": 4362,
  "ë¥": 287,
  "ë¥´": 487,
  "ë¥´ê°Ģ": 4736,
  "ë¥´ê²Į": 1714,
  "ë¥´ê³ł": 2150,
  "ë¥´ê¸°": 4903,
  "ë¥´ë¥¼": 6407,
  "ë¥´ë©´": 2156,
  "ë¥´ëĬĶ": 1554,
  "ë¥´ì§Ģ": 7466,
  "ë¥´ìĿĺ": 4413,
  "ë¥´íģ¬": 5538,
  "ë¥´íĬ¸": 5299,
  "ë¥¸": 618,
  "ë¥¸ëĭ¤": 2224,
  "ë¥¼": 304,
  "ë¥ĺ": 1005,
  "ë¥ĺê°Ģ": 5720,
  "ë¥ĺë¥¼": 6026,
  "ë¥Ļ": 3033,
  "ë¥ľ": 4939,
  "ë¥ł": 1441,
  "ë¥łìĿ´": 4480,
  "ë¥łìĿĦ": 7965,
  "ë¥Ń": 4616,
  "ë¦": 294,
  "ë¦¬": 312,
  "ë¦¬ê°Ģ": 1080,
  "ë¦¬ê²Į": 3194,
  "ë¦¬ê³ł": 730,
  "ë¦¬ê·¸": 2233,
  "ë¦¬ê¸°": 2735,
  "ë¦¬ë¡ľ": 2604,
  "ë¦¬ë¥¼": 1013,
  "ë¦¬ë©°": 2999,
  "ë¦¬ë©´": 3034,
  "ë¦¬ë©´ìĦľ": 4487,
  "ë¦¬ëĤĺ": 5723,
  "ë¦¬ëĬĶ": 892,
  "ë¦¬ëĭ¤": 5593,
  "ë¦¬ëıĦ": 6660,
  "ë¦¬ëĿ¼": 7574,
  "ë¦¬ì¦Ī": 1292,
  "ë¦¬ì§Ģ": 1836,
  "ë¦¬ì¹´": 2284,
  "ë¦¬ìĬ¤": 1440,
  "ë¦¬ìĬ¤íĬ¸": 5268,
  "ë¦¬ìķĦ": 1381,
  "ë¦¬ìķĦìĿĺ": 6883,
  "ë¦¬ìķĪ": 5102,
  "ë¦¬ìĸ´": 1863,
  "ë¦¬ìĸ¸": 6830,
  "ë¦¬ìĸ¼": 7841,
  "ë¦¬ìĹĲ": 1615,
  "ë¦¬ìĹĲìĦľ": 4683,
  "ë¦¬ìĺ¤": 2356,
  "ë¦¬ìĺ¨": 4498,
  "ë¦¬ìĻĢ": 2678,
  "ë¦¬ìĿĺ": 1834,
  "ë¦¬ìŀĲ": 4436,
  "ë¦¬íĬ¸": 7683,
  "ë¦¬íĭ°": 3054,
  "ë¦°": 667,
  "ë¦°ëĭ¤": 1454,
  "ë¦°ìĿ´": 7055,
  "ë¦°ìĿĺ": 7550,
  "ë¦´": 1326,
  "ë¦¼": 1104,
  "ë¦¼ìĿĦ": 7049,
  "ë¦¼íĶ½": 4536,
  "ë¦½": 1116,
  "ë¦¿": 2651,
  "ë¦Ħ": 811,
  "ë¦ĦìĿĦ": 6450,
  "ë¦ĩ": 4827,
  "ë¦ī": 5628,
  "ë¦Ń": 981,
  "ë¦ŃíĦ°": 1162,
  "ë§": 305,
  "ë§¤": 959,
  "ë§¥": 3557,
  "ë§¨": 1525,
  "ë§µ": 7670,
  "ë§¹": 2834,
  "ë§ģ": 1476,
  "ë§ģìĿ´": 7958,
  "ë§ģìĿĦ": 6391,
  "ë§Ī": 494,
  "ë§Īê°Ģ": 3305,
  "ë§Īë£¨": 7598,
  "ë§Īë¥¼": 3958,
  "ë§Īë¦¬": 6557,
  "ë§Īë²ķ": 7857,
  "ë§ĪëĬĶ": 6874,
  "ë§Īëĭ¤": 1684,
  "ë§ĪìĬ¤": 5753,
  "ë§ĪìĿĦ": 6424,
  "ë§ĪìĿĺ": 3331,
  "ë§ĪìŀĲ": 3410,
  "ë§ĪìłĢ": 2928,
  "ë§ĪìłĢëıĦ": 5922,
  "ë§ĪíĬ¸": 4786,
  "ë§ī": 1087,
  "ë§īìĿĦ": 7562,
  "ë§Į": 356,
  "ë§ĮìĹĲ": 2801,
  "ë§ĮìĽĲ": 5570,
  "ë§Įìľ¼ë¡ľ": 4243,
  "ë§ĮìĿ´": 2722,
  "ë§ĮìĿĢ": 5183,
  "ë§ĮìĿĦ": 2856,
  "ë§ĮìĿĺ": 3516,
  "ë§Įíģ¼": 1932,
  "ë§Įíģ¼ìĿĢ": 6695,
  "ë§Įíķľ": 2720,
  "ë§İìĿĢ": 3686,
  "ë§Ĳ": 1036,
  "ë§Ĳë¡ľ": 2925,
  "ë§ĲìĿĦ": 5363,
  "ë§Ľ": 4325,
  "ë§Ŀ": 990,
  "ë§ĿìĿ´": 7947,
  "ë§ĿìĿĦ": 7183,
  "ë§ŀ": 3071,
  "ë¨": 759,
  "ë¨¸": 1006,
  "ë¨¸ë¦¬": 6454,
  "ë¨¸ëĭĪ": 1877,
  "ë¨¹": 1566,
  "ë¨¹ê³ł": 7912,
  "ë¨¹ëĬĶ": 5244,
  "ë¨¼": 2170,
  "ë¨¼íĬ¸": 6506,
  "ë©": 314,
  "ë©°": 426,
  "ë©´": 349,
  "ë©´ìĦľ": 629,
  "ë©´ìĦľëıĦ": 5093,
  "ë©´ìĹĲ": 6062,
  "ë©´ìĹĲìĦľ": 7787,
  "ë©´ìľ¼ë¡ľ": 6917,
  "ë©´ìĿĦ": 5556,
  "ë©¸": 2180,
  "ë©Ģ": 6370,
  "ë©į": 5148,
  "ë©Ķ": 992,
  "ë©ĶìĿ´": 1866,
  "ë©ĶìĿ´ìħĺ": 2474,
  "ë©ĺ": 3372,
  "ë©ľ": 5941,
  "ëª": 399,
  "ëª¨": 705,
  "ëª¨ê°Ģ": 3867,
  "ëª¨ë¡ľ": 4308,
  "ëª¨ë¥¼": 4177,
  "ëª¨ë¦¬": 6103,
  "ëª¨ëį¸": 7749,
  "ëª¨íĨł": 4429,
  "ëª©": 1118,
  "ëª©ìĿĦ": 4619,
  "ëª¬": 1596,
  "ëª°": 4018,
  "ëª¸": 6286,
  "ëª»": 2157,
  "ëª½": 3627,
  "ëªħ": 542,
  "ëªħìĹĲ": 7864,
  "ëªħìľ¼ë¡ľ": 4014,
  "ëªħìĿ´": 1867,
  "ëªħìĿĢ": 3175,
  "ëªħìĿĦ": 1934,
  "ëªħìĿĺ": 2262,
  "ëªħíķľ": 7578,
  "ëªĩ": 3825,
  "ë¬": 362,
  "ë¬´": 565,
  "ë¬´ê¸°": 7005,
  "ë¬´ë¥¼": 3072,
  "ë¬´ëĿ¼": 5061,
  "ë¬´ìĽĲ": 6055,
  "ë¬µ": 5200,
  "ë¬¸": 472,
  "ë¬¸ìĹĲ": 2690,
  "ë¬¸ìĿ´": 3643,
  "ë¬¸ìĿĦ": 2429,
  "ë¬¸ìĿĺ": 3998,
  "ë¬¸íĻĶ": 6153,
  "ë¬¼": 645,
  "ë¬¼ë¡ľ": 4893,
  "ë¬¼ìĹĲ": 7114,
  "ë¬¼ìĿ´": 2777,
  "ë¬¼ìĿĢ": 7752,
  "ë¬¼ìĿĦ": 2110,
  "ë¬¼ìĿĺ": 5124,
  "ë¬ĺ": 3380,
  "ë¬ĺíķľ": 7444,
  "ë®": 7144,
  "ë®¤": 3337,
  "ë¯": 651,
  "ë¯¸": 520,
  "ë¯¸ê°Ģ": 3279,
  "ë¯¸ë¥¼": 3577,
  "ë¯¸ëĦĲ": 5930,
  "ë¯¸ëĬĶ": 4844,
  "ë¯¸ëĭĪ": 7445,
  "ë¯¸ìķ¼": 6167,
  "ë¯¸ìĻĢ": 6665,
  "ë¯¸ìĿĺ": 4358,
  "ë¯¹": 2810,
  "ë¯¼": 805,
  "ë¯¼ì£¼": 5676,
  "ë¯¼ìĿ´": 6132,
  "ë¯¼ìĿĺ": 6794,
  "ë¯Ģë¡ľ": 1280,
  "ë°": 355,
  "ë°¤": 7398,
  "ë°¥": 3214,
  "ë°©": 726,
  "ë°©ìĨ¡": 3538,
  "ë°©ìĹĲ": 4388,
  "ë°©ìĹĲìĦľ": 7388,
  "ë°©ìľ¼ë¡ľ": 7437,
  "ë°©ìĿ´": 5300,
  "ë°©ìĿĦ": 3841,
  "ë°©ìĿĺ": 4676,
  "ë°°": 1010,
  "ë°°ë¥¼": 6628,
  "ë°±": 1456,
  "ë°´": 6572,
  "ë°Ģ": 1727,
  "ë°į": 2402,
  "ë°Ķ": 848,
  "ë°Ķë¡ľ": 4688,
  "ë°ĶìĿ´": 4085,
  "ë°ķ": 1266,
  "ë°ĸìĹĲ": 2136,
  "ë°ĺ": 678,
  "ë°Ľ": 1226,
  "ë°Ľê³ł": 4693,
  "ë°ĽëĬĶ": 3848,
  "ë°ĽëĬĶëĭ¤": 7816,
  "ë°ĽìķĦ": 5436,
  "ë°Ľìķĺëĭ¤": 6522,
  "ë°ĽìĿĢ": 3839,
  "ë°ĽìĿĦ": 7236,
  "ë°ľ": 770,
  "ë°ľìĿĦ": 4734,
  "ë±": 3808,
  "ë±ħ": 7439,
  "ë²": 370,
  "ë²¤": 1653,
  "ë²¨": 1311,
  "ë²¼": 5338,
  "ë²½": 1941,
  "ë²Ħ": 556,
  "ë²Ħë¦¬": 6181,
  "ë²Ħë¦¬ê³ł": 5647,
  "ë²Ħë¦¬ëĬĶ": 4295,
  "ë²Ħë¦°": 3253,
  "ë²Ħë¦°ëĭ¤": 3567,
  "ë²Ħëł¤": 6876,
  "ë²Ħëł¸": 7652,
  "ë²Ħëł¸ëĭ¤": 3366,
  "ë²ĦìĬ¤": 2738,
  "ë²ħ": 7940,
  "ë²Ī": 739,
  "ë²Īì§¸": 1913,
  "ë²ĪìĹĲ": 6313,
  "ë²ĪìĿ´": 7477,
  "ë²ĪìĿĦ": 7481,
  "ë²ĪìĿĺ": 6945,
  "ë²Į": 1647,
  "ë²Ķ": 1281,
  "ë²ķ": 789,
  "ë²ķìĿ´": 6342,
  "ë²ķìĿĢ": 7166,
  "ë²ķìĿĦ": 4239,
  "ë²ł": 1406,
  "ë²łë¥´": 6825,
  "ë³": 363,
  "ë³´": 474,
  "ë³´ê°Ģ": 5152,
  "ë³´ê³ł": 3532,
  "ë³´ê¸°": 7727,
  "ë³´ë¥¼": 3781,
  "ë³´ë©´": 2202,
  "ë³´ëĬĶ": 3270,
  "ë³´ëĭ¤": 980,
  "ë³´ëĭ¤ëĬĶ": 2229,
  "ë³´ëĭ¤ëıĦ": 3729,
  "ë³´ëĭ¨": 5626,
  "ë³´ëĭĪ": 2781,
  "ë³´ëĵľ": 7980,
  "ë³´ìĬ¤": 6682,
  "ë³´ìŀĲ": 4023,
  "ë³µ": 978,
  "ë³µìĿĦ": 4751,
  "ë³¸": 728,
  "ë³¼": 1692,
  "ë³Ģ": 1481,
  "ë³ĢìĿ´": 7853,
  "ë³Ħ": 1265,
  "ë³Ħë¡ľ": 5673,
  "ë³ĳ": 977,
  "ë³ĳìĿ´": 6387,
  "ë³ĳìĿĦ": 5796,
  "ë´": 1181,
  "ë´¤": 4468,
  "ë´ĩ": 2798,
  "ë´ī": 1831,
  "ë´Ĳ": 2903,
  "ë´Ĳìķ¼": 7370,
  "ë¶": 530,
  "ë¶Ģ": 420,
  "ë¶Ģê°Ģ": 3167,
  "ë¶Ģë¡ľ": 3418,
  "ë¶Ģë¥¼": 2623,
  "ë¶Ģë¶Ħ": 1394,
  "ë¶ĢëĬĶ": 3773,
  "ë¶ĢëĮĢ": 6420,
  "ë¶ĢìĹĲ": 2809,
  "ë¶ĢìĹĲìĦľ": 4333,
  "ë¶ĢìĻĢ": 6108,
  "ë¶ĢìĿĺ": 2728,
  "ë¶ĢíĦ°": 758,
  "ë¶ĢíĦ°ëĬĶ": 3552,
  "ë¶ģ": 1800,
  "ë¶Ħ": 605,
  "ë¶ĦìĹĲ": 2115,
  "ë¶ĦìĿ´": 3586,
  "ë¶ĦìĿĦ": 4197,
  "ë¶ĦìĿĺ": 6812,
  "ë¶Ī": 1451,
  "ë¶ķ": 5157,
  "ë¶Ļ": 2914,
  "ë·": 1694,
  "ë·°": 2475,
  "ë·Ķ": 2725,
  "ë¸": 684,
  "ë¸Į": 820,
  "ë¸Įë¥¼": 6007,
  "ë¸Įë¦¬": 7162,
  "ë¸Ĳ": 3517,
  "ë¸Ķ": 1382,
  "ë¹": 1060,
  "ë¹¨": 5810,
  "ë¹µ": 4685,
  "ë¹Ħ": 562,
  "ë¹Ħê°Ģ": 2691,
  "ë¹Ħë¡ľ": 7764,
  "ë¹Ħë¥¼": 2350,
  "ë¹ĦëĬĶ": 5431,
  "ë¹ĦìĬ¤": 7700,
  "ë¹ĦìķĦ": 3692,
  "ë¹ĦìĹĲ": 7254,
  "ë¹ĦìĻĢ": 7988,
  "ë¹ĦìĿĺ": 5220,
  "ë¹ĦíĬ¸": 6882,
  "ë¹Ī": 2545,
  "ë¹Į": 3150,
  "ë¹Ļ": 3196,
  "ë¹Ľ": 3633,
  "ë¹ł": 2331,
  "ë»": 4049,
  "ë»Ĳ": 7051,
  "ë¿": 5555,
  "ë¿Ĳ": 2558,
  "ë¿Ĳë§Į": 6323,
  "ëĢ": 1791,
  "ëģ": 1004,
  "ëģ¼": 1549,
  "ëģ¼ë¦¬": 5091,
  "ëģĦ": 4451,
  "ëģĦëŁ¬": 7941,
  "ëģĶ": 2271,
  "ëĤ": 425,
  "ëĤ¨": 1242,
  "ëĤ¨ëıĦ": 7230,
  "ëĤ©": 5437,
  "ëĤ¬": 1532,
  "ëĤ¬ëĭ¤": 2388,
  "ëĤ´": 676,
  "ëĤ´ê³ł": 3244,
  "ëĤ´ê¸°": 6620,
  "ëĤ´ë©°": 5827,
  "ëĤ´ëĬĶ": 2184,
  "ëĤ¸": 1752,
  "ëĤ¸ëĭ¤": 3620,
  "ëĤ¼": 3203,
  "ëĤĺ": 342,
  "ëĤĺê°Ģ": 2190,
  "ëĤĺê²Į": 2812,
  "ëĤĺë¥¼": 4256,
  "ëĤĺë§Ī": 2118,
  "ëĤĺë¬´": 5600,
  "ëĤĺëĬĶ": 1937,
  "ëĤĺëĭ¤": 5162,
  "ëĤĺëĿ¼": 2695,
  "ëĤĺëĿ¼ìĿĺ": 7893,
  "ëĤĺìĻĢ": 4357,
  "ëĤĺìĿ´": 3333,
  "ëĤĺìĿĺ": 3618,
  "ëĤĻ": 3082,
  "ëĤľ": 779,
  "ëĤľëĭ¤": 2726,
  "ëĤł": 1166,
  "ëĥ": 760,
  "ëĥ¥": 1228,
  "ëĥĪ": 3764,
  "ëĥĪëĭ¤": 2861,
  "ëĥĲ": 1210,
  "ëĥĲê³ł": 2943,
  "ëĥĲë©°": 5951,
  "ëĥĲëĬĶ": 3451,
  "ëĦ": 559,
  "ëĦ£": 3852,
  "ëĦ¤": 974,
  "ëĦ¬": 6364,
  "ëĦ·": 2303,
  "ëĦĪ": 1015,
  "ëĦĲ": 1447,
  "ëĦĲíĭ°": 6020,
  "ëĦĺ": 3806,
  "ëħ": 382,
  "ëħ¸": 810,
  "ëħ¸ê°Ģ": 7225,
  "ëħ¸ìĿĺ": 7751,
  "ëħ¼": 3714,
  "ëħĢ": 1018,
  "ëħģ": 5834,
  "ëħĦ": 440,
  "ëħĦê°Ħ": 5426,
  "ëħĦê¹Įì§Ģ": 5069,
  "ëħĦë¶ĢíĦ°": 3221,
  "ëħĦëĮĢ": 2112,
  "ëħĦëıĦ": 6033,
  "ëħĦìĹĲ": 1687,
  "ëħĦìĹĲëĬĶ": 3653,
  "ëħĦìĿ´": 4703,
  "ëħĦìĿĦ": 5721,
  "ëħĦìĿĺ": 4995,
  "ëħĲ": 1741,
  "ëħĶ": 7294,
  "ëħķ": 3997,
  "ëĨ": 1236,
  "ëĨĪ": 4148,
  "ëĨį": 6092,
  "ëĨĵ": 1541,
  "ëĨĵê³ł": 2591,
  "ëĨĵìĿĢ": 4338,
  "ëĩĮ": 4378,
  "ëĪ": 1503,
  "ëĪĦ": 1908,
  "ëĪĪ": 6263,
  "ëī´": 3186,
  "ëĬ": 272,
  "ëĬ¥": 631,
  "ëĬ¥ëł¥": 5668,
  "ëĬĲ": 1174,
  "ëĬĲëĥĲ": 4540,
  "ëĬĲëĿ¼": 6912,
  "ëĬĶ": 273,
  "ëĬĶê°Ģ": 6788,
  "ëĬĶëĭ¤": 958,
  "ëĬĶëį°": 640,
  "ëĬĶì§Ģ": 1993,
  "ëĬĺ": 1707,
  "ëĭ": 267,
  "ëĭ¤": 271,
  "ëĭ¤ê°Ģ": 1001,
  "ëĭ¤ê³ł": 814,
  "ëĭ¤ë¥¸": 4349,
  "ëĭ¤ë©´": 2122,
  "ëĭ¤ë³´ëĭĪ": 6926,
  "ëĭ¤ëĬĶ": 753,
  "ëĭ¤ëĭĪ": 3089,
  "ëĭ¤ëĭĪëĬĶ": 6626,
  "ëĭ¤ëŀĢ": 7280,
  "ëĭ¤ìĭľ": 7336,
  "ëĭ¤ìļ´": 3511,
  "ëĭ¤ìĿ´": 6335,
  "ëĭ¥": 2536,
  "ëĭ¨": 598,
  "ëĭ¨ê³Ħ": 4324,
  "ëĭ¨ìĹĲ": 4587,
  "ëĭ¨ìľ¼ë¡ľ": 6218,
  "ëĭ¨ìĿ´": 3559,
  "ëĭ¨ìĿĢ": 6196,
  "ëĭ¨ìĿĦ": 3231,
  "ëĭ¨ìĿĺ": 3168,
  "ëĭ«": 5839,
  "ëĭ¬": 1134,
  "ëĭ¬ëĿ¼ê³ł": 4886,
  "ëĭ´": 1126,
  "ëĭ´ìĿĦ": 6460,
  "ëĭµ": 1762,
  "ëĭµê²Į": 4328,
  "ëĭ¹": 570,
  "ëĭ¹ìĹĲ": 6870,
  "ëĭ¹ìĿ´": 5072,
  "ëĭ¹ìĿĦ": 6447,
  "ëĭ¹ìĿĺ": 5262,
  "ëĭ¹íķ´": 7024,
  "ëĭ¹íķĺê³ł": 6198,
  "ëĭ¹íķĺëĬĶ": 6500,
  "ëĭ¹íķľ": 3017,
  "ëĭ¹íķľëĭ¤": 7138,
  "ëĭ¹íķł": 7460,
  "ëĭ¹íĸĪëĭ¤": 7195,
  "ëĭ¹íŀĪ": 6564,
  "ëĭĪ": 416,
  "ëĭĪê°Ģ": 6049,
  "ëĭĪê¹Į": 2101,
  "ëĭĪëĭ¤": 786,
  "ëĭĪìĬ¤": 4851,
  "ëĭĪìķĦ": 2572,
  "ëĭĪìĸ´": 6703,
  "ëĭĪìĻĢ": 7600,
  "ëĭĪìĿĺ": 6835,
  "ëĭĪíĭ°": 4026,
  "ëĭī": 2426,
  "ëĭĮ": 1152,
  "ëĭĲ": 3154,
  "ëĭĺ": 1437,
  "ëĭĺìĿ´": 4718,
  "ëĭĺìĿĦ": 7957,
  "ëĭĺìĿĺ": 5591,
  "ëĭĽ": 1786,
  "ëĭĿ": 1854,
  "ëĮ": 3628,
  "ëĮĢ": 380,
  "ëĮĢê°Ģ": 2204,
  "ëĮĢë¡ľ": 794,
  "ëĮĢë¥¼": 1835,
  "ëĮĢëĬĶ": 2746,
  "ëĮĢìĹĲ": 2358,
  "ëĮĢìĹĲìĦľ": 4680,
  "ëĮĢìĻĢ": 5467,
  "ëĮĢìĿĺ": 1790,
  "ëĮĢìŀ¥": 7464,
  "ëĮĢìłĦ": 4585,
  "ëĮĢíĳľ": 4609,
  "ëĮĢíķĻ": 3385,
  "ëĮĢíķĻêµĲ": 2996,
  "ëĮĢíķľ": 2465,
  "ëĮĢíļĮ": 7327,
  "ëĮĦ": 7926,
  "ëį": 344,
  "ëį¤": 2574,
  "ëį©": 5217,
  "ëį°": 434,
  "ëį°ë¯¸": 6841,
  "ëį°ëĭ¤": 7266,
  "ëį°ìĬ¤": 7832,
  "ëį°ìĿ´íĬ¸": 2931,
  "ëį±": 5800,
  "ëį´": 3809,
  "ëį¸": 1816,
  "ëįĶ": 807,
  "ëįĶëĭĪ": 2973,
  "ëįĶëĿ¼": 6813,
  "ëįĶëĿ¼ëıĦ": 2152,
  "ëįķ": 1953,
  "ëįĺ": 507,
  "ëįĺê°Ģ": 5260,
  "ëįľ": 4812,
  "ëİ": 5688,
  "ëı": 292,
  "ëı¼": 3861,
  "ëıĦ": 303,
  "ëıĦê°Ģ": 1430,
  "ëıĦë¡ľ": 1756,
  "ëıĦë¡Ŀ": 1589,
  "ëıĦë¥¼": 1733,
  "ëıĦëĬĶ": 2401,
  "ëıĦìĭľ": 5141,
  "ëıĦìĹĲ": 3428,
  "ëıĦìĹĲìĦľ": 7905,
  "ëıĦìĻĢ": 3974,
  "ëıĦìļ°": 5246,
  "ëıĦìĿĺ": 2389,
  "ëıħ": 1102,
  "ëıħêµĲ": 6513,
  "ëıĪ": 3344,
  "ëıĮ": 1444,
  "ëıĻ": 505,
  "ëıĻìĥĿ": 4456,
  "ëıĻìķĪ": 2065,
  "ëıĻìĹĲ": 6467,
  "ëıĻìľ¼ë¡ľ": 7179,
  "ëıĻìĿ´": 4613,
  "ëıĻìĿĦ": 3341,
  "ëıĻìĿĺ": 6438,
  "ëĲ": 372,
  "ëĲ¨": 5716,
  "ëĲĲ": 3703,
  "ëĲĲëĭ¤": 3708,
  "ëĲĺ": 435,
  "ëĲĺê³ł": 1587,
  "ëĲĺê¸°": 3197,
  "ëĲĺê¸°ëıĦ": 5290,
  "ëĲĺë©°": 2858,
  "ëĲĺë©´": 3725,
  "ëĲĺë©´ìĦľ": 2706,
  "ëĲĺëĬĶ": 1064,
  "ëĲĺëĬĶëį°": 5234,
  "ëĲĺì§Ģ": 1903,
  "ëĲĺì§Ģë§Į": 7191,
  "ëĲĺìĸ´": 963,
  "ëĲĺìĸ´ìĦľ": 7376,
  "ëĲĺìĹĪ": 1293,
  "ëĲĺìĹĪê³ł": 2896,
  "ëĲĺìĹĪëĬĶëį°": 5255,
  "ëĲĺìĹĪëĭ¤": 910,
  "ëĲĺìĹĪëĭ¤ê³ł": 7223,
  "ëĲĺìĹĪëĭ¤ëĬĶ": 7997,
  "ëĲĺìĹĪëįĺ": 5564,
  "ëĲĺìĹĪì§Ģë§Į": 6803,
  "ëĲĺìĹĪìľ¼ë©°": 3820,
  "ëĲĺìĹĪìľ¼ëĤĺ": 6305,
  "ëĲĺìĹĪìĿĦ": 7281,
  "ëĲĺìŀĲ": 5512,
  "ëĲľ": 557,
  "ëĲľëĭ¤": 1056,
  "ëĲľëĭ¤ëĬĶ": 6865,
  "ëĲł": 1776,
  "ëĳ": 1463,
  "ëĳ¥": 2937,
  "ëĳ¥ìĿ´": 7117,
  "ëĳĲ": 763,
  "ëĳĲê³ł": 3853,
  "ëĳĳ": 5516,
  "ëĳĶ": 3286,
  "ëĳĺ": 4022,
  "ëĴ": 3896,
  "ëĴ¤": 5333,
  "ëĵ": 301,
  "ëĵ¤": 347,
  "ëĵ¤ê³¼": 1367,
  "ëĵ¤ê³¼ëĬĶ": 6893,
  "ëĵ¤ë¡ľ": 2978,
  "ëĵ¤ëıĦ": 1640,
  "ëĵ¤ìĸ´": 3561,
  "ëĵ¤ìĹĲ": 2528,
  "ëĵ¤ìĹĲê²Į": 1306,
  "ëĵ¤ìĹĲê²ĮëĬĶ": 5679,
  "ëĵ¤ìĿ´": 620,
  "ëĵ¤ìĿ´ëĭ¤": 5355,
  "ëĵ¤ìĿĢ": 835,
  "ëĵ¤ìĿĦ": 858,
  "ëĵ¤ìĿĺ": 891,
  "ëĵ¬": 4053,
  "ëĵ¯": 1438,
  "ëĵ¯ìĿ´": 2674,
  "ëĵ±": 1021,
  "ëĵ±ê¸ī": 6864,
  "ëĵ±ìĿĦ": 5346,
  "ëĵ±íķĻêµĲ": 2415,
  "ëĵĢ": 4244,
  "ëĵľ": 400,
  "ëĵľê°Ģ": 1810,
  "ëĵľë¡ľ": 2105,
  "ëĵľë¥¼": 1645,
  "ëĵľë¦¬": 5453,
  "ëĵľë¦½": 6713,
  "ëĵľëĬĶ": 1631,
  "ëĵľëĿ¼": 5947,
  "ëĵľìĭľ": 3374,
  "ëĵľìĹĲ": 4123,
  "ëĵľìĹĲìĦľ": 5880,
  "ëĵľìĻĢ": 3874,
  "ëĵľìĿĺ": 1843,
  "ëĵĿ": 1333,
  "ëĵł": 720,
  "ëĵłê°Ģ": 6271,
  "ëĵłì§Ģ": 3911,
  "ëĵŃ": 6671,
  "ëĶ": 609,
  "ëĶ§": 7991,
  "ëĶ©": 1766,
  "ëĶ°": 3903,
  "ëĶĶ": 768,
  "ëĶĶê°Ģ": 6919,
  "ëĶĶë¡ľ": 6440,
  "ëĶĶìħĺ": 5430,
  "ëĶĶìķĦ": 5640,
  "ëĶĶìĸ´": 3371,
  "ëĶĶìĸ¸": 6562,
  "ëĶĶìĺ¤": 2434,
  "ëĶĺ": 3685,
  "ëĶľ": 2731,
  "ëķ": 3932,
  "ëķħ": 5615,
  "ëķĮ": 979,
  "ëķĮë¬¸ìĹĲ": 4627,
  "ëĸ": 3647,
  "ëĺ": 5414,
  "ëļ": 3469,
  "ëļ±": 7657,
  "ëľ": 1713,
  "ëľ¨": 2281,
  "ëľ©": 5713,
  "ëľ»": 6688,
  "ëĿ¼": 330,
  "ëĿ¼ê°Ģ": 2327,
  "ëĿ¼ê³ł": 886,
  "ëĿ¼ê¸°": 6605,
  "ëĿ¼ë¥¼": 2961,
  "ëĿ¼ë¦¬": 5030,
  "ëĿ¼ë§Ī": 2318,
  "ëĿ¼ë©°": 4110,
  "ëĿ¼ë©´": 2379,
  "ëĿ¼ëĬĶ": 859,
  "ëĿ¼ëıĦ": 1397,
  "ëĿ¼ìĦľ": 2930,
  "ëĿ¼ìĬ¤": 4488,
  "ëĿ¼ìĹĲ": 7059,
  "ëĿ¼ìĻĢ": 4819,
  "ëĿ¼ìļ°": 4666,
  "ëĿ¼ìļ´ëĵľ": 3185,
  "ëĿ¼ìĿ´": 1172,
  "ëĿ¼ìĿ´ëįĶ": 4178,
  "ëĿ¼ìĿ´ìĸ¸": 7282,
  "ëĿ¼ìĿ¸": 2893,
  "ëĿ¼ìĿĺ": 2236,
  "ëĿ½": 1106,
  "ëĿ½ìĿĦ": 4644,
  "ëŀ": 357,
  "ëŀ¨": 2146,
  "ëŀ©": 5714,
  "ëŀ«": 3475,
  "ëŀ¬": 4706,
  "ëŀµ": 1685,
  "ëŀĢ": 825,
  "ëŀĢëĭ¤": 7314,
  "ëŀĢëĵľ": 4957,
  "ëŀĦ": 3014,
  "ëŀĮ": 646,
  "ëŀį": 3078,
  "ëŀĲ": 3419,
  "ëŀĲëĭ¤": 4398,
  "ëŀĳ": 898,
  "ëŀĺ": 544,
  "ëŀĺëıĦ": 4094,
  "ëŀĻ": 2164,
  "ëŀľ": 1368,
  "ëŀľëĵľ": 2365,
  "ëŀŃ": 3330,
  "ëŀŃíģ¬": 6537,
  "ëŁ": 359,
  "ëŁ¬": 449,
  "ëŁ¬ê°Ģ": 4073,
  "ëŁ¬ë¥¼": 5845,
  "ëŁ¬ìĬ¤": 4012,
  "ëŁ¬ìļ´": 6139,
  "ëŁ¬ìĿĺ": 7208,
  "ëŁ°": 708,
  "ëŁ´": 2716,
  "ëŁ¼": 921,
  "ëŁ½": 1445,
  "ëŁ¿": 3967,
  "ëŁī": 942,
  "ëŁīìľ¼ë¡ľ": 7202,
  "ëŁīìĿ´": 2683,
  "ëŁīìĿĢ": 5309,
  "ëŁīìĿĦ": 3535,
  "ëŁīìĿĺ": 5119,
  "ëŁŃ": 2273,
  "ëł": 319,
  "ëł¤": 468,
  "ëł¤ê³ł": 1652,
  "ëł¤ë©´": 3843,
  "ëł¤ëĬĶ": 2953,
  "ëł¤ìĦľ": 2670,
  "ëł¥": 481,
  "ëł¥ê³¼": 3693,
  "ëł¥ëıĦ": 4963,
  "ëł¥ìĹĲ": 4621,
  "ëł¥ìľ¼ë¡ľ": 3039,
  "ëł¥ìĿ´": 1154,
  "ëł¥ìĿĢ": 2466,
  "ëł¥ìĿĦ": 1112,
  "ëł¥ìĿĺ": 4025,
  "ëł¨": 1000,
  "ëł¬": 3188,
  "ëł¬íķľ": 7981,
  "ëł´": 4689,
  "ëłµ": 2040,
  "ëł¸": 1075,
  "ëł¸ê³ł": 4778,
  "ëł¸ëĭ¤": 1564,
  "ëł¸ëįĺ": 7285,
  "ëł¸ìĿĦ": 5874,
  "ëł¹": 1007,
  "ëł¹ìĿ´": 7719,
  "ëł¹ìĿĦ": 7399,
  "ëłĢ": 2757,
  "ëłĢëĭ¤": 4475,
  "ëłģ": 5097,
  "ëłĩ": 996,
  "ëłĪ": 525,
  "ëłĪë²¨": 2820,
  "ëłĪëĤĺ": 7870,
  "ëłĪìĬ¤": 3414,
  "ëłĪìĿ´": 761,
  "ëłĪìĿ´ëĵľ": 2902,
  "ëłĪìĿ´ìħĺ": 4482,
  "ëłĪìĿ´íĦ°": 7682,
  "ëłĪìĿ¸": 4614,
  "ëłī": 2287,
  "ëłĮ": 1977,
  "ëłĲ": 4952,
  "ëłĺ": 5117,
  "ëłĻ": 5301,
  "ëłĽ": 4038,
  "ì": 173,
  "ì¡": 576,
  "ì¡°": 623,
  "ì¡°ê°Ģ": 5013,
  "ì¡°ê±´": 3148,
  "ì¡°ë¥¼": 5267,
  "ì¡°ë¦¬": 6468,
  "ì¡°ëĬĶ": 7239,
  "ì¡°ì°¨": 2306,
  "ì¡°ì°¨ëıĦ": 6920,
  "ì¡°ìĿĺ": 4425,
  "ì¡±": 927,
  "ì¡±ìĿĺ": 6315,
  "ì¡´": 1249,
  "ì¡¸": 7467,
  "ì¡Į": 982,
  "ì¡Įê³ł": 4226,
  "ì¡Įëĭ¤": 1378,
  "ì¢": 750,
  "ì¢ħ": 801,
  "ì¢ħìĿ´": 6614,
  "ì¢ħìĿĦ": 7630,
  "ì¢ħìĿĺ": 3236,
  "ì¢ĭ": 5886,
  "ì¢Į": 3301,
  "ì£": 1439,
  "ì£¼": 448,
  "ì£¼ê°Ģ": 3771,
  "ì£¼ê³ł": 3166,
  "ì£¼ë¡ľ": 3849,
  "ì£¼ë¥¼": 3297,
  "ì£¼ë©´": 6457,
  "ì£¼ëħĦ": 7384,
  "ì£¼ëĬĶ": 1497,
  "ì£¼ì§Ģ": 6677,
  "ì£¼ìĿ¸": 6621,
  "ì£¼ìĿĺ": 1546,
  "ì£½": 3162,
  "ì£Ħ": 2422,
  "ì£ł": 2789,
  "ì¤": 610,
  "ì¤¬": 2776,
  "ì¤¬ëĭ¤": 5194,
  "ì¤Ģ": 717,
  "ì¤Ģëĭ¤": 1830,
  "ì¤Ħ": 1833,
  "ì¤ĳ": 638,
  "ì¤ĳìĹĲ": 1829,
  "ì¤ĳìĿ¸": 7036,
  "ì¤ĳíķĻêµĲ": 7909,
  "ì¤ĳíķľ": 5781,
  "ì¤ĺ": 2980,
  "ì¤ĺìķ¼": 6897,
  "ì¥": 3545,
  "ì¥¬": 5820,
  "ì¥Ĳ": 6839,
  "ì¦": 524,
  "ì¦Ī": 657,
  "ì¦Īê°Ģ": 4529,
  "ì¦Īë¥¼": 4885,
  "ì¦ĪëĬĶ": 6013,
  "ì¦ĪìĻĢ": 7969,
  "ì¦ĪìĿĺ": 3818,
  "ì¦ĪíĤ¤": 7155,
  "ì¦Į": 1124,
  "ì¦Ĳ": 7119,
  "ì¦ĺ": 2865,
  "ì¦Ŀ": 1490,
  "ì¦ĿìĿ´": 7300,
  "ì¦ĿìĿĦ": 5336,
  "ì§": 279,
  "ì§±": 6538,
  "ì§¸": 1209,
  "ì§Ģ": 291,
  "ì§Ģê°Ģ": 1400,
  "ì§Ģê²Į": 3006,
  "ì§Ģê³ł": 1121,
  "ì§Ģê¸°": 3059,
  "ì§Ģë¡ľ": 2290,
  "ì§Ģë¥¼": 1141,
  "ì§Ģë§Ī": 6333,
  "ì§Ģë§ī": 1469,
  "ì§Ģë§Į": 439,
  "ì§Ģë©°": 4021,
  "ì§Ģë©´": 3288,
  "ì§Ģë©´ìĦľ": 3645,
  "ì§Ģë°©": 7827,
  "ì§ĢëĬĶ": 909,
  "ì§ĢëĬĶëį°": 6399,
  "ì§ĢëıĦ": 1662,
  "ì§ĢëĿ¼": 3622,
  "ì§Ģì§Ģ": 2518,
  "ì§Ģì»¬": 6085,
  "ì§Ģìħĺ": 3326,
  "ì§Ģìĸ´": 2033,
  "ì§ĢìĹĲ": 2423,
  "ì§ĢìĹĲìĦľ": 4072,
  "ì§ĢìĹŃ": 4668,
  "ì§ĢìĻĢ": 3548,
  "ì§ĢìĽĲ": 7249,
  "ì§ĢìĿĺ": 2201,
  "ì§ĢìŀĲ": 4471,
  "ì§ģ": 849,
  "ì§ģìĿĦ": 6239,
  "ì§ģíķľ": 7731,
  "ì§Ħ": 501,
  "ì§Ħëĭ¤": 1389,
  "ì§ĦìĿ´": 3594,
  "ì§ĦìĿĢ": 5498,
  "ì§ĦìĿĦ": 3798,
  "ì§ĦìĿĺ": 4696,
  "ì§Ī": 925,
  "ì§ĪìĿ´": 4715,
  "ì§ĪìĿĦ": 3856,
  "ì§Ĳ": 4195,
  "ì§ĳ": 1149,
  "ì§ĳìĿĦ": 7446,
  "ì§ĵ": 2665,
  "ì§ķ": 1572,
  "ì§ľ": 1672,
  "ì§ľë¦¬": 6186,
  "ì§Ŀ": 2565,
  "ì¨": 4434,
  "ì©": 2078,
  "ì©¡": 6100,
  "ì©į": 6535,
  "ìª½": 1157,
  "ìª½ìĹĲ": 4538,
  "ìª½ìľ¼ë¡ľ": 4067,
  "ì¯¤": 3583,
  "ì°": 452,
  "ì°¨": 639,
  "ì°¨ê°Ģ": 3704,
  "ì°¨ë¡ľ": 4861,
  "ì°¨ë¥¼": 3763,
  "ì°¨ëĬĶ": 6675,
  "ì°¨ìĹĲ": 7541,
  "ì°¨ìłĦ": 6470,
  "ì°¨íĶ¼": 5095,
  "ì°©": 1458,
  "ì°¬": 1442,
  "ì°®": 2323,
  "ì°°": 1499,
  "ì°¸": 2299,
  "ì°½": 1413,
  "ì°¾": 5320,
  "ì°Į": 2681,
  "ì°į": 3399,
  "ì±": 1145,
  "ì±Ħ": 2091,
  "ì±ħ": 1623,
  "ì±ħìĿĦ": 5998,
  "ì±ł": 7880,
  "ì²": 395,
  "ì²©": 4078,
  "ì²´": 561,
  "ì²´ê°Ģ": 2645,
  "ì²´ë¡ľ": 4928,
  "ì²´ë¥¼": 2425,
  "ì²´ëĬĶ": 4154,
  "ì²´ìĹĲ": 6691,
  "ì²´ìĿĺ": 4119,
  "ì²ĺ": 797,
  "ì²ĺëŁ¼": 1070,
  "ì²Ļ": 2442,
  "ì²ľ": 1050,
  "ì²ł": 1551,
  "ì²łëıĦ": 6405,
  "ì²Ń": 986,
  "ì³": 1071,
  "ì³¤": 2428,
  "ì³¤ëĭ¤": 4189,
  "ì³Ĳ": 1235,
  "ì³ĲìĦľ": 4658,
  "ì´": 2242,
  "ì´Ī": 1008,
  "ì´ĪìĹĲ": 2938,
  "ì´ī": 4908,
  "ì´Į": 3315,
  "ì´Ŀ": 1693,
  "ìµľ": 3314,
  "ì¶": 596,
  "ì¶©": 2085,
  "ì¶°": 2709,
  "ì¶Ķ": 1376,
  "ì¶ķ": 1655,
  "ì¶ĺ": 2772,
  "ì¶ľ": 956,
  "ì·¨": 2444,
  "ì¸": 742,
  "ì¸¡": 1784,
  "ì¸µ": 1740,
  "ì¸Ħ": 7349,
  "ì¸ł": 994,
  "ì¸łê°Ģ": 7843,
  "ì¸łìĿĺ": 7409,
  "ì¹": 369,
  "ì¹¨": 1747,
  "ì¹´": 634,
  "ì¹´ê°Ģ": 4361,
  "ì¹´ë¥¼": 5847,
  "ì¹´ëĬĶ": 6312,
  "ì¹´ëĵľ": 4935,
  "ì¹´ìĻĢ": 3908,
  "ì¹´ìĿ´": 3242,
  "ì¹´ìĿĺ": 4760,
  "ì¹¸": 2839,
  "ì¹¼": 3679,
  "ì¹ĺ": 456,
  "ì¹ĺê°Ģ": 1880,
  "ì¹ĺê²Į": 4081,
  "ì¹ĺê³ł": 2441,
  "ì¹ĺê¸°": 5085,
  "ì¹ĺë¡ľ": 2744,
  "ì¹ĺë¥¼": 1857,
  "ì¹ĺë©°": 6654,
  "ì¹ĺë©´": 7975,
  "ì¹ĺëĬĶ": 1749,
  "ì¹ĺì§Ģ": 4877,
  "ì¹ĺìĹĲ": 5252,
  "ì¹ĺìĻĢ": 5364,
  "ì¹ĺìĿĺ": 3754,
  "ì¹Ļ": 2588,
  "ì¹ľ": 1352,
  "ì¹ľëĭ¤": 4591,
  "ì¹ł": 2431,
  "ì¹Ń": 1686,
  "ìº": 1702,
  "ìºĲ": 2381,
  "ìºĶ": 7773,
  "ìºł": 6594,
  "ì»": 885,
  "ì»¤": 1324,
  "ì»¨": 4421,
  "ì»¬": 2048,
  "ì»´": 5588,
  "ì»µ": 2684,
  "ì»·": 4825,
  "ì¼": 766,
  "ì¼°": 2511,
  "ì¼Ģ": 1455,
  "ì¼ĢìĿ´": 3213,
  "ì¼Ħ": 5393,
  "ì¼ĵ": 1984,
  "ì¼ľ": 1461,
  "ì½": 1401,
  "ì½¤": 4138,
  "ì½©": 4229,
  "ì½Ķ": 800,
  "ì½Ķê°Ģ": 4795,
  "ì½Ķë¥¼": 7720,
  "ì½ĶëĬĶ": 6398,
  "ì½ĶìĻĢ": 7915,
  "ì½ĶìĿĺ": 4843,
  "ì½ĺ": 2703,
  "ì½ľ": 3479,
  "ì¾Į": 5987,
  "ì¿": 2207,
  "ì¿¨": 5403,
  "ì¿Ħ": 3948,
  "ì¿ł": 1139,
  "ìģ": 2017,
  "ìģĺ": 6309,
  "ìģľ": 7635,
  "ìĤ": 571,
  "ìĤ¬": 384,
  "ìĤ¬ê°Ģ": 1419,
  "ìĤ¬ê±´": 5368,
  "ìĤ¬ë¡ľ": 2657,
  "ìĤ¬ë¥¼": 1369,
  "ìĤ¬ëĬĶ": 2102,
  "ìĤ¬ëŀĮ": 6423,
  "ìĤ¬ëŀĳ": 7899,
  "ìĤ¬ëł¹": 7961,
  "ìĤ¬ì¹´": 6107,
  "ìĤ¬ìĹħ": 6692,
  "ìĤ¬ìĹĲ": 3015,
  "ìĤ¬ìĹĲìĦľ": 4822,
  "ìĤ¬ìĻĢ": 2957,
  "ìĤ¬ìĿ´": 5112,
  "ìĤ¬ìĿ¸": 5742,
  "ìĤ¬ìĿĺ": 1721,
  "ìĤ¬íĤ¤": 6957,
  "ìĤ¬íķŃ": 6069,
  "ìĤ°": 724,
  "ìĤ°ìĹħ": 7688,
  "ìĤ°ìĿ´": 5811,
  "ìĤ°ìĿĦ": 4478,
  "ìĤ°ìĿĺ": 7879,
  "ìĤ´": 1067,
  "ìĤ¼": 2628,
  "ìĤŃ": 5494,
  "ìĥ": 865,
  "ìĥ¤": 2847,
  "ìĥ·": 5120,
  "ìĥģ": 424,
  "ìĥģìĹĲ": 2995,
  "ìĥģìĹĲìĦľ": 4745,
  "ìĥģìľ¼ë¡ľ": 2275,
  "ìĥģìĿ´": 1858,
  "ìĥģìĿĢ": 3319,
  "ìĥģìĿĦ": 1420,
  "ìĥģìĿĺ": 2495,
  "ìĥģíĥľ": 5001,
  "ìĥĪ": 2095,
  "ìĥī": 1133,
  "ìĥīìľ¼ë¡ľ": 6785,
  "ìĥīìĿ´": 5691,
  "ìĥīìĿĦ": 6680,
  "ìĥīìĿĺ": 7938,
  "ìĥĿ": 666,
  "ìĥĿìĿĦ": 7850,
  "ìĥĿíĻľ": 4539,
  "ìĦ": 278,
  "ìĦ¤": 952,
  "ìĦ¤ìĿĦ": 7184,
  "ìĦ¬": 5350,
  "ìĦ¯": 3757,
  "ìĦ°": 5391,
  "ìĦ±": 443,
  "ìĦ±ê³¼": 3955,
  "ìĦ±ëıĦ": 4541,
  "ìĦ±ìĹĲ": 3869,
  "ìĦ±ìľ¼ë¡ľ": 5239,
  "ìĦ±ìĿ´": 1270,
  "ìĦ±ìĿĢ": 2785,
  "ìĦ±ìĿĦ": 1479,
  "ìĦ±ìĿĺ": 2892,
  "ìĦ¸": 622,
  "ìĦ¸ê°Ģ": 3593,
  "ìĦ¸ê³Ħ": 4071,
  "ìĦ¸ê¸°": 3868,
  "ìĦ¸ë¡ľ": 7286,
  "ìĦ¸ë¥¼": 3084,
  "ìĦ¸ëĬĶ": 7152,
  "ìĦ¸ëĮĢ": 3409,
  "ìĦ¸ìĹĲ": 7048,
  "ìĦ¸ìļĶ": 3731,
  "ìĦ¸ìĿ´": 4655,
  "ìĦ¸ìĿĺ": 5008,
  "ìĦ¸íĬ¸": 5611,
  "ìĦ¼": 2035,
  "ìĦ¼íĦ°": 5844,
  "ìĦľ": 297,
  "ìĦľê°Ģ": 4726,
  "ìĦľë¡ľ": 7069,
  "ìĦľë¥¼": 3232,
  "ìĦľëĬĶ": 1780,
  "ìĦľìĹĲ": 7434,
  "ìĦľìĿĺ": 4981,
  "ìĦĿ": 955,
  "ìĦĿìĹĲ": 7954,
  "ìĦĿìĿ´": 3870,
  "ìĦĿìĿĢ": 7171,
  "ìĦĿìĿĦ": 4097,
  "ìĦĿìĿĺ": 7890,
  "ìĦł": 551,
  "ìĦłê±°": 6145,
  "ìĦłìĪĺ": 4612,
  "ìĦłìĹĲ": 5056,
  "ìĦłìĹĲìĦľ": 5700,
  "ìĦłìľ¼ë¡ľ": 5547,
  "ìĦłìĿ´": 3275,
  "ìĦłìĿĢ": 5373,
  "ìĦłìĿĦ": 2398,
  "ìĦłìĿĺ": 3828,
  "ìĦŃ": 3200,
  "ìħ": 709,
  "ìħ¨": 4341,
  "ìħ°": 7724,
  "ìħĢ": 4431,
  "ìħī": 3438,
  "ìħĭ": 5493,
  "ìħĶ": 2917,
  "ìħĺ": 894,
  "ìħĺìĿĦ": 7813,
  "ìħľ": 3963,
  "ìĨ": 895,
  "ìĨ¡": 1101,
  "ìĨĮ": 564,
  "ìĨĮê°Ģ": 4856,
  "ìĨĮë¡ľ": 7653,
  "ìĨĮë¥¼": 2960,
  "ìĨĮë¦¬": 7776,
  "ìĨĮëħĢ": 5203,
  "ìĨĮëħĦ": 5440,
  "ìĨĮìĹĲ": 6465,
  "ìĨĮìĹĲìĦľ": 7040,
  "ìĨĮìĿĺ": 6484,
  "ìĨĮíķľ": 6679,
  "ìĨį": 669,
  "ìĨįëıĦ": 5863,
  "ìĨįìĦ±": 7483,
  "ìĨĲ": 1973,
  "ìĨĶ": 3661,
  "ìĩ": 1823,
  "ìĩ¼": 3616,
  "ìĩĦ": 3208,
  "ìĩł": 4547,
  "ìĪ": 633,
  "ìĪĺ": 429,
  "ìĪĺê°Ģ": 1654,
  "ìĪĺë¡ľ": 2638,
  "ìĪĺë¡Ŀ": 2787,
  "ìĪĺë¥¼": 1729,
  "ìĪĺëĬĶ": 2543,
  "ìĪĺëıĦ": 3986,
  "ìĪĺìĹĲ": 5295,
  "ìĪĺìĻĢ": 5050,
  "ìĪĺìĿĺ": 2158,
  "ìĪĺíķľ": 3267,
  "ìĪĻ": 2094,
  "ìĪľ": 1383,
  "ìĪł": 839,
  "ìĪłìĿĦ": 3804,
  "ìĪŃ": 6871,
  "ìī": 1571,
  "ìī¬": 1916,
  "ìī½": 3788,
  "ìĬ": 318,
  "ìĬ¤": 337,
  "ìĬ¤ê°Ģ": 1298,
  "ìĬ¤ë¡ľ": 1643,
  "ìĬ¤ë¥¼": 1262,
  "ìĬ¤ëĬĶ": 1668,
  "ìĬ¤ëıĦ": 7141,
  "ìĬ¤ëŁ¬": 2464,
  "ìĬ¤ëŁ¬ìļ´": 3241,
  "ìĬ¤ëŁ½": 2940,
  "ìĬ¤ëŁ½ê²Į": 4005,
  "ìĬ¤ì¼Ģ": 4168,
  "ìĬ¤ì½Ķ": 4371,
  "ìĬ¤ìĹĲ": 3117,
  "ìĬ¤ìĹĲê²Į": 5232,
  "ìĬ¤ìĹĲìĦľ": 4217,
  "ìĬ¤ìĻĢ": 2226,
  "ìĬ¤ìĿĺ": 1279,
  "ìĬ¤íģ¬": 2486,
  "ìĬ¤íĤ¤": 7945,
  "ìĬ¤íĤ¬": 5269,
  "ìĬ¤íĥĢ": 1982,
  "ìĬ¤íĥĦ": 7038,
  "ìĬ¤íĦ°": 1131,
  "ìĬ¤íĦ´": 6963,
  "ìĬ¤íħĮ": 4009,
  "ìĬ¤íħľ": 2222,
  "ìĬ¤íĨ¤": 7495,
  "ìĬ¤íĨł": 4043,
  "ìĬ¤íĬ¸": 873,
  "ìĬ¤íĬ¸ê°Ģ": 6881,
  "ìĬ¤íĬ¸ë¡ľ": 5524,
  "ìĬ¤íĬ¸ë¥¼": 5719,
  "ìĬ¤íĬ¸ëĿ¼": 6639,
  "ìĬ¤íĭ°": 3700,
  "ìĬ¤íĮħ": 6113,
  "ìĬ¤íı¬": 6193,
  "ìĬ¨": 1639,
  "ìĬ¬": 1545,
  "ìĬ´": 3295,
  "ìĬµ": 692,
  "ìĬµëĭĪëĭ¤": 1365,
  "ìĬ·": 1556,
  "ìĬ¹": 845,
  "ìĬ¹ìĿĦ": 4054,
  "ìĬĪ": 2148,
  "ìĬĪíĥĢ": 7986,
  "ìĭ": 300,
  "ìĭ¤": 591,
  "ìĭ¤ë¡ľ": 6911,
  "ìĭ¤ìĹĲ": 5706,
  "ìĭ¤ìĹĲìĦľ": 6269,
  "ìĭ¤ìĿ´": 5818,
  "ìĭ¤ìĿĦ": 4174,
  "ìĭ¤íķľ": 6574,
  "ìĭ¬": 843,
  "ìĭ¬ìľ¼ë¡ľ": 6705,
  "ìĭ¬ìĿ´": 3408,
  "ìĭ¬ìĿĦ": 2609,
  "ìĭ¬íķľ": 7241,
  "ìĭ¬íŀĪ": 4570,
  "ìĭ±": 3151,
  "ìĭ¸": 2676,
  "ìĭ¼": 5439,
  "ìĭľ": 353,
  "ìĭľê°Ģ": 3176,
  "ìĭľê°Ħ": 1726,
  "ìĭľê°ĦìĿ´": 6031,
  "ìĭľê³ł": 5371,
  "ìĭľë¡ľ": 3318,
  "ìĭľë¥¼": 3049,
  "ìĭľë¦¬ì¦Ī": 5817,
  "ìĭľë§Ī": 4315,
  "ìĭľë¸Į": 4651,
  "ìĭľëĬĶ": 3356,
  "ìĭľëĭ¤": 7690,
  "ìĭľëĮĢ": 4892,
  "ìĭľì¦Į": 2848,
  "ìĭľì¼°": 3296,
  "ìĭľì¼°ëĭ¤": 5074,
  "ìĭľì¼ľ": 2186,
  "ìĭľì½Ķ": 7423,
  "ìĭľìĦ¤": 6217,
  "ìĭľìĬ¤": 6295,
  "ìĭľìķĦ": 1606,
  "ìĭľìĹĲ": 1667,
  "ìĭľìĺ¤": 4298,
  "ìĭľìĻĢ": 5523,
  "ìĭľìĿĺ": 3313,
  "ìĭľìŀ¥": 6466,
  "ìĭľìłĪ": 6590,
  "ìĭľíĤ¤": 1414,
  "ìĭľíĤ¤ê³ł": 4077,
  "ìĭľíĤ¤ê¸°": 7354,
  "ìĭľíĤ¤ëĬĶ": 2682,
  "ìĭľíĤ¨": 2395,
  "ìĭľíĤ¨ëĭ¤": 4414,
  "ìĭľíĤ¬": 3724,
  "ìĭľíĭ°": 5094,
  "ìĭľíĶ¼": 4677,
  "ìĭľíķĺëĬĶ": 7972,
  "ìĭľíķľ": 5669,
  "ìĭľíĹĺ": 7919,
  "ìĭĿ": 588,
  "ìĭĿìĹĲ": 7270,
  "ìĭĿìľ¼ë¡ľ": 3350,
  "ìĭĿìĿ´": 2637,
  "ìĭĿìĿĢ": 5901,
  "ìĭĿìĿĦ": 1900,
  "ìĭĿìĿĺ": 4711,
  "ìĭł": 466,
  "ìĭłìľ¼ë¡ľ": 7380,
  "ìĭłìĿ´": 3461,
  "ìĭłìĿĢ": 6903,
  "ìĭłìĿĦ": 3171,
  "ìĭłìĿĺ": 4202,
  "ìĭŃ": 2575,
  "ìĮ": 3871,
  "ìĮį": 4932,
  "ìį": 5789,
  "ìį¨": 1969,
  "ìĵ": 2209,
  "ìĵ°": 2862,
  "ìĵ¸": 5763,
  "ìĶ": 1023,
  "ìĶ¨": 1732,
  "ìĶ¨ê°Ģ": 6476,
  "ìĶ©": 1770,
  "ìĶ¬": 2243,
  "ìķ": 308,
  "ìķ¡": 2538,
  "ìķ¤": 7654,
  "ìķ¼": 500,
  "ìķ¼ê°Ģ": 5995,
  "ìķ¼êµ¬": 7638,
  "ìķ¼ë§Ī": 4592,
  "ìķ¼ë§Į": 7906,
  "ìķ¼ë§Ĳë¡ľ": 3304,
  "ìķ¼ìĿĺ": 6669,
  "ìķ½": 944,
  "ìķ½ìĿ´": 7746,
  "ìķ½ìĿĦ": 4314,
  "ìķ½íķľ": 7792,
  "ìķĦ": 378,
  "ìķĦê°Ģ": 2371,
  "ìķĦë¥¼": 6230,
  "ìķĦë²Ħ": 3981,
  "ìķĦëĬĶ": 7227,
  "ìķĦìĦľ": 1493,
  "ìķĦìĽĥ": 5179,
  "ìķĦìĿ´": 5574,
  "ìķĦìĿĺ": 4342,
  "ìķĦíĮĮ": 7849,
  "ìķħ": 1179,
  "ìķħìĿĺ": 4665,
  "ìķħíķľ": 5762,
  "ìķĪ": 718,
  "ìķĪìĿ´": 6505,
  "ìķĪìĿĦ": 4120,
  "ìķĪíĥĢ": 6053,
  "ìķĬ": 4502,
  "ìķĮ": 2758,
  "ìķĶ": 3066,
  "ìķķ": 2291,
  "ìķĹ": 3338,
  "ìķĺ": 636,
  "ìķĺê³ł": 4225,
  "ìķĺëĬĶëį°": 5272,
  "ìķĺëĭ¤": 973,
  "ìķĺëĭ¤ê³ł": 5347,
  "ìķĺëĭ¤ëĬĶ": 6947,
  "ìķĺëįĺ": 3328,
  "ìķĺì§Ģë§Į": 5103,
  "ìķĺìľ¼ëĤĺ": 6411,
  "ìķĺìĿĦ": 5292,
  "ìķĻ": 1899,
  "ìķŀ": 6792,
  "ìķł": 1585,
  "ìĸ": 555,
  "ìĸ´": 328,
  "ìĸ´ê°Ģ": 1603,
  "ìĸ´ë¡ľ": 1998,
  "ìĸ´ë¥¼": 2374,
  "ìĸ´ë¦¬": 7767,
  "ìĸ´ë²Ħ": 2289,
  "ìĸ´ë²Ħë¦°": 7043,
  "ìĸ´ëĤĺ": 1425,
  "ìĸ´ëĤľ": 2016,
  "ìĸ´ëĬĶ": 4351,
  "ìĸ´ëıĦ": 2305,
  "ìĸ´ëĵ¤": 3138,
  "ìĸ´ì£¼": 5487,
  "ìĸ´ì§Ħ": 3845,
  "ìĸ´ìĦľ": 1039,
  "ìĸ´ìķ¼": 2912,
  "ìĸ´ìĻĢ": 7634,
  "ìĸ´ìļĶ": 3658,
  "ìĸ´ìĿĺ": 3698,
  "ìĸ´ìł¸": 5167,
  "ìĸµ": 1584,
  "ìĸ¸": 1017,
  "ìĸ¸ìĿĦ": 3629,
  "ìĸ¼": 1920,
  "ìĸĢ": 5057,
  "ìĸĳ": 860,
  "ìĸĳìĿ´": 6936,
  "ìĹ": 268,
  "ìĹ¬": 502,
  "ìĹ¬ìĦľ": 3184,
  "ìĹ°": 688,
  "ìĹ°êµ¬": 5920,
  "ìĹ°ìĿ´": 6036,
  "ìĹ°ìĿĦ": 6445,
  "ìĹ°ìĿĺ": 6664,
  "ìĹ°íķ©": 6806,
  "ìĹ°íŀĪ": 4424,
  "ìĹ´": 1343,
  "ìĹ¼": 1902,
  "ìĹ½": 4251,
  "ìĹĦ": 2875,
  "ìĹħ": 792,
  "ìĹħìĿ´": 6192,
  "ìĹħìĿĦ": 2668,
  "ìĹĨ": 1200,
  "ìĹĨëĬĶ": 2639,
  "ìĹĨëĭ¤": 6112,
  "ìĹĨìĿ´": 1734,
  "ìĹĩ": 2376,
  "ìĹĪ": 512,
  "ìĹĪê³ł": 2396,
  "ìĹĪê¸°": 6558,
  "ìĹĪëĬĶëį°": 3355,
  "ìĹĪëĭ¤": 457,
  "ìĹĪëĭ¤ê³ł": 3256,
  "ìĹĪëĭ¤ëĬĶ": 4403,
  "ìĹĪëįĺ": 2549,
  "ìĹĪì§Ģë§Į": 3476,
  "ìĹĪìľ¼ë©°": 5173,
  "ìĹĪìľ¼ëĤĺ": 4891,
  "ìĹĪìĿĦ": 3863,
  "ìĹĲ": 274,
  "ìĹĲê²Į": 511,
  "ìĹĲê²ĮëĬĶ": 2942,
  "ìĹĲê²ĮëıĦ": 4322,
  "ìĹĲê²ĮìĦľ": 4068,
  "ìĹĲê²Ĳ": 7836,
  "ìĹĲë§Į": 3669,
  "ìĹĲëĬĶ": 644,
  "ìĹĲëĭ¤": 7639,
  "ìĹĲëıĦ": 877,
  "ìĹĲìĦľ": 341,
  "ìĹĲìĦľë§Į": 4917,
  "ìĹĲìĦľëĬĶ": 696,
  "ìĹĲìĦľëıĦ": 1097,
  "ìĹĲìĦľìĿĺ": 2104,
  "ìĹĲìĦł": 1471,
  "ìĹĶ": 1257,
  "ìĹĺ": 2240,
  "ìĹŃ": 690,
  "ìĹŃìĹĲ": 6376,
  "ìĹŃìĹĲìĦľ": 6038,
  "ìĹŃìľ¼ë¡ľ": 4422,
  "ìĹŃìĿ´": 4904,
  "ìĹŃìĿĢ": 6553,
  "ìĹŃìĿĦ": 3719,
  "ìĹŃìĿĺ": 7039,
  "ìĺ": 348,
  "ìĺ¤": 518,
  "ìĺ¤ê°Ģ": 5298,
  "ìĺ¤ê³ł": 6647,
  "ìĺ¤ë¥¼": 5860,
  "ìĺ¤ëĬĶ": 2077,
  "ìĺ¤ìĿĺ": 5427,
  "ìĺ¤íĶĦ": 6011,
  "ìĺ¥": 2119,
  "ìĺ¨": 798,
  "ìĺ¨ëĭ¤": 3739,
  "ìĺ¬": 1489,
  "ìĺµ": 7302,
  "ìĺ·": 4284,
  "ìĺ¹": 6102,
  "ìĺĢ": 573,
  "ìĺĢê³ł": 3050,
  "ìĺĢê¸°": 7304,
  "ìĺĢëĬĶëį°": 4522,
  "ìĺĢëĭ¤": 785,
  "ìĺĢëĭ¤ê³ł": 5832,
  "ìĺĢëĭ¤ëĬĶ": 6856,
  "ìĺĢëįĺ": 2092,
  "ìĺĢì§Ģë§Į": 3917,
  "ìĺĢìľ¼ë©°": 5354,
  "ìĺĢìľ¼ëĤĺ": 3824,
  "ìĺĢìĿĦ": 7706,
  "ìĺģ": 764,
  "ìĺģìĿ´": 6659,
  "ìĺĪ": 1196,
  "ìĻ": 366,
  "ìĻ¸": 991,
  "ìĻ¸ë¡ľ": 3234,
  "ìĻĢ": 401,
  "ìĻĢëĬĶ": 2004,
  "ìĻĢìĦľ": 4776,
  "ìĻĢìĿĺ": 1765,
  "ìĻĦ": 2653,
  "ìĻĶ": 1632,
  "ìĻĶëĭ¤": 1838,
  "ìĻķ": 1229,
  "ìĻķìĿ´": 5728,
  "ìĻķìĿĺ": 4600,
  "ìļ": 323,
  "ìļ©": 460,
  "ìļ©ìľ¼ë¡ľ": 3826,
  "ìļ©ìĿ´": 4440,
  "ìļ©ìĿĦ": 5256,
  "ìļ©íķľ": 4412,
  "ìļ°": 427,
  "ìļ°ê°Ģ": 3625,
  "ìļ°ê³ł": 4212,
  "ìļ°ë¥¼": 5519,
  "ìļ°ëĬĶ": 1789,
  "ìļ°ìĬ¤": 2747,
  "ìļ°ìĿĺ": 4912,
  "ìļ±": 1748,
  "ìļ´": 589,
  "ìļ´ëĭ¤": 5882,
  "ìļ´ëį°": 3080,
  "ìļ´ëıĻ": 4262,
  "ìļ´ëĵľ": 2194,
  "ìļ¸": 966,
  "ìļĶ": 619,
  "ìļĶìĿ¼": 5113,
  "ìļķ": 2447,
  "ìļķìĿĦ": 7739,
  "ìĽ": 364,
  "ìĽ¨": 4230,
  "ìĽ¨ìĸ´": 5726,
  "ìĽ¨ìĿ´": 5850,
  "ìĽĢ": 1353,
  "ìĽĢìĿ´": 3064,
  "ìĽĢìĿĦ": 2314,
  "ìĽĥ": 2249,
  "ìĽħ": 1943,
  "ìĽĮ": 869,
  "ìĽĮëĵľ": 7705,
  "ìĽĮìĦľ": 4272,
  "ìĽĲ": 506,
  "ìĽĲê³¼": 5383,
  "ìĽĲëĵ¤ìĿ´": 5370,
  "ìĽĲìĹĲ": 3550,
  "ìĽĲìĹĲìĦľ": 3926,
  "ìĽĲìľ¼ë¡ľ": 3342,
  "ìĽĲìĿ´": 1855,
  "ìĽĲìĿĢ": 3110,
  "ìĽĲìĿĦ": 2172,
  "ìĽĲìĿĺ": 2416,
  "ìĽĶ": 575,
  "ìĽĶë¶ĢíĦ°": 7418,
  "ìĽĶìĹĲ": 3172,
  "ìĽł": 2177,
  "ìĽłëĭ¤": 4402,
  "ìľ": 296,
  "ìľ¡": 1478,
  "ìľ¤": 2910,
  "ìľ¨": 1459,
  "ìľ¨ìĿ´": 3379,
  "ìľ¨ìĿĦ": 6322,
  "ìľµ": 4831,
  "ìľ¼": 320,
  "ìľ¼ë¡ľ": 340,
  "ìľ¼ë¡ľë¶ĢíĦ°": 4546,
  "ìľ¼ë¡ľëĬĶ": 2006,
  "ìľ¼ë¡ľëıĦ": 2945,
  "ìľ¼ë¡ľìĦľ": 2600,
  "ìľ¼ë¡ľìĦľìĿĺ": 7848,
  "ìľ¼ë¡ľìį¨": 3101,
  "ìľ¼ë¡ł": 6698,
  "ìľ¼ë©°": 721,
  "ìľ¼ë©´": 1120,
  "ìľ¼ë©´ìĦľ": 2533,
  "ìľ¼ë¯Ģë¡ľ": 2418,
  "ìľ¼ëĤĺ": 911,
  "ìľ¼ëĭĪ": 1540,
  "ìľ¼ëŁ¬": 7372,
  "ìľ¼ëł¤": 5747,
  "ìľ¼ëł¤ê³ł": 6404,
  "ìľĦ": 568,
  "ìľĦê°Ģ": 2822,
  "ìľĦë¡ľ": 2833,
  "ìľĦë¥¼": 1724,
  "ìľĦëĬĶ": 3696,
  "ìľĦìĹĲ": 3041,
  "ìľĦìĽĲ": 3183,
  "ìľĦìĽĲíļĮ": 6999,
  "ìľĦìĿĺ": 4573,
  "ìľĪ": 3802,
  "ìľĻ": 6789,
  "ìľł": 660,
  "ìľłë¥¼": 7669,
  "ìľłìĿĺ": 2982,
  "ìĿ": 263,
  "ìĿ´": 269,
  "ìĿ´ê°Ģ": 1494,
  "ìĿ´ê²Į": 7220,
  "ìĿ´ê³ł": 1185,
  "ìĿ´ê¸°": 1925,
  "ìĿ´ê¸°ëıĦ": 2215,
  "ìĿ´ê¸°ìĹĲ": 7356,
  "ìĿ´ê¸´": 6600,
  "ìĿ´ë¡ľ": 3216,
  "ìĿ´ë¥¼": 1958,
  "ìĿ´ë©°": 1220,
  "ìĿ´ë©´": 2797,
  "ìĿ´ë¯Ģë¡ľ": 4051,
  "ìĿ´ëĤĺ": 840,
  "ìĿ´ëĬĶ": 1221,
  "ìĿ´ëĭ¤": 447,
  "ìĿ´ëĭĪ": 3572,
  "ìĿ´ëĭĿ": 4191,
  "ìĿ´ëįĺ": 5012,
  "ìĿ´ëĵľ": 2363,
  "ìĿ´ëĵł": 7795,
  "ìĿ´ëĿ¼": 578,
  "ìĿ´ëĿ¼ê³ł": 1099,
  "ìĿ´ëĿ¼ë©°": 6749,
  "ìĿ´ëĿ¼ë©´": 2514,
  "ìĿ´ëĿ¼ëĬĶ": 1113,
  "ìĿ´ëĿ¼ëıĦ": 2954,
  "ìĿ´ëĿ¼ìĦľ": 4380,
  "ìĿ´ëŀĢ": 3156,
  "ìĿ´ì¦Ī": 3423,
  "ìĿ´ì§Ģ": 1234,
  "ìĿ´ì§Ģë§Į": 1470,
  "ìĿ´ìĥģ": 5076,
  "ìĿ´ìħĺ": 3846,
  "ìĿ´ìĬ¤": 1832,
  "ìĿ´ìķ¼": 4294,
  "ìĿ´ìĸ´": 2132,
  "ìĿ´ìĹĪ": 1227,
  "ìĿ´ìĹĪê³ł": 4186,
  "ìĿ´ìĹĪëĬĶëį°": 5656,
  "ìĿ´ìĹĪëĭ¤": 1290,
  "ìĿ´ìĹĪëĭ¤ê³ł": 6899,
  "ìĿ´ìĹĪëįĺ": 2443,
  "ìĿ´ìĹĪì§Ģë§Į": 4985,
  "ìĿ´ìĹĪìľ¼ëĤĺ": 4648,
  "ìĿ´ìĹĲ": 4769,
  "ìĿ´ìĻĢ": 4316,
  "ìĿ´ìĿĺ": 2587,
  "ìĿ´ìŀĲ": 1888,
  "ìĿ´íĦ°": 2218,
  "ìĿ´íĬ¸": 1245,
  "ìĿµ": 2067,
  "ìĿ¸": 333,
  "ìĿ¸ê°Ģ": 3332,
  "ìĿ¸ê³¼": 4044,
  "ìĿ¸ë¬¼": 3070,
  "ìĿ¸ëĭ¤": 1322,
  "ìĿ¸ëį°": 1354,
  "ìĿ¸ëĵ¤": 7889,
  "ìĿ¸ëĵ¤ìĿ´": 4199,
  "ìĿ¸ëĵ¤ìĿĢ": 6040,
  "ìĿ¸ëĵ¤ìĿĺ": 6341,
  "ìĿ¸ì§Ģ": 1384,
  "ìĿ¸ì§ĢëĬĶ": 7238,
  "ìĿ¸ì§ĢëĿ¼": 5067,
  "ìĿ¸ìĹĲ": 6464,
  "ìĿ¸ìĹĲê²Į": 5836,
  "ìĿ¸ìľ¼ë¡ľ": 3560,
  "ìĿ¸ìĿ´": 1336,
  "ìĿ¸ìĿ´ëĭ¤": 7808,
  "ìĿ¸ìĿ¸": 6231,
  "ìĿ¸ìĿĢ": 2042,
  "ìĿ¸ìĿĦ": 1886,
  "ìĿ¸ìĿĺ": 1620,
  "ìĿ¸íĬ¸": 3395,
  "ìĿ¼": 432,
  "ìĿ¼ê¹Įì§Ģ": 6016,
  "ìĿ¼ë¡ľ": 4941,
  "ìĿ¼ë¶ĢíĦ°": 4345,
  "ìĿ¼ëŁ¬": 4638,
  "ìĿ¼ìĹĲ": 1997,
  "ìĿ¼ìĹĲëĬĶ": 6844,
  "ìĿ¼ìĿ´": 2976,
  "ìĿ¼ìĿĢ": 4382,
  "ìĿ¼ìĿĦ": 2890,
  "ìĿ¼ìĿĺ": 4263,
  "ìĿĢ": 306,
  "ìĿĢíĸī": 5782,
  "ìĿĦ": 283,
  "ìĿĦëķĮ": 4855,
  "ìĿĮ": 577,
  "ìĿĮìĹĲëıĦ": 3142,
  "ìĿĮìĿ´": 3907,
  "ìĿĮìĿĦ": 1992,
  "ìĿį": 5824,
  "ìĿĳ": 1563,
  "ìĿĺ": 284,
  "ìĿĺê°Ģ": 6052,
  "ìĿĺë¡ľ": 6582,
  "ìĿĺë¥¼": 2981,
  "ìŀ": 289,
  "ìŀ¡": 1675,
  "ìŀ¥": 393,
  "ìŀ¥ê³¼": 4507,
  "ìŀ¥ìĹĲ": 2686,
  "ìŀ¥ìĹĲìĦľ": 2791,
  "ìŀ¥ìľ¼ë¡ľ": 2830,
  "ìŀ¥ìĿ´": 1658,
  "ìŀ¥ìĿ¸": 6129,
  "ìŀ¥ìĿĢ": 2649,
  "ìŀ¥ìĿĦ": 1484,
  "ìŀ¥ìĿĺ": 2432,
  "ìŀ¥íķľ": 6214,
  "ìŀ¬": 607,
  "ìŀ¬ê°Ģ": 7065,
  "ìŀ¬ë¥¼": 6421,
  "ìŀĦ": 612,
  "ìŀĦìĹĲëıĦ": 4674,
  "ìŀĦìĿ´": 3595,
  "ìŀĦìĿĦ": 2161,
  "ìŀħ": 813,
  "ìŀħëĭĪëĭ¤": 2251,
  "ìŀĩ": 7676,
  "ìŀĪ": 1055,
  "ìŀĪê²Į": 7931,
  "ìŀĪê³ł": 6861,
  "ìŀĪëĬĶ": 1678,
  "ìŀĪëĭ¤": 1759,
  "ìŀĪëįĺ": 5185,
  "ìŀĪìĸ´": 7575,
  "ìŀī": 4710,
  "ìŀĲ": 368,
  "ìŀĲê°Ģ": 1258,
  "ìŀĲê³ł": 6719,
  "ìŀĲê¸°": 2764,
  "ìŀĲë¡ľ": 1946,
  "ìŀĲë¥¼": 1627,
  "ìŀĲë¦¬": 7425,
  "ìŀĲë§ĪìŀĲ": 6491,
  "ìŀĲëĬĶ": 1723,
  "ìŀĲëıĦ": 5662,
  "ìŀĲëıĻ": 7809,
  "ìŀĲëĵ¤": 4883,
  "ìŀĲëĵ¤ìĹĲê²Į": 6377,
  "ìŀĲëĵ¤ìĿ´": 2898,
  "ìŀĲëĵ¤ìĿĢ": 3931,
  "ìŀĲëĵ¤ìĿĦ": 5175,
  "ìŀĲëĵ¤ìĿĺ": 4144,
  "ìŀĲìĹĲ": 4126,
  "ìŀĲìĹĲê²Į": 4620,
  "ìŀĲìĻĢ": 3128,
  "ìŀĲìĿ¸": 2225,
  "ìŀĲìĿĺ": 1630,
  "ìŀĳ": 574,
  "ìŀĳìĿ´": 6507,
  "ìŀĳìĿĦ": 6035,
  "ìŀĳìĿĺ": 6334,
  "ìŀĶ": 3878,
  "ìŀĸ": 3787,
  "ìŀĸìķĦ": 4336,
  "ìŀĺ": 7071,
  "ìŀł": 7207,
  "ìŁģ": 1244,
  "ìŁģìĿ´": 6819,
  "ìł": 286,
  "ìł¤": 3139,
  "ìł¸": 862,
  "ìł¸ìĦľ": 2872,
  "ìłĢ": 723,
  "ìłĢíŀĪ": 5596,
  "ìłģ": 408,
  "ìłģìľ¼ë¡ľ": 700,
  "ìłģìľ¼ë¡ľëĬĶ": 3899,
  "ìłģìĿ´": 2257,
  "ìłģìĿ´ê³ł": 4500,
  "ìłģìĿ´ëĭ¤": 3782,
  "ìłģìĿ¸": 716,
  "ìłģìĿĢ": 4348,
  "ìłģìĿĦ": 2620,
  "ìłģìĿĺ": 7415,
  "ìłĦ": 419,
  "ìłĦê³¼": 7917,
  "ìłĦì°¨": 7742,
  "ìłĦìĤ¬": 5210,
  "ìłĦìĹĲ": 1996,
  "ìłĦìĹĲìĦľ": 2001,
  "ìłĦìĹĲìĦľëĬĶ": 5317,
  "ìłĦìľ¼ë¡ľ": 4400,
  "ìłĦìĿ´": 2595,
  "ìłĦìĿĢ": 4486,
  "ìłĦìĿĦ": 1768,
  "ìłĦìĿĺ": 3057,
  "ìłĦìŁģ": 4518,
  "ìłĦíĪ¬": 7041,
  "ìłĦíŀĪ": 1544,
  "ìłĪ": 985,
  "ìłĲ": 664,
  "ìłĲìĹĲ": 5259,
  "ìłĲìĹĲìĦľ": 5206,
  "ìłĲìľ¼ë¡ľ": 3020,
  "ìłĲìĿ´": 2088,
  "ìłĲìĿĢ": 3639,
  "ìłĲìĿĦ": 1809,
  "ìłĳ": 1252,
  "ìłķ": 421,
  "ìłķë³´": 6774,
  "ìłķë¶Ģ": 6925,
  "ìłķëıĦ": 2817,
  "ìłķìĹĲ": 3893,
  "ìłķìľ¼ë¡ľ": 4060,
  "ìłķìĿ´": 1745,
  "ìłķìĿĢ": 3991,
  "ìłķìĿĦ": 1576,
  "ìłķìĿĺ": 4200,
  "ìłķíķľ": 2727,
  "ìłľ": 465,
  "ìłľê°Ģ": 2496,
  "ìłľë¡ľ": 2844,
  "ìłľë¥¼": 2516,
  "ìłľëĬĶ": 4617,
  "ìłľìĹĲ": 4523,
  "ìłľìĿĺ": 3591,
  "ìłľíķľ": 7074,
  "ìłĿ": 3520,
  "ìłł": 2854,
  "í": 174,
  "íĢ": 2916,
  "íĢ´": 4385,
  "íģ": 945,
  "íģ¬": 603,
  "íģ¬ê°Ģ": 3396,
  "íģ¬ë¡ľ": 3092,
  "íģ¬ë¥¼": 2985,
  "íģ¬ëĬĶ": 4774,
  "íģ¬ëŀĺ": 4714,
  "íģ¬ëŀĺíĶĦíĬ¸": 5388,
  "íģ¬ìĻĢ": 6809,
  "íģ¬ìĿĺ": 3730,
  "íģ°": 6854,
  "íģ´": 1671,
  "íģ¼": 1375,
  "íģĲ": 3009,
  "íĤ": 545,
  "íĤ¤": 611,
  "íĤ¤ê°Ģ": 3894,
  "íĤ¤ë¥¼": 4836,
  "íĤ¤ëĬĶ": 2871,
  "íĤ¤ìĻĢ": 6247,
  "íĤ¤ìĿĺ": 4103,
  "íĤ¥": 6159,
  "íĤ¨": 1526,
  "íĤ¬": 1868,
  "íĤ¹": 2178,
  "íĥ": 389,
  "íĥ±": 5999,
  "íĥĢ": 523,
  "íĥĢê°Ģ": 3637,
  "íĥĢë¡ľ": 3271,
  "íĥĢë¥¼": 2656,
  "íĥĢëĬĶ": 4882,
  "íĥĢìĻĢ": 7417,
  "íĥĢìĿ´": 6759,
  "íĥĢìĿĺ": 5337,
  "íĥĢìŀĦ": 5075,
  "íĥĢìŀħ": 6845,
  "íĥģ": 2269,
  "íĥĦ": 1147,
  "íĥĦìĿ´": 7865,
  "íĥĦìĿĦ": 3838,
  "íĥĪ": 1360,
  "íĥĲ": 5828,
  "íĥĳ": 3265,
  "íĥķ": 2427,
  "íĥľ": 769,
  "íĥĿ": 1250,
  "íĥĿìĿĦ": 7936,
  "íĦ": 428,
  "íĦ°": 445,
  "íĦ°ê°Ģ": 3823,
  "íĦ°ë¥¼": 3597,
  "íĦ°ë¦¬": 7240,
  "íĦ°ëĬĶ": 5549,
  "íĦ°ìĿĺ": 4784,
  "íĦ´": 1377,
  "íĦ¸": 3876,
  "íħ": 630,
  "íħĢ": 4473,
  "íħĮ": 890,
  "íħĮìĿ´": 7177,
  "íħį": 5577,
  "íħĲ": 2235,
  "íħĲì¸ł": 3996,
  "íħĶ": 2635,
  "íħľ": 1356,
  "íĨ": 519,
  "íĨ¡": 7462,
  "íĨ¤": 2630,
  "íĨ¨": 4782,
  "íĨ¨ë¦Ń": 7628,
  "íĨ°": 5875,
  "íĨ±": 5361,
  "íĨµ": 812,
  "íĨµëł¹": 2482,
  "íĨµìĿĦ": 6959,
  "íĨł": 713,
  "íĨłê°Ģ": 4972,
  "íĨłë¥¼": 5480,
  "íĨłë¦¬": 5214,
  "íĨłëĬĶ": 7505,
  "íĨłìĿĺ": 5444,
  "íĩ´": 2189,
  "íĪ": 3129,
  "íĪ¬": 882,
  "íĪ¬ë¥¼": 7320,
  "íĪ°": 5032,
  "íĬ": 1278,
  "íĬ¸": 398,
  "íĬ¸ê°Ģ": 1870,
  "íĬ¸ë¡¤": 4684,
  "íĬ¸ë¡ľ": 2191,
  "íĬ¸ë¥¼": 1641,
  "íĬ¸ë¦¬": 4387,
  "íĬ¸ëĤ¨": 6924,
  "íĬ¸ëĬĶ": 2831,
  "íĬ¸ëĿ¼": 4164,
  "íĬ¸ìĹĲ": 3815,
  "íĬ¸ìĹĲìĦľ": 4075,
  "íĬ¸ìĻĢ": 4086,
  "íĬ¸ìĿĺ": 2312,
  "íĬ¹": 2792,
  "íĬ¹ë³Ħ": 6735,
  "íĬ¼": 2221,
  "íĬĢ": 7920,
  "íĬľ": 2840,
  "íĭ": 582,
  "íĭ°": 725,
  "íĭ°ë¸Į": 2958,
  "íĭ°ìĸ´": 5229,
  "íĭ±": 3224,
  "íĭ´": 2768,
  "íĭ¸": 3774,
  "íĭĢ": 1428,
  "íĮ": 475,
  "íĮ¡": 5434,
  "íĮ¨": 1177,
  "íĮ¨ë¥¼": 4496,
  "íĮ©": 3530,
  "íĮ¬": 4192,
  "íĮĢ": 1681,
  "íĮĢìĿ´": 7165,
  "íĮĢìĿĺ": 7994,
  "íĮħ": 1751,
  "íĮħìĿĦ": 7609,
  "íĮĮ": 802,
  "íĮĮê°Ģ": 7547,
  "íĮĮë¥¼": 6576,
  "íĮĮìĿ´": 7599,
  "íĮĮìĿ´ìĸ´": 6127,
  "íĮĮìĿĺ": 7079,
  "íĮĲ": 828,
  "íĮĲìĹĲ": 5345,
  "íĮĲìĹĲìĦľ": 7321,
  "íĮĲìĹĲìĦľëĬĶ": 5448,
  "íĮĲìĿ´": 4645,
  "íĮĲìĿĢ": 5814,
  "íĮĲìĿĦ": 3980,
  "íĮĲìĿĺ": 5565,
  "íĮĶ": 3178,
  "íį¼": 1182,
  "íİ": 1665,
  "íİ´": 5774,
  "íİ¸": 995,
  "íİ¸ìĹĲìĦľ": 7218,
  "íİ¸ìĿĺ": 7329,
  "íİĺ": 1418,
  "íİĺìĿ´": 7484,
  "íİĺìĿ´ì§Ģ": 4249,
  "íİĻ": 5024,
  "íİľ": 3626,
  "íİł": 6109,
  "íı": 597,
  "íı¬": 847,
  "íı¬ê°Ģ": 7772,
  "íı¬ë¥¼": 4901,
  "íı°": 2206,
  "íı´": 4016,
  "íı¼": 4386,
  "íıī": 1638,
  "íıīê°Ģ": 6708,
  "íıĲ": 3038,
  "íıŃ": 1841,
  "íĳ¸": 4180,
  "íĳľ": 935,
  "íĳľë¥¼": 6237,
  "íĴ": 832,
  "íĴĢ": 4427,
  "íĴĪ": 983,
  "íĴĪìĿĦ": 4559,
  "íĴį": 2030,
  "íĵ¨": 3705,
  "íĶ": 473,
  "íĶ¼": 827,
  "íĶ¼ë¥¼": 7777,
  "íĶ¼ìĬ¤": 7295,
  "íĶ¼ìķĦ": 5288,
  "íĶ¼ìĸ¸": 2913,
  "íĶ½": 2276,
  "íĶĦ": 659,
  "íĶĦê°Ģ": 3814,
  "íĶĦë¡ľ": 3847,
  "íĶĦë¥¼": 2842,
  "íĶĦëĬĶ": 6362,
  "íĶĦëłĪ": 5109,
  "íĶĦìĿĺ": 4970,
  "íĶĦíĬ¸": 2453,
  "íĶĪ": 3268,
  "íĶĮ": 1309,
  "íĶĮëłĪìĿ´": 4118,
  "íĶĶ": 7486,
  "íķ": 266,
  "íķ¨": 949,
  "íķ¨ê³¼": 6586,
  "íķ¨ìĹĲ": 6326,
  "íķ¨ìľ¼ë¡ľìį¨": 6289,
  "íķ¨ìĿ´": 4761,
  "íķ¨ìĿĦ": 2992,
  "íķ©": 939,
  "íķ©ëĭĪëĭ¤": 2612,
  "íķ´": 334,
  "íķ´ê°Ģ": 6358,
  "íķ´ë¥¼": 4355,
  "íķ´ë³´": 6017,
  "íķ´ëıĦ": 2311,
  "íķ´ì¡Į": 6242,
  "íķ´ì¡Įëĭ¤": 4288,
  "íķ´ì£¼": 2748,
  "íķ´ì£¼ëĬĶ": 5445,
  "íķ´ì¤Ģëĭ¤": 7452,
  "íķ´ì§Ģê³ł": 7328,
  "íķ´ì§ĢëĬĶ": 5529,
  "íķ´ì§Ħ": 3283,
  "íķ´ì§Ħëĭ¤": 4292,
  "íķ´ìĦľ": 748,
  "íķ´ìĦľëĬĶ": 6485,
  "íķ´ìķ¼": 1387,
  "íķ´ìł¸": 5382,
  "íķµ": 7100,
  "íķĢ": 4040,
  "íķĦ": 1772,
  "íķĳ": 3578,
  "íķĺ": 280,
  "íķĺê°Ģ": 7760,
  "íķĺê±°ëĤĺ": 2053,
  "íķĺê²Į": 625,
  "íķĺê²ĮëıĦ": 4756,
  "íķĺê³ł": 517,
  "íķĺê³łìŀĲ": 6593,
  "íķĺê¸°": 774,
  "íķĺê¸°ê°Ģ": 7385,
  "íķĺê¸°ë¡ľ": 5038,
  "íķĺê¸°ëĬĶ": 6452,
  "íķĺê¸°ëıĦ": 1935,
  "íķĺê¸°ìĹĲ": 5146,
  "íķĺê¸´": 5249,
  "íķĺë©°": 946,
  "íķĺë©´": 826,
  "íķĺë©´ìĦľ": 1240,
  "íķĺë©´ìĦľëıĦ": 6106,
  "íķĺë¯Ģë¡ľ": 4410,
  "íķĺëĤĺ": 2967,
  "íķĺëĬĶ": 430,
  "íķĺëĬĶê²Į": 7000,
  "íķĺëĬĶëį°": 1771,
  "íķĺëĭ¤": 695,
  "íķĺëĭ¤ê°Ģ": 3030,
  "íķĺëĭ¤ê³ł": 2959,
  "íķĺëĭ¤ëĬĶ": 2807,
  "íķĺëĭĪ": 4065,
  "íķĺëįĶëĿ¼ëıĦ": 7859,
  "íķĺëįĺ": 1818,
  "íķĺëıĦë¡Ŀ": 3935,
  "íķĺëĿ¼": 3601,
  "íķĺëĿ¼ê³ł": 6676,
  "íķĺëĿ¼ëĬĶ": 7869,
  "íķĺëŁ¬": 5221,
  "íķĺëł¤": 2032,
  "íķĺëł¤ê³ł": 4003,
  "íķĺëł¤ë©´": 6615,
  "íķĺëł¤ëĬĶ": 4270,
  "íķĺì§Ģ": 876,
  "íķĺì§Ģë§Į": 1508,
  "íķĺì§ĢëĬĶ": 5460,
  "íķĺìĭľ": 7428,
  "íķĺìĹ¬": 782,
  "íķĺìĹĲ": 7052,
  "íķĺìĺĢ": 1738,
  "íķĺìĺĢê³ł": 3499,
  "íķĺìĺĢëĭ¤": 1230,
  "íķĺìĺĢìľ¼ë©°": 5576,
  "íķĺìĺĢìľ¼ëĤĺ": 6155,
  "íķĺìĿ´": 7833,
  "íķĺìĿĺ": 5219,
  "íķĺìŀĲ": 1409,
  "íķĺìŀĲë©´": 4093,
  "íķĻ": 635,
  "íķĻê³¼": 3756,
  "íķĻêµĲ": 1334,
  "íķĻëħĦ": 3035,
  "íķĻìĥĿ": 2962,
  "íķĻìĿĦ": 5551,
  "íķľ": 293,
  "íķľëĭ¤": 533,
  "íķľëĭ¤ê³ł": 2702,
  "íķľëĭ¤ë©´": 3401,
  "íķľëĭ¤ëĬĶ": 2274,
  "íķľëį°": 4469,
  "íķľìĿĦ": 7572,
  "íķľíħĮ": 2383,
  "íķł": 516,
  "íķłëķĮ": 5502,
  "íķłìĪĺ": 6508,
  "íķŃ": 1300,
  "íĸ": 374,
  "íĸ¥": 999,
  "íĸ¥ìĿ´": 3990,
  "íĸ¥ìĿĦ": 7619,
  "íĸĪ": 595,
  "íĸĪê³ł": 1565,
  "íĸĪê¸°": 3897,
  "íĸĪëĬĶëį°": 2338,
  "íĸĪëĬĶì§Ģ": 6439,
  "íĸĪëĭ¤": 552,
  "íĸĪëĭ¤ê°Ģ": 5793,
  "íĸĪëĭ¤ê³ł": 2141,
  "íĸĪëĭ¤ë©´": 7789,
  "íĸĪëĭ¤ëĬĶ": 2467,
  "íĸĪëįĺ": 1446,
  "íĸĪì§Ģë§Į": 2024,
  "íĸĪìĬµëĭĪëĭ¤": 5843,
  "íĸĪìĹĪëĭ¤": 6441,
  "íĸĪìľ¼ë©°": 2414,
  "íĸĪìľ¼ëĤĺ": 2608,
  "íĸĪìĿĦ": 1999,
  "íĸī": 642,
  "íĸīìĿĦ": 2760,
  "íĹ": 871,
  "íĹ¤": 3880,
  "íĹ¨": 5994,
  "íĹĪ": 3087,
  "íĹĮ": 3287,
  "íĹĺ": 1090,
  "íĺ": 405,
  "íĺ¸": 715,
  "íĺ¸ê°Ģ": 3278,
  "íĺ¸ë¥¼": 3339,
  "íĺ¸ëĬĶ": 4708,
  "íĺ¸ìĦł": 6067,
  "íĺ¸ìĻĢ": 7878,
  "íĺ¸ìĿĺ": 4555,
  "íĺ¹": 2532,
  "íĺ¼": 1530,
  "íĺĢ": 1168,
  "íĺģ": 2522,
  "íĺĦ": 1011,
  "íĺĦìĿ´": 6757,
  "íĺĦìĿĺ": 7686,
  "íĺĪ": 2766,
  "íĺĳ": 2187,
  "íĺĶ": 4569,
  "íĺĶëĭ¤": 3147,
  "íĺķ": 787,
  "íĺķìľ¼ë¡ľ": 6041,
  "íĺķìĿ´": 4396,
  "íĺķìĿĢ": 6073,
  "íĺķìĿĦ": 3858,
  "íĺķìĿĺ": 5497,
  "íĺľ": 2705,
  "íĻ": 392,
  "íĻ©": 940,
  "íĻĢ": 4864,
  "íĻĪ": 5776,
  "íĻĪëŁ°": 7478,
  "íĻį": 3555,
  "íĻĶ": 476,
  "íĻĶê°Ģ": 2160,
  "íĻĶë¡ľ": 5227,
  "íĻĶë¥¼": 1806,
  "íĻĶëĬĶ": 5423,
  "íĻĶëĲĺìĸ´": 6462,
  "íĻĶëĲľ": 3915,
  "íĻĶìĹĲ": 4571,
  "íĻĶìĹĲìĦľ": 2203,
  "íĻĶìĹĲìĦľëĬĶ": 4849,
  "íĻĶìĻĢ": 7413,
  "íĻĶìĿĺ": 3600,
  "íĻĶíķľ": 7894,
  "íĻķ": 1826,
  "íĻĺ": 1048,
  "íĻĺìĿ´": 6637,
  "íĻĺìĿĦ": 7315,
  "íĻľ": 1371,
  "íļ": 1295,
  "íļ¨": 2174,
  "íļ¨ê³¼": 7660,
  "íļĮ": 626,
  "íļĮê°Ģ": 4001,
  "íļĮë¥¼": 3016,
  "íļĮë§Ĳ": 7692,
  "íļĮëĬĶ": 6043,
  "íļĮìĤ¬": 7812,
  "íļĮìĹĲ": 4576,
  "íļĮìĹĲìĦľ": 4515,
  "íļĮìĿĺ": 2500,
  "íļį": 1735,
  "íĽ": 1845,
  "íĽĦ": 602,
  "íĽĪ": 1985,
  "íľ": 1874,
  "íľ´": 6057,
  "íľĺ": 2147,
  "íĿ": 1094,
  "íĿ¡": 5903,
  "íĿ¥": 3365,
  "íĿ¬": 1552,
  "íĿĲ": 4915,
  "íĿĳ": 4897,
  "íŀ": 1570,
  "íŀĪ": 470,
  "íŀĪê³ł": 4768,
  "íŀĪëĬĶ": 2723,
  "íŀĪëł¤": 1951,
  "íŀĪì§Ģ": 7750,
  "íŀĮ": 1994,
  "íŀĮëĭ¤": 4577,
  "íŀĲ": 3906,
  "î": 175,
  "ï": 176,
  "ð": 177,
  "ñ": 178,
  "ò": 179,
  "ó": 180,
  "ô": 181,
  "õ": 182,
  "ö": 183,
  "÷": 184,
  "ø": 185,
  "ù": 186,
  "ú": 187,
  "û": 188,
  "ü": 189,
  "ý": 190,
  "þ": 191,
  "ÿ": 192,
  "Ā": 193,
  "ā": 194,
  "Ă": 195,
  "ă": 196,
  "Ą": 197,
  "ą": 198,
  "Ć": 199,
  "ć": 200,
  "Ĉ": 201,
  "ĉ": 202,
  "Ċ": 203,
  "ċ": 204,
  "Č": 205,
  "č": 206,
  "Ď": 207,
  "ď": 208,
  "Đ": 209,
  "đ": 210,
  "Ē": 211,
  "ē": 212,
  "Ĕ": 213,
  "ĕ": 214,
  "Ė": 215,
  "ė": 216,
  "Ę": 217,
  "ę": 218,
  "Ě": 219,
  "ě": 220,
  "Ĝ": 221,
  "ĝ": 222,
  "Ğ": 223,
  "ğ": 224,
  "Ġ": 225,
  "Ġ0": 1088,
  "Ġ00": 3855,
  "Ġ000": 3157,
  "Ġ01": 5637,
  "Ġ02": 6219,
  "Ġ03": 6367,
  "Ġ04": 7761,
  "Ġ05": 7472,
  "Ġ07": 7829,
  "Ġ08": 7798,
  "Ġ09": 7419,
  "Ġ1": 361,
  "Ġ10": 916,
  "Ġ100": 1646,
  "Ġ1000": 5049,
  "Ġ11": 1296,
  "Ġ12": 1176,
  "Ġ120": 7226,
  "Ġ13": 1785,
  "Ġ14": 1848,
  "Ġ15": 1431,
  "Ġ150": 6175,
  "Ġ16": 1673,
  "Ġ17": 1947,
  "Ġ18": 1656,
  "Ġ19": 806,
  "Ġ190": 7458,
  "Ġ192": 6971,
  "Ġ193": 4921,
  "Ġ194": 3886,
  "Ġ195": 5137,
  "Ġ196": 3501,
  "Ġ197": 2933,
  "Ġ198": 2199,
  "Ġ1980": 6674,
  "Ġ199": 1661,
  "Ġ1990": 5386,
  "Ġ1995": 7782,
  "Ġ1997": 7392,
  "Ġ1998": 7126,
  "Ġ1999": 7017,
  "Ġ2": 377,
  "Ġ20": 515,
  "Ġ200": 1175,
  "Ġ2000": 3212,
  "Ġ2001": 6208,
  "Ġ2002": 5251,
  "Ġ2003": 5739,
  "Ġ2004": 5160,
  "Ġ2005": 5125,
  "Ġ2006": 4764,
  "Ġ2007": 4646,
  "Ġ2008": 4260,
  "Ġ2009": 3999,
  "Ġ201": 686,
  "Ġ2010": 2888,
  "Ġ2011": 3215,
  "Ġ2012": 2841,
  "Ġ2013": 2671,
  "Ġ2014": 2370,
  "Ġ2015": 2216,
  "Ġ2016": 2123,
  "Ġ2017": 2096,
  "Ġ2018": 1990,
  "Ġ2019": 2007,
  "Ġ2020": 1980,
  "Ġ2021": 5594,
  "Ġ21": 2263,
  "Ġ22": 2590,
  "Ġ23": 2680,
  "Ġ24": 2473,
  "Ġ25": 1950,
  "Ġ26": 2979,
  "Ġ27": 3063,
  "Ġ28": 2990,
  "Ġ29": 3302,
  "Ġ3": 508,
  "Ġ30": 1593,
  "Ġ300": 4520,
  "Ġ31": 3387,
  "Ġ32": 4389,
  "Ġ33": 4656,
  "Ġ34": 5297,
  "Ġ35": 4153,
  "Ġ36": 4862,
  "Ġ37": 5915,
  "Ġ38": 5646,
  "Ġ39": 6613,
  "Ġ4": 628,
  "Ġ40": 2510,
  "Ġ400": 6756,
  "Ġ42": 6501,
  "Ġ43": 7232,
  "Ġ44": 7087,
  "Ġ45": 4692,
  "Ġ47": 6992,
  "Ġ48": 6045,
  "Ġ5": 654,
  "Ġ50": 2099,
  "Ġ500": 4004,
  "Ġ55": 6273,
  "Ġ6": 819,
  "Ġ60": 3293,
  "Ġ64": 7429,
  "Ġ7": 867,
  "Ġ70": 3827,
  "Ġ75": 5314,
  "Ġ8": 884,
  "Ġ80": 3493,
  "Ġ9": 941,
  "Ġ90": 3604,
  "Ġ95": 6760,
  "Ġ99": 5281,
  "ĠA": 901,
  "ĠAC": 7839,
  "ĠAI": 6607,
  "ĠAK": 6877,
  "ĠAP": 5956,
  "ĠAR": 7698,
  "ĠAT": 7522,
  "ĠAl": 6266,
  "ĠAn": 7007,
  "ĠAr": 7556,
  "ĠB": 1042,
  "ĠBG": 4905,
  "ĠBGM": 6974,
  "ĠBl": 6257,
  "ĠC": 988,
  "ĠCC": 7181,
  "ĠCD": 6958,
  "ĠCP": 6875,
  "ĠCh": 4601,
  "ĠD": 1068,
  "ĠDJ": 7228,
  "ĠDLC": 6907,
  "ĠDe": 7567,
  "ĠE": 1261,
  "ĠEX": 4461,
  "ĠF": 1170,
  "ĠFA": 7416,
  "ĠFC": 4691,
  "ĠFI": 7811,
  "ĠG": 1207,
  "ĠGT": 7703,
  "ĠH": 1342,
  "ĠHD": 7334,
  "ĠHP": 4878,
  "ĠHe": 7344,
  "ĠI": 1212,
  "ĠII": 4735,
  "ĠIn": 5238,
  "ĠJ": 2026,
  "ĠK": 1301,
  "ĠKBS": 4695,
  "ĠKT": 5790,
  "ĠL": 1167,
  "ĠLG": 3768,
  "ĠLv": 6287,
  "ĠM": 919,
  "ĠMA": 6853,
  "ĠMBC": 5087,
  "ĠMC": 6732,
  "ĠMP": 4907,
  "ĠMS": 6060,
  "ĠN": 1315,
  "ĠNC": 6318,
  "ĠNPC": 6114,
  "ĠNo": 5270,
  "ĠO": 1436,
  "ĠOn": 7430,
  "ĠP": 1110,
  "ĠPC": 4489,
  "ĠPD": 7602,
  "ĠPS": 5870,
  "ĠQ": 4152,
  "ĠR": 1329,
  "ĠRe": 5482,
  "ĠS": 793,
  "ĠSBS": 6415,
  "ĠSC": 7709,
  "ĠSK": 3364,
  "ĠSN": 6943,
  "ĠSP": 5734,
  "ĠSS": 6624,
  "ĠST": 5823,
  "ĠSh": 5779,
  "ĠSp": 6030,
  "ĠSt": 3158,
  "ĠT": 993,
  "ĠTH": 7364,
  "ĠTV": 3124,
  "ĠTh": 5412,
  "ĠThe": 2851,
  "ĠU": 1787,
  "ĠUS": 7791,
  "ĠV": 1680,
  "ĠVS": 7927,
  "ĠW": 1435,
  "ĠWh": 7573,
  "ĠX": 1965,
  "ĠY": 2368,
  "ĠYou": 4702,
  "ĠZ": 3007,
  "Ġa": 2437,
  "Ġand": 3640,
  "Ġb": 1614,
  "Ġback": 5980,
  "Ġbackground": 7203,
  "Ġbe": 4631,
  "Ġborder": 7933,
  "Ġc": 1851,
  "Ġcom": 5740,
  "Ġd": 1878,
  "Ġe": 3303,
  "Ġf": 1820,
  "Ġfont": 7589,
  "Ġfor": 5328,
  "Ġg": 2629,
  "Ġh": 2163,
  "Ġhe": 7123,
  "Ġhtt": 6252,
  "Ġi": 4534,
  "Ġin": 2743,
  "Ġinline": 7911,
  "Ġis": 5468,
  "Ġit": 5007,
  "Ġj": 6542,
  "Ġk": 2951,
  "Ġl": 2407,
  "Ġm": 1557,
  "Ġmargin": 7377,
  "Ġme": 4909,
  "Ġmy": 6025,
  "Ġn": 2313,
  "Ġo": 2046,
  "Ġof": 2534,
  "Ġon": 4647,
  "Ġor": 6000,
  "Ġp": 2066,
  "Ġpad": 7222,
  "Ġpadding": 7264,
  "Ġr": 3778,
  "Ġre": 4211,
  "Ġs": 1255,
  "Ġsh": 7502,
  "Ġst": 2901,
  "Ġstyle": 4350,
  "Ġt": 1159,
  "Ġth": 3576,
  "Ġthat": 7645,
  "Ġthe": 1968,
  "Ġto": 3086,
  "Ġv": 2918,
  "Ġvs": 4447,
  "Ġw": 1575,
  "Ġwh": 7110,
  "Ġwiki": 4312,
  "Ġwith": 7585,
  "Ġx": 4752,
  "Ġy": 2280,
  "Ġyou": 2675,
  "Ġyour": 7658,
  "ĠáĦ": 4453,
  "Ġãĥ¼": 4423,
  "Ġê": 265,
  "Ġê°": 311,
  "Ġê°¤": 2880,
  "Ġê°¤ëŁ¬": 4512,
  "Ġê°¤ëŁŃ": 5961,
  "Ġê°¤ëŁŃìĭľ": 6969,
  "Ġê°±": 4890,
  "Ġê°Ģ": 385,
  "Ġê°Ģê²©": 2658,
  "Ġê°Ģê²©ìĿ´": 7258,
  "Ġê°Ģê²Į": 4550,
  "Ġê°Ģê³ł": 6282,
  "Ġê°Ģê¹Į": 2116,
  "Ġê°Ģê¹Įìļ´": 3452,
  "Ġê°Ģê¹ĮìĿ´": 5475,
  "Ġê°Ģê¹Ŀ": 4099,
  "Ġê°Ģê¹Ŀëĭ¤": 6475,
  "Ġê°Ģë¡ľ": 5483,
  "Ġê°Ģë¥´": 3574,
  "Ġê°Ģë¦¬": 6350,
  "Ġê°Ģë§Į": 7774,
  "Ġê°Ģë©´": 2633,
  "Ġê°Ģë©´ëĿ¼ìĿ´ëįĶ": 5486,
  "Ġê°Ģë¬¸": 6329,
  "Ġê°Ģë³": 6422,
  "Ġê°Ģë³į": 6446,
  "Ġê°Ģë³įê²Į": 7858,
  "Ġê°ĢëģĶ": 2948,
  "Ġê°ĢëĬ¥": 938,
  "Ġê°ĢëĬ¥ìĦ±ëıĦ": 7532,
  "Ġê°ĢëĬ¥ìĦ±ìĿ´": 2584,
  "Ġê°ĢëĬ¥íķĺë©°": 7519,
  "Ġê°ĢëĬ¥íķĺëĭ¤": 2010,
  "Ġê°ĢëĬ¥íķľ": 2520,
  "Ġê°ĢëĬĶ": 2563,
  "Ġê°Ģëĵľ": 6555,
  "Ġê°ĢëĵĿ": 5052,
  "Ġê°ĢëĿ¼": 7758,
  "Ġê°Ģì¡±": 2636,
  "Ġê°Ģì¡Į": 7531,
  "Ġê°Ģì§Ģ": 2121,
  "Ġê°Ģì§Ģê³ł": 1578,
  "Ġê°Ģì§Ħ": 2050,
  "Ġê°Ģì§ľ": 7535,
  "Ġê°Ģì¹ĺ": 7587,
  "Ġê°ĢìĤ¬": 7887,
  "Ġê°ĢìĦľ": 3667,
  "Ġê°ĢìĨį": 7402,
  "Ġê°ĢìĪĺ": 4505,
  "Ġê°ĢìĬ´": 4122,
  "Ġê°Ģìķ¼": 6938,
  "Ġê°Ģìļ´ëį°": 3707,
  "Ġê°ĢìĿ´": 6091,
  "Ġê°Ģìŀ¥": 1100,
  "Ġê°Ģìŀħ": 5609,
  "Ġê°Ģìł¸": 2308,
  "Ġê°Ģìłķ": 4605,
  "Ġê°ģ": 1065,
  "Ġê°ģê°ģ": 2719,
  "Ġê°ģì¢ħ": 3181,
  "Ġê°ģìĦ±": 4220,
  "Ġê°Ħ": 1033,
  "Ġê°Ħëĭ¤": 5101,
  "Ġê°Ħëĭ¨": 3976,
  "Ġê°Ħìĭł": 7876,
  "Ġê°ĦìĿĺ": 6436,
  "Ġê°Ħíĺ¹": 6726,
  "Ġê°ĩ": 6989,
  "Ġê°Ī": 1347,
  "Ġê°Īëĵ±": 6551,
  "Ġê°ĪìĪĺë¡Ŀ": 7169,
  "Ġê°ĪìķĦ": 6611,
  "Ġê°Ĳ": 823,
  "Ġê°Ĳëıħ": 1795,
  "Ġê°ĲëıħìĿ´": 6078,
  "Ġê°ĲëıħìĿĺ": 7357,
  "Ġê°ĲìĤ¬": 6270,
  "Ġê°ĲìĨĮ": 2733,
  "Ġê°Ĳìĭľ": 7167,
  "Ġê°ĲìķĪ": 4319,
  "Ġê°ĲìķĪíķĺë©´": 7582,
  "Ġê°ĲìĹ¼": 5339,
  "Ġê°Ĳìĺ¥": 7231,
  "Ġê°Ĳìłķ": 6366,
  "Ġê°ĲìłķìĿĦ": 7949,
  "Ġê°ĳ": 1910,
  "Ġê°ĳìĺ·": 6081,
  "Ġê°ĳìŀĲê¸°": 3085,
  "Ġê°Ĵ": 5746,
  "Ġê°ĵ": 5396,
  "Ġê°Ķ": 3966,
  "Ġê°Ķëĭ¤": 6451,
  "Ġê°ķ": 674,
  "Ġê°ķëĤ¨": 7461,
  "Ġê°ķëł¥": 2051,
  "Ġê°ķëł¥íķľ": 2605,
  "Ġê°ķì¡°": 4797,
  "Ġê°ķì²ł": 7251,
  "Ġê°ķìļĶ": 7950,
  "Ġê°ķìĽĲ": 7868,
  "Ġê°ķìłľ": 5046,
  "Ġê°ķìłľë¡ľ": 7088,
  "Ġê°ķíķĺê²Į": 7112,
  "Ġê°ķíķĺëĭ¤": 7352,
  "Ġê°ķíķľ": 2734,
  "Ġê°ķíĻĶ": 2256,
  "Ġê°ĸ": 1715,
  "Ġê°ĸê³ł": 3316,
  "Ġê°ĸì¶Ķ": 5424,
  "Ġê°Ļ": 672,
  "Ġê°Ļëĭ¤": 2185,
  "Ġê°Ļì§Ģë§Į": 7363,
  "Ġê°ĻìķĦ": 6568,
  "Ġê°ĻìĿ´": 1443,
  "Ġê°ĻìĿĢ": 936,
  "Ġê°ľ": 652,
  "Ġê°ľê·¸": 3912,
  "Ġê°ľë§ī": 7971,
  "Ġê°ľë°ľ": 1911,
  "Ġê°ľë´ī": 5105,
  "Ġê°ľëħĲ": 3262,
  "Ġê°ľì¡°": 4463,
  "Ġê°ľìµľ": 4549,
  "Ġê°ľìĦł": 4741,
  "Ġê°ľìĿ¸": 2479,
  "Ġê°ľìĿĺ": 5697,
  "Ġê°ľìŀħ": 7555,
  "Ġê°ľíĨµ": 6701,
  "Ġê°ľíİ¸": 5461,
  "Ġê°Ŀ": 6545,
  "Ġê±": 2478,
  "Ġê±°": 580,
  "Ġê±°ê¸°": 3073,
  "Ġê±°ê¸°ëĭ¤": 6158,
  "Ġê±°ê¸°ìĦľ": 7993,
  "Ġê±°ê¸°ìĹĲ": 3916,
  "Ġê±°ë¦¬": 5515,
  "Ġê±°ë¦¬ê°Ģ": 6463,
  "Ġê±°ë¦¬ë¥¼": 7924,
  "Ġê±°ë¶Ģ": 4159,
  "Ġê±°ëĮĢ": 5140,
  "Ġê±°ëĮĢíķľ": 4452,
  "Ġê±°ëĳĲ": 4652,
  "Ġê±°ëĵŃ": 7790,
  "Ġê±°ëĿ¼ê³ł": 5893,
  "Ġê±°ëŀĺ": 5023,
  "Ġê±°ì£¼": 5365,
  "Ġê±°ì§ĵ": 4228,
  "Ġê±°ì³Ĳ": 5202,
  "Ġê±°ìķ¼": 4301,
  "Ġê±°ìĿĺ": 1388,
  "Ġê±°ìłĪ": 4999,
  "Ġê±±": 3491,
  "Ġê±±ìłķ": 4216,
  "Ġê±´": 829,
  "Ġê±´ê°ķ": 4931,
  "Ġê±´ë¬¼": 2993,
  "Ġê±´ëĦĪ": 5405,
  "Ġê±´ëĭ´": 3180,
  "Ġê±´ì¶ķ": 6222,
  "Ġê±´ìĦ¤": 3717,
  "Ġê±·": 5263,
  "Ġê±¸": 907,
  "Ġê±¸ë¡ľ": 4887,
  "Ġê±¸ë¦°": 6510,
  "Ġê±¸ëł¤": 5552,
  "Ġê±¸ì³Ĳ": 7552,
  "Ġê±¸ìĸ´": 4519,
  "Ġê²": 321,
  "Ġê²¨": 2449,
  "Ġê²¨ìļ°": 4481,
  "Ġê²¨ìļ¸": 4991,
  "Ġê²©": 1688,
  "Ġê²©íĪ¬": 5974,
  "Ġê²©íĮĮ": 6184,
  "Ġê²ª": 3369,
  "Ġê²¬": 2320,
  "Ġê²¬ìłľ": 5911,
  "Ġê²°": 677,
  "Ġê²°ê³¼": 1742,
  "Ġê²°ê³¼ë¥¼": 6948,
  "Ġê²°ê³¼ìłģìľ¼ë¡ľ": 7885,
  "Ġê²°êµŃ": 1158,
  "Ġê²°ì½Ķ": 6117,
  "Ġê²°ìĬ¹": 3537,
  "Ġê²°ìłķ": 2070,
  "Ġê²°íĺ¼": 2688,
  "Ġê²¸": 3779,
  "Ġê²¹": 4366,
  "Ġê²½": 477,
  "Ġê²½ê³Ħ": 6320,
  "Ġê²½ê¸°": 1467,
  "Ġê²½ê¸°ê°Ģ": 6086,
  "Ġê²½ê¸°ë¥¼": 3860,
  "Ġê²½ê¸°ëĬĶ": 7687,
  "Ġê²½ê¸°ëıĦ": 5964,
  "Ġê²½ê¸°ìĹĲìĦľ": 4290,
  "Ġê²½ë¹Ħ": 7056,
  "Ġê²½ì°°": 2454,
  "Ġê²½ìĥģ": 6930,
  "Ġê²½ìĺģ": 5201,
  "Ġê²½ìļ°": 698,
  "Ġê²½ìļ°ê°Ģ": 1700,
  "Ġê²½ìļ°ëĬĶ": 2869,
  "Ġê²½ìļ°ëıĦ": 2337,
  "Ġê²½ìļ°ìĹĲ": 7058,
  "Ġê²½ìļ°ìĹĲëĬĶ": 3113,
  "Ġê²½ìľł": 6765,
  "Ġê²½ìŁģ": 3233,
  "Ġê²½ìłľ": 2886,
  "Ġê²½íĸ¥ìĿ´": 6976,
  "Ġê²½íĹĺ": 2505,
  "Ġê²Ģ": 1284,
  "Ġê²Ģì°°": 7307,
  "Ġê²ĢìĤ¬": 6905,
  "Ġê²Ģìĥī": 6234,
  "Ġê²ĢìĿĢ": 3079,
  "Ġê²ģ": 4841,
  "Ġê²ĥ": 396,
  "Ġê²ĥê³¼": 3061,
  "Ġê²ĥë§Į": 6354,
  "Ġê²ĥëıĦ": 1591,
  "Ġê²ĥì²ĺëŁ¼": 3533,
  "Ġê²ĥìĹĲ": 2816,
  "Ġê²ĥìľ¼ë¡ľ": 1203,
  "Ġê²ĥìĿ´": 861,
  "Ġê²ĥìĿ´ê³ł": 6056,
  "Ġê²ĥìĿ´ë©°": 7250,
  "Ġê²ĥìĿ´ëĭ¤": 1025,
  "Ġê²ĥìĿ´ëĿ¼": 5156,
  "Ġê²ĥìĿ´ëĿ¼ê³ł": 3393,
  "Ġê²ĥìĿ´ëĿ¼ëĬĶ": 5180,
  "Ġê²ĥìĿ´ìĹĪëĭ¤": 4858,
  "Ġê²ĥìĿ¸ì§Ģ": 6633,
  "Ġê²ĥìĿ¼": 6829,
  "Ġê²ĥìĿĢ": 1138,
  "Ġê²ĥìĿĦ": 1038,
  "Ġê²ĥìŀħëĭĪëĭ¤": 6262,
  "Ġê²ī": 6243,
  "Ġê²Į": 655,
  "Ġê²Įëĭ¤ê°Ģ": 2072,
  "Ġê²Įìĭľ": 5028,
  "Ġê²ĮìĿ´": 4531,
  "Ġê²ĮìĿ´ì§Ģ": 7134,
  "Ġê²ĮìŀĦ": 972,
  "Ġê²ĮìŀĦìĹĲ": 7982,
  "Ġê²ĮìŀĦìĹĲìĦľ": 7631,
  "Ġê²ĮìŀĦìĿ´": 4977,
  "Ġê²ĮìŀĦìĿĦ": 3261,
  "Ġê²ĮìŀĦìĿĺ": 4898,
  "Ġê²Ĳ": 6290,
  "Ġê³": 345,
  "Ġê³¡": 1487,
  "Ġê³¡ìĿ´": 7763,
  "Ġê³¡ìĿĦ": 5967,
  "Ġê³¤": 3892,
  "Ġê³§": 2669,
  "Ġê³§ë°Ķë¡ľ": 6319,
  "Ġê³¨": 1533,
  "Ġê³¨ëĵľ": 5709,
  "Ġê³°": 6272,
  "Ġê³³": 1410,
  "Ġê³³ìĹĲ": 4766,
  "Ġê³³ìĹĲìĦľ": 5659,
  "Ġê³³ìľ¼ë¡ľ": 6473,
  "Ġê³³ìĿ´": 5989,
  "Ġê³³ìĿĢ": 7799,
  "Ġê³µ": 483,
  "Ġê³µê°Ħ": 3973,
  "Ġê³µê°ľ": 2144,
  "Ġê³µê°ľëĲľ": 7569,
  "Ġê³µê²©": 856,
  "Ġê³µê²©ëł¥": 3259,
  "Ġê³µê²©ëł¥ìĿ´": 6128,
  "Ġê³µê²©ìĹĲ": 6906,
  "Ġê³µê²©ìĿ´": 5748,
  "Ġê³µê²©ìĿĦ": 2580,
  "Ġê³µê²©íķĺëĬĶ": 7465,
  "Ġê³µêµ°": 7147,
  "Ġê³µê¸ī": 6244,
  "Ġê³µë¶Ģ": 5442,
  "Ġê³µëıĻ": 4090,
  "Ġê³µëŀµ": 4356,
  "Ġê³µì£¼": 5819,
  "Ġê³µì¤ĳ": 3441,
  "Ġê³µìĤ°": 6050,
  "Ġê³µìĭĿ": 2103,
  "Ġê³µìĹ°": 3416,
  "Ġê³µìľł": 5590,
  "Ġê³µìĿĦ": 5675,
  "Ġê³µíĨµ": 5003,
  "Ġê³µíı¬": 3901,
  "Ġê³µíķŃ": 6696,
  "Ġê³µíĻĶ": 5356,
  "Ġê³¼": 904,
  "Ġê³¼ê±°": 1755,
  "Ġê³¼ê±°ìĹĲ": 7685,
  "Ġê³¼ê±°ìĿĺ": 7081,
  "Ġê³¼ìĹ°": 6516,
  "Ġê³¼ìłķ": 2596,
  "Ġê³¼ìłķìĹĲìĦľ": 3549,
  "Ġê³¼ìłķìĿĦ": 7435,
  "Ġê³¼íķĻ": 3463,
  "Ġê³½": 7453,
  "Ġê³ģ": 6267,
  "Ġê³Ħ": 803,
  "Ġê³Ħê¸ī": 6453,
  "Ġê³ĦìĤ°": 5133,
  "Ġê³ĦìĨį": 1514,
  "Ġê³ĦìĨįíķ´ìĦľ": 5446,
  "Ġê³ĦìĬ¹": 6330,
  "Ġê³Ħìķ½": 2946,
  "Ġê³Ħìķ½ìĿĦ": 7744,
  "Ġê³ĦìĹ´": 3345,
  "Ġê³Ħíļį": 2440,
  "Ġê³ĦíļįìĿĦ": 6434,
  "Ġê³ł": 547,
  "Ġê³łê°Ŀ": 6996,
  "Ġê³łêµ¬": 7523,
  "Ġê³łê¸ī": 5897,
  "Ġê³łë¯¼": 4723,
  "Ġê³łë°±": 6533,
  "Ġê³łëĮĢ": 4899,
  "Ġê³łëĵ±": 7565,
  "Ġê³łëĵ±íķĻêµĲ": 5065,
  "Ġê³łëł¤": 2597,
  "Ġê³łìĥĿ": 5932,
  "Ġê³łìĨį": 4839,
  "Ġê³łìĸĳ": 3650,
  "Ġê³łìĸĳìĿ´": 6461,
  "Ġê³łìļ©": 7253,
  "Ġê³łìľł": 5867,
  "Ġê³łìŀĳ": 7851,
  "Ġê³łìłĦ": 6202,
  "Ġê³łìłķ": 3677,
  "Ġê³łíĨµ": 4141,
  "Ġê³łíĸ¥": 6156,
  "Ġê´": 920,
  "Ġê´´": 1758,
  "Ġê´´ë¡Ń": 6274,
  "Ġê´´ë¬¼": 5851,
  "Ġê´Ģ": 707,
  "Ġê´Ģê°Ŀ": 6655,
  "Ġê´Ģê³Ħ": 1753,
  "Ġê´Ģê³Ħê°Ģ": 6268,
  "Ġê´Ģê³Ħë¡ľ": 7140,
  "Ġê´Ģê³Ħë¥¼": 5798,
  "Ġê´Ģê´ĳ": 5143,
  "Ġê´Ģë¦¬": 3140,
  "Ġê´Ģëł¨": 1527,
  "Ġê´Ģëł¨ëĲľ": 4150,
  "Ġê´Ģìĭ¬": 6517,
  "Ġê´Ģìĭ¬ìĿ´": 6736,
  "Ġê´Ģìĭ¬ìĿĦ": 5451,
  "Ġê´ĢíĨµ": 5021,
  "Ġê´Ģíķľ": 3736,
  "Ġê´ĳ": 1251,
  "Ġê´ĳê³ł": 4930,
  "Ġê´ĳì£¼": 4739,
  "Ġê´ĳìĹŃ": 5016,
  "Ġê´ľ": 2640,
  "Ġê´ľì°®": 3047,
  "Ġê´ľì°®ìĿĢ": 5899,
  "Ġêµ": 411,
  "Ġêµ¬": 617,
  "Ġêµ¬ê°Ħ": 2997,
  "Ġêµ¬ë§¤": 3691,
  "Ġêµ¬ë©į": 6977,
  "Ġêµ¬ë¶Ħ": 4781,
  "Ġêµ¬ëĭ¨": 5788,
  "Ġêµ¬ì¡°": 2779,
  "Ġêµ¬ì²´": 6169,
  "Ġêµ¬ì¶ķ": 5045,
  "Ġêµ¬ì¶ľ": 6588,
  "Ġêµ¬ìĤ¬": 7802,
  "Ġêµ¬ìĦ±": 2330,
  "Ġêµ¬ìĨį": 6878,
  "Ġêµ¬ìŀħ": 5040,
  "Ġêµ¬íķ´": 6569,
  "Ġêµ¬íĺĦ": 5916,
  "Ġêµ°": 1122,
  "Ġêµ°ëĭ¨": 7740,
  "Ġêµ°ìĤ¬": 3882,
  "Ġêµ³": 2814,
  "Ġêµ³ìĿ´": 3749,
  "Ġêµ´": 2783,
  "Ġêµīìŀ¥": 2279,
  "Ġêµīìŀ¥íŀĪ": 2484,
  "ĠêµĲ": 881,
  "ĠêµĲì²´": 3505,
  "ĠêµĲìĪĺ": 5871,
  "ĠêµĲìľ¡": 2654,
  "ĠêµĲíĨµ": 4888,
  "ĠêµĲíĻĺ": 5833,
  "ĠêµŃ": 833,
  "ĠêµŃê°Ģ": 1730,
  "ĠêµŃê°ĢëĮĢíĳľ": 6986,
  "ĠêµŃë¯¼": 2884,
  "ĠêµŃë°©": 7156,
  "ĠêµŃëĤ´": 2347,
  "ĠêµŃìłľ": 3370,
  "ĠêµŃíļĮìĿĺ": 5550,
  "ĠêµŃíļĮìĿĺìĽĲ": 7745,
  "Ġê¶¤": 5517,
  "Ġê¶ģ": 2047,
  "Ġê¶ģê·¹": 4818,
  "Ġê¶Į": 1517,
  "Ġê¶Įì´Ŀ": 6250,
  "Ġê·": 329,
  "Ġê·¸": 338,
  "Ġê·¸ê°Ģ": 2685,
  "Ġê·¸ê±´": 6386,
  "Ġê·¸ê±¸": 3793,
  "Ġê·¸ê²ĥ": 1712,
  "Ġê·¸ê²ĥëıĦ": 5248,
  "Ġê·¸ê²ĥìĿ´": 5226,
  "Ġê·¸ê²ĥìĿĢ": 5245,
  "Ġê·¸ê²ĥìĿĦ": 4553,
  "Ġê·¸ê²Į": 4615,
  "Ġê·¸ê³³": 5213,
  "Ġê·¸ë¡ľ": 6776,
  "Ġê·¸ë£¹": 3664,
  "Ġê·¸ë¥¼": 2811,
  "Ġê·¸ë¦¬": 2264,
  "Ġê·¸ë¦¬ê³ł": 888,
  "Ġê·¸ë¦¬ìĬ¤": 5100,
  "Ġê·¸ë¦°": 4165,
  "Ġê·¸ë¦¼": 2346,
  "Ġê·¸ë§Į": 4296,
  "Ġê·¸ë§Įíģ¼": 5128,
  "Ġê·¸ëĤĺë§Ī": 2298,
  "Ġê·¸ëĥ¥": 1550,
  "Ġê·¸ëħĢ": 1628,
  "Ġê·¸ëħĢê°Ģ": 5379,
  "Ġê·¸ëħĢë¥¼": 5070,
  "Ġê·¸ëħĢëĬĶ": 4722,
  "Ġê·¸ëħĢìĿĺ": 3596,
  "Ġê·¸ëĬĶ": 2080,
  "Ġê·¸ëĭ¤": 5154,
  "Ġê·¸ëĭ¤ì§Ģ": 5419,
  "Ġê·¸ëĮĢë¡ľ": 1634,
  "Ġê·¸ëıĻìķĪ": 5165,
  "Ġê·¸ëĵ¤ìĿ´": 6653,
  "Ġê·¸ëĵ¤ìĿĢ": 5631,
  "Ġê·¸ëĵ¤ìĿĦ": 7391,
  "Ġê·¸ëĵ¤ìĿĺ": 4949,
  "Ġê·¸ëķĮ": 3573,
  "Ġê·¸ëĿ¼": 7343,
  "Ġê·¸ëŀ¬": 5666,
  "Ġê·¸ëŀĺ": 1205,
  "Ġê·¸ëŀĺëıĦ": 2117,
  "Ġê·¸ëŀĺìĦľ": 1896,
  "Ġê·¸ëŀĺíĶ½": 6126,
  "Ġê·¸ëŁ¬": 934,
  "Ġê·¸ëŁ¬ë©´": 7930,
  "Ġê·¸ëŁ¬ëĤĺ": 1199,
  "Ġê·¸ëŁ¬ëĭ¤ê°Ģ": 7854,
  "Ġê·¸ëŁ¬ëĭĪê¹Į": 7591,
  "Ġê·¸ëŁ¬ìŀĲ": 7214,
  "Ġê·¸ëŁ¬íķľ": 6941,
  "Ġê·¸ëŁ°": 1146,
  "Ġê·¸ëŁ°ëį°": 1853,
  "Ġê·¸ëŁ°ì§Ģ": 5651,
  "Ġê·¸ëŁ´": 4584,
  "Ġê·¸ëŁ¼": 3617,
  "Ġê·¸ëŁ¼ìĹĲëıĦ": 5885,
  "Ġê·¸ëł¤": 4438,
  "Ġê·¸ëłĩ": 1247,
  "Ġê·¸ëłĩê²Į": 1966,
  "Ġê·¸ëłĩëĭ¤": 6584,
  "Ġê·¸ëłĩëĭ¤ê³ł": 4810,
  "Ġê·¸ëłĩì§Ģ": 5178,
  "Ġê·¸ëłĩì§Ģë§Į": 7142,
  "Ġê·¸ëłĪìĿ´": 4809,
  "Ġê·¸ìķ¼ë§Ĳë¡ľ": 3817,
  "Ġê·¸ìĹĲ": 4484,
  "Ġê·¸ìĹĲê²Į": 6071,
  "Ġê·¸ìĻĢ": 6137,
  "Ġê·¸ìĿĺ": 1717,
  "Ġê·¸ìłĢ": 3877,
  "Ġê·¹": 1359,
  "Ġê·¹ë³µ": 6578,
  "Ġê·¹ëĭ¨": 6429,
  "Ġê·¹ìŀ¥": 4300,
  "Ġê·¹ìŀ¥íĮĲ": 6188,
  "Ġê·¼": 1127,
  "Ġê·¼ê±°": 5062,
  "Ġê·¼ë¬´": 5630,
  "Ġê·¼ë³¸": 7656,
  "Ġê·¼ëį°": 4190,
  "Ġê·¼ì²ĺ": 3540,
  "Ġê·¼ì²ĺìĹĲ": 6879,
  "Ġê·¼ìľ¡": 6048,
  "Ġê·¼ìłĳ": 3240,
  "Ġê·Ģ": 1504,
  "Ġê·Ģì¡±": 5449,
  "Ġê·Ģì°®": 7537,
  "Ġê·ĢìĹ¬": 6417,
  "Ġê·ľ": 1849,
  "Ġê·ľëª¨": 6172,
  "Ġê·ľì¹Ļ": 7235,
  "Ġê·ľìłķ": 6543,
  "Ġê·ł": 5883,
  "Ġê¸": 675,
  "Ġê¸°": 412,
  "Ġê¸°ê°Ħ": 3152,
  "Ġê¸°ê³Ħ": 3889,
  "Ġê¸°ê´Ģ": 3497,
  "Ġê¸°ë¡Ŀ": 1429,
  "Ġê¸°ë¡ĿìĿĦ": 6602,
  "Ġê¸°ë¡ĿíĸĪëĭ¤": 5115,
  "Ġê¸°ë°ĺ": 3612,
  "Ġê¸°ë°ĺìľ¼ë¡ľ": 6610,
  "Ġê¸°ë³¸": 1528,
  "Ġê¸°ë³¸ìłģìľ¼ë¡ľ": 3508,
  "Ġê¸°ë³¸ìłģìĿ¸": 7109,
  "Ġê¸°ë¶Ħ": 7096,
  "Ġê¸°ëħĲ": 4432,
  "Ġê¸°ëĬ¥": 2366,
  "Ġê¸°ëĬ¥ìĿ´": 6479,
  "Ġê¸°ëĬ¥ìĿĦ": 6039,
  "Ġê¸°ëĭ¤": 3097,
  "Ġê¸°ëĮĢ": 3189,
  "Ġê¸°ëıħêµĲ": 6935,
  "Ġê¸°ëıĻ": 3539,
  "Ġê¸°ì¡´": 1949,
  "Ġê¸°ì¡´ìĿĺ": 4062,
  "Ġê¸°ì¤Ģ": 1719,
  "Ġê¸°ì¤Ģìľ¼ë¡ľ": 3025,
  "Ġê¸°ì²´": 3713,
  "Ġê¸°ì´Ī": 6261,
  "Ġê¸°ìĤ¬": 2255,
  "Ġê¸°ìĪł": 1408,
  "Ġê¸°ìĪłìĿ´": 6800,
  "Ġê¸°ìĪłìĿĦ": 4369,
  "Ġê¸°ìĬµ": 6413,
  "Ġê¸°ìĸ´": 6382,
  "Ġê¸°ìĸµ": 2239,
  "Ġê¸°ìĸµìĿĦ": 6489,
  "Ġê¸°ìĹ¬": 7146,
  "Ġê¸°ìĹħ": 3343,
  "Ġê¸°ìļ¸": 6745,
  "Ġê¸°ìŀĲ": 7989,
  "Ġê¸°ìłĪ": 5571,
  "Ġê¸°íĥĢ": 3458,
  "Ġê¸°íļĮë¥¼": 5582,
  "Ġê¸°íļį": 5225,
  "Ġê¸´": 2355,
  "Ġê¸¸": 1330,
  "Ġê¸¸ìĿ´": 6561,
  "Ġê¸¸ìĿĦ": 4524,
  "Ġê¸Ģ": 1892,
  "Ġê¸Ģë¡ľ": 5808,
  "Ġê¸ĢìĿĦ": 5562,
  "Ġê¸Ī": 1310,
  "Ġê¸Īì§Ģ": 4744,
  "Ġê¸Īìľµ": 7684,
  "Ġê¸ī": 1871,
  "Ġê¸į": 5525,
  "Ġê¸įìłķ": 6154,
  "Ġê¹": 668,
  "Ġê¹¨": 1955,
  "Ġê¹¨ëĭ«": 6530,
  "Ġê¹¨ëĭ¬": 7828,
  "Ġê¹¨ìĸ´": 6860,
  "Ġê¹Ģ": 864,
  "Ġê¹Ģì¢ħ": 7704,
  "Ġê¹ĢìĦ±": 5849,
  "Ġê¹Ģìĺģ": 7008,
  "Ġê¹Ģìłķ": 7496,
  "Ġê¹Ģíĥľ": 7675,
  "Ġê¹ĥ": 6120,
  "Ġê¹Ĭ": 4443,
  "Ġê¹ĬìĿĢ": 5655,
  "Ġê¹Į": 1840,
  "Ġê¹Įëĭ¤": 6581,
  "Ġê¹Įì§Ģ": 5979,
  "Ġê¹İ": 5034,
  "Ġê¹Ķ": 3235,
  "Ġê¹ĶëģĶ": 7716,
  "Ġê¹ľ": 6595,
  "Ġêº": 5458,
  "Ġêº¼": 2969,
  "Ġêº¼ëĤ´": 5684,
  "Ġêº¾": 5861,
  "Ġê»": 5699,
  "Ġê¼": 1485,
  "Ġê¼¬": 2894,
  "Ġê¼´": 4699,
  "Ġê¼½": 4497,
  "Ġê¼Ń": 3359,
  "Ġê½": 1396,
  "Ġê½¤": 1837,
  "Ġê½¤ëĤĺ": 4257,
  "Ġê½Ĥ": 7276,
  "Ġê½ĥ": 3404,
  "Ġê¾¸": 2603,
  "Ġê¾¸ì¤Ģ": 4170,
  "Ġê¾¸ì¤ĢíŀĪ": 4866,
  "Ġê¿": 1919,
  "Ġê¿Ī": 2384,
  "Ġê¿ĪìĿĦ": 6670,
  "Ġë": 262,
  "Ġë¡": 752,
  "Ġë¡¤": 3447,
  "Ġë¡¯": 3971,
  "Ġë¡¯ëį°": 4293,
  "Ġë¡±": 5425,
  "Ġë¡ľ": 868,
  "Ġë¡ľë§Ī": 4879,
  "Ġë¡ľë´ĩ": 4091,
  "Ġë¡ľëĵľ": 6010,
  "Ġë¡ľì¼ĵ": 5522,
  "Ġë¡Ŀ": 4313,
  "Ġë£": 1115,
  "Ġë£¨": 1283,
  "Ġë£¨ìĭľ": 7702,
  "Ġë£¨íĬ¸": 7663,
  "Ġë£°": 5542,
  "Ġë£Į": 6018,
  "Ġë¥": 1421,
  "Ġë¥´": 5731,
  "Ġë¥¼": 1869,
  "Ġë¥ĺ": 3077,
  "Ġë¦": 722,
  "Ġë¦¬": 773,
  "Ġë¦¬ê·¸": 2159,
  "Ġë¦¬ë©ĶìĿ´": 6796,
  "Ġë¦¬ë©ĶìĿ´íģ¬": 7593,
  "Ġë¦¬ë²Ħ": 6775,
  "Ġë¦¬ëįĶ": 4029,
  "Ġë¦°": 3795,
  "Ġë¦´": 5589,
  "Ġë§": 317,
  "Ġë§¡": 1651,
  "Ġë§¡ê³ł": 6596,
  "Ġë§¡ìķĺëĭ¤": 6138,
  "Ġë§¡ìĿĢ": 5846,
  "Ġë§¤": 788,
  "Ġë§¤ëĭĪ": 6721,
  "Ġë§¤ìļ°": 1260,
  "Ġë§¤ìĿ¼": 5514,
  "Ġë§¥": 2673,
  "Ġë§¨": 2730,
  "Ġë§µ": 2497,
  "Ġë§¹": 3440,
  "Ġë§º": 4125,
  "Ġë§ģ": 2879,
  "Ġë§ģíģ¬": 4564,
  "Ġë§Ī": 453,
  "Ġë§Īêµ¬": 7002,
  "Ġë§Īë¥´": 4483,
  "Ġë§Īë¦¬": 4590,
  "Ġë§Īë¦¬ìĺ¤": 7342,
  "Ġë§Īë¬´": 3649,
  "Ġë§Īë¬´ë¦¬": 4276,
  "Ġë§Īë²ķ": 1597,
  "Ġë§Īë²ķìĤ¬": 6150,
  "Ġë§Īë²ķìĿĦ": 7173,
  "Ġë§ĪëĤĺ": 5313,
  "Ġë§ĪëħĢ": 5996,
  "Ġë§ĪëıĦ": 7098,
  "Ġë§Īëł¨": 4974,
  "Ġë§Īì£¼": 5330,
  "Ġë§Īì§Ģë§ī": 1520,
  "Ġë§Īì§Ģë§īìĹĲ": 5977,
  "Ġë§Īì§Ģë§īìľ¼ë¡ľ": 5171,
  "Ġë§Īì°¬": 1964,
  "Ġë§Īì°¬ê°Ģì§Ģ": 1976,
  "Ġë§Īì°¬ê°Ģì§Ģë¡ľ": 2529,
  "Ġë§Īì¸ł": 7097,
  "Ġë§Īì¹¨": 4214,
  "Ġë§Īì¹¨ëĤ´": 6672,
  "Ġë§Īì¹ĺ": 3772,
  "Ġë§ĪìĤ¬": 5164,
  "Ġë§ĪìĪł": 7153,
  "Ġë§ĪìĬ¤íĦ°": 3111,
  "Ġë§Īìĭľ": 7298,
  "Ġë§ĪìĻķ": 7730,
  "Ġë§ĪìĿ´": 2250,
  "Ġë§ĪìĿ´ëĦĪ": 6206,
  "Ġë§ĪìĿ´íģ´": 7482,
  "Ġë§ĪìĿ¸": 7178,
  "Ġë§ĪìĿĦ": 2501,
  "Ġë§ĪìĿĮ": 1612,
  "Ġë§ĪìĿĮìĹĲ": 5614,
  "Ġë§ĪìĿĮìĿ´": 5733,
  "Ġë§ĪìĿĮìĿĦ": 3937,
  "Ġë§Īíģ¬": 7781,
  "Ġë§ī": 1150,
  "Ġë§īê¸°": 7023,
  "Ġë§īìķĦ": 4326,
  "Ġë§īìĿĦ": 6597,
  "Ġë§īìŀ¥": 7018,
  "Ġë§Į": 549,
  "Ġë§ĮëĤ¬": 7095,
  "Ġë§ĮëĤĺ": 2232,
  "Ġë§ĮëĤĺê²Į": 7618,
  "Ġë§ĮëĤľ": 5409,
  "Ġë§ĮëĤł": 7902,
  "Ġë§Įëĭ¤": 4663,
  "Ġë§Įëĵ¤": 1057,
  "Ġë§Įëĵ¤ê³ł": 5293,
  "Ġë§Įëĵ¤ìĸ´": 1567,
  "Ġë§Įëĵ¤ìĸ´ì§Ħ": 4846,
  "Ġë§Įëĵ¤ìĹĪëĭ¤": 5104,
  "Ġë§ĮëĵľëĬĶ": 3179,
  "Ġë§Įëĵł": 1893,
  "Ġë§Įëĵłëĭ¤": 6090,
  "Ġë§Įì¡±": 4944,
  "Ġë§Įìķ½": 2846,
  "Ġë§ĮìĹĲ": 5473,
  "Ġë§Įíģ¼": 2166,
  "Ġë§Įíķľ": 4309,
  "Ġë§ĮíĻĶ": 3264,
  "Ġë§İ": 649,
  "Ġë§İê³ł": 5526,
  "Ġë§İëĭ¤": 1708,
  "Ġë§İìķĦ": 3575,
  "Ġë§İìķĦìĦľ": 6636,
  "Ġë§İìķĺëĭ¤": 5287,
  "Ġë§İìĿ´": 1180,
  "Ġë§İìĿĢ": 1267,
  "Ġë§İìĿĢëį°": 6891,
  "Ġë§Ĳ": 567,
  "Ġë§Ĳê³ł": 4337,
  "Ġë§Ĳë¡ľ": 6662,
  "Ġë§ĲëıĦ": 4958,
  "Ġë§ĲìķĦ": 6632,
  "Ġë§Ĳìķĺëĭ¤": 4076,
  "Ġë§ĲìĹĲ": 3422,
  "Ġë§ĲìĿ´": 2430,
  "Ġë§ĲìĿ´ëĭ¤": 5283,
  "Ġë§ĲìĿĢ": 5553,
  "Ġë§ĲìĿĦ": 1779,
  "Ġë§Ĳíķ´": 4803,
  "Ġë§Ĳíķĺê³ł": 7528,
  "Ġë§Ĳíķĺë©°": 7937,
  "Ġë§Ĳíķĺë©´": 6383,
  "Ġë§ĲíķĺëĬĶ": 3834,
  "Ġë§ĲíķĺìŀĲë©´": 7826,
  "Ġë§Ĳíķľ": 5358,
  "Ġë§Ĳíķľëĭ¤": 2994,
  "Ġë§Ĳíķł": 5325,
  "Ġë§ĲíĸĪëĭ¤": 4059,
  "Ġë§ĺ": 6037,
  "Ġë§Ľ": 2763,
  "Ġë§Ŀ": 1813,
  "Ġë§ŀ": 931,
  "Ġë§ŀê²Į": 7082,
  "Ġë§ŀê³ł": 4622,
  "Ġë§ŀëĬĶ": 4036,
  "Ġë§ŀëĭ¤": 6895,
  "Ġë§ŀì§Ģ": 6449,
  "Ġë§ŀì¶°": 3940,
  "Ġë§ŀì¶Ķ": 3791,
  "Ġë§ŀìķĦ": 4277,
  "Ġë§ŀìĿ´": 5912,
  "Ġë§ŀìĿĢ": 7078,
  "Ġë¨": 790,
  "Ġë¨¸": 1391,
  "Ġë¨¸ë¦¬": 3413,
  "Ġë¨¸ë¦¬ê°Ģ": 7803,
  "Ġë¨¸ë¦¬ë¥¼": 4873,
  "Ġë¨¹": 1193,
  "Ġë¨¹ê³ł": 3960,
  "Ġë¨¹ëĬĶ": 4556,
  "Ġë¨¹ìĿĦ": 5771,
  "Ġë¨¼": 1763,
  "Ġë¨¼ìłĢ": 2069,
  "Ġë©": 584,
  "Ġë©¤ë²Ħ": 1797,
  "Ġë©°": 4045,
  "Ġë©´": 1711,
  "Ġë©¸": 3602,
  "Ġë©¸ë§Ŀ": 4950,
  "Ġë©Ģ": 2012,
  "Ġë©Ģë¦¬": 4598,
  "Ġë©Ģì©¡": 7062,
  "Ġë©Ģíĭ°": 4925,
  "Ġë©Ī": 4137,
  "Ġë©Īì¶Ķ": 6915,
  "Ġë©ĭ": 3842,
  "Ġë©į": 6782,
  "Ġë©Ķ": 947,
  "Ġë©Ķê°Ģ": 5504,
  "Ġë©Ķëī´": 7558,
  "Ġë©Ķì¹´": 6797,
  "Ġë©Ķìĭľ": 7006,
  "Ġë©ĶìĿ´": 2794,
  "Ġë©ĶìĿ´ìłĢ": 6293,
  "Ġë©ĶìĿ¸": 3083,
  "Ġë©ĶíĥĪ": 5959,
  "Ġë©ķ": 7283,
  "Ġë©ĺ": 4089,
  "Ġë©ľ": 4310,
  "Ġëª": 352,
  "Ġëª¨": 446,
  "Ġëª¨ë¥´": 3074,
  "Ġëª¨ë¥´ê³ł": 7337,
  "Ġëª¨ë¥´ëĬĶ": 3969,
  "Ġëª¨ë¥¸": 6755,
  "Ġëª¨ë¥¸ëĭ¤": 4767,
  "Ġëª¨ë¥¼": 7999,
  "Ġëª¨ë¦¬": 7806,
  "Ġëª¨ë°Ķ": 6265,
  "Ġëª¨ë°ĶìĿ¼": 6964,
  "Ġëª¨ëį¸": 2302,
  "Ġëª¨ëĳĲ": 1130,
  "Ġëª¨ëĳĲê°Ģ": 5909,
  "Ġëª¨ëĵľ": 3076,
  "Ġëª¨ëĵł": 1173,
  "Ġëª¨ì¡°ë¦¬": 7594,
  "Ġëª¨ìħĺ": 5501,
  "Ġëª¨ìĬµ": 1002,
  "Ġëª¨ìĬµìľ¼ë¡ľ": 4318,
  "Ġëª¨ìĬµìĿ´": 3169,
  "Ġëª¨ìĬµìĿĢ": 5895,
  "Ġëª¨ìĬµìĿĦ": 1398,
  "Ġëª¨ìķĦ": 4807,
  "Ġëª¨ìĸĳ": 2205,
  "Ġëª¨ìĸĳìĿ´ëĭ¤": 7374,
  "Ġëª¨ìĹ¬": 6710,
  "Ġëª¨ìľ¼": 6523,
  "Ġëª¨ìŀĲ": 5004,
  "Ġëª¨íĭ°ë¸Į": 4460,
  "Ġëª¨íĹĺ": 4860,
  "Ġëª©": 1035,
  "Ġëª©ê²©": 6866,
  "Ġëª©ë¡Ŀ": 4743,
  "Ġëª©ìĨĮ": 2863,
  "Ġëª©ìĨĮë¦¬ê°Ģ": 7237,
  "Ġëª©ìĪ": 4281,
  "Ġëª©ìĪ¨ìĿĦ": 5946,
  "Ġëª©ìłģ": 5534,
  "Ġëª©ìłģìľ¼ë¡ľ": 6402,
  "Ġëª©íĳľ": 3055,
  "Ġëª¬": 1931,
  "Ġëª¬ìĬ¤íĦ°": 2138,
  "Ġëª°": 1416,
  "Ġëª°ëĿ¼ëıĦ": 7633,
  "Ġëª°ëŀĺ": 5791,
  "Ġëª°ëł¤": 6339,
  "Ġëª°ìķĦ": 4608,
  "Ġëª¸": 1529,
  "Ġëª¸ìĹĲ": 5958,
  "Ġëª¸ìĿ´": 5792,
  "Ġëª¸ìĿĦ": 3888,
  "Ġëª¹": 5898,
  "Ġëª»": 734,
  "Ġëª»íķ´": 4880,
  "Ġëª»íķĺê²Į": 5896,
  "Ġëª»íķĺê³ł": 2460,
  "Ġëª»íķĺëĬĶ": 3093,
  "Ġëª»íķľ": 2472,
  "Ġëª»íķľëĭ¤": 4485,
  "Ġëª»íķł": 5196,
  "Ġëª»íĸĪëĭ¤": 3205,
  "Ġëª½": 4127,
  "Ġëªħ": 913,
  "Ġëªħëł¹": 3541,
  "Ġëªħëł¹ìĿĦ": 7934,
  "Ġëªħì¤ĳ": 4847,
  "Ġëªħì¹Ń": 3694,
  "ĠëªħìĺĪ": 6197,
  "ĠëªħìĿ´": 6209,
  "ĠëªħìĿĺ": 4789,
  "ĠëªħíĻķ": 7693,
  "Ġëªĩ": 1518,
  "Ġëªĩëªĩ": 3859,
  "Ġë¬": 386,
  "Ġë¬´": 521,
  "Ġë¬´ê²Į": 5864,
  "Ġë¬´ê´Ģ": 7951,
  "Ġë¬´ê¸°": 2057,
  "Ġë¬´ê¸°ë¡ľ": 7290,
  "Ġë¬´ê¸°ë¥¼": 5047,
  "Ġë¬´ë£Į": 6249,
  "Ġë¬´ë¦": 6525,
  "Ġë¬´ë¦¬": 4066,
  "Ġë¬´ë¦İ": 7229,
  "Ġë¬´ë°©": 7621,
  "Ġë¬´ëĤľ": 5395,
  "Ġë¬´ëĦĪ": 4241,
  "Ġë¬´ëĮĢ": 6403,
  "Ġë¬´ëį¤": 7794,
  "Ġë¬´ëł¤": 3434,
  "Ġë¬´ëł¥": 5457,
  "Ġë¬´ëłµ": 7613,
  "Ġë¬´ì¡°ê±´": 3745,
  "Ġë¬´ì²Ļ": 7863,
  "Ġë¬´ìĤ¬": 4511,
  "Ġë¬´ìĦľ": 5088,
  "Ġë¬´ìĬ¨": 3058,
  "Ġë¬´ìĭľ": 2642,
  "Ġë¬´ìĭľíķĺê³ł": 7959,
  "Ġë¬´ìĸ¸": 6019,
  "Ġë¬´ìĹĩ": 2556,
  "Ġë¬´ìĹĩë³´ëĭ¤": 6142,
  "Ġë¬´ìŀ¥": 3895,
  "Ġë¬´ìŀĳ": 7992,
  "Ġë¬´ìłģ": 6609,
  "Ġë¬´íķľ": 4024,
  "Ġë¬´íļ¨": 7491,
  "Ġë¬µ": 5612,
  "Ġë¬¶": 4542,
  "Ġë¬¸": 681,
  "Ġë¬¸ìĦľ": 2245,
  "Ġë¬¸ìĿĦ": 5613,
  "Ġë¬¸ìłľ": 1019,
  "Ġë¬¸ìłľê°Ģ": 2272,
  "Ġë¬¸ìłľë¡ľ": 4835,
  "Ġë¬¸ìłľë¥¼": 4131,
  "Ġë¬¸ìłľëĬĶ": 2699,
  "Ġë¬¸íķĻ": 6477,
  "Ġë¬¸íĻĶ": 3160,
  "Ġë¬»": 2512,
  "Ġë¬¼": 757,
  "Ġë¬¼ê±´": 3260,
  "Ġë¬¼ê³ł": 7629,
  "Ġë¬¼ë¡ł": 1275,
  "Ġë¬¼ë¡łìĿ´ê³ł": 7881,
  "Ġë¬¼ë¦¬": 3299,
  "Ġë¬¼ëŁ¬": 5831,
  "Ġë¬¼ìĸ´": 4474,
  "Ġë¬¼ìĿĦ": 7025,
  "Ġë¬ĺ": 1897,
  "Ġë¬ĺìĤ¬": 3340,
  "Ġë®¤": 2877,
  "Ġë®¤ì§ģ": 5707,
  "Ġë¯": 1140,
  "Ġë¯¸": 563,
  "Ġë¯¸êµŃ": 1417,
  "Ġë¯¸êµŃìĿĺ": 3979,
  "Ġë¯¸ë¦¬": 4232,
  "Ġë¯¸ëĤĺ": 6528,
  "Ġë¯¸ëĭĪ": 4082,
  "Ġë¯¸ëĵľ": 4672,
  "Ġë¯¸ëŀĺ": 3008,
  "Ġë¯¸ì¸ł": 7154,
  "Ġë¯¸ì¹ľ": 4871,
  "Ġë¯¸ìĤ¬": 3389,
  "Ġë¯¸ìĤ¬ìĿ¼": 6173,
  "Ġë¯¸ìħĺ": 2935,
  "Ġë¯¸ìĬ¤": 7747,
  "Ġë¯¸ìķ¼": 7267,
  "Ġë¯¸ìķĪ": 7091,
  "Ġë¯¼": 1386,
  "Ġë¯¼ê°Ħ": 5794,
  "Ġë¯¼ì¡±": 5343,
  "Ġë¯¼ì£¼": 3377,
  "Ġë¯¿": 2340,
  "Ġë¯¿ê³ł": 7104,
  "Ġë°": 325,
  "Ġë°¤": 2566,
  "Ġë°¥": 4194,
  "Ġë°©": 600,
  "Ġë°©ë¬¸": 4611,
  "Ġë°©ë²ķ": 1796,
  "Ġë°©ë²ķìľ¼ë¡ľ": 7501,
  "Ġë°©ë²ķìĿ´": 5661,
  "Ġë°©ë²ķìĿĢ": 6718,
  "Ġë°©ë²ķìĿĦ": 5548,
  "Ġë°©ìĨ¡": 1592,
  "Ġë°©ìĨ¡ìĿĦ": 5722,
  "Ġë°©ìĭĿ": 2247,
  "Ġë°©ìĭĿìľ¼ë¡ľ": 5079,
  "Ġë°©ìĸ´": 1773,
  "Ġë°©ìĸ´ëł¥": 7493,
  "Ġë°©ìĹĲ": 7172,
  "Ġë°©ìĺģ": 3044,
  "Ġë°©íĮ¨": 5945,
  "Ġë°©íķ´": 4798,
  "Ġë°©íĸ¥": 2815,
  "Ġë°©íĸ¥ìľ¼ë¡ľ": 5889,
  "Ġë°°": 783,
  "Ġë°°ê²½": 3045,
  "Ġë°°ì¹ĺ": 3678,
  "Ġë°°ìĭł": 5205,
  "Ġë°°ìļ°": 2307,
  "Ġë°°ìļ°ëĬĶ": 7769,
  "Ġë°°íĭĢ": 3484,
  "Ġë°±": 1358,
  "Ġë°´": 3081,
  "Ġë°´ëĵľ": 6592,
  "Ġë°¸": 4265,
  "Ġë°¸ëŁ°": 5039,
  "Ġë°Ģ": 1412,
  "Ġë°Ģëł¤": 5208,
  "Ġë°Ģìĸ´": 4721,
  "Ġë°ı": 1274,
  "Ġë°ĳ": 3496,
  "Ġë°Ķ": 560,
  "Ġë°Ķê": 2018,
  "Ġë°Ķê¾¸": 3518,
  "Ġë°Ķê¿": 3354,
  "Ġë°Ķê¿Ķ": 4664,
  "Ġë°Ķë¡ľ": 1332,
  "Ġë°Ķë¥´": 6220,
  "Ġë°Ķë³´": 7194,
  "Ġë°ĶëĢ": 1824,
  "Ġë°ĶëĢĮ": 2198,
  "Ġë°ĶëĢĮìĹĪëĭ¤": 4863,
  "Ġë°ĶëĢĲ": 6984,
  "Ġë°Ķëĭ¤": 3942,
  "Ġë°Ķëĭ¥": 4206,
  "Ġë°ĶëĿ¼": 3584,
  "Ġë°ĶëŀĮ": 2108,
  "Ġë°ĶëŀĮìĹĲ": 3146,
  "Ġë°ĶìĿ´": 2408,
  "Ġë°Ķíĥķ": 4707,
  "Ġë°Ķíĥķìľ¼ë¡ľ": 5472,
  "Ġë°ķ": 1053,
  "Ġë°ķê·¼": 7566,
  "Ġë°ķìĤ¬": 7928,
  "Ġë°ķìĤ´": 5450,
  "Ġë°ķìłķ": 7341,
  "Ġë°ĸ": 3472,
  "Ġë°ĸìĹĲ": 3021,
  "Ġë°ĸìľ¼ë¡ľ": 6302,
  "Ġë°ĺ": 706,
  "Ġë°ĺê²©": 7405,
  "Ġë°ĺë©´": 2906,
  "Ġë°ĺë°ľ": 7130,
  "Ġë°ĺë³µ": 3947,
  "Ġë°ĺëĮĢ": 3226,
  "Ġë°ĺëĮĢë¡ľ": 3579,
  "Ġë°ĺëĵľìĭľ": 3462,
  "Ġë°ĺëŀĢ": 5826,
  "Ġë°ĺìĺģ": 5000,
  "Ġë°ĺìĿĳ": 2341,
  "Ġë°ĺìĿĳìĿ´": 6944,
  "Ġë°ĺìĿĳìĿĦ": 6042,
  "Ġë°Ľ": 733,
  "Ġë°Ľê²Į": 5510,
  "Ġë°Ľê³ł": 2385,
  "Ġë°ĽëĬĶ": 2795,
  "Ġë°ĽëĬĶëĭ¤": 4146,
  "Ġë°Ľì§Ģ": 4426,
  "Ġë°ĽìķĦ": 1716,
  "Ġë°ĽìķĦëĵ¤": 4868,
  "Ġë°ĽìķĦëĵ¤ìĿ´": 6641,
  "Ġë°Ľìķĺ": 2827,
  "Ġë°Ľìķĺëĭ¤": 3090,
  "Ġë°ĽìĿĢ": 2494,
  "Ġë°ĽìĿĦ": 3566,
  "Ġë°ľ": 614,
  "Ġë°ľê²¬": 2294,
  "Ġë°ľë§¤": 2097,
  "Ġë°ľë§¤ëĲľ": 7498,
  "Ġë°ľëĭ¬": 7277,
  "Ġë°ľëıĻ": 2471,
  "Ġë°ľìĤ¬": 2988,
  "Ġë°ľìĥĿ": 1917,
  "Ġë°ľìĸ¸": 4772,
  "Ġë°ľìĿĮ": 5694,
  "Ġë°ľìłĦ": 3589,
  "Ġë°ľíĳľ": 2696,
  "Ġë°ľíľĺ": 4865,
  "Ġë°Ŀ": 1505,
  "Ġë°ĿíĺĢ": 2517,
  "Ġë°ĿíĺĢì¡Įëĭ¤": 7371,
  "Ġë°ĿíĺĶëĭ¤": 4215,
  "Ġë°Ł": 5937,
  "Ġë±": 3112,
  "Ġë±Ģ": 5465,
  "Ġë²": 451,
  "Ġë²¤": 3851,
  "Ġë²¨": 3136,
  "Ġë²½": 2956,
  "Ġë²Ħ": 804,
  "Ġë²Ħê·¸": 3934,
  "Ġë²Ħë¦¬ê³ł": 6646,
  "Ġë²Ħëł¤": 6783,
  "Ġë²Ħëł¸ëĭ¤": 7623,
  "Ġë²ĦìĬ¤": 2989,
  "Ġë²ĦìłĦ": 2230,
  "Ġë²ĦíĬ¼": 5193,
  "Ġë²Ħíĭ°": 5291,
  "Ġë²ĦíĶĦ": 5315,
  "Ġë²ĦíĶĦë¥¼": 7755,
  "Ġë²Ī": 1049,
  "Ġë²Īì§¸": 2752,
  "Ġë²ĪìĹŃ": 3149,
  "Ġë²Į": 1374,
  "Ġë²Įìĸ´": 2662,
  "Ġë²Ķ": 1588,
  "Ġë²Ķì£Ħ": 4108,
  "Ġë²ĶìľĦ": 4978,
  "Ġë²ķ": 1637,
  "Ġë²ķë¥ł": 7180,
  "Ġë²Ĺ": 2689,
  "Ġë²Ĺìĸ´ëĤĺ": 5155,
  "Ġë²ł": 1169,
  "Ġë²łë¥´": 6728,
  "Ġë²łìĿ´": 3709,
  "Ġë²łìĿ´ìĬ¤": 7662,
  "Ġë²łíĬ¸ëĤ¨": 7831,
  "Ġë³": 343,
  "Ġë³´": 402,
  "Ġë³´ê²Į": 6998,
  "Ġë³´ê³ł": 1519,
  "Ġë³´ê¸°": 3780,
  "Ġë³´ê¸ī": 5018,
  "Ġë³´ë©°": 6395,
  "Ġë³´ë©´": 1215,
  "Ġë³´ë³ĳ": 4719,
  "Ġë³´ëĤ´": 2610,
  "Ġë³´ëĤ¸": 6645,
  "Ġë³´ëĦĪ": 4757,
  "Ġë³´ëĦĪìĬ¤": 7913,
  "Ġë³´ëĬĶ": 2647,
  "Ġë³´ëĭ¤": 3672,
  "Ġë³´ëĭĪ": 3106,
  "Ġë³´ëıĦ": 6408,
  "Ġë³´ëĿ¼": 7274,
  "Ġë³´ì¡°": 4390,
  "Ġë³´ì§Ģ": 6824,
  "Ġë³´ì»¬": 4808,
  "Ġë³´ìĥģ": 5286,
  "Ġë³´ìĪĺ": 5607,
  "Ġë³´ìĬ¤": 2410,
  "Ġë³´ìķĦ": 3494,
  "Ġë³´ìķĪ": 7348,
  "Ġë³´ìĹ¬": 1197,
  "Ġë³´ìĹ¬ì£¼": 1928,
  "Ġë³´ìĹ¬ì£¼ê³ł": 6251,
  "Ġë³´ìĹ¬ì£¼ë©°": 7485,
  "Ġë³´ìĹ¬ì£¼ëĬĶ": 4913,
  "Ġë³´ìĹ¬ì£¼ìĹĪëĭ¤": 5621,
  "Ġë³´ìĹ¬ì¤Ģ": 5484,
  "Ġë³´ìĹ¬ì¤Ģëĭ¤": 3733,
  "Ġë³´ìĺĢëĭ¤": 3949,
  "Ġë³´ìľł": 3556,
  "Ġë³´ìĿ´": 3065,
  "Ġë³´ìĿ´ê³ł": 5657,
  "Ġë³´ìĿ´ë©°": 5973,
  "Ġë³´ìĿ´ëĬĶ": 2818,
  "Ġë³´ìĿ´ì§Ģ": 4510,
  "Ġë³´ìĿ´ì§Ģë§Į": 7057,
  "Ġë³´ìĿ¸": 6978,
  "Ġë³´ìĿ¸ëĭ¤": 1594,
  "Ġë³´ìĿ¼": 6722,
  "Ġë³´ìŀ¥": 6754,
  "Ġë³´ìŀĲ": 5145,
  "Ġë³´íĨµ": 2126,
  "Ġë³´íĺ¸": 2920,
  "Ġë³µ": 1218,
  "Ġë³µê·Ģ": 3812,
  "Ġë³µìĪĺ": 6311,
  "Ġë³µìŀ¡": 5610,
  "Ġë³¸": 777,
  "Ġë³¸ê²©": 3884,
  "Ġë³¸ê²©ìłģìľ¼ë¡ľ": 5784,
  "Ġë³¸ëĭ¤": 7539,
  "Ġë³¸ëŀĺ": 3426,
  "Ġë³¸ìĿ¸": 2710,
  "Ġë³¸ìĿ¸ëıĦ": 6066,
  "Ġë³¸ìĿ¸ìĿ´": 3280,
  "Ġë³¸ìĿ¸ìĿĢ": 4650,
  "Ġë³¸ìĿ¸ìĿĺ": 3930,
  "Ġë³¸íİ¸": 4964,
  "Ġë³¼": 1137,
  "Ġë³Ģ": 961,
  "Ġë³Ģê²½": 2142,
  "Ġë³Ģê²½ëĲĺìĹĪëĭ¤": 6532,
  "Ġë³Ģìĭł": 3766,
  "Ġë³Ģíĺ¸": 6343,
  "Ġë³Ģíĺķ": 6737,
  "Ġë³ĢíĻĶ": 3734,
  "Ġë³Ħ": 1206,
  "Ġë³Ħê°ľë¡ľ": 7456,
  "Ġë³Ħë¡ľ": 3211,
  "Ġë³Ħëĭ¤ë¥¸": 7263,
  "Ġë³ĳ": 1288,
  "Ġë³ĳìĤ¬": 4881,
  "Ġë´": 1213,
  "Ġë´¤": 4196,
  "Ġë´Ħ": 5307,
  "Ġë´ī": 2082,
  "Ġë´īìĿ¸": 5053,
  "Ġë´Ĳ": 2090,
  "Ġë´ĲëıĦ": 3635,
  "Ġë´Ĳìķ¼": 7245,
  "Ġë¶": 467,
  "Ġë¶Ģ": 499,
  "Ġë¶Ģë¥´": 3263,
  "Ġë¶Ģë¥´ëĬĶ": 4561,
  "Ġë¶Ģë¥¸": 7626,
  "Ġë¶Ģë¥¸ëĭ¤": 4884,
  "Ġë¶Ģëª¨": 3133,
  "Ġë¶Ģë¶Ħ": 1495,
  "Ġë¶Ģë¶ĦìĿ´": 4274,
  "Ġë¶Ģë¶ĦìĿĢ": 5485,
  "Ġë¶Ģë¶ĦìĿĦ": 5949,
  "Ġë¶Ģëĭ´": 4504,
  "Ġë¶ĢëĮĢ": 4824,
  "Ġë¶ĢëĶ": 7564,
  "Ġë¶ĢëĶª": 7979,
  "Ġë¶Ģì¡±": 2143,
  "Ġë¶Ģì¡±íķľ": 5603,
  "Ġë¶Ģì§Ħ": 5960,
  "Ġë¶ĢìĤ°": 3121,
  "Ġë¶Ģìĥģ": 5411,
  "Ġë¶ĢìĥģìĿĦ": 7322,
  "Ġë¶ĢìĦľ": 7820,
  "Ġë¶ĢìĪĺ": 7866,
  "Ġë¶ĢìĹ¬": 3660,
  "Ġë¶Ģìłķ": 3429,
  "Ġë¶Ģíĥģ": 3681,
  "Ġë¶ĢíĦ°": 6307,
  "Ġë¶ĢíĴĪ": 7234,
  "Ġë¶Ģíķĺ": 3964,
  "Ġë¶ĢíĻľ": 3032,
  "Ġë¶ģ": 1523,
  "Ġë¶ģë¯¸": 6182,
  "Ġë¶ģíķľ": 3091,
  "Ġë¶Ħ": 850,
  "Ġë¶Ħë¥ĺ": 4205,
  "Ġë¶Ħë¦¬": 4804,
  "Ġë¶Ħëªħ": 3252,
  "Ġë¶ĦëªħíŀĪ": 7955,
  "Ġë¶Ħëħ¸": 3173,
  "Ġë¶ĦìĦĿ": 5063,
  "Ġë¶Ħìķ¼": 4801,
  "Ġë¶ĦìľĦ": 2569,
  "Ġë¶ĦìľĦê¸°": 6694,
  "Ġë¶ĦìľĦê¸°ê°Ģ": 7085,
  "Ġë¶ĦìľĦê¸°ë¥¼": 7061,
  "Ġë¶Ī": 650,
  "Ġë¶Īê°Ģ": 1914,
  "Ġë¶Īê°ĢëĬ¥": 2260,
  "Ġë¶Īê°ĢëĬ¥íķĺëĭ¤": 6205,
  "Ġë¶Īê°ĢëĬ¥íķľ": 7198,
  "Ġë¶Īê³¼": 4002,
  "Ġë¶Īêµ¬": 2599,
  "Ġë¶Īêµ¬íķĺê³ł": 2707,
  "Ġë¶Īê½ĥ": 6340,
  "Ġë¶Īë¦¬": 4102,
  "Ġë¶Īë¦¬ëĬĶ": 5294,
  "Ġë¶Īë¦°ëĭ¤": 7507,
  "Ġë¶Īëªħ": 5629,
  "Ġë¶Īë²ķ": 6739,
  "Ġë¶ĪëŁ¬": 3174,
  "Ġë¶ĪìķĪ": 3891,
  "Ġë¶ĪìĿĦ": 7470,
  "Ġë¶Īíİ¸": 5557,
  "Ġë¶īìĿĢ": 4185,
  "Ġë¶ķ": 4266,
  "Ġë¶ķê´´": 5544,
  "Ġë¶Ļ": 1457,
  "Ġë¶Ļìĸ´": 4250,
  "Ġë¶ĻìĹ¬": 5906,
  "Ġë¶ĻìĿĢ": 6832,
  "Ġë¶Ļìŀ¡": 5399,
  "Ġë¸": 915,
  "Ġë¸Į": 1304,
  "Ġë¸ĮëĿ¼": 3306,
  "Ġë¸ĮëĿ¼ì§Ī": 6643,
  "Ġë¸Įëŀľëĵľ": 7028,
  "Ġë¸ĮëłĪìĿ´": 5033,
  "Ġë¸Ķ": 1312,
  "Ġë¸Ķë¡Ŀ": 7205,
  "Ġë¸Ķë£¨": 4155,
  "Ġë¸ĶëŀĻ": 2947,
  "Ġë¸ĶëŁ¬": 7548,
  "Ġë¹": 682,
  "Ġë¹¡": 6834,
  "Ġë¹¨": 1975,
  "Ġë¹¨ê°Ħ": 6002,
  "Ġë¹¨ë¦¬": 3642,
  "Ġë¹µ": 6559,
  "Ġë¹¼": 2064,
  "Ġë¹¼ìķĹ": 4285,
  "Ġë¹Ħ": 531,
  "Ġë¹ĦêµĲ": 1978,
  "Ġë¹ĦêµĲìłģ": 4491,
  "Ġë¹Ħë¡¯": 3011,
  "Ġë¹Ħë¡¯íķľ": 4163,
  "Ġë¹Ħë¡Ŀ": 4820,
  "Ġë¹Ħë°Ģ": 3676,
  "Ġë¹ĦëĤľ": 4472,
  "Ġë¹ĦëĶĶìĺ¤": 7549,
  "Ġë¹Ħì¤ĳ": 3857,
  "Ġë¹Ħì¤ĳìĿ´": 6152,
  "Ġë¹Ħìĥģ": 7659,
  "Ġë¹ĦìĬ·": 1574,
  "Ġë¹ĦìĬ·íķĺê²Į": 5925,
  "Ġë¹ĦìĬ·íķĺëĭ¤": 6627,
  "Ġë¹ĦìĬ·íķľ": 2169,
  "Ġë¹Ħìĭ¸": 7252,
  "Ġë¹Ħìĭ¼": 7586,
  "Ġë¹Ħìļ©": 7020,
  "Ġë¹ĦíĮĲ": 2576,
  "Ġë¹Ħíķ´": 1957,
  "Ġë¹Ħíķĺë©´": 5537,
  "Ġë¹Ħíĸī": 3258,
  "Ġë¹ħ": 3308,
  "Ġë¹Ī": 2411,
  "Ġë¹Į": 2055,
  "Ġë¹Ķ": 5652,
  "Ġë¹Ĺ": 6515,
  "Ġë¹Ļ": 4233,
  "Ġë¹ļ": 6993,
  "Ġë¹Ľ": 2362,
  "Ġë¹ĽìĿĦ": 7743,
  "Ġë¹ł": 1190,
  "Ġë¹łë¥´": 6815,
  "Ġë¹łë¥´ê²Į": 3450,
  "Ġë¹łë¥¸": 3192,
  "Ġë¹łì§Ħ": 6160,
  "Ġë¹łìł¸": 3373,
  "Ġë¹łìł¸ëĤĺ": 7875,
  "Ġëº": 4087,
  "Ġëºı": 7019,
  "Ġë»": 2700,
  "Ġë»Ķ": 4063,
  "Ġë¼Ī": 6851,
  "Ġë½": 2022,
  "Ġë½ĳ": 2219,
  "Ġë½ĳìķĦ": 5406,
  "Ġë¿": 2701,
  "Ġë¿Į": 3695,
  "Ġë¿Ĳ": 1522,
  "Ġë¿Ĳë§Į": 4603,
  "Ġë¿ĲìĿ´ëĭ¤": 4565,
  "Ġëģ": 775,
  "Ġëģ¼": 2745,
  "ĠëģĪ": 7723,
  "ĠëģĬ": 2712,
  "ĠëģĮ": 2011,
  "ĠëģĮê³ł": 6723,
  "ĠëģĮëł¤": 6934,
  "ĠëģĮìĸ´": 3900,
  "ĠëģĶ": 6014,
  "ĠëģĿ": 1076,
  "ĠëģĿê¹Įì§Ģ": 4698,
  "ĠëģĿëĤ´": 4713,
  "ĠëģĿëĤĺ": 3100,
  "ĠëģĿëĤĺê³ł": 6427,
  "ĠëģĿëĤľ": 4816,
  "ĠëģĿìĹĲ": 3710,
  "ĠëĤ": 391,
  "ĠëĤ¨": 746,
  "ĠëĤ¨ê²¨": 6862,
  "ĠëĤ¨ìĦ±": 3769,
  "ĠëĤ¨ìķĦ": 2626,
  "ĠëĤ¨ìĿĢ": 3551,
  "ĠëĤ¨ìŀĲ": 2491,
  "ĠëĤ¨íİ¸": 4213,
  "ĠëĤ©": 3402,
  "ĠëĤ©ì¹ĺ": 5618,
  "ĠëĤ«": 4184,
  "ĠëĤ¬": 6618,
  "ĠëĤ®": 1611,
  "ĠëĤ®ìķĦ": 6304,
  "ĠëĤ®ìĿĢ": 2941,
  "ĠëĤ³": 5059,
  "ĠëĤ´": 554,
  "ĠëĤ´ê°Ģ": 2068,
  "ĠëĤ´ê²Į": 7641,
  "ĠëĤ´êµ¬": 6258,
  "ĠëĤ´ë¦¬": 7554,
  "ĠëĤ´ë³´": 7801,
  "ĠëĤ´ë¶Ģ": 5002,
  "ĠëĤ´ëĤ´": 5233,
  "ĠëĤ´ëĨĵ": 6826,
  "ĠëĤ´ëĬĶ": 6023,
  "ĠëĤ´ëł¤": 2153,
  "ĠëĤ´ì§Ģ": 7463,
  "ĠëĤ´ìĦ¸": 7212,
  "ĠëĤ´ìĹĲ": 5674,
  "ĠëĤ´ìĹĲìĦľ": 4259,
  "ĠëĤ´ìļ©": 1579,
  "ĠëĤ´ìļ©ìĿ´": 5177,
  "ĠëĤ´ìļ©ìĿĢ": 4222,
  "ĠëĤ´ìļ©ìĿĦ": 4777,
  "ĠëĤ´ìĿĺ": 7338,
  "ĠëĤ¸": 4791,
  "ĠëĤ¼": 6625,
  "ĠëĤĺ": 413,
  "ĠëĤĺê°Ģ": 2373,
  "ĠëĤĺê°ĢëĬĶ": 7129,
  "ĠëĤĺë": 4521,
  "ĠëĤĺë£¨": 6131,
  "ĠëĤĺë¥¼": 4450,
  "ĠëĤĺë¦Ħ": 3137,
  "ĠëĤĺë¦ĦëĮĢë¡ľ": 6589,
  "ĠëĤĺë¨¸": 2625,
  "ĠëĤĺë¨¸ì§Ģ": 3010,
  "ĠëĤĺë©´": 7804,
  "ĠëĤĺë¬´": 3294,
  "ĠëĤĺëĤĺ": 7359,
  "ĠëĤĺëĪ": 4533,
  "ĠëĤĺëĪĦ": 4373,
  "ĠëĤĺëĪł": 7186,
  "ĠëĤĺëīĺ": 6867,
  "ĠëĤĺëĬĶ": 1895,
  "ĠëĤĺëıĦ": 6277,
  "ĠëĤĺëĿ¼": 3543,
  "ĠëĤĺì¤ĳìĹĲ": 3442,
  "ĠëĤĺì¹´": 6887,
  "ĠëĤĺìģ": 2835,
  "ĠëĤĺìģĺ": 4370,
  "ĠëĤĺìģĺì§Ģ": 7406,
  "ĠëĤĺìģľ": 4997,
  "ĠëĤĺìĦľ": 3126,
  "ĠëĤĺìķĦ": 6863,
  "ĠëĤĺìķĦê°Ģ": 7449,
  "ĠëĤĺìĺ¤": 1046,
  "ĠëĤĺìĺ¤ê³ł": 4433,
  "ĠëĤĺìĺ¤ê¸°": 7810,
  "ĠëĤĺìĺ¤ëĬĶ": 1746,
  "ĠëĤĺìĺ¤ëĬĶëį°": 5421,
  "ĠëĤĺìĺ¤ì§Ģ": 4069,
  "ĠëĤĺìĺ¨": 1289,
  "ĠëĤĺìĺ¨ëĭ¤": 1875,
  "ĠëĤĺìĺ¬": 3307,
  "ĠëĤĺìĻĢ": 2462,
  "ĠëĤĺìĻĢìĦľ": 6494,
  "ĠëĤĺìĻĶ": 2655,
  "ĠëĤĺìĻĶëĭ¤": 2864,
  "ĠëĤĺìĿ´": 2860,
  "ĠëĤĺìĿ´ê°Ģ": 7646,
  "ĠëĤĺìĿ´íĬ¸": 4548,
  "ĠëĤĺìĿĺ": 4147,
  "ĠëĤĺíĥĢ": 1691,
  "ĠëĤĺíĥĢëĤĺ": 3367,
  "ĠëĤĺíĥĢëĤľ": 6764,
  "ĠëĤĺíĥĢëĤľëĭ¤": 7956,
  "ĠëĤĻ": 2754,
  "ĠëĤļ": 5678,
  "ĠëĤľ": 1144,
  "ĠëĤľëĭ¤": 7296,
  "ĠëĤľìĿ´": 2266,
  "ĠëĤľìĿ´ëıĦ": 4594,
  "ĠëĤľìĿ´ëıĦê°Ģ": 5385,
  "ĠëĤł": 1028,
  "ĠëĤłê°ľ": 7622,
  "ĠëĤłëł¤": 4457,
  "ĠëĤłìķĦ": 3500,
  "ĠëĤŃ": 5952,
  "Ġëĥ": 2087,
  "ĠëĥĦ": 7197,
  "Ġëĥī": 3527,
  "ĠëĦ": 566,
  "ĠëĦ£": 1783,
  "ĠëĦ£ê³ł": 7513,
  "ĠëĦ£ìĸ´": 6162,
  "ĠëĦ¤": 1225,
  "ĠëĦ¤ê°Ģ": 4973,
  "ĠëĦ¤ëįľ": 7721,
  "ĠëĦ¤ìĿ´": 4352,
  "ĠëĦ¤ìĿ´ë²Ħ": 6012,
  "ĠëĦ¥": 5306,
  "ĠëĦ·": 7311,
  "ĠëĦĪ": 1077,
  "ĠëĦĪë¬´": 1561,
  "ĠëĦĪë¬´ëĤĺ": 5686,
  "ĠëĦĪëĬĶ": 7895,
  "ĠëĦĪìĿĺ": 7151,
  "ĠëĦĪíĿ¬": 7366,
  "ĠëĦī": 7701,
  "ĠëĦĮ": 5829,
  "ĠëĦĲ": 3836,
  "ĠëĦĲë¦¬": 7725,
  "ĠëĦĵ": 3060,
  "ĠëĦĵìĿĢ": 6105,
  "ĠëĦĺ": 1204,
  "ĠëĦĺê²¨": 6644,
  "ĠëĦĺëĬĶ": 6074,
  "ĠëĦĺìĸ´": 2397,
  "ĠëĦĺìĸ´ê°Ģ": 4942,
  "Ġëħ": 599,
  "Ġëħ¸": 719,
  "Ġëħ¸ëıĻ": 4724,
  "Ġëħ¸ëŀĺ": 2041,
  "Ġëħ¸ëŀĺë¥¼": 5474,
  "Ġëħ¸ëł¥": 4121,
  "Ġëħ¸ì¶ľ": 5991,
  "Ġëħ¸ìĦł": 2697,
  "Ġëħ¸ìĺĪ": 6541,
  "Ġëħ¸íĬ¸": 5760,
  "Ġëħ¹": 2380,
  "Ġëħ¹ìĿĮ": 7358,
  "Ġëħ¼": 1699,
  "Ġëħ¼ëŀĢ": 2876,
  "Ġëħ¼ëŀĢìĿ´": 4659,
  "ĠëħĢ": 3875,
  "ĠëħĢìĦĿ": 4763,
  "ĠëħĦ": 4236,
  "ĠëĨ": 740,
  "ĠëĨĢ": 1970,
  "ĠëĨĢëĿ¼": 5377,
  "ĠëĨĪ": 3902,
  "ĠëĨį": 2074,
  "ĠëĨĴ": 998,
  "ĠëĨĴê³ł": 7748,
  "ĠëĨĴëĭ¤": 3023,
  "ĠëĨĴìķĦ": 3684,
  "ĠëĨĴìĿ´": 7332,
  "ĠëĨĴìĿĢ": 1666,
  "ĠëĨĵ": 1890,
  "ĠëĨĵê³ł": 5090,
  "ĠëĩĮ": 3784,
  "ĠëĪ": 822,
  "ĠëĪĦ": 1231,
  "ĠëĪĦê°Ģ": 4464,
  "ĠëĪĦêµ¬": 2855,
  "ĠëĪĦêµ°": 4028,
  "ĠëĪĪ": 1178,
  "ĠëĪĪë¬¼ìĿĦ": 7517,
  "ĠëĪĪì¹ĺ": 5296,
  "ĠëĪĪìĹĲ": 4246,
  "ĠëĪĪìĿ´": 5447,
  "ĠëĪĪìĿĦ": 4237,
  "ĠëĪĮ": 6191,
  "ĠëĪĮëŁ¬": 7717,
  "Ġëī´": 2025,
  "Ġëī´ìĬ¤": 6163,
  "Ġëī´ìļķ": 6259,
  "ĠëĬ": 671,
  "ĠëĬ¥": 1217,
  "ĠëĬ¥ëł¥": 1706,
  "ĠëĬ¥ëł¥ìĿ´": 3925,
  "ĠëĬ¥ëł¥ìĿĢ": 6823,
  "ĠëĬ¥ëł¥ìĿĦ": 3143,
  "ĠëĬ¦": 3525,
  "ĠëĬĲ": 1259,
  "ĠëĬĲê»´": 4223,
  "ĠëĬĲëģ¼": 3378,
  "ĠëĬĲëĤ": 2134,
  "ĠëĬĲëĤĦ": 7390,
  "ĠëĬĲëĤĮ": 2714,
  "ĠëĬĲëĤĮìĿ´": 6321,
  "ĠëĬĳ": 6146,
  "ĠëĬĶ": 2015,
  "ĠëĬĺ": 1657,
  "ĠëĬĺìĸ´": 4240,
  "ĠëĬĺìĸ´ëĤĺ": 4967,
  "Ġëĭ": 335,
  "Ġëĭ¤": 404,
  "Ġëĭ¤ê°Ģ": 4918,
  "Ġëĭ¤ë£¨": 3732,
  "Ġëĭ¤ë£¨ëĬĶ": 6994,
  "Ġëĭ¤ë£¬": 7125,
  "Ġëĭ¤ë¥´": 2521,
  "Ġëĭ¤ë¥´ê²Į": 3075,
  "Ġëĭ¤ë¥´ëĭ¤": 4098,
  "Ġëĭ¤ë¥¸": 852,
  "Ġëĭ¤ë¥¼": 6956,
  "Ġëĭ¤ë¦¬": 6962,
  "Ġëĭ¤ë¦Ħ": 4623,
  "Ġëĭ¤ë§Į": 1194,
  "Ġëĭ¤ëĭĪ": 2926,
  "Ġëĭ¤ëĭĪëĬĶ": 5813,
  "Ġëĭ¤ëĵ¤": 6791,
  "Ġëĭ¤ìĦ¯": 6518,
  "Ġëĭ¤ìĨĮ": 3683,
  "Ġëĭ¤ìĪĺ": 6325,
  "Ġëĭ¤ìĪĺìĿĺ": 7735,
  "Ġëĭ¤ìĭľ": 1084,
  "Ġëĭ¤ìĸĳ": 2446,
  "Ġëĭ¤ìĸĳíķľ": 2929,
  "Ġëĭ¤ìļ´": 4417,
  "Ġëĭ¤ìĿ´": 2659,
  "Ġëĭ¤ìĿ´ìķĦ": 7793,
  "Ġëĭ¤ìĿĮ": 1335,
  "Ġëĭ¤ìĿĮê³¼": 3965,
  "Ġëĭ¤ìĿĮëĤł": 7451,
  "Ġëĭ¤ìĿĮìĹĲ": 7788,
  "Ġëĭ¤íģ¬": 3758,
  "Ġëĭ¤íĸī": 3654,
  "Ġëĭ¤íĸīíŀĪ": 5280,
  "Ġëĭ¥": 3923,
  "Ġëĭ¥íĦ°": 6658,
  "Ġëĭ¨": 736,
  "Ġëĭ¨ê³Ħ": 7120,
  "Ġëĭ¨ëĭ¨": 7970,
  "Ġëĭ¨ëıħ": 5254,
  "Ġëĭ¨ì§Ģ": 5695,
  "Ġëĭ¨ì²´": 6435,
  "Ġëĭ¨ìĪľ": 2488,
  "Ġëĭ¨ìĪľíķľ": 6284,
  "Ġëĭ¨ìĪľíŀĪ": 4173,
  "Ġëĭ¨ìĸ´": 6502,
  "Ġëĭ¨ìĿ¼": 6121,
  "Ġëĭ¨ìłĲ": 5708,
  "Ġëĭ«": 7421,
  "Ġëĭ¬": 809,
  "Ġëĭ¬ê³ł": 7029,
  "Ġëĭ¬ë¦¬": 1548,
  "Ġëĭ¬ë¦°": 6497,
  "Ġëĭ¬ëĿ¼": 3383,
  "Ġëĭ¬ëŁ¬": 7966,
  "Ġëĭ¬ëł¤": 3127,
  "Ġëĭ¬ìĦ±": 3187,
  "Ġëĭ¬ìķĦ": 6221,
  "Ġëĭ®": 4384,
  "Ġëĭ´": 1535,
  "Ġëĭ´ëĭ¹": 2509,
  "Ġëĭµ": 2455,
  "Ġëĭ¹": 663,
  "Ġëĭ¹ìĦł": 6666,
  "Ġëĭ¹ìĭľ": 1135,
  "Ġëĭ¹ìĭľìĹĲëĬĶ": 5195,
  "Ġëĭ¹ìĭľìĿĺ": 5786,
  "Ġëĭ¹ìĭł": 2559,
  "Ġëĭ¹ìĭłìĿ´": 7524,
  "Ġëĭ¹ìĹ°": 1936,
  "Ġëĭ¹ìĹ°íķľ": 7873,
  "Ġëĭ¹ìĹ°íŀĪ": 2568,
  "Ġëĭ¹ìŀ¥": 4513,
  "Ġëĭ¹íķ´": 7217,
  "Ġëĭ¹íķĺëĬĶ": 7987,
  "Ġëĭ¹íķľ": 5879,
  "Ġëĭ¹íĻ©": 5035,
  "Ġëĭ¿": 5545,
  "ĠëĭĪ": 1889,
  "Ġëĭī": 6629,
  "ĠëĭĮ": 4671,
  "ĠëĮ": 2666,
  "ĠëĮĢ": 388,
  "ĠëĮĢê°ľ": 7411,
  "ĠëĮĢê²°": 4187,
  "ĠëĮĢê³µ": 5506,
  "ĠëĮĢêµ¬": 4019,
  "ĠëĮĢê·ľëª¨": 6820,
  "ĠëĮĢê¸°": 3832,
  "ĠëĮĢë¡ľ": 5212,
  "ĠëĮĢë¥Ļ": 6096,
  "ĠëĮĢë¦½": 6213,
  "ĠëĮĢë§Į": 7262,
  "ĠëĮĢë¯¸": 3001,
  "ĠëĮĢë¯¸ì§Ģ": 7468,
  "ĠëĮĢë¯¸ì§Ģë¥¼": 7368,
  "ĠëĮĢë¶Ģë¶Ħ": 1515,
  "ĠëĮĢë¶Ģë¶ĦìĿ´": 6661,
  "ĠëĮĢë¶Ģë¶ĦìĿĺ": 2975,
  "ĠëĮĢë¹Ħ": 4299,
  "ĠëĮĢëĨĵê³ł": 4649,
  "ĠëĮĢëĭ¤": 5122,
  "ĠëĮĢëĭ¨": 4104,
  "ĠëĮĢëĭµ": 3914,
  "ĠëĮĢëŀµ": 6711,
  "ĠëĮĢì¤ĳ": 4128,
  "ĠëĮĢì²´": 2477,
  "ĠëĮĢì²´ë¡ľ": 6022,
  "ĠëĮĢì²ĺ": 6635,
  "ĠëĮĢì¶©": 6908,
  "ĠëĮĢìĤ¬": 3613,
  "ĠëĮĢìĤ¬ê°Ģ": 7921,
  "ĠëĮĢìĤ¬ë¥¼": 7255,
  "ĠëĮĢìĥģ": 3939,
  "ĠëĮĢìĥģìľ¼ë¡ľ": 6378,
  "ĠëĮĢìĥģìĿ´": 6946,
  "ĠëĮĢìĭł": 1619,
  "ĠëĮĢìĿĳ": 4070,
  "ĠëĮĢìŀ¥": 5926,
  "ĠëĮĢìłĦ": 3134,
  "ĠëĮĢíĨµëł¹": 2579,
  "ĠëĮĢíıŃ": 6379,
  "ĠëĮĢíĳľ": 1737,
  "ĠëĮĢíĳľìłģìľ¼ë¡ľ": 7279,
  "ĠëĮĢíĳľìłģìĿ¸": 4377,
  "ĠëĮĢíķ´": 1618,
  "ĠëĮĢíķ´ìĦľ": 2513,
  "ĠëĮĢíķ´ìĦľëĬĶ": 4416,
  "ĠëĮĢíķĺìĹ¬": 6715,
  "ĠëĮĢíķĻ": 2526,
  "ĠëĮĢíķĻêµĲ": 6681,
  "ĠëĮĢíķľ": 957,
  "ĠëĮĢíķľë¯¼": 2188,
  "ĠëĮĢíķľë¯¼êµŃ": 2891,
  "ĠëĮĢíķľë¯¼êµŃìĿĺ": 4332,
  "ĠëĮĢíķŃ": 7318,
  "ĠëĮĢíĺķ": 4124,
  "ĠëĮĢíĻĶ": 4167,
  "ĠëĮĢíĻĶë¥¼": 6598,
  "ĠëĮĢíļĮ": 2780,
  "ĠëĮĦ": 4929,
  "ĠëĮĵ": 4796,
  "ĠëĮĵê¸Ģ": 6006,
  "Ġëį": 459,
  "Ġëį¤": 3056,
  "Ġëį§": 5942,
  "Ġëį§ë¶Ļ": 7823,
  "Ġëį©": 4965,
  "Ġëį®": 5543,
  "Ġëį°": 808,
  "Ġëį°ë¦¬ê³ł": 5540,
  "Ġëį°ë¯¸": 2009,
  "Ġëį°ë¯¸ì§Ģ": 4780,
  "Ġëį°ë¯¸ì§Ģê°Ģ": 5841,
  "Ġëį°ë¯¸ì§Ģë¥¼": 4526,
  "Ġëį°ë·Ķ": 2808,
  "Ġëį°ëĭ¤ê°Ģ": 7504,
  "Ġëį°ëł¤": 4156,
  "Ġëį°ìĬ¤": 5454,
  "Ġëį°ìĿ´": 5044,
  "Ġëį°ìĿ´íĦ°": 4344,
  "Ġëį±": 3099,
  "Ġëį´": 5785,
  "Ġëį¸": 7034,
  "ĠëįĶ": 662,
  "ĠëįĶë¶Ī": 3088,
  "ĠëįĶë¶Īìĸ´": 3190,
  "ĠëįĶë¸Ķ": 4720,
  "ĠëįĶë¹Ļ": 6601,
  "ĠëįĶëįĶ": 6970,
  "ĠëįĶëįĶìļ±": 7054,
  "ĠëįĶìļ±": 2344,
  "Ġëįķ": 1679,
  "Ġëįķë¶ĦìĹĲ": 2377,
  "ĠëįķìĹĲ": 5435,
  "Ġëįĺ": 1846,
  "Ġëįĺìł¸": 6264,
  "ĠëįĺìłĦ": 5727,
  "Ġëįľ": 4331,
  "Ġëı": 390,
  "Ġëı¼": 3243,
  "ĠëıĦ": 594,
  "ĠëıĦë¡ľ": 4783,
  "ĠëıĦë§Ŀ": 2804,
  "ĠëıĦë°ľ": 7939,
  "ĠëıĦëĭ¬": 6151,
  "ĠëıĦì¤ĳ": 3866,
  "ĠëıĦì¤ĳìĹĲ": 6579,
  "ĠëıĦì°©": 3657,
  "ĠëıĦì¿Ħ": 4543,
  "ĠëıĦìĦľ": 6678,
  "ĠëıĦìĭľ": 2210,
  "ĠëıĦìĻĢ": 3785,
  "ĠëıĦìĽĢ": 6527,
  "ĠëıĦìĽĢìĿ´": 4725,
  "ĠëıĦìĽĢìĿĦ": 4544,
  "ĠëıĦìŀħ": 3638,
  "ĠëıĦìłĦ": 3993,
  "Ġëıħ": 1108,
  "Ġëıħë¦½": 3098,
  "ĠëıħìĿ¼": 2288,
  "ĠëıħìŀĲ": 7073,
  "ĠëıħíĬ¹": 7325,
  "ĠëıĪ": 1792,
  "ĠëıĪìĿ´": 7050,
  "ĠëıĪìĿĦ": 3607,
  "Ġëıĭ": 7838,
  "ĠëıĮ": 900,
  "ĠëıĮê²©": 5803,
  "ĠëıĮëł¤": 4346,
  "ĠëıĮì§Ħ": 5957,
  "ĠëıĮìķĦ": 1328,
  "ĠëıĮìķĦê°Ģ": 3388,
  "ĠëıĮìķĦìĺ¤": 5644,
  "ĠëıĮìķĦìĺ¨": 6324,
  "ĠëıĮíĮĮ": 5693,
  "Ġëıķ": 6546,
  "ĠëıĻ": 587,
  "ĠëıĻë£Į": 2805,
  "ĠëıĻë§¹": 5469,
  "ĠëıĻë¬¼": 3910,
  "ĠëıĻë°©": 7874,
  "ĠëıĻëĦ¤": 6178,
  "ĠëıĻìĥĿ": 3718,
  "ĠëıĻìĭľ": 6702,
  "ĠëıĻìĭľìĹĲ": 2179,
  "ĠëıĻìķĦ": 5768,
  "ĠëıĻìķĪ": 1844,
  "ĠëıĻìĺģ": 6419,
  "ĠëıĻìĽĲ": 6111,
  "ĠëıĻìĿ¼": 2319,
  "ĠëıĻìĿ¼íķľ": 5163,
  "ĠëĲ": 422,
  "ĠëĲĲ": 4408,
  "ĠëĲĲëĭ¤": 5344,
  "ĠëĲĺ": 526,
  "ĠëĲĺê³ł": 2071,
  "ĠëĲĺê¸°": 4629,
  "ĠëĲĺë©°": 4802,
  "ĠëĲĺë©´": 2761,
  "ĠëĲĺë©´ìĦľ": 4267,
  "ĠëĲĺëĬĶ": 1509,
  "ĠëĲĺëĬĶëį°": 3805,
  "ĠëĲĺëıĮ": 5806,
  "ĠëĲĺì§Ģ": 2868,
  "ĠëĲĺì§Ģë§Į": 6651,
  "ĠëĲĺì°¾": 6147,
  "ĠëĲĺìĸ´": 1404,
  "ĠëĲĺìĸ´ìĦľ": 6616,
  "ĠëĲĺìĹĪ": 1697,
  "ĠëĲĺìĹĪê³ł": 3502,
  "ĠëĲĺìĹĪëĬĶëį°": 7637,
  "ĠëĲĺìĹĪëĭ¤": 1111,
  "ĠëĲĺìĹĪëĭ¤ê³ł": 7196,
  "ĠëĲĺìĹĪìľ¼ë©°": 7753,
  "ĠëĲĺìŀĲ": 5563,
  "ĠëĲľ": 712,
  "ĠëĲľëĭ¤": 887,
  "ĠëĲľëĭ¤ê³ł": 7403,
  "ĠëĲľëĭ¤ëĬĶ": 5765,
  "ĠëĲł": 1577,
  "Ġëĳ": 1256,
  "Ġëĳ¥": 6712,
  "ĠëĳĲ": 824,
  "ĠëĳĲê³ł": 3068,
  "ĠëĳĲë²Īì§¸": 5579,
  "ĠëĳĲëł¤": 5275,
  "ĠëĳĲìĤ°": 6240,
  "ĠëĳĶ": 4742,
  "Ġëĳĺ": 1460,
  "ĠëĳĺëŁ¬": 5558,
  "Ġëĳĺì§¸": 6746,
  "ĠëĳĺìĿ´": 5149,
  "ĠëĳĺìĿĢ": 7916,
  "ĠëĴ": 905,
  "ĠëĴ¤": 968,
  "ĠëĴ¤ë¡ľ": 4733,
  "ĠëĴ¤ë¥¼": 6229,
  "ĠëĴ¤ì§ĳ": 5161,
  "ĠëĴ¤ìĹĲ": 3312,
  "ĠëĴ¤ìĹĲìĦľ": 7530,
  "ĠëĴ·": 3043,
  "Ġëĵ": 383,
  "Ġëĵ£": 1904,
  "Ġëĵ£ê³ł": 3362,
  "Ġëĵ¤": 687,
  "Ġëĵ¤ê³ł": 2782,
  "Ġëĵ¤ë©´": 7560,
  "Ġëĵ¤ëł¤": 6933,
  "Ġëĵ¤ìĸ´": 924,
  "Ġëĵ¤ìĸ´ê°Ģ": 2137,
  "Ġëĵ¤ìĸ´ê°ĢëĬĶ": 5323,
  "Ġëĵ¤ìĸ´ê°Ħ": 5404,
  "Ġëĵ¤ìĸ´ê°Ħëĭ¤": 6983,
  "Ġëĵ¤ìĸ´ê°Ī": 7175,
  "Ġëĵ¤ìĸ´ìĦľ": 5321,
  "Ġëĵ¤ìĸ´ìĺ¤": 5135,
  "Ġëĵ¤ìĸ´ìĺ¨": 7487,
  "Ġëĵ¤ìĹ¬": 7632,
  "Ġëĵ¤ìĹĪëĭ¤": 7301,
  "Ġëĵ¤ìĿ´": 6314,
  "Ġëĵ¤ìĿĢ": 5857,
  "Ġëĵ¤ìĿĦ": 6833,
  "Ġëĵ¯": 1232,
  "Ġëĵ¯íķĺëĭ¤": 3690,
  "Ġëĵ¯íķľ": 3844,
  "Ġëĵ±": 522,
  "Ġëĵ±ê³¼": 6965,
  "Ġëĵ±ê¸ī": 4509,
  "Ġëĵ±ë¡Ŀ": 5027,
  "Ġëĵ±ëĵ±": 5068,
  "Ġëĵ±ìĹĲ": 4238,
  "Ġëĵ±ìĹĲìĦľ": 6346,
  "Ġëĵ±ìľ¼ë¡ľ": 3321,
  "Ġëĵ±ìĿ´": 2436,
  "Ġëĵ±ìĿĢ": 6622,
  "Ġëĵ±ìĿĦ": 2130,
  "Ġëĵ±ìĿĺ": 1757,
  "Ġëĵ±ìŀ¥": 918,
  "Ġëĵ±ìŀ¥ìĿ¸ë¬¼": 3623,
  "Ġëĵ±ìŀ¥íķĺëĬĶ": 2592,
  "Ġëĵ±ìŀ¥íķľ": 3563,
  "Ġëĵ±ìŀ¥íķľëĭ¤": 2778,
  "Ġëĵ±ìŀ¥íĸĪëĭ¤": 6200,
  "Ġëĵ±íĮĲ": 6226,
  "ĠëĵĢ": 2949,
  "ĠëĵĢìĸ¼": 5215,
  "Ġëĵľ": 846,
  "Ġëĵľë¦½": 5738,
  "Ġëĵľë¬¼": 6194,
  "ĠëĵľëĬĶ": 7381,
  "ĠëĵľëĶĶìĸ´": 5536,
  "ĠëĵľëĿ¼ë§Ī": 2739,
  "ĠëĵľëĿ¼ìĿ´": 5123,
  "Ġëĵľëŀį": 6179,
  "Ġëĵľëŀĺ": 2283,
  "Ġëĵľëŀĺê³¤": 2619,
  "ĠëĵľëŁ¬": 2162,
  "ĠëĵľëŁ¬ëĤĺ": 6966,
  "ĠëĵĿ": 3421,
  "ĠëĵĿìłĲ": 6444,
  "Ġëĵł": 4034,
  "ĠëĶ": 550,
  "ĠëĶ°": 765,
  "ĠëĶ°ë¡ľ": 3204,
  "ĠëĶ°ë¥´ë©´": 2693,
  "ĠëĶ°ë¥¸": 4814,
  "ĠëĶ°ëĿ¼": 1085,
  "ĠëĶ°ëĿ¼ìĦľ": 2277,
  "ĠëĶ±": 2468,
  "ĠëĶ±íŀĪ": 4477,
  "ĠëĶ¸": 2372,
  "ĠëĶĶ": 1123,
  "ĠëĶĶë²Ħ": 7443,
  "ĠëĶĶì§Ģ": 4657,
  "ĠëĶĶì§ĢíĦ¸": 7546,
  "ĠëĶĶìĬ¤": 5825,
  "ĠëĶĶìŀĲ": 4372,
  "ĠëĶĶìŀĲìĿ¸": 4079,
  "ĠëĶľ": 2171,
  "ĠëĶľëŁ¬": 6384,
  "Ġëķ": 1948,
  "Ġëķħ": 2504,
  "ĠëķĮ": 450,
  "ĠëķĮê°Ģ": 5816,
  "ĠëķĮê¹Įì§Ģ": 4142,
  "ĠëķĮë§Īëĭ¤": 3571,
  "ĠëķĮë¬¸": 592,
  "ĠëķĮë¬¸ìĹĲ": 704,
  "ĠëķĮë¬¸ìĿ´ëĭ¤": 1808,
  "ĠëķĮë¬¸ìĿ¸ì§Ģ": 5499,
  "ĠëķĮë¶ĢíĦ°": 4971,
  "ĠëķĮëĬĶ": 2212,
  "ĠëķĮëıĦ": 3961,
  "ĠëķĮëł¤": 5387,
  "ĠëķĮìĹĲëĬĶ": 5683,
  "ĠëķĮìĿĺ": 4681,
  "ĠëķĲ": 7068,
  "Ġëĸ": 914,
  "Ġëĸ¡": 3862,
  "Ġëĸ¡ë°¥": 5881,
  "Ġëĸ¨": 4738,
  "Ġëĸ¨ìĸ´": 1450,
  "Ġëĸ¨ìĸ´ì§ĢëĬĶ": 4936,
  "Ġëĸ¨ìĸ´ì§Ħ": 4900,
  "Ġëĸ¨ìĸ´ì§Ħëĭ¤": 7570,
  "Ġëĸ¨ìĸ´ìł¸": 4920,
  "Ġëĸ¼": 5186,
  "Ġëĸł": 1502,
  "ĠëĸłëĤĺ": 3699,
  "Ġëĸłìĺ¤": 7605,
  "Ġëĸłìĺ¬": 5043,
  "Ġëĺ": 727,
  "ĠëĺĲ": 778,
  "ĠëĺĲëĬĶ": 2234,
  "ĠëĺĲíķľ": 1092,
  "Ġëĺĳ": 2602,
  "Ġëĺĳê°Ļ": 6929,
  "Ġëĺĳê°ĻìĿ´": 5955,
  "Ġëĺĳê°ĻìĿĢ": 5866,
  "Ġëļ": 2704,
  "Ġëļ«": 4061,
  "Ġëļľ": 6795,
  "ĠëĽ°": 1670,
  "ĠëĽ°ìĸ´": 4033,
  "ĠëĽ°ìĸ´ëĤĺ": 5622,
  "ĠëĽ°ìĸ´ëĤľ": 3737,
  "Ġëľ": 1361,
  "Ġëľ¨": 3347,
  "Ġëľ¬": 4375,
  "Ġëľ¬ê¸Ī": 7897,
  "Ġëľ¯": 7157,
  "Ġëľ»": 1962,
  "Ġëľ»ìĿĦ": 7891,
  "ĠëĿ": 2849,
  "ĠëĿ¼": 643,
  "ĠëĿ¼ê³ł": 1500,
  "ĠëĿ¼ë©°": 4775,
  "ĠëĿ¼ëĬĶ": 1581,
  "ĠëĿ¼ëĶĶìĺ¤": 5237,
  "ĠëĿ¼ìĿ´": 1501,
  "ĠëĿ¼ìĿ´ë²Į": 5642,
  "ĠëĿ¼ìĿ´ë¸Į": 3854,
  "ĠëĿ¼ìĿ´ëįĶ": 6940,
  "ĠëĿ¼ìĿ´íĬ¸": 5241,
  "ĠëĿ¼ìĿ¸": 2904,
  "ĠëĿ½": 6490,
  "ĠëĿĦ": 3507,
  "Ġëŀ": 1344,
  "Ġëŀ©": 6087,
  "ĠëŀĢ": 4117,
  "Ġëŀĺ": 5462,
  "Ġëŀľ": 3053,
  "Ġëŀľëį¤": 5560,
  "ĠëŀŃ": 3673,
  "ĠëŀŃíģ¬": 7189,
  "ĠëŁ": 1559,
  "ĠëŁ¬": 1887,
  "ĠëŁ¬ë¸Į": 6493,
  "ĠëŁ¬ìĭľìķĦ": 2915,
  "ĠëŁ°": 4255,
  "Ġëł": 754,
  "ĠëłĪ": 796,
  "ĠëłĪë²¨": 1987,
  "ĠëłĪë²¨ìĿ´": 7610,
  "ĠëłĪëĵľ": 4404,
  "ĠëłĪìĺ¤": 7070,
  "ĠëłĪìĿ´": 1642,
  "ĠëłĪìĿ´ìłĢ": 5130,
  "ĠëłĪìĿ¸": 6177,
  "ĠëłĪìłĦ": 5265,
  "ĠëłĪìłĦëĵľ": 6914,
  "ĠëłĮ": 4927,
  "ĠëŃ": 1539,
  "ĠëŃī": 7136,
  "ĠëŃĲ": 2270,
  "ĠëŃĶ": 3360,
  "ĠëŃĶê°Ģ": 4701,
  "ĠëŃĺ": 6913,
  "Ġì": 261,
  "Ġì¡": 932,
  "Ġì¡°": 572,
  "Ġì¡°ê°ģ": 6003,
  "Ġì¡°ê±´": 2721,
  "Ġì¡°ê¸Ī": 1801,
  "Ġì¡°ê¸ĪìĶ©": 5865,
  "Ġì¡°ì¢ħ": 3742,
  "Ġì¡°ì¤Ģ": 5667,
  "Ġì¡°ì§Ģ": 7852,
  "Ġì¡°ì§ģ": 2950,
  "Ġì¡°ìĤ¬": 4030,
  "Ġì¡°ìĦ±": 7382,
  "Ġì¡°ìĦł": 2589,
  "Ġì¡°ìĭ¬": 5766,
  "Ġì¡°ìļ©": 6110,
  "Ġì¡°ìŀĳ": 4204,
  "Ġì¡°ìłĪ": 6410,
  "Ġì¡°ìłķ": 5561,
  "Ġì¡°íķ©": 2800,
  "Ġì¡±": 6368,
  "Ġì¡´": 1061,
  "Ġì¡´ìŀ¬": 1243,
  "Ġì¡´ìŀ¬íķĺëĬĶ": 5478,
  "Ġì¡´ìŀ¬íķĺì§Ģ": 6772,
  "Ġì¡´ìŀ¬íķľëĭ¤": 3471,
  "Ġì¡¸": 2582,
  "Ġì¡¸ìĹħ": 3448,
  "Ġì¢": 540,
  "Ġì¢Ģ": 1464,
  "Ġì¢Ģë¹Ħ": 4516,
  "Ġì¢ģ": 4566,
  "Ġì¢ħ": 1022,
  "Ġì¢ħêµĲ": 4055,
  "Ġì¢ħë£Į": 3123,
  "Ġì¢ħë¥ĺ": 3790,
  "Ġì¢ħì¡±": 3972,
  "Ġì¢ħì¢ħ": 3810,
  "Ġì¢ħíķ©": 5357,
  "Ġì¢ĭ": 756,
  "Ġì¢ĭê²Į": 7438,
  "Ġì¢ĭê³ł": 7726,
  "Ġì¢ĭëĭ¤": 2062,
  "Ġì¢ĭì§Ģ": 3046,
  "Ġì¢ĭìķĦ": 1650,
  "Ġì¢ĭìķĦíķĺëĬĶ": 3581,
  "Ġì¢ĭìĿĢ": 1423,
  "Ġì¢ĭìĿĦ": 7132,
  "Ġì¢Į": 2292,
  "Ġì¢Įìļ°": 7312,
  "Ġì£": 816,
  "Ġì£¼": 482,
  "Ġì£¼ê³ł": 3750,
  "Ġì£¼ê¸°": 7159,
  "Ġì£¼ë¡ľ": 2014,
  "Ġì£¼ë¨¹": 6116,
  "Ġì£¼ëª©": 5837,
  "Ġì£¼ë¬¸": 4730,
  "Ġì£¼ë¯¼": 3865,
  "Ġì£¼ë³Ģ": 2296,
  "Ġì£¼ë³ĢìĹĲ": 6836,
  "Ġì£¼ëĬĶ": 2663,
  "Ġì£¼ëıĦ": 5495,
  "Ġì£¼ëł¥": 5521,
  "Ġì£¼ì§Ģ": 5963,
  "Ġì£¼ìĸ´": 5617,
  "Ġì£¼ìĹ°": 7860,
  "Ġì£¼ìĹĪëĭ¤": 7188,
  "Ġì£¼ìļĶ": 3145,
  "Ġì£¼ìĿ¸": 1465,
  "Ġì£¼ìĿ¸ê³µ": 1605,
  "Ġì£¼ìĿ¸ê³µìĿ´": 5639,
  "Ġì£¼ìĿ¸ê³µìĿĺ": 7756,
  "Ġì£¼ìĿĺ": 2570,
  "Ġì£¼ìŀ¥": 2268,
  "Ġì£¼ìłĦ": 7106,
  "Ġì£½": 899,
  "Ġì£½ê³ł": 7644,
  "Ġì£½ëĬĶ": 5910,
  "Ġì£½ìĸ´": 7473,
  "Ġì£½ìĹ¬": 6089,
  "Ġì£½ìĿ´": 5138,
  "Ġì£½ìĿ¸": 7432,
  "Ġì£½ìĿ¼": 7490,
  "Ġì£½ìĿĢ": 3492,
  "Ġì£½ìĿĦ": 4406,
  "Ġì£½ìĿĮ": 3590,
  "Ġì£½ìĿĮìĿĦ": 6939,
  "Ġì£½ìĿĮìĿĺ": 7846,
  "Ġì£Ħ": 2698,
  "Ġì£Ħëĭ¤": 7297,
  "Ġì£ł": 4845,
  "Ġì¤": 855,
  "Ġì¤¬": 7904,
  "Ġì¤Ģ": 1297,
  "Ġì¤Ģë¹Ħ": 2907,
  "Ġì¤Ģëĭ¤": 3588,
  "Ġì¤Ģìļ°": 7711,
  "Ġì¤Ħ": 1276,
  "Ġì¤Ħìĸ´": 6608,
  "Ġì¤Ħìĸ´ëĵ¤": 4968,
  "Ġì¤ĳ": 495,
  "Ġì¤ĳê°Ħ": 3821,
  "Ġì¤ĳê°ĦìĹĲ": 5222,
  "Ġì¤ĳê³Ħ": 7544,
  "Ġì¤ĳêµŃ": 1674,
  "Ġì¤ĳêµŃìĿĺ": 7105,
  "Ġì¤ĳë°ĺ": 3890,
  "Ġì¤ĳëĭ¨": 5066,
  "Ġì¤ĳìĭ¬": 2540,
  "Ġì¤ĳìĭ¬ìľ¼ë¡ľ": 4454,
  "Ġì¤ĳìķĻ": 2887,
  "Ġì¤ĳìĹĲ": 2970,
  "Ġì¤ĳìĹĲëĬĶ": 6690,
  "Ġì¤ĳìĹĲìĦľ": 3488,
  "Ġì¤ĳìĹĲìĦľëĬĶ": 6846,
  "Ġì¤ĳìĹĲìĦľëıĦ": 4961,
  "Ġì¤ĳìļĶ": 1865,
  "Ġì¤ĳìļĶíķľ": 2756,
  "Ġì¤ĳìĿ´ëĭ¤": 4894,
  "Ġì¤ĳìĿ¸": 6294,
  "Ġì¤ĳíķĻêµĲ": 7137,
  "Ġì¤ĳíĻĶ": 6950,
  "Ġì¤ĺ": 6954,
  "Ġì¥": 2740,
  "Ġì¥¬": 5086,
  "Ġì¥Ĳ": 4640,
  "Ġì¦": 831,
  "Ġì¦Ī": 7031,
  "Ġì¦ī": 1434,
  "Ġì¦īìĭľ": 5772,
  "Ġì¦Ĳ": 2606,
  "Ġì¦Ŀ": 1186,
  "Ġì¦Ŀê°Ģ": 1860,
  "Ġì¦Ŀê±°": 5118,
  "Ġì¦Ŀëªħ": 5840,
  "Ġì§": 351,
  "Ġì§¤": 6097,
  "Ġì§§": 2773,
  "Ġì§§ìĿĢ": 4686,
  "Ġì§Ģ": 431,
  "Ġì§Ģêµ¬": 2845,
  "Ġì§Ģê¸Ī": 1486,
  "Ġì§Ģê¸Īê¹Įì§Ģ": 4811,
  "Ġì§Ģê¸ĪëıĦ": 6482,
  "Ġì§Ģê¸ĪìĿĢ": 3985,
  "Ġì§Ģê¸ĪìĿĺ": 6857,
  "Ġì§Ģê¸ī": 4947,
  "Ġì§Ģëªħ": 6176,
  "Ġì§Ģë°©": 3238,
  "Ġì§Ģë°°": 3767,
  "Ġì§ĢëĤ´": 7269,
  "Ġì§ĢëĤĺ": 1793,
  "Ġì§ĢëĤĺì¹ĺê²Į": 6254,
  "Ġì§ĢëĤľ": 3153,
  "Ġì§ĢëĬ¥": 7884,
  "Ġì§ĢëĭĪ": 4667,
  "Ġì§ĢëĭĪê³ł": 6442,
  "Ġì§ĢëĭĮ": 4717,
  "Ġì§ĢëıĦ": 3807,
  "Ġì§Ģì§Ģ": 3716,
  "Ġì§Ģì¼ľ": 3291,
  "Ġì§Ģìĥģ": 4000,
  "Ġì§ĢìĨį": 2523,
  "Ġì§ĢìĨįìłģìľ¼ë¡ľ": 6455,
  "Ġì§ĢìĭĿ": 7615,
  "Ġì§Ģìĸ´": 7612,
  "Ġì§ĢìĹŃ": 1498,
  "Ġì§ĢìĹŃìĹĲ": 7365,
  "Ġì§ĢìĹŃìĿĺ": 6894,
  "Ġì§Ģìĺ¥": 5080,
  "Ġì§ĢìĽĲ": 1915,
  "Ġì§ĢìĽĲìĿĦ": 7837,
  "Ġì§Ģìłģ": 4455,
  "Ġì§Ģìłķ": 4467,
  "Ġì§ĢíĤ¤": 3954,
  "Ġì§Ģíķĺ": 3107,
  "Ġì§Ģíķĺì²ł": 6762,
  "Ġì§Ģíľĺ": 3424,
  "Ġì§ģ": 954,
  "Ġì§ģìĹħ": 3598,
  "Ġì§ģìĽĲ": 6942,
  "Ġì§ģìłĦ": 4850,
  "Ġì§ģìłĳ": 1690,
  "Ġì§ģíĽĦ": 3728,
  "Ġì§Ħ": 679,
  "Ġì§Ħì§Ģ": 6356,
  "Ġì§Ħì§ľ": 2499,
  "Ġì§Ħì¶ľ": 2634,
  "Ġì§Ħìĺģ": 5240,
  "Ġì§Ħìŀħ": 4305,
  "Ġì§Ħìłķíķľ": 5873,
  "Ġì§Ħíĸī": 1473,
  "Ġì§ĦíĻĶ": 5006,
  "Ġì§Ī": 1659,
  "Ġì§Īë¬¸": 7649,
  "Ġì§Ĳ": 3727,
  "Ġì§ĳ": 1063,
  "Ġì§ĳëĭ¨": 5452,
  "Ġì§ĳì¤ĳ": 3335,
  "Ġì§ĳìķĪ": 5443,
  "Ġì§ĳìĸ´": 6093,
  "Ġì§ĳìĹĲ": 4470,
  "Ġì§ĳìĹĲìĦľ": 7108,
  "Ġì§ĳìľ¼ë¡ľ": 7786,
  "Ġì§ĳìĿĦ": 7317,
  "Ġì§ĵ": 2624,
  "Ġì§ĵìĿĦ": 7309,
  "Ġì§ķ": 3285,
  "Ġì§ľ": 3384,
  "Ġì§Ŀ": 5970,
  "Ġìª½": 1859,
  "Ġìª½ìľ¼ë¡ľ": 5654,
  "Ġìª½ìĿ´": 6104,
  "Ġì«": 2859,
  "Ġì«ĵ": 3624,
  "Ġì«ĵìķĦ": 6922,
  "Ġì°": 458,
  "Ġì°¢": 7840,
  "Ġì°¨": 751,
  "Ġì°¨ë¡Ģ": 5378,
  "Ġì°¨ë³Ħ": 6224,
  "Ġì°¨ëĭ¨": 7326,
  "Ġì°¨ëĿ¼ë¦¬": 6227,
  "Ġì°¨ëŁī": 2451,
  "Ġì°¨ì§Ģ": 2392,
  "Ġì°¨ìĿ´": 4179,
  "Ġì°¨ìĿ´ê°Ģ": 3292,
  "Ġì°©": 2100,
  "Ġì°©ê°ģ": 6663,
  "Ġì°©ìļ©": 5077,
  "Ġì°¬": 3000,
  "Ġì°°": 5464,
  "Ġì°¸": 866,
  "Ġì°¸ê°Ģ": 2921,
  "Ġì°¸ê³ł": 1543,
  "Ġì°¸ê³łë¡ľ": 1952,
  "Ġì°¸ì¡°": 2578,
  "Ġì°¸ìĹ¬": 2551,
  "Ġì°¸ìłĦ": 6872,
  "Ġì°½": 1452,
  "Ġì°½ì¡°": 6612,
  "Ġì°½ìŀĳ": 6717,
  "Ġì°¾": 1273,
  "Ġì°¾ëĬĶ": 7099,
  "Ġì°¾ìķĦ": 1764,
  "Ġì°¾ìķĦê°Ģ": 7287,
  "Ġì°Į": 4306,
  "Ġì°į": 2000,
  "Ġì°įìĸ´": 7964,
  "Ġì°Ķ": 7601,
  "Ġì±": 830,
  "Ġì±Ħ": 1171,
  "Ġì±Ħë¡ľ": 5601,
  "Ġì±ĦëĦĲ": 4139,
  "Ġì±Ħìļ©": 5429,
  "Ġì±ĦìĽĮ": 7475,
  "Ġì±ħ": 1739,
  "Ġì±ħìĿĦ": 6338,
  "Ġì±ħìŀĦ": 4799,
  "Ġì±Ķ": 2644,
  "Ġì±ĶíĶ¼ìĸ¸": 3003,
  "Ġì±ķ": 7534,
  "Ġì±Ļ": 4074,
  "Ġì±Ļê²¨": 7433,
  "Ġì²": 488,
  "Ġì²¨": 7533,
  "Ġì²«": 1345,
  "Ġì²«ë²Īì§¸": 6058,
  "Ġì²´": 1054,
  "Ġì²´ëł¥": 2883,
  "Ġì²´ëł¥ìĿ´": 4339,
  "Ġì²´ëł¥ìĿĦ": 6890,
  "Ġì²´ìľ¡": 6327,
  "Ġì²´íı¬": 6059,
  "Ġì²ĺ": 928,
  "Ġì²ĺë¦¬": 2819,
  "Ġì²ĺë²Į": 7204,
  "Ġì²ĺëŁ¼": 7422,
  "Ġì²ĺì¹ĺ": 5569,
  "Ġì²ĺìĿĮ": 1348,
  "Ġì²ĺìĿĮë¶ĢíĦ°": 4955,
  "Ġì²ĺìĿĮìĹĲëĬĶ": 4906,
  "Ġì²ĺìĿĮìľ¼ë¡ľ": 3744,
  "Ġì²Ļ": 3941,
  "Ġì²ľ": 1291,
  "Ġì²ľìŀ¬": 7819,
  "Ġì²ł": 1555,
  "Ġì²łëıĦ": 6161,
  "Ġì²Ń": 1492,
  "Ġì²ŃëħĦ": 7929,
  "Ġì³": 2457,
  "Ġì³Ĳ": 3201,
  "Ġì´": 2322,
  "Ġì´¬ìĺģ": 3872,
  "Ġì´Ī": 818,
  "Ġì´Īê¸°": 2821,
  "Ġì´Īë°ĺ": 1882,
  "Ġì´Īë°ĺìĹĲ": 4727,
  "Ġì´ĪëĮĢ": 4857,
  "Ġì´Īì°½": 6459,
  "Ġì´ĪìĽĶ": 5783,
  "Ġì´ī": 4759,
  "Ġì´Ŀ": 1151,
  "Ġì´ĿìĿĦ": 6828,
  "Ġìµľ": 656,
  "Ġìµľê°ķ": 3519,
  "Ġìµľê°ķìĿĺ": 7102,
  "Ġìµľê³ł": 1905,
  "Ġìµľê³łìĿĺ": 3464,
  "Ġìµľê·¼": 2774,
  "ĠìµľëĮĢ": 1929,
  "ĠìµľëĮĢíķľ": 4568,
  "Ġìµľì¢ħ": 2113,
  "Ġìµľì´Ī": 2300,
  "Ġìµľì´Īë¡ľ": 4287,
  "Ġìµľì´ĪìĿĺ": 4690,
  "Ġìµľìĥģ": 6004,
  "ĠìµľìĨĮ": 3163,
  "ĠìµľìĨĮíķľ": 6458,
  "ĠìµľìķħìĿĺ": 5757,
  "ĠìµľíĽĦ": 3987,
  "ĠìµľíĽĦìĿĺ": 6575,
  "Ġì¶": 486,
  "Ġì¶¤": 5084,
  "Ġì¶©": 1241,
  "Ġì¶©ê²©": 3753,
  "Ġì¶©ê²©ìĿĦ": 7872,
  "Ġì¶©ë¶Ħ": 2718,
  "Ġì¶©ë¶ĦíŀĪ": 3751,
  "Ġì¶©ëıĮ": 5635,
  "Ġì¶©ìłĦ": 6430,
  "Ġì¶Ķ": 767,
  "Ġì¶Ķê°Ģ": 1271,
  "Ġì¶Ķê°Ģë¡ľ": 4747,
  "Ġì¶Ķê°ĢëĲĺìĹĪëĭ¤": 5470,
  "Ġì¶Ķê°ĢëĲľ": 5020,
  "Ġì¶Ķê²©": 6743,
  "Ġì¶Ķêµ¬": 7256,
  "Ġì¶ĶëĿ½": 5978,
  "Ġì¶Ķì§Ħ": 5842,
  "Ġì¶Ķì²ľ": 3748,
  "Ġì¶Ķì¸¡": 3794,
  "Ġì¶Ķìĸµ": 7908,
  "Ġì¶Ķìłģ": 6577,
  "Ġì¶Ķìłķ": 3029,
  "Ġì¶ĶìłķëĲľëĭ¤": 5636,
  "Ġì¶ķ": 1750,
  "Ġì¶ķêµ¬": 3177,
  "Ġì¶ĺ": 7047,
  "Ġì¶ľ": 795,
  "Ġì¶ľë°ľ": 5168,
  "Ġì¶ľì²ĺ": 6212,
  "Ġì¶ľìĭľ": 2394,
  "Ġì¶ľìĭł": 2133,
  "Ġì¶ľìĹ°": 2039,
  "Ġì¶ľìŀ¥": 7877,
  "Ġì¶ľìłĦ": 3386,
  "Ġì¶ľíĮĲ": 7596,
  "Ġì¶ľíĺĦ": 6514,
  "Ġì·¨": 1313,
  "Ġì·¨ê¸ī": 2784,
  "Ġì·¨ìĨĮ": 5745,
  "Ġì¸": 1462,
  "Ġì¸¡": 2023,
  "Ġì¸¡ë©´": 4545,
  "Ġì¸ł": 3052,
  "Ġì¹": 469,
  "Ġì¹¨": 1939,
  "Ġì¹´": 685,
  "Ġì¹´ë¥´": 6472,
  "Ġì¹´ë©Ķ": 4297,
  "Ġì¹´ëĤĺ": 6292,
  "Ġì¹´ëĵľ": 1424,
  "Ġì¹´ëĵľê°Ģ": 6166,
  "Ġì¹´ëĵľë¥¼": 4252,
  "Ġì¹´ì¦Ī": 5606,
  "Ġì¹´ìĺ¤": 5015,
  "Ġì¹´ìļ´": 3837,
  "Ġì¹´ìļ´íĦ°": 5856,
  "Ġì¹´ìĿ´": 3995,
  "Ġì¹´íİĺ": 5277,
  "Ġì¹¸": 3436,
  "Ġì¹¼": 1971,
  "Ġì¹ĺ": 1003,
  "Ġì¹ĺê³ł": 5583,
  "Ġì¹ĺë£Į": 3770,
  "Ġì¹ĺëªħ": 4084,
  "Ġì¹ĺëĬĶ": 7345,
  "Ġì¹ľ": 1189,
  "Ġì¹ľêµ¬": 1862,
  "Ġì¹ł": 3765,
  "Ġì¹Ń": 3209,
  "Ġì¹Ńì°¬": 7115,
  "Ġìº": 841,
  "Ġìº¡": 4572,
  "ĠìºĲ": 960,
  "ĠìºĲë¦ŃíĦ°": 1183,
  "ĠìºĲë¦ŃíĦ°ê°Ģ": 4712,
  "ĠìºĲë¦ŃíĦ°ë¡ľ": 6901,
  "ĠìºĲë¦ŃíĦ°ë¥¼": 6246,
  "ĠìºĲë¦ŃíĦ°ìĿĺ": 6223,
  "ĠìºĲëĤĺëĭ¤": 7455,
  "ĠìºĲìĬ¤íĮħ": 7967,
  "ĠìºĶ": 5616,
  "Ġìºł": 3850,
  "Ġìºłíİĺ": 7835,
  "Ġì»": 872,
  "Ġì»¤": 1263,
  "Ġì»¤ë§¨": 6747,
  "Ġì»¤ë®¤": 4602,
  "Ġì»¤ë®¤ëĭĪíĭ°": 5303,
  "Ġì»¤ë²Ħ": 5326,
  "Ġì»¤ëĭ¤ëŀĢ": 7952,
  "Ġì»¤íĶĮ": 7379,
  "Ġì»¨": 1856,
  "Ġì»¨ìħī": 4465,
  "Ġì»¨íħĲì¸ł": 5602,
  "Ġì»¨íĬ¸ë¡¤": 5041,
  "Ġì»¬": 4675,
  "Ġì»´": 2660,
  "Ġì»´íĵ¨": 4096,
  "Ġì»´íĵ¨íĦ°": 5131,
  "Ġì»·": 7199,
  "Ġì»¸": 7520,
  "Ġì¼": 1339,
  "Ġì¼Ģ": 2711,
  "Ġì¼ĢìĿ´": 2334,
  "Ġì¼ĢìĿ´ìĬ¤": 7824,
  "Ġì¼Ħ": 4134,
  "Ġì¼ľ": 7679,
  "Ġì½": 1305,
  "Ġì½¤": 3433,
  "Ġì½¤ë³´": 5933,
  "Ġì½©": 5397,
  "Ġì½Ķ": 863,
  "Ġì½Ķë¡ľëĤĺ": 6122,
  "Ġì½Ķë¯¹": 5198,
  "Ġì½ĶëĦĪ": 5048,
  "Ġì½Ķëĵľ": 6734,
  "Ġì½ĶìĬ¤": 4678,
  "Ġì½ĺ": 2435,
  "Ġì½ĺìĦľ": 7148,
  "Ġì½ľ": 2560,
  "Ġì½ľëĿ¼": 7021,
  "Ġì¾Į": 7046,
  "Ġì¿": 2151,
  "Ġì¿¨": 3483,
  "Ġì¿Ħ": 5438,
  "Ġì¿ł": 1600,
  "Ġì¿łë¡ľ": 7360,
  "Ġì¿łíĤ¤": 7818,
  "ĠìĤ": 590,
  "ĠìĤ¬": 354,
  "ĠìĤ¬ê±°ë¦¬": 7022,
  "ĠìĤ¬ê±´": 1560,
  "ĠìĤ¬ê±´ìĿ´": 5036,
  "ĠìĤ¬ê±´ìĿĦ": 5924,
  "ĠìĤ¬ê±´ìĿĺ": 7713,
  "ĠìĤ¬ê²©": 4335,
  "ĠìĤ¬ê³¼": 4428,
  "ĠìĤ¬ê³ł": 2650,
  "ĠìĤ¬ê¸°": 4109,
  "ĠìĤ¬ë¡Ģ": 3522,
  "ĠìĤ¬ë§Ŀ": 1956,
  "ĠìĤ¬ë¬´": 4231,
  "ĠìĤ¬ëĥ¥": 3614,
  "ĠìĤ¬ëĬĶ": 3913,
  "ĠìĤ¬ëĿ¼": 1912,
  "ĠìĤ¬ëĿ¼ì§Ħ": 7642,
  "ĠìĤ¬ëŀĮ": 735,
  "ĠìĤ¬ëŀĮëıĦ": 5127,
  "ĠìĤ¬ëŀĮëĵ¤": 4813,
  "ĠìĤ¬ëŀĮëĵ¤ëıĦ": 7131,
  "ĠìĤ¬ëŀĮëĵ¤ìĹĲê²Į": 6649,
  "ĠìĤ¬ëŀĮëĵ¤ìĿ´": 2343,
  "ĠìĤ¬ëŀĮëĵ¤ìĿĢ": 3515,
  "ĠìĤ¬ëŀĮëĵ¤ìĿĦ": 5055,
  "ĠìĤ¬ëŀĮëĵ¤ìĿĺ": 5578,
  "ĠìĤ¬ëŀĮìĹĲê²Į": 7783,
  "ĠìĤ¬ëŀĮìĿ´": 1876,
  "ĠìĤ¬ëŀĮìĿĢ": 2799,
  "ĠìĤ¬ëŀĮìĿĦ": 3407,
  "ĠìĤ¬ëŀĮìĿĺ": 3946,
  "ĠìĤ¬ëŀĳ": 1799,
  "ĠìĤ¬ëŀĳìĿĦ": 6778,
  "ĠìĤ¬ëł¹": 5367,
  "ĠìĤ¬ì§Ħ": 2351,
  "ĠìĤ¬ì§ĦìĿĦ": 6072,
  "ĠìĤ¬ì¿ł": 4748,
  "ĠìĤ¬ìĥģ": 5518,
  "ĠìĤ¬ìĭ¤": 930,
  "ĠìĤ¬ìĭ¤ìĥģ": 2098,
  "ĠìĤ¬ìĭ¤ìĿ´": 5308,
  "ĠìĤ¬ìĭ¤ìĿĢ": 4896,
  "ĠìĤ¬ìĭ¤ìĿĦ": 2965,
  "ĠìĤ¬ìĸĳ": 7845,
  "ĠìĤ¬ìĹħ": 3652,
  "ĠìĤ¬ìļ©": 780,
  "ĠìĤ¬ìļ©íķ´": 7193,
  "ĠìĤ¬ìļ©íķĺê³ł": 7149,
  "ĠìĤ¬ìļ©íķĺë©´": 5736,
  "ĠìĤ¬ìļ©íķĺëĬĶ": 2507,
  "ĠìĤ¬ìļ©íķĺì§Ģ": 7319,
  "ĠìĤ¬ìļ©íķĺìĹ¬": 7995,
  "ĠìĤ¬ìļ©íķľ": 4954,
  "ĠìĤ¬ìļ©íķľëĭ¤": 3741,
  "ĠìĤ¬ìļ©íķł": 2677,
  "ĠìĤ¬ìļ´ëĵľ": 7442,
  "ĠìĤ¬ìĿ´": 1086,
  "ĠìĤ¬ìĿ´ê°Ģ": 6248,
  "ĠìĤ¬ìĿ´ìĹĲ": 3761,
  "ĠìĤ¬ìĿ´ìĹĲìĦľ": 5078,
  "ĠìĤ¬ìĿ´ìĿĺ": 6673,
  "ĠìĤ¬ìĿ´íĬ¸": 6301,
  "ĠìĤ¬ìŀ¥": 6725,
  "ĠìĤ¬ìłķ": 6288,
  "ĠìĤ¬íĥľ": 4100,
  "ĠìĤ¬íķŃ": 5496,
  "ĠìĤ¬íļĮ": 1961,
  "ĠìĤ¬íļĮìłģ": 7815,
  "ĠìĤ°": 1351,
  "ĠìĤ°ìĹħ": 5394,
  "ĠìĤ´": 929,
  "ĠìĤ´ê³ł": 5284,
  "ĠìĤ´ëł¤": 6283,
  "ĠìĤ´ì§Ŀ": 5037,
  "ĠìĤ´ìķĦ": 1944,
  "ĠìĤ´ìķĦëĤ¨": 4304,
  "ĠìĤ´ìĿ¸": 4494,
  "ĠìĤ´íİ´": 6303,
  "ĠìĤ´íķ´": 3883,
  "ĠìĤ¶": 3375,
  "ĠìĤ¶ìĿĦ": 7310,
  "ĠìĤ¼": 1287,
  "ĠìĤ¼êµŃ": 5111,
  "ĠìĤ¼ìĦ±": 3425,
  "ĠìĤ½": 5390,
  "ĠìĤŃ": 3257,
  "ĠìĤŃìłľ": 3689,
  "Ġìĥ": 836,
  "Ġìĥ¤": 2461,
  "Ġìĥ·": 6968,
  "Ġìĥģ": 462,
  "Ġìĥģê´Ģ": 3621,
  "Ġìĥģëĭ¹": 1303,
  "Ġìĥģëĭ¹íķľ": 3636,
  "Ġìĥģëĭ¹íŀĪ": 1613,
  "ĠìĥģëĮĢ": 1143,
  "ĠìĥģëĮĢê°Ģ": 4441,
  "ĠìĥģëĮĢë¡ľ": 2583,
  "ĠìĥģëĮĢë¥¼": 4551,
  "ĠìĥģëĮĢìĿĺ": 5129,
  "ĠìĥģëĮĢìłģìľ¼ë¡ľ": 4922,
  "Ġìĥģì§ķ": 4160,
  "Ġìĥģì²ĺ": 4391,
  "Ġìĥģìĥģ": 6650,
  "ĠìĥģìĪł": 7514,
  "ĠìĥģìĬ¹": 2878,
  "ĠìĥģìľĦ": 3726,
  "Ġìĥģíĥľ": 1239,
  "Ġìĥģíĥľê°Ģ": 5188,
  "Ġìĥģíĥľë¡ľ": 3904,
  "ĠìĥģíĥľìĹĲìĦľ": 3641,
  "ĠìĥģíĴĪ": 5711,
  "Ġìĥģíĸ¥": 6029,
  "Ġìĥģíĺ¸": 7323,
  "ĠìĥģíĻ©": 1129,
  "ĠìĥģíĻ©ìĹĲ": 4800,
  "ĠìĥģíĻ©ìĹĲìĦľ": 3105,
  "ĠìĥģíĻ©ìĿ´": 3249,
  "ĠìĥģíĻ©ìĿ´ëĭ¤": 6707,
  "ĠìĥģíĻ©ìĿĦ": 4193,
  "ĠìĥĪ": 1132,
  "ĠìĥĪë¡ľ": 3478,
  "ĠìĥĪë¡ľìļ´": 2135,
  "ĠìĥĪë²½": 6771,
  "Ġìĥī": 2480,
  "ĠìĥĮ": 5158,
  "Ġìĥĺ": 6347,
  "ĠìĥĿ": 586,
  "ĠìĥĿê°ģ": 964,
  "ĠìĥĿê°ģë³´ëĭ¤": 6583,
  "ĠìĥĿê°ģìĿ´": 5266,
  "ĠìĥĿê°ģìĿĦ": 4937,
  "ĠìĥĿê°ģíķ´": 3474,
  "ĠìĥĿê°ģíķĺê³ł": 6165,
  "ĠìĥĿê°ģíķĺë©´": 3879,
  "ĠìĥĿê°ģíķĺëĬĶ": 5114,
  "ĠìĥĿê²¨": 4750,
  "ĠìĥĿê²¼": 5953,
  "ĠìĥĿê²¼ëĭ¤": 5752,
  "ĠìĥĿê¸°": 4633,
  "ĠìĥĿê¸´": 3062,
  "ĠìĥĿëªħ": 4095,
  "ĠìĥĿë¬¼": 5830,
  "ĠìĥĿì¡´": 3103,
  "ĠìĥĿìĤ°": 2352,
  "ĠìĥĿìĦ±": 4634,
  "ĠìĥĿíĻľ": 2750,
  "ĠìĥĿíĻľìĿĦ": 6822,
  "ĠìĦ": 346,
  "ĠìĦ¤": 878,
  "ĠìĦ¤ê³Ħ": 4998,
  "ĠìĦ¤ë¦½": 4654,
  "ĠìĦ¤ëªħ": 2165,
  "ĠìĦ¤ëĵĿ": 5199,
  "ĠìĦ¤ì¹ĺ": 2770,
  "ĠìĦ¤ìłķ": 2034,
  "ĠìĦ¤ìłķìĿ´": 6805,
  "ĠìĦ¬": 2399,
  "ĠìĦ±": 585,
  "ĠìĦ±ê²©": 2261,
  "ĠìĦ±ê²©ìĿ´": 6786,
  "ĠìĦ±ê³µ": 1625,
  "ĠìĦ±ê³µíĸĪëĭ¤": 7016,
  "ĠìĦ±ëĬ¥": 2149,
  "ĠìĦ±ëĬ¥ìĿ´": 5701,
  "ĠìĦ±ëĬ¥ìĿĦ": 6094,
  "ĠìĦ±ìļ°": 2403,
  "ĠìĦ±ìļ°ëĬĶ": 4181,
  "ĠìĦ±ìĿ¸": 6793,
  "ĠìĦ±ìŀ¥": 3159,
  "ĠìĦ±ìłģ": 5935,
  "ĠìĦ±ìłģìĿĦ": 7176,
  "ĠìĦ±íĸ¥": 4951,
  "ĠìĦ¸": 637,
  "ĠìĦ¸ê³Ħ": 1349,
  "ĠìĦ¸ê³Ħê´Ģ": 7540,
  "ĠìĦ¸ê³Ħë¥¼": 6848,
  "ĠìĦ¸ê³ĦìĿĺ": 6603,
  "ĠìĦ¸ëł¥": 6496,
  "ĠìĦ¸ìĥģ": 7308,
  "ĠìĦ¸ìĥģìĿĦ": 6580,
  "ĠìĦ¸ìĽĮ": 6700,
  "ĠìĦ¸ìĽĶ": 6228,
  "ĠìĦ¸ìĿ´": 3298,
  "ĠìĦ¸íĬ¸": 5770,
  "ĠìĦ¹": 6657,
  "ĠìĦ¼": 2459,
  "ĠìĦ¼íĦ°": 6388,
  "ĠìĦľ": 683,
  "ĠìĦľë¡ľ": 1927,
  "ĠìĦľë²Ħ": 4448,
  "ĠìĦľë¸Į": 4762,
  "ĠìĦľë¹Ħ": 3406,
  "ĠìĦľë¹ĦìĬ¤": 5029,
  "ĠìĦľìĦľ": 6119,
  "ĠìĦľìĪł": 4360,
  "ĠìĦľìĸĳ": 6885,
  "ĠìĦľìļ¸": 1775,
  "ĠìĦľíı¬": 5503,
  "ĠìĦĿ": 2741,
  "ĠìĦŀ": 4133,
  "ĠìĦł": 604,
  "ĠìĦłê±°": 3443,
  "ĠìĦłë¬¼": 6189,
  "ĠìĦłë°°": 5279,
  "ĠìĦłë°ľ": 2790,
  "ĠìĦłë³´": 4493,
  "ĠìĦłìĥĿ": 3752,
  "ĠìĦłìĥĿëĭĺ": 6412,
  "ĠìĦłìĪĺ": 1390,
  "ĠìĦłìĪĺê°Ģ": 5983,
  "ĠìĦłìĪĺëĵ¤ìĿ´": 7448,
  "ĠìĦłìĸ¸": 4749,
  "ĠìĦłìłķ": 4916,
  "ĠìĦłíĥĿ": 1769,
  "ĠìĦłíĺ¸": 5801,
  "ĠìĦŃ": 6046,
  "Ġìħ": 1516,
  "Ġìħ°": 6044,
  "ĠìħĢ": 4411,
  "ĠìħĪ": 2977,
  "ĠìħĪìĿ´ëĭ¤": 6652,
  "Ġìħĭ": 4282,
  "ĠìħĶ": 6831,
  "ĠìĨ": 851,
  "ĠìĨ¡": 2241,
  "ĠìĨĮ": 528,
  "ĠìĨĮê°ľ": 3346,
  "ĠìĨĮë¦¬": 3430,
  "ĠìĨĮë¦¬ê°Ģ": 5741,
  "ĠìĨĮë¦¬ë¥¼": 4517,
  "ĠìĨĮë©¸": 5807,
  "ĠìĨĮëª¨": 3116,
  "ĠìĨĮë¹Ħ": 3747,
  "ĠìĨĮëħĢ": 3459,
  "ĠìĨĮëħĦ": 4376,
  "ĠìĨĮëĭī": 7943,
  "ĠìĨĮëł¨": 3830,
  "ĠìĨĮì´Ŀ": 6949,
  "ĠìĨĮìĦ¤": 2998,
  "ĠìĨĮìĨį": 2129,
  "ĠìĨĮìĪĺ": 7689,
  "ĠìĨĮìĭĿìĿĦ": 7765,
  "ĠìĨĮìļ¸": 5520,
  "ĠìĨĮìľł": 4039,
  "ĠìĨĮìŀ¬": 3630,
  "ĠìĨĮíĶĦíĬ¸": 7139,
  "ĠìĨĮíĺķ": 7650,
  "ĠìĨĮíĻĶ": 6599,
  "ĠìĨĮíĻĺ": 2154,
  "ĠìĨį": 967,
  "ĠìĨįëıĦ": 4401,
  "ĠìĨįëıĦê°Ģ": 4911,
  "ĠìĨįìĦ±": 4289,
  "ĠìĨįìĹĲ": 4514,
  "ĠìĨįìĹĲìĦľ": 4209,
  "ĠìĨĲ": 1066,
  "ĠìĨĲê°ĢëĿ½": 7942,
  "ĠìĨĲìĹĲ": 4393,
  "ĠìĨĲìľ¼ë¡ľ": 7408,
  "ĠìĨĲìĿĦ": 3680,
  "ĠìĨĶ": 2321,
  "ĠìĨĶë¡ľ": 4980,
  "Ġìĩ": 2060,
  "Ġìĩ¼": 2463,
  "Ġìĩł": 6392,
  "ĠìĪ": 772,
  "ĠìĪ¨": 2349,
  "ĠìĪ¨ê²¨": 5352,
  "ĠìĪ¨ìĸ´": 7671,
  "ĠìĪ«": 4188,
  "ĠìĪ²": 4624,
  "ĠìĪĺ": 373,
  "ĠìĪĺê°Ģ": 2498,
  "ĠìĪĺë¡Ŀ": 2519,
  "ĠìĪĺë¡Ŀê³¡": 7369,
  "ĠìĪĺë¦¬": 5944,
  "ĠìĪĺë§İìĿĢ": 3792,
  "ĠìĪĺë°ĸìĹĲ": 3936,
  "ĠìĪĺë¹Ħ": 2939,
  "ĠìĪĺëĬĶ": 3248,
  "ĠìĪĺëıĦ": 1453,
  "ĠìĪĺëł¨": 7260,
  "ĠìĪĺì¤Ģ": 1573,
  "ĠìĪĺì¤Ģìľ¼ë¡ľ": 5627,
  "ĠìĪĺì¤ĢìĿ´ëĭ¤": 7648,
  "ĠìĪĺì¤ĢìĿĺ": 4770,
  "ĠìĪĺì§ĳ": 6731,
  "ĠìĪĺì¹ĺ": 7080,
  "ĠìĪĺìĤ¬": 6744,
  "ĠìĪĺìĥģ": 3783,
  "ĠìĪĺìĨ¡": 6982,
  "ĠìĪĺìĭŃ": 7033,
  "ĠìĪĺìĹħ": 7822,
  "ĠìĪĺìĺģ": 7457,
  "ĠìĪĺìļ©": 6780,
  "ĠìĪĺìļĶ": 5490,
  "ĠìĪĺìĽĲ": 6798,
  "ĠìĪĺìĿµ": 6170,
  "ĠìĪĺìŀħ": 5648,
  "ĠìĪĺìłķ": 3351,
  "ĠìĪĺíķĻ": 6816,
  "ĠìĪĺíĸī": 3562,
  "ĠìĪĺíĺ¸": 5073,
  "ĠìĪĻ": 2694,
  "ĠìĪľ": 1103,
  "ĠìĪľê°Ħ": 2228,
  "ĠìĪľìĪĺ": 6767,
  "ĠìĪľìĭĿ": 5527,
  "ĠìĪľìĭĿê°ĦìĹĲ": 5595,
  "ĠìĪľìľĦ": 6900,
  "ĠìĪł": 2601,
  "Ġìī": 1254,
  "Ġìī¬": 2293,
  "Ġìī¬ìļ´": 4792,
  "Ġìī´": 7588,
  "Ġìī½": 1761,
  "Ġìī½ê²Į": 2525,
  "Ġìī½ëĭ¤": 6361,
  "Ġìī½ì§Ģ": 7734,
  "ĠìĬ": 417,
  "ĠìĬ¤": 480,
  "ĠìĬ¤ë§ĪíĬ¸": 5962,
  "ĠìĬ¤ë§ĪíĬ¸íı°": 7563,
  "ĠìĬ¤ì¹´": 5014,
  "ĠìĬ¤ì¹´ìĿ´": 7516,
  "ĠìĬ¤ì¼Ģ": 6394,
  "ĠìĬ¤ì½Ķ": 4586,
  "ĠìĬ¤ìĬ¤ë¡ľ": 2717,
  "ĠìĬ¤ìĬ¹": 7796,
  "ĠìĬ¤ìľĦ": 4938,
  "ĠìĬ¤í": 1089,
  "ĠìĬ¤íģ¬": 4015,
  "ĠìĬ¤íĤ¨": 5585,
  "ĠìĬ¤íĤ¬": 1433,
  "ĠìĬ¤íĤ¬ìĿ´": 6779,
  "ĠìĬ¤íĤ¬ìĿĦ": 4933,
  "ĠìĬ¤íĥ": 3022,
  "ĠìĬ¤íĥ¯": 5568,
  "ĠìĬ¤íĥĢ": 1617,
  "ĠìĬ¤íĥĢìĿ¼": 6648,
  "ĠìĬ¤íĥł": 5415,
  "ĠìĬ¤íħĮ": 2382,
  "ĠìĬ¤íħĮìĿ´ì§Ģ": 3542,
  "ĠìĬ¤íĨł": 1891,
  "ĠìĬ¤íĨłë¦¬": 2881,
  "ĠìĬ¤íĬ¸": 2357,
  "ĠìĬ¤íĬ¸ë¦¬": 5649,
  "ĠìĬ¤íĬ¸ëĿ¼ìĿ´": 6232,
  "ĠìĬ¤íĬľ": 7011,
  "ĠìĬ¤íĭ°": 7925,
  "ĠìĬ¤íĮĮ": 3526,
  "ĠìĬ¤íĮĮìĿ´": 5975,
  "ĠìĬ¤íİ": 4041,
  "ĠìĬ¤íİĺ": 2759,
  "ĠìĬ¤íİĺìħľ": 6278,
  "ĠìĬ¤íİĺìĿ¸": 6144,
  "ĠìĬ¤íİĻ": 5151,
  "ĠìĬ¤íı¬": 3554,
  "ĠìĬ¤íı¬ì¸ł": 4606,
  "ĠìĬ¤íı°": 6199,
  "ĠìĬ¤íĶ¼": 3311,
  "ĠìĬ¤íĶĦ": 5853,
  "ĠìĬ¬": 1850,
  "ĠìĬµ": 2873,
  "ĠìĬµê²©": 5289,
  "ĠìĬµëĵĿ": 7785,
  "ĠìĬ¹": 1074,
  "ĠìĬ¹ê°ķ": 6811,
  "ĠìĬ¹ê²©": 7862,
  "ĠìĬ¹ë¦¬": 2267,
  "ĠìĬ¹ë¦¬ë¥¼": 4694,
  "ĠìĬ¹ë¶Ģ": 7506,
  "ĠìĬĪ": 1511,
  "ĠìĬĪíį¼": 2246,
  "Ġìĭ": 331,
  "Ġìĭ¤": 665,
  "Ġìĭ¤ëł¥": 5950,
  "Ġìĭ¤ëł¥ìĿ´": 7200,
  "Ġìĭ¤ëł¥ìĿĦ": 6918,
  "Ġìĭ¤ì§Ī": 5089,
  "Ġìĭ¤ìĭľ": 5096,
  "Ġìĭ¤ìłľ": 1338,
  "Ġìĭ¤ìłľë¡ľ": 1812,
  "Ġìĭ¤ìłľë¡ľëĬĶ": 5773,
  "Ġìĭ¤íĮ¨": 2286,
  "Ġìĭ¤íĸī": 5580,
  "Ġìĭ¤íĹĺ": 3920,
  "Ġìĭ«": 2672,
  "Ġìĭ«ìĸ´": 3760,
  "Ġìĭ¬": 950,
  "Ġìĭ¬ê°ģ": 3569,
  "Ġìĭ¬ê°ģíķľ": 5692,
  "Ġìĭ¬ë¦¬": 6552,
  "Ġìĭ¬ì§Ģìĸ´": 2120,
  "Ġìĭ¬íķĺê²Į": 7476,
  "Ġìĭ¬íķľ": 6351,
  "Ġìĭ±": 2607,
  "Ġìĭ±ê¸Ģ": 3984,
  "Ġìĭ¶": 1422,
  "Ġìĭ¶ëĭ¤": 6488,
  "Ġìĭ¶ìĸ´": 4661,
  "Ġìĭ¶ìĿĢ": 4409,
  "Ġìĭ¸": 1317,
  "Ġìĭ¸ìļ°": 3223,
  "Ġìĭ¸ìļ°ëĬĶ": 5838,
  "Ġìĭ¸ìļ¸": 7174,
  "Ġìĭ¸ìĽĢ": 3921,
  "Ġìĭ¸ìĽĢìĿĦ": 7488,
  "Ġìĭľ": 397,
  "Ġìĭľê°ģ": 6331,
  "Ġìĭľê°Ħ": 1184,
  "Ġìĭľê°ĦìĹĲ": 7910,
  "Ġìĭľê°ĦìĿ´": 2420,
  "Ġìĭľê°ĦìĿĦ": 3489,
  "Ġìĭľê¸°": 4407,
  "Ġìĭľê¸°ìĹĲ": 6777,
  "Ġìĭľë¦¬ì¦Ī": 1399,
  "Ġìĭľë¦¬ì¦ĪìĿĺ": 3982,
  "Ġìĭľë¯¼": 4458,
  "ĠìĭľëĤ´": 5663,
  "ĠìĭľëĤĺ": 4479,
  "ĠìĭľëĤĺë¦¬ìĺ¤": 5209,
  "Ġìĭľëĭ¬": 7568,
  "ĠìĭľëĮĢ": 4365,
  "ĠìĭľëıĦ": 3094,
  "Ġìĭľì¦Į": 1314,
  "Ġìĭľì²Ń": 2737,
  "Ġìĭľì¼ľ": 6842,
  "ĠìĭľìĦ¤": 4392,
  "ĠìĭľìĬ¤íħľ": 2348,
  "Ġìĭľìķ¼": 7168,
  "Ġìĭľìŀ¥": 5696,
  "Ġìĭľìŀĳ": 1014,
  "Ġìĭľìŀĳíķľ": 4992,
  "Ġìĭľìŀĳíķľëĭ¤": 4618,
  "ĠìĭľìŀĳíĸĪëĭ¤": 3324,
  "ĠìĭľìłĦ": 3582,
  "ĠìĭľìłĪ": 1788,
  "ĠìĭľìłĪìĿĺ": 7722,
  "ĠìĭľìłĲ": 2515,
  "ĠìĭľìłĲìĹĲìĦľ": 5332,
  "ĠìĭľíĤ¤": 6406,
  "Ġìĭľíĭ°": 6761,
  "Ġìĭľíĸī": 5587,
  "ĠìĭľíĹĺ": 3524,
  "ĠìĭĿ": 1331,
  "ĠìĭĿìľ¼ë¡ľ": 3255,
  "ĠìĭĿìĿĺ": 7901,
  "Ġìĭł": 613,
  "Ġìĭłê²½": 3027,
  "Ġìĭłê³ł": 7075,
  "Ġìĭłê·ľ": 5681,
  "Ġìĭłê¸°": 6953,
  "Ġìĭłë¢°": 5422,
  "Ġìĭłì²´": 5184,
  "Ġìĭłì²Ń": 5869,
  "ĠìĭłìĦ±": 7529,
  "ĠìĭłìĿ´": 7026,
  "ĠìĭłìĿ¸": 6565,
  "ĠìĭłìĿĺ": 5717,
  "ĠìĭŃ": 3924,
  "ĠìĮ": 2005,
  "ĠìĮį": 3498,
  "ĠìĮĵ": 3114,
  "Ġìį": 3119,
  "Ġìį¨": 2131,
  "Ġìį¨ë¨¹": 7387,
  "Ġìį¨ìĦľ": 6752,
  "Ġìį©": 6697,
  "Ġìį¼": 4268,
  "Ġìı": 1909,
  "Ġìı´": 7375,
  "Ġìıĺ": 3544,
  "ĠìıŁìķĦ": 5351,
  "Ġìĵ": 743,
  "Ġìĵ°": 903,
  "Ġìĵ°ê³ł": 3585,
  "Ġìĵ°ê¸°": 6810,
  "Ġìĵ°ë©´": 5894,
  "Ġìĵ°ëĬĶ": 2361,
  "Ġìĵ°ëŁ¬": 2729,
  "Ġìĵ°ëŁ¬ëľ¨": 5859,
  "Ġìĵ°ëłĪ": 5581,
  "Ġìĵ°ëłĪê¸°": 7441,
  "Ġìĵ°ì§Ģ": 5327,
  "Ġìĵ°ìĿ´ëĬĶ": 6024,
  "Ġìĵ°ìĿ¸ëĭ¤": 6563,
  "Ġìĵ´": 2450,
  "Ġìĵ´ëĭ¤": 5492,
  "Ġìĵ¸": 1760,
  "ĠìĶ": 1954,
  "ĠìĶ¨": 3120,
  "ĠìĶ¹": 7771,
  "Ġìķ": 298,
  "Ġìķ¡": 2598,
  "Ġìķ¡ìħĺ": 5624,
  "Ġìķ¤": 3746,
  "Ġìķ¨": 2139,
  "Ġìķ¨ë²Ķ": 2547,
  "Ġìķ±": 7182,
  "Ġìķµ": 7553,
  "Ġìķ¼": 1192,
  "Ġìķ¼êµ¬": 3512,
  "Ġìķ¼ë§Ī": 4832,
  "Ġìķ½": 1029,
  "Ġìķ½ê°Ħ": 2661,
  "Ġìķ½ê°ĦìĿĺ": 7545,
  "Ġìķ½ìĨį": 4525,
  "Ġìķ½íķľ": 5223,
  "ĠìķĦ": 365,
  "ĠìķĦê°Ģ": 7303,
  "ĠìķĦêµ°": 3398,
  "ĠìķĦë¥´": 2900,
  "ĠìķĦë¦¬": 7275,
  "ĠìķĦë¦Ħ": 4111,
  "ĠìķĦë¦Ħëĭ¤ìļ´": 6509,
  "ĠìķĦë§Ī": 2487,
  "ĠìķĦë§ĪëıĦ": 7492,
  "ĠìķĦë¨¸": 6709,
  "ĠìķĦë©Ķ": 6617,
  "ĠìķĦë¬´": 1363,
  "ĠìķĦë¬´ê²ĥëıĦ": 5353,
  "ĠìķĦë¬´ë¦¬": 3510,
  "ĠìķĦë¬´ëıĦ": 5243,
  "ĠìķĦë¬´ëŀĺëıĦ": 4826,
  "ĠìķĦë¬´ëŁ°": 5271,
  "ĠìķĦë°Ķ": 7542,
  "ĠìķĦë²Ħ": 1881,
  "ĠìķĦë²Ħì§Ģ": 2984,
  "ĠìķĦë²Ħì§Ģê°Ģ": 6416,
  "ĠìķĦë²Ħì§ĢìĿĺ": 7616,
  "ĠìķĦë¹ł": 5858,
  "ĠìķĦëĤ´": 3762,
  "ĠìķĦëĤĺ": 4979,
  "ĠìķĦëĬĶ": 4047,
  "ĠìķĦëĭĪ": 776,
  "ĠìķĦëĭĪê³ł": 3024,
  "ĠìķĦëĭĪë©´": 3274,
  "ĠìķĦëĭĪëĥĲëĬĶ": 6843,
  "ĠìķĦëĭĪëĭ¤": 1825,
  "ĠìķĦëĭĪëĿ¼": 1285,
  "ĠìķĦëĭĪëĿ¼ê³ł": 7127,
  "ĠìķĦëĭĪëĿ¼ëĬĶ": 7124,
  "ĠìķĦëĭĪì§Ģë§Į": 4182,
  "ĠìķĦëĭĪìĹĪëĭ¤": 5685,
  "ĠìķĦëĭĮ": 1321,
  "ĠìķĦëĭĮê°Ģ": 6560,
  "ĠìķĦëĭĲ": 5136,
  "ĠìķĦëĵ¤": 3655,
  "ĠìķĦëĿ¼": 6149,
  "ĠìķĦëŀĺ": 2168,
  "ĠìķĦì£¼": 2400,
  "ĠìķĦì§ģ": 1873,
  "ĠìķĦì§ģëıĦ": 5413,
  "ĠìķĦì¹¨": 4670,
  "ĠìķĦì¹´": 3831,
  "ĠìķĦìĤ¬": 6357,
  "ĠìķĦìī¬": 4198,
  "ĠìķĦìī¬ìļ´": 7347,
  "ĠìķĦìī½": 6310,
  "ĠìķĦìĬ¤": 4528,
  "ĠìķĦìĭľ": 7035,
  "ĠìķĦìĭľìķĦ": 5191,
  "ĠìķĦìķ¼": 6174,
  "ĠìķĦìĺ¤": 6195,
  "ĠìķĦìĺĪ": 2058,
  "ĠìķĦìļ°": 6498,
  "ĠìķĦìĽĥ": 5230,
  "ĠìķĦìĿ´": 962,
  "ĠìķĦìĿ´ë¥¼": 7471,
  "ĠìķĦìĿ´ëıĮ": 3276,
  "ĠìķĦìĿ´íħľ": 2052,
  "ĠìķĦìĿ´íħľìĿĦ": 5567,
  "ĠìķĦìĿ¼": 7960,
  "ĠìķĦíĤ¤": 3953,
  "ĠìķĦíĭ°": 6967,
  "ĠìķĦíĮĮ": 4581,
  "ĠìķĦíĶĦ": 3317,
  "ĠìķĦíĶĦë¦¬ì¹´": 4969,
  "Ġìķħ": 1299,
  "Ġìķħë§Ī": 4625,
  "ĠìķĪ": 593,
  "ĠìķĪëĤ´": 6799,
  "ĠìķĪëĲĺëĬĶ": 5605,
  "ĠìķĪëĵľë¡ľ": 5968,
  "ĠìķĪìĬµ": 5228,
  "ĠìķĪìĹĲ": 3284,
  "ĠìķĪìĹĲìĦľ": 5815,
  "ĠìķĪìłĦ": 3988,
  "ĠìķĪìłķ": 3361,
  "ĠìķĪíĥĢ": 5017,
  "ĠìķĪíĭ°": 7984,
  "Ġìķī": 3918,
  "ĠìķīìķĦ": 6631,
  "ĠìķĬ": 493,
  "ĠìķĬê²Į": 3210,
  "ĠìķĬê³ł": 1402,
  "ĠìķĬê¸°": 5108,
  "ĠìķĬëĬĶ": 1355,
  "ĠìķĬëĬĶëĭ¤": 1521,
  "ĠìķĬëĬĶëĭ¤ëĬĶ": 6640,
  "ĠìķĬëĭ¤": 2433,
  "ĠìķĬëıĦë¡Ŀ": 7617,
  "ĠìķĬì§Ģë§Į": 4037,
  "ĠìķĬìķĦ": 2237,
  "ĠìķĬìķĦëıĦ": 6084,
  "ĠìķĬìķĦìĦľ": 5187,
  "ĠìķĬìķĺ": 1569,
  "ĠìķĬìķĺê³ł": 5278,
  "ĠìķĬìķĺëĭ¤": 1898,
  "ĠìķĬìķĺëįĺ": 6348,
  "ĠìķĬìķĺì§Ģë§Į": 6414,
  "ĠìķĬìķĺìĿĦ": 7651,
  "ĠìķĬìľ¼ë©°": 5121,
  "ĠìķĬìľ¼ë©´": 3603,
  "ĠìķĬìĿĢ": 1542,
  "ĠìķĬìĿĦ": 2567,
  "ĠìķĮ": 694,
  "ĠìķĮê²Į": 3513,
  "ĠìķĮê²łì§Ģë§Į": 7543,
  "ĠìķĮê³ł": 2003,
  "ĠìķĮëł¤": 1864,
  "ĠìķĮëł¤ì§Ħ": 5573,
  "ĠìķĮëł¤ìł¸": 4837,
  "ĠìķĮëłī": 5559,
  "ĠìķĮìķĦ": 2483,
  "ĠìķĮíĮĮ": 6740,
  "ĠìķĶ": 1705,
  "ĠìķĶìĤ´": 4157,
  "ĠìķĶíĿĳ": 6080,
  "Ġìķķ": 1906,
  "Ġìķķë°ķ": 5729,
  "ĠìķķëıĦ": 3300,
  "ĠìķķëıĦìłģìĿ¸": 6549,
  "ĠìķĻ": 4829,
  "Ġìķŀ": 1163,
  "ĠìķŀìĦľ": 4013,
  "ĠìķŀìĹĲ": 3523,
  "ĠìķŀìĹĲìĦľ": 3922,
  "Ġìķŀìľ¼ë¡ľ": 4008,
  "Ġìķł": 989,
  "Ġìķłë§¤": 4852,
  "ĠìķłëĭĪ": 1819,
  "ĠìķłëĭĪë©ĶìĿ´ìħĺ": 2571,
  "Ġìķłì´ĪìĹĲ": 3320,
  "Ġìĸ": 535,
  "Ġìĸ´": 503,
  "Ġìĸ´ê·¸": 6236,
  "Ġìĸ´ê¹¨": 5802,
  "Ġìĸ´ë": 1096,
  "Ġìĸ´ë¥¸": 6524,
  "Ġìĸ´ë¦°": 2542,
  "Ġìĸ´ë¦°ìĿ´": 7974,
  "Ġìĸ´ë¦´": 7030,
  "Ġìĸ´ë§Ī": 7424,
  "Ġìĸ´ë¨¸ëĭĪ": 2502,
  "Ġìĸ´ëĬĲ": 1512,
  "Ġìĸ´ëĬĲìłķëıĦ": 4746,
  "Ġìĸ´ëĳ": 3632,
  "Ġìĸ´ëĳĲ": 6898,
  "Ġìĸ´ëĳł": 3952,
  "Ġìĸ´ëĳłìĿĺ": 7278,
  "Ġìĸ´ëĵľ": 7440,
  "Ġìĸ´ëĶĶ": 2359,
  "Ġìĸ´ëĶĶê¹Įì§Ģ": 5985,
  "Ġìĸ´ëĶĶê¹Įì§ĢëĤĺ": 6753,
  "Ġìĸ´ëĸ": 1233,
  "Ġìĸ´ëĸ¤": 1807,
  "Ġìĸ´ëĸ»": 1991,
  "Ġìĸ´ëĸ»ê²Į": 2037,
  "Ġìĸ´ëĸ»ê²Įëĵł": 6300,
  "Ġìĸ´ëĸł": 5981,
  "Ġìĸ´ëĸłíķľ": 6910,
  "Ġìĸ´ëł¤": 2027,
  "Ġìĸ´ëł¤ìļ´": 3580,
  "Ġìĸ´ëł¤ìĽĮ": 7400,
  "Ġìĸ´ëłµ": 2378,
  "Ġìĸ´ëłµëĭ¤": 4446,
  "Ġìĸ´ì§¸": 5340,
  "Ġìĸ´ì§¸ìĦľ": 7814,
  "Ġìĸ´ì§Ģ": 6099,
  "Ġìĸ´ì§Ģê°Ħ": 7333,
  "Ġìĸ´ì¨": 5190,
  "Ġìĸ´ì¨Į": 5369,
  "Ġìĸ´ì¨Įëĵł": 6317,
  "Ġìĸ´ì©": 3040,
  "Ġìĸ´ì©Į": 5441,
  "Ġìĸ´ì©Ķ": 4959,
  "Ġìĸ´ì°¨íĶ¼": 5106,
  "Ġìĸ´ì°Į": 4271,
  "Ġìĸ´ìļ¸": 4731,
  "Ġìĸµ": 3144,
  "Ġìĸ¸": 1026,
  "Ġìĸ¸ê¸ī": 1709,
  "Ġìĸ¸ê¸īíķľ": 7759,
  "Ġìĸ¸ë¡ł": 4399,
  "Ġìĸ¸ëĭĪ": 5432,
  "Ġìĸ¸ìĸ´": 5923,
  "Ġìĸ¸ìłľ": 3037,
  "Ġìĸ¸ìłľëĤĺ": 5466,
  "Ġìĸ¸ìłł": 7489,
  "Ġìĸ»": 1320,
  "Ġìĸ»ëĬĶ": 6061,
  "Ġìĸ»ìĸ´": 4130,
  "Ġìĸ»ìĿĢ": 5408,
  "Ġìĸ»ìĿĦ": 3118,
  "Ġìĸ¼": 1202,
  "Ġìĸ¼êµ´": 2175,
  "Ġìĸ¼êµ´ìĿ´": 7265,
  "Ġìĸ¼êµ´ìĿĦ": 5166,
  "Ġìĸ¼ë§Ī": 2127,
  "Ġìĸ¼ë§ĪëĤĺ": 3490,
  "Ġìĸ¼ìĿĮ": 6008,
  "Ġìĸĳ": 1069,
  "ĠìĸĳìĤ°": 6604,
  "Ġìĸĺ": 2530,
  "Ġìĸĺê¸°": 4419,
  "ĠìĹ": 326,
  "ĠìĹ¬": 543,
  "ĠìĹ¬ê²¨": 5712,
  "ĠìĹ¬ê¸°": 1626,
  "ĠìĹ¬ê¸°ìĦľ": 2573,
  "ĠìĹ¬ê¸°ìĹĲ": 3449,
  "ĠìĹ¬ë¦Ħ": 4687,
  "ĠìĹ¬ëĭ´": 2618,
  "ĠìĹ¬ëĭ´ìľ¼ë¡ľ": 3031,
  "ĠìĹ¬ëıĻìĥĿ": 6241,
  "ĠìĹ¬ëŁ¬": 1364,
  "ĠìĹ¬ëŁ¬ê°Ģì§Ģ": 5756,
  "ĠìĹ¬ëŁ¬ëª¨ë¡ľ": 5982,
  "ĠìĹ¬ìĦ±": 2079,
  "ĠìĹ¬ìĻķ": 7101,
  "ĠìĹ¬ìľł": 5948,
  "ĠìĹ¬ìŀĲ": 2248,
  "ĠìĹ¬ìłĦíŀĪ": 2581,
  "ĠìĹ¬íĸī": 4642,
  "ĠìĹ®": 6531,
  "ĠìĹ°": 608,
  "ĠìĹ°ê²°": 3042,
  "ĠìĹ°ê³Ħ": 6070,
  "ĠìĹ°êµ¬": 2013,
  "ĠìĹ°ê¸°": 3495,
  "ĠìĹ°ëĿ½": 7512,
  "ĠìĹ°ì£¼": 4988,
  "ĠìĹ°ì¶ľ": 3202,
  "ĠìĹ°ìĤ¬": 6909,
  "ĠìĹ°ìĥģ": 6337,
  "ĠìĹ°ìĨį": 3165,
  "ĠìĹ°ìĬµ": 3634,
  "ĠìĹ°ìķł": 6124,
  "ĠìĹ°ìĺĪ": 5877,
  "ĠìĹ°ìŀ¥": 5025,
  "ĠìĹ°ìŀ¬": 4169,
  "ĠìĹ°íķ©": 3975,
  "ĠìĹ´": 1114,
  "ĠìĹ´ë¦°": 5142,
  "ĠìĹ´ìĩł": 7800,
  "ĠìĹ´ìĭ¬íŀĪ": 4840,
  "ĠìĹ¼": 3108,
  "ĠìĹĦ": 1307,
  "ĠìĹĦë§Ī": 4867,
  "ĠìĹĦì²Ń": 1782,
  "ĠìĹĦì²ŃëĤĺê²Į": 4660,
  "ĠìĹĦì²ŃëĤľ": 2594,
  "ĠìĹħ": 1373,
  "ĠìĹħê·¸": 3833,
  "ĠìĹħê·¸ëłĪìĿ´ëĵľ": 5147,
  "ĠìĹħë¬´": 6123,
  "ĠìĹħëį°ìĿ´íĬ¸": 2966,
  "ĠìĹĨ": 478,
  "ĠìĹĨê²Į": 4924,
  "ĠìĹĨê³ł": 2452,
  "ĠìĹĨê¸°": 4578,
  "ĠìĹĨëĬĶ": 1093,
  "ĠìĹĨëĬĶëį°": 6540,
  "ĠìĹĨëĭ¤": 1034,
  "ĠìĹĨëĭ¤ê³ł": 3334,
  "ĠìĹĨëĭ¤ë©´": 7973,
  "ĠìĹĨëĭ¤ëĬĶ": 3246,
  "ĠìĹĨëįĺ": 6880,
  "ĠìĹĨì§Ģë§Į": 3663,
  "ĠìĹĨìķł": 6076,
  "ĠìĹĨìĸ´": 2029,
  "ĠìĹĨìĸ´ìĦľ": 3656,
  "ĠìĹĨìĹĪ": 2109,
  "ĠìĹĨìĹĪê³ł": 6380,
  "ĠìĹĨìĹĪëĭ¤": 2155,
  "ĠìĹĨìĹĪëįĺ": 5366,
  "ĠìĹĨìľ¼ë©°": 5026,
  "ĠìĹĨìľ¼ë©´": 6409,
  "ĠìĹĨìľ¼ëĭĪ": 6363,
  "ĠìĹĨìĿ´": 1635,
  "ĠìĹĨìĿĦ": 3069,
  "ĠìĹĨìĿĮ": 7797,
  "ĠìĹī": 4596,
  "ĠìĹĲ": 741,
  "ĠìĹĲëĦĪ": 3199,
  "ĠìĹĲëĦĪì§Ģ": 5324,
  "ĠìĹĲìĦľ": 2963,
  "ĠìĹĲìĬ¤": 6539,
  "ĠìĹĲìĸ´": 5715,
  "ĠìĹĲìĿ´": 3735,
  "ĠìĹĲìĿ´ìĬ¤": 5751,
  "ĠìĹĲíĶ¼": 2527,
  "ĠìĹĲíĶ¼ìĨĮ": 2611,
  "ĠìĹĲíĶ¼ìĨĮëĵľ": 3266,
  "ĠìĹĳ": 2853,
  "ĠìĹĳìĬ¤": 7077,
  "ĠìĹĶ": 1491,
  "ĠìĹĶëĶ©": 2986,
  "ĠìĹĶì§Ħ": 3273,
  "ĠìĹĺ": 1683,
  "ĠìĹĺë¦¬": 3468,
  "ĠìĹł": 4779,
  "ĠìĹŃ": 745,
  "ĠìĹŃëĮĢ": 4258,
  "ĠìĹŃìĤ¬": 2555,
  "ĠìĹŃìĭľ": 1362,
  "ĠìĹŃìľ¼ë¡ľ": 5775,
  "ĠìĹŃìłĦ": 5477,
  "ĠìĹŃíķł": 2021,
  "ĠìĹŃíķłìĿĦ": 2852,
  "Ġìĺ": 358,
  "Ġìĺ¤": 514,
  "Ġìĺ¤ë¡ľ": 5852,
  "Ġìĺ¤ë¥´": 4462,
  "Ġìĺ¤ë¥¸": 2955,
  "Ġìĺ¤ë¥¸ìª½": 5682,
  "Ġìĺ¤ë¦¬": 6276,
  "Ġìĺ¤ë¦¬ì§Ģ": 4317,
  "Ġìĺ¤ë¦¬ì§ĢëĦĲ": 4626,
  "Ġìĺ¤ë²Ħ": 4017,
  "Ġìĺ¤ë¸Į": 2617,
  "Ġìĺ¤ë¹ł": 5917,
  "Ġìĺ¤ëĬĶ": 4923,
  "Ġìĺ¤ëĬĺ": 2867,
  "Ġìĺ¤ëĬĺëĤł": 7268,
  "Ġìĺ¤ëŀ«": 6279,
  "Ġìĺ¤ëŀ«ëıĻìķĪ": 6547,
  "Ġìĺ¤ëŀĺ": 2775,
  "Ġìĺ¤ëŀľ": 3956,
  "Ġìĺ¤ì§ģ": 7192,
  "Ġìĺ¤ìĬ¤": 6503,
  "Ġìĺ¤ìĺ¤": 5071,
  "Ġìĺ¤íĨł": 4765,
  "Ġìĺ¤íĶĦ": 4020,
  "Ġìĺ¤íĶĦëĭĿ": 5398,
  "Ġìĺ¤íĶĪ": 6168,
  "Ġìĺ¤íķ´": 7161,
  "Ġìĺ¤íĽĦ": 5005,
  "Ġìĺ¤íŀĪëł¤": 1963,
  "Ġìĺ¥": 3487,
  "Ġìĺ¨": 1385,
  "Ġìĺ¨ê°ĸ": 4943,
  "Ġìĺ¨ëĿ¼ìĿ¸": 5207,
  "Ġìĺ¬": 902,
  "Ġìĺ¬ë¦¬": 6065,
  "Ġìĺ¬ë¦¬ëĬĶ": 7454,
  "Ġìĺ¬ë¦°": 7351,
  "Ġìĺ¬ë¦¼íĶ½": 5641,
  "Ġìĺ¬ëĿ¼": 1558,
  "Ġìĺ¬ëĿ¼ê°Ģ": 4176,
  "Ġìĺ¬ëł¤": 3777,
  "Ġìĺ®": 3485,
  "Ġìĺ®ê²¨": 6285,
  "Ġìĺ³": 7871,
  "Ġìĺµ": 3420,
  "Ġìĺµìħĺ": 4140,
  "Ġìĺ·": 3309,
  "Ġìĺ·ìĿĦ": 6801,
  "Ġìĺ¹": 6396,
  "Ġìĺģ": 606,
  "ĠìĺģêµŃ": 2667,
  "Ġìĺģìĥģ": 2031,
  "ĠìĺģìĥģìĿĦ": 5533,
  "Ġìĺģìĸ´": 3465,
  "ĠìĺģìĽħ": 2469,
  "ĠìĺģìĽĲ": 5420,
  "Ġìĺģìŀħ": 4397,
  "Ġìĺģíĸ¥": 1924,
  "Ġìĺģíĸ¥ìĿĦ": 2829,
  "Ġìĺģíĺ¼": 3950,
  "ĠìĺģíĻĶ": 1610,
  "ĠìĺĨ": 2577,
  "ĠìĺĨìĹĲ": 5247,
  "ĠìĺĪ": 834,
  "ĠìĺĪê³ł": 7469,
  "ĠìĺĪë¥¼": 3322,
  "ĠìĺĪë¹Ħ": 7414,
  "ĠìĺĪëĬ¥": 6980,
  "ĠìĺĪì¸¡": 6299,
  "ĠìĺĪìĥģ": 3207,
  "ĠìĺĪìĪł": 6028,
  "ĠìĺĪìĻ¸": 6280,
  "ĠìĺĪìłĦ": 4653,
  "ĠìĺĪìłķ": 3019,
  "ĠìĺĽ": 3382,
  "ĠìĺĽëĤł": 5608,
  "ĠìĻ": 510,
  "ĠìĻ¸": 933,
  "ĠìĻ¸ê³Ħ": 7145,
  "ĠìĻ¸êµĲ": 6201,
  "ĠìĻ¸êµŃ": 3403,
  "ĠìĻ¸êµŃìĿ¸": 6987,
  "ĠìĻ¸ëª¨": 5664,
  "ĠìĻ¸ë¶Ģ": 7122,
  "ĠìĻ¸ìĹĲ": 5541,
  "ĠìĻ¸ìĹĲëĬĶ": 6868,
  "ĠìĻ¸ìĹĲëıĦ": 4010,
  "ĠìĻ¼": 3394,
  "ĠìĻ¼ìª½": 5376,
  "ĠìĻĢ": 1380,
  "ĠìĻĢì¤ĳìĹĲ": 5348,
  "ĠìĻĢìĦľ": 5236,
  "ĠìĻĢìĿ´": 5777,
  "ĠìĻĦ": 1105,
  "ĠìĻĦë£Į": 5126,
  "ĠìĻĦë²½": 3610,
  "ĠìĻĦë²½íķľ": 7680,
  "ĠìĻĦìĦ±": 3671,
  "ĠìĻĦìłĦ": 3587,
  "ĠìĻĦìłĦíŀĪ": 2181,
  "ĠìĻĶ": 3405,
  "ĠìĻĶëĭ¤": 5546,
  "ĠìĻķ": 1253,
  "ĠìĻķêµŃ": 6393,
  "ĠìĻľ": 1828,
  "ĠìĻľëĥĲ": 7807,
  "ĠìĻł": 6804,
  "Ġìļ": 433,
  "Ġìļ©": 1208,
  "Ġìļ©ë³ĳ": 5132,
  "Ġìļ©ìĿĺ": 7579,
  "Ġìļ°": 653,
  "Ġìļ°ë¦¬": 1689,
  "Ġìļ°ë¦¬ê°Ģ": 4303,
  "Ġìļ°ë¦¬ëĤĺëĿ¼": 7672,
  "Ġìļ°ë¦¬ëĬĶ": 4151,
  "Ġìļ°ë¦¬ìĿĺ": 6349,
  "Ġìļ°ëł¤": 5058,
  "Ġìļ°ì£¼": 2652,
  "Ġìļ°ìĦł": 3482,
  "Ġìļ°ìĬ¹": 2167,
  "Ġìļ°ìĬ¹ìĿĦ": 6115,
  "Ġìļ°ìĹ°íŀĪ": 7450,
  "Ġìļ´": 1032,
  "Ġìļ´ëıĻ": 2843,
  "Ġìļ´ìĺģ": 2061,
  "Ġìļ´ìļ©": 3977,
  "Ġìļ´ìłĦ": 6075,
  "Ġìļ´íĸī": 3457,
  "Ġìļ¸": 1774,
  "Ġìļ¸ìĤ°": 7395,
  "Ġìļ¸íĬ¸ëĿ¼": 6433,
  "ĠìļĶ": 874,
  "ĠìļĶê´´": 7257,
  "ĠìļĶêµ¬": 2557,
  "ĠìļĶë¦¬": 4787,
  "ĠìļĶì¦ĺ": 5418,
  "ĠìļĶì²Ń": 4114,
  "ĠìļĶìĥĪ": 6973,
  "ĠìļĶìĨĮ": 3486,
  "ĠìļĶìĭľ": 5139,
  "Ġìļķ": 2641,
  "ĠìļķìĿĦ": 7714,
  "ĠìĽ": 532,
  "ĠìĽ¨": 4027,
  "ĠìĽ¨ìĿ´": 7581,
  "ĠìĽ¬": 4501,
  "ĠìĽ¹": 3994,
  "ĠìĽ¹íĪ°": 7305,
  "ĠìĽĢ": 2200,
  "ĠìĽĢì§ģ": 2316,
  "ĠìĽĥ": 2364,
  "ĠìĽĮ": 1704,
  "ĠìĽĮëĤĻ": 3759,
  "ĠìĽĲ": 691,
  "ĠìĽĲê±°ë¦¬": 4805,
  "ĠìĽĲë³¸": 7084,
  "ĠìĽĲëŀĺ": 1736,
  "ĠìĽĲëŀĺëĬĶ": 4828,
  "ĠìĽĲì¹Ļ": 6952,
  "ĠìĽĲìŀĳ": 2336,
  "ĠìĽĲìłķ": 5261,
  "ĠìĽĲíķĺëĬĶ": 4700,
  "ĠìĽĶ": 1676,
  "ĠìĽĶëĵľ": 2593,
  "ĠìĽĶëĵľì»µ": 4329,
  "Ġìľ": 376,
  "Ġìľ¡": 1847,
  "Ġìľ¡êµ°": 5471,
  "Ġìľ¤": 2375,
  "Ġìľµ": 5758,
  "Ġìľµíķ©": 7976,
  "Ġìľ¼": 2713,
  "Ġìľ¼ë¡ľ": 3480,
  "ĠìľĦ": 529,
  "ĠìľĦê¸°ìĹĲ": 6345,
  "ĠìľĦë¡ľ": 4910,
  "ĠìľĦì£¼ë¡ľ": 7299,
  "ĠìľĦì¹ĺ": 1710,
  "ĠìľĦì¹ĺë¥¼": 6375,
  "ĠìľĦì¹ĺíķľ": 4560,
  "ĠìľĦìĹĲ": 3109,
  "ĠìľĦìĹĲìĦľ": 4889,
  "ĠìľĦìĿĺ": 3599,
  "ĠìľĦíĤ¤": 6359,
  "ĠìľĦíķ´": 1062,
  "ĠìľĦíķ´ìĦľ": 2197,
  "ĠìľĦíķ´ìĦľëĬĶ": 4842,
  "ĠìľĦíķĺìĹ¬": 6051,
  "ĠìľĦíķľ": 1885,
  "ĠìľĦíĹĺ": 2548,
  "ĠìľĦíĹĺíķľ": 6790,
  "ĠìľĦíĺĳ": 4056,
  "ĠìľĪ": 4567,
  "ĠìľĮ": 4755,
  "Ġìľł": 479,
  "Ġìľłë¡ľ": 7779,
  "Ġìľłë¦¬": 3095,
  "Ġìľłëªħ": 1907,
  "Ġìľłëªħíķĺëĭ¤": 6400,
  "Ġìľłëªħíķľ": 3225,
  "ĠìľłëĭĪ": 3219,
  "ĠìľłëĭĽ": 1974,
  "ĠìľłëıĦ": 4982,
  "Ġìľłëŀĺ": 5329,
  "ĠìľłëŁ½": 3051,
  "Ġìľłëł¹": 6802,
  "Ġìľłì§Ģ": 2083,
  "Ġìľłì¹ĺ": 7968,
  "ĠìľłìĤ¬": 3675,
  "ĠìľłìĤ¬íķľ": 7882,
  "Ġìľłìļ©": 6483,
  "Ġìľłìļ°": 5159,
  "ĠìľłìĿ¼": 2176,
  "ĠìľłìĿ¼íķĺê²Į": 3743,
  "ĠìľłìĿ¼íķľ": 3721,
  "ĠìľłìłĢ": 1767,
  "ĠìľłìłĢê°Ģ": 7521,
  "ĠìľłìłĢëĵ¤ìĿ´": 6005,
  "ĠìľłìłĦ": 7595,
  "ĠìľłíĤ¤": 5892,
  "ĠìľłíĬľ": 3198,
  "ĠìľłíĬľë¸Į": 3720,
  "Ġìľłíĸī": 6706,
  "ĠìľłíĿ¬": 6821,
  "ĠìĿ": 282,
  "ĠìĿ´": 307,
  "ĠìĿ´ê±°": 6083,
  "ĠìĿ´ê±´": 3514,
  "ĠìĿ´ê±¸": 3353,
  "ĠìĿ´ê²¨": 7983,
  "ĠìĿ´ê²ĥ": 1744,
  "ĠìĿ´ê²ĥëıĦ": 7892,
  "ĠìĿ´ê²ĥìĿ´": 4589,
  "ĠìĿ´ê²ĥìĿĢ": 4588,
  "ĠìĿ´ê²ĥìĿĦ": 6143,
  "ĠìĿ´ê²Į": 3239,
  "ĠìĿ´ê³³": 3682,
  "ĠìĿ´ê¸°": 4224,
  "ĠìĿ´ê¸¸": 7206,
  "ĠìĿ´ë¡ľ": 3803,
  "ĠìĿ´ë¡ł": 5904,
  "ĠìĿ´ë£¨": 1942,
  "ĠìĿ´ë£¨ìĸ´": 2419,
  "ĠìĿ´ë£¨ìĸ´ì§Ħ": 7361,
  "ĠìĿ´ë¤Ħ": 6185,
  "ĠìĿ´ë¥´": 5878,
  "ĠìĿ´ë¥¸": 7480,
  "ĠìĿ´ë¥¼": 1604,
  "ĠìĿ´ë¦¬": 6985,
  "ĠìĿ´ë¦Ħ": 1119,
  "ĠìĿ´ë¦Ħìľ¼ë¡ľ": 4210,
  "ĠìĿ´ë¦ĦìĿ´": 3431,
  "ĠìĿ´ë¦ĦìĿĢ": 3738,
  "ĠìĿ´ë¦ĦìĿĦ": 2627,
  "ĠìĿ´ë¦ĦìĿĺ": 5743,
  "ĠìĿ´ë¯¸": 1357,
  "ĠìĿ´ë¯¸ì§Ģ": 5804,
  "ĠìĿ´ë²¤": 2073,
  "ĠìĿ´ë²¤íĬ¸": 2648,
  "ĠìĿ´ë²Ī": 2043,
  "ĠìĿ´ë²ĪìĹĲëĬĶ": 7479,
  "ĠìĿ´ëģ": 2742,
  "ĠìĿ´ëģĮ": 3391,
  "ĠìĿ´ëģĮê³ł": 7896,
  "ĠìĿ´ëĤ´": 6371,
  "ĠìĿ´ëĤĺ": 7766,
  "ĠìĿ´ëĤł": 6207,
  "ĠìĿ´ëĬĶ": 1695,
  "ĠìĿ´ëĭ¤": 4554,
  "ĠìĿ´ëıĻ": 1777,
  "ĠìĿ´ëĵ¤": 5505,
  "ĠìĿ´ëĵ¤ìĿ´": 5508,
  "ĠìĿ´ëĵ¤ìĿĢ": 4430,
  "ĠìĿ´ëĵ¤ìĿĦ": 6758,
  "ĠìĿ´ëĵ¤ìĿĺ": 5940,
  "ĠìĿ´ëĵĿ": 5993,
  "ĠìĿ´ëķĮ": 1894,
  "ĠìĿ´ëĿ¼": 5189,
  "ĠìĿ´ëĿ¼ê³ł": 3229,
  "ĠìĿ´ëĿ¼ëĬĶ": 2767,
  "ĠìĿ´ëŀĢ": 5459,
  "ĠìĿ´ëŀĺ": 5900,
  "ĠìĿ´ëŁ¬": 1811,
  "ĠìĿ´ëŁ¬íķľ": 2002,
  "ĠìĿ´ëŁ°": 1277,
  "ĠìĿ´ëłĩ": 1781,
  "ĠìĿ´ëłĩê²Į": 1938,
  "ĠìĿ´ì¤ĳ": 6474,
  "ĠìĿ´ì§Ģ": 7410,
  "ĠìĿ´ìª½": 3358,
  "ĠìĿ´ìª½ìĿĢ": 5821,
  "ĠìĿ´ìĤ¬": 5319,
  "ĠìĿ´ìĥģ": 1073,
  "ĠìĿ´ìĥģìľ¼ë¡ľ": 7092,
  "ĠìĿ´ìĥģìĿĦ": 7695,
  "ĠìĿ´ìĥģìĿĺ": 3161,
  "ĠìĿ´ìĥģíķľ": 5169,
  "ĠìĿ´ìĦ±": 6955,
  "ĠìĿ´ìĬ¤": 5737,
  "ĠìĿ´ìĬ¬": 6389,
  "ĠìĿ´ìĬ¬ëŀĮ": 7691,
  "ĠìĿ´ìĬ¹": 5939,
  "ĠìĿ´ìĭĿ": 7886,
  "ĠìĿ´ìķ¼": 1415,
  "ĠìĿ´ìķ¼ê¸°": 2208,
  "ĠìĿ´ìķ¼ê¸°ê°Ģ": 4732,
  "ĠìĿ´ìķ¼ê¸°ë¥¼": 3272,
  "ĠìĿ´ìĸ´": 1722,
  "ĠìĿ´ìĸ´ì§ĢëĬĶ": 7221,
  "ĠìĿ´ìĹĲ": 1822,
  "ĠìĿ´ìĺģ": 7946,
  "ĠìĿ´ìĻ¸": 3381,
  "ĠìĿ´ìĻ¸ìĹĲëıĦ": 7500,
  "ĠìĿ´ìĻĢ": 4107,
  "ĠìĿ´ìļ©": 1366,
  "ĠìĿ´ìļ©íķ´": 3460,
  "ĠìĿ´ìļ©íķĺìĹ¬": 6486,
  "ĠìĿ´ìļ©íķľ": 4854,
  "ĠìĿ´ìľł": 1318,
  "ĠìĿ´ìľłê°Ģ": 4343,
  "ĠìĿ´ìľłë¡ľ": 2936,
  "ĠìĿ´ìľłëĬĶ": 2753,
  "ĠìĿ´ìĿµ": 7557,
  "ĠìĿ´ìŀ¬": 7353,
  "ĠìĿ´ìłģ": 4143,
  "ĠìĿ´ìłĦ": 1636,
  "ĠìĿ´ìłĦìĹĲ": 4823,
  "ĠìĿ´ìłĦìĿĺ": 7248,
  "ĠìĿ´ìłľ": 2063,
  "ĠìĿ´ìłľëĬĶ": 6353,
  "ĠìĿ´íĥĪ": 3456,
  "ĠìĿ´íĥĪë¦¬ìķĦ": 4334,
  "ĠìĿ´íķ´": 2421,
  "ĠìĿ´íķĺ": 3959,
  "ĠìĿ´íĽĦ": 762,
  "ĠìĿ´íĽĦë¡ľ": 3481,
  "ĠìĿ´íĽĦë¡ľëĬĶ": 5902,
  "ĠìĿ´íĽĦìĹĲ": 4557,
  "ĠìĿ´íĽĦìĹĲëĬĶ": 5019,
  "ĠìĿ´íĽĦìĹĲëıĦ": 6255,
  "ĠìĿ´íĽĦìĿĺ": 6336,
  "ĠìĿµ": 2490,
  "ĠìĿµìĪĻ": 5732,
  "ĠìĿ¸": 490,
  "ĠìĿ¸ê°Ħ": 1483,
  "ĠìĿ¸ê°ĦìĿ´": 6520,
  "ĠìĿ¸ê°ĦìĿĺ": 4737,
  "ĠìĿ¸ê³µ": 6960,
  "ĠìĿ¸êµ¬": 5936,
  "ĠìĿ¸ê·¼": 6807,
  "ĠìĿ¸ê¸°": 4420,
  "ĠìĿ¸ê¸°ê°Ģ": 4697,
  "ĠìĿ¸ê¸°ë¥¼": 5098,
  "ĠìĿ¸ë¥ĺ": 4466,
  "ĠìĿ¸ë¬¼": 1728,
  "ĠìĿ¸ëıĦ": 4207,
  "ĠìĿ¸ì§Ģ": 5868,
  "ĠìĿ¸ì²ľ": 4058,
  "ĠìĿ¸ìĤ¬": 5335,
  "ĠìĿ¸ìĥģ": 6098,
  "ĠìĿ¸ìĥĿ": 4261,
  "ĠìĿ¸ìĪĺ": 7133,
  "ĠìĿ¸ìĭĿ": 3905,
  "ĠìĿ¸ìłķ": 2409,
  "ĠìĿ¸íĦ°": 1972,
  "ĠìĿ¸íĦ°ë·°": 3164,
  "ĠìĿ¸íĦ°ë·°ìĹĲìĦľ": 7697,
  "ĠìĿ¸íĦ°ëĦ·": 3687,
  "ĠìĿ¸íķ´": 1598,
  "ĠìĿ¸íķľ": 3881,
  "ĠìĿ¸íĺķ": 7583,
  "ĠìĿ¼": 444,
  "ĠìĿ¼ë°©": 7497,
  "ĠìĿ¼ë°ĺ": 1466,
  "ĠìĿ¼ë°ĺìłģìľ¼ë¡ľ": 5805,
  "ĠìĿ¼ë°ĺìłģìĿ¸": 4535,
  "ĠìĿ¼ë³¸": 1079,
  "ĠìĿ¼ë³¸ìĸ´": 6729,
  "ĠìĿ¼ë³¸ìĹĲìĦľ": 7732,
  "ĠìĿ¼ë³¸ìĿĺ": 3290,
  "ĠìĿ¼ë¶Ģ": 1590,
  "ĠìĿ¼ë¶ĢëŁ¬": 5456,
  "ĠìĿ¼ëĭ¨": 2106,
  "ĠìĿ¼ëıĦ": 6204,
  "ĠìĿ¼ëŁ¬": 3811,
  "ĠìĿ¼ëŁ¬ìĬ¤íĬ¸": 4112,
  "ĠìĿ¼ì¢ħìĿĺ": 5150,
  "ĠìĿ¼ì°į": 6888,
  "ĠìĿ¼ìĥģ": 6773,
  "ĠìĿ¼ìĭľ": 7538,
  "ĠìĿ¼ìĸ´": 4136,
  "ĠìĿ¼ìĸ´ëĤĺ": 2964,
  "ĠìĿ¼ìĸ´ëĤľ": 4962,
  "ĠìĿ¼ìľ¼": 2769,
  "ĠìĿ¼ìľ¼íĤ¤": 7313,
  "ĠìĿ¼ìľ¼íĤ¨": 7918,
  "ĠìĿ¼ìĿ´": 2076,
  "ĠìĿ¼ìĿ´ëĭ¤": 6886,
  "ĠìĿ¼ìĿĢ": 4106,
  "ĠìĿ¼ìĿĦ": 2724,
  "ĠìĿ¼ìłķ": 3230,
  "ĠìĿ¼íĸī": 3390,
  "ĠìĿ½": 2439,
  "ĠìĿĢ": 1268,
  "ĠìĿĢê·¼": 5253,
  "ĠìĿĢê·¼íŀĪ": 7143,
  "ĠìĿĢíĩ´": 4704,
  "ĠìĿĢíĸī": 7014,
  "ĠìĿĦ": 2128,
  "ĠìĿĮ": 1211,
  "ĠìĿĮë°ĺ": 7383,
  "ĠìĿĮìĭĿ": 5116,
  "ĠìĿĮìķħ": 2301,
  "ĠìĿĳ": 2317,
  "ĠìĿĳìĽĲ": 6064,
  "ĠìĿĺ": 583,
  "ĠìĿĺê²¬": 2751,
  "ĠìĿĺê²¬ìĿ´": 5854,
  "ĠìĿĺë¢°": 7001,
  "ĠìĿĺë£Į": 7060,
  "ĠìĿĺë¬´": 7201,
  "ĠìĿĺë¯¸": 1664,
  "ĠìĿĺë¯¸ê°Ģ": 5362,
  "ĠìĿĺë¯¸ë¡ľ": 7551,
  "ĠìĿĺë¯¸ë¥¼": 7346,
  "ĠìĿĺëıĦ": 5416,
  "ĠìĿĺì¡´": 6850,
  "ĠìĿĺìĤ¬": 5235,
  "ĠìĿĺìĭ¬": 5010,
  "ĠìĿĺìĭĿ": 5375,
  "ĠìĿĺìĻ¸ë¡ľ": 3796,
  "ĠìĿĺìĽĲ": 7707,
  "ĠìĿĺíķ´": 1967,
  "ĠìĿĺíķĺë©´": 4161,
  "ĠìĿĺíķľ": 4758,
  "ĠìĿĺíĺ¹": 7107,
  "Ġìŀ": 285,
  "Ġìŀ¡": 1091,
  "Ġìŀ¡ê³ł": 4503,
  "Ġìŀ¡ëĬĶ": 6556,
  "Ġìŀ¡ìķĦ": 2687,
  "Ġìŀ¡ìĿĢ": 7699,
  "Ġìŀ¡ìĿĦ": 6855,
  "Ġìŀ¡íĺĢ": 7577,
  "Ġìŀ¥": 624,
  "Ġìŀ¥ê°ĳ": 4183,
  "Ġìŀ¥êµĲ": 7244,
  "Ġìŀ¥ê¸°": 4607,
  "Ġìŀ¥ë©´": 1839,
  "Ġìŀ¥ë©´ìĿ´": 4057,
  "Ġìŀ¥ë©´ìĿĦ": 7246,
  "Ġìŀ¥ë¹Ħ": 2909,
  "Ġìŀ¥ëĤľ": 4253,
  "Ġìŀ¥ì°©": 3182,
  "Ġìŀ¥ìĨĮ": 3873,
  "Ġìŀ¥ìĪĺ": 7584,
  "Ġìŀ¥ìĭĿ": 7045,
  "Ġìŀ¥ìķł": 5862,
  "Ġìŀ¥ìłĲ": 5914,
  "Ġìŀ¦": 6849,
  "Ġìŀ¬": 838,
  "Ġìŀ¬ë£Į": 5174,
  "Ġìŀ¬ë¯¸": 4291,
  "Ġìŀ¬ëĬ¥": 5625,
  "Ġìŀ¬ìĥĿ": 5318,
  "Ġìŀ¬íĺĦ": 7559,
  "Ġìŀĥ": 2220,
  "Ġìŀĥê³ł": 7401,
  "ĠìŀĥìĿĢ": 7089,
  "ĠìŀĦ": 1286,
  "ĠìŀĦëªħ": 6431,
  "ĠìŀĦë¬´": 4945,
  "ĠìŀĦìĭľ": 7511,
  "Ġìŀħ": 844,
  "Ġìŀħê³ł": 4115,
  "Ġìŀħëł¥": 6818,
  "ĠìŀħìĿĢ": 5384,
  "ĠìŀħìĿĦ": 6741,
  "Ġìŀħìŀ¥": 2390,
  "Ġìŀħìŀ¥ìĹĲìĦľëĬĶ": 6015,
  "ĠìŀħíķĻ": 6135,
  "Ġìŀĩ": 4604,
  "ĠìŀĪ": 375,
  "ĠìŀĪê²Į": 2387,
  "ĠìŀĪê³ł": 1583,
  "ĠìŀĪê¸°": 2325,
  "ĠìŀĪê¸°ìĹĲ": 6587,
  "ĠìŀĪê¸´": 5670,
  "ĠìŀĪëĬĶ": 553,
  "ĠìŀĪëĬĶëį°": 1480,
  "ĠìŀĪëĬĶì§Ģ": 6784,
  "ĠìŀĪëĭ¤": 437,
  "ĠìŀĪëĭ¤ê°Ģ": 7012,
  "ĠìŀĪëĭ¤ê³ł": 2081,
  "ĠìŀĪëĭ¤ë©´": 3135,
  "ĠìŀĪëĭ¤ëĬĶ": 1794,
  "ĠìŀĪëįĺ": 1778,
  "ĠìŀĪëıĦë¡Ŀ": 4679,
  "ĠìŀĪì§Ģ": 3829,
  "ĠìŀĪì§Ģë§Į": 1731,
  "ĠìŀĪìĬµëĭĪëĭ¤": 3528,
  "ĠìŀĪìĸ´": 1524,
  "ĠìŀĪìĸ´ëıĦ": 7003,
  "ĠìŀĪìĸ´ìĦľ": 1945,
  "ĠìŀĪìĸ´ìķ¼": 5302,
  "ĠìŀĪìĹĪ": 1098,
  "ĠìŀĪìĹĪê³ł": 3547,
  "ĠìŀĪìĹĪê¸°": 7210,
  "ĠìŀĪìĹĪëĬĶëį°": 3702,
  "ĠìŀĪìĹĪëĭ¤": 1160,
  "ĠìŀĪìĹĪëĭ¤ê³ł": 6260,
  "ĠìŀĪìĹĪëĭ¤ëĬĶ": 7903,
  "ĠìŀĪìĹĪëįĺ": 2621,
  "ĠìŀĪìĹĪì§Ģë§Į": 3928,
  "ĠìŀĪìĹĪìľ¼ë©°": 7076,
  "ĠìŀĪìĹĪìľ¼ëĤĺ": 4379,
  "ĠìŀĪìĹĪìĿĦ": 7293,
  "ĠìŀĪìľ¼ë©°": 1449,
  "ĠìŀĪìľ¼ë©´": 3368,
  "ĠìŀĪìľ¼ë¯Ģë¡ľ": 5099,
  "ĠìŀĪìľ¼ëĤĺ": 3400,
  "ĠìŀĪìľ¼ëĭĪ": 3250,
  "ĠìŀĪìĿĦ": 1482,
  "ĠìŀĪìĿĮìĿĦ": 7674,
  "Ġìŀī": 4418,
  "ĠìŀĬ": 3813,
  "ĠìŀĲ": 414,
  "ĠìŀĲê°Ģ": 6374,
  "ĠìŀĲê·¹": 7412,
  "ĠìŀĲê¸°": 1698,
  "ĠìŀĲê¸°ê°Ģ": 4771,
  "ĠìŀĲë£Į": 5513,
  "ĠìŀĲë¦¬": 3002,
  "ĠìŀĲë¦¬ë¥¼": 3665,
  "ĠìŀĲë¦¬ìĹĲ": 5539,
  "ĠìŀĲë¦¬ìĹĲìĦľ": 7247,
  "ĠìŀĲë§¤": 7526,
  "ĠìŀĲë³¸": 7510,
  "ĠìŀĲëĬĶ": 7611,
  "ĠìŀĲëıĻ": 2541,
  "ĠìŀĲëıĻì°¨": 6125,
  "ĠìŀĲëıĻìľ¼ë¡ľ": 7696,
  "ĠìŀĲëŀĳ": 3096,
  "ĠìŀĲëŀĳíķľëĭ¤": 7509,
  "ĠìŀĲì£¼": 1918,
  "ĠìŀĲì²´": 1325,
  "ĠìŀĲì²´ê°Ģ": 2413,
  "ĠìŀĲì²´ë¥¼": 5913,
  "ĠìŀĲì²´ëĬĶ": 3611,
  "ĠìŀĲì²´ìĿĺ": 7907,
  "ĠìŀĲìĤ´": 5060,
  "ĠìŀĲìĦ¸": 2254,
  "ĠìŀĲìĦ¸íķľ": 3412,
  "ĠìŀĲìĦ¸íŀĪ": 7474,
  "ĠìŀĲìĭĿ": 7067,
  "ĠìŀĲìĭł": 747,
  "ĠìŀĲìĭłê³¼": 6134,
  "ĠìŀĲìĭłëıĦ": 6838,
  "ĠìŀĲìĭłëĵ¤ìĿĺ": 6716,
  "ĠìŀĲìĭłìĹĲê²Į": 4833,
  "ĠìŀĲìĭłìĿ´": 1720,
  "ĠìŀĲìĭłìĿĢ": 4532,
  "ĠìŀĲìĭłìĿĦ": 2329,
  "ĠìŀĲìĭłìĿĺ": 1237,
  "ĠìŀĲìĹ°": 2796,
  "ĠìŀĲìĽĲ": 6344,
  "ĠìŀĲìľł": 2259,
  "ĠìŀĲìĿ´": 6456,
  "Ġìŀĳ": 732,
  "Ġìŀĳê°Ģ": 3983,
  "Ġìŀĳê°Ģê°Ģ": 7420,
  "Ġìŀĳê°ĢìĿĺ": 7728,
  "Ġìŀĳê³¡": 3722,
  "ĠìŀĳëıĻ": 6141,
  "Ġìŀĳì¤ĳ": 2412,
  "Ġìŀĳì¤ĳìĹĲìĦľ": 6699,
  "ĠìŀĳìĦ±": 4983,
  "ĠìŀĳìĹħ": 4135,
  "Ġìŀĳìļ©": 6827,
  "ĠìŀĳìĿĢ": 2788,
  "ĠìŀĳìłĦ": 5931,
  "ĠìŀĳíĴĪ": 1568,
  "ĠìŀĳíĴĪìĿĺ": 6873,
  "ĠìŀĶ": 2125,
  "Ġìŀĺ": 879,
  "Ġìŀĺëª»": 2613,
  "Ġìŀł": 1407,
  "Ġìŀłê¹Ĳ": 4490,
  "ĠìŀłìĪĺ": 7508,
  "Ġìŀłìĭľ": 3269,
  "ĠìŀŃ": 4508,
  "Ġìł": 302,
  "Ġìł¤": 7350,
  "ĠìłĢ": 842,
  "ĠìłĢê²©": 4445,
  "ĠìłĢê·¸": 6704,
  "ĠìłĢëħģ": 6203,
  "ĠìłĢëĬĶ": 7736,
  "ĠìłĢëŁ°": 7883,
  "ĠìłĢëł´": 7922,
  "ĠìłĢì£¼": 7211,
  "ĠìłĢì§Ģ": 3606,
  "ĠìłĢìŀ¥": 7404,
  "ĠìłĢíķŃ": 4264,
  "Ġìłģ": 648,
  "Ġìłģê·¹": 4083,
  "Ġìłģê·¹ìłģìľ¼ë¡ľ": 6275,
  "ĠìłģëĮĢ": 7116,
  "ĠìłģëıĦ": 5554,
  "Ġìłģìĸ´ëıĦ": 5938,
  "ĠìłģìĹĲê²Į": 5389,
  "Ġìłģìļ©": 2265,
  "ĠìłģìĿ´": 1960,
  "ĠìłģìĿĢ": 3254,
  "ĠìłģìĿĦ": 3036,
  "ĠìłģìĿĳ": 6979,
  "ĠìłģìĿĺ": 4330,
  "ĠìłģìłĪ": 4171,
  "ĠìłģìłĪíķľ": 7243,
  "ĠìłģíĺĢ": 7729,
  "ĠìłĦ": 409,
  "ĠìłĦê°ľ": 3799,
  "ĠìłĦêµŃ": 3615,
  "ĠìłĦê¸°": 4363,
  "ĠìłĦê¹Įì§Ģ": 6738,
  "ĠìłĦë©´": 7373,
  "ĠìłĦë©¸": 7673,
  "ĠìłĦë¬¸": 2968,
  "ĠìłĦë°ĺ": 3251,
  "ĠìłĦë¶Ģ": 1901,
  "ĠìłĦë¶ĢíĦ°": 7678,
  "ĠìłĦëĭ¬": 5530,
  "ĠìłĦëŀµ": 3608,
  "ĠìłĦëł¥": 7213,
  "ĠìłĦì§ģ": 7427,
  "ĠìłĦì°¨": 3277,
  "ĠìłĦì²´": 1815,
  "ĠìłĦì²´ìłģìľ¼ë¡ľ": 5586,
  "ĠìłĦìĤ¬": 4383,
  "ĠìłĦìĦ¤": 3444,
  "ĠìłĦìĦ±": 7330,
  "ĠìłĦìĪł": 4987,
  "ĠìłĦìĹĲ": 2227,
  "ĠìłĦìĹĲëĬĶ": 7224,
  "ĠìłĦìļ©": 3013,
  "ĠìłĦìĽĲ": 7015,
  "ĠìłĦìŀĲ": 5372,
  "ĠìłĦìŀĳ": 3130,
  "ĠìłĦìŁģ": 1923,
  "ĠìłĦìŁģìĿĦ": 7113,
  "ĠìłĦíĨµ": 4116,
  "ĠìłĦíĪ¬": 1337,
  "ĠìłĦíĪ¬ë¥¼": 6591,
  "ĠìłĦíĪ¬ìĹĲìĦľ": 6859,
  "ĠìłĦíķ¨": 7712,
  "ĠìłĦíĺĢ": 2196,
  "ĠìłĦíĺķ": 6630,
  "ĠìłĦíĺķìłģìĿ¸": 7592,
  "ĠìłĦíĻĶ": 6360,
  "ĠìłĦíĻĺ": 4435,
  "ĠìłĦíĽĦ": 7291,
  "ĠìłĪ": 1350,
  "ĠìłĪë§Ŀ": 6437,
  "ĠìłĪë°ĺ": 5650,
  "ĠìłĪëĮĢ": 2838,
  "ĠìłĪëĮĢë¡ľ": 6990,
  "ĠìłĬìĿĢ": 4449,
  "ĠìłĲ": 870,
  "ĠìłĲëł¹": 4874,
  "ĠìłĲì°¨": 6443,
  "ĠìłĲìĪĺ": 7733,
  "ĠìłĲìĹĲìĦľ": 4286,
  "ĠìłĲìĿ´": 3970,
  "ĠìłĲìĿ´ëĭ¤": 6720,
  "ĠìłĲìĿĢ": 4278,
  "ĠìłĲìĿĦ": 3568,
  "ĠìłĲìłĲ": 3565,
  "ĠìłĲíĶĦ": 4492,
  "Ġìłĳ": 1669,
  "Ġìłĳê·¼": 3592,
  "Ġìłĳì´ī": 7647,
  "ĠìłĳìĨį": 7821,
  "Ġìłķ": 438,
  "Ġìłķê·ľ": 4113,
  "Ġìłķê¸Ģ": 5623,
  "Ġìłķë¥ĺ": 7066,
  "Ġìłķë¦¬": 3786,
  "Ġìłķë§Ĳ": 1872,
  "Ġìłķë§Ĳë¡ľ": 5312,
  "Ġìłķë³´": 2089,
  "Ġìłķë³´ë¥¼": 4527,
  "Ġìłķë¶Ģ": 2309,
  "Ġìłķëĭ¹": 6047,
  "ĠìłķëıĦ": 837,
  "ĠìłķëıĦê°Ģ": 6183,
  "ĠìłķëıĦë¡ľ": 1553,
  "ĠìłķëıĦëĬĶ": 5374,
  "ĠìłķëıĦëĭ¤": 6808,
  "ĠìłķëıĦìĿĺ": 3067,
  "Ġìłķëł¹": 6369,
  "Ġìłķì§Ģ": 7436,
  "Ġìłķì°©": 7494,
  "Ġìłķì±ħ": 4354,
  "Ġìłķì²´": 5704,
  "Ġìłķì²´ë¥¼": 7998,
  "Ġìłķì¹ĺ": 2258,
  "Ġìłķì¹ĺìłģ": 7273,
  "Ġìłķìĥģ": 3711,
  "ĠìłķìĭĿ": 4042,
  "Ġìłķìĭł": 1989,
  "ĠìłķìĭłìĿĦ": 7362,
  "ĠìłķìĿĺ": 4374,
  "Ġìłķìŀĳ": 3155,
  "ĠìłķíĻķ": 2369,
  "ĠìłķíĻķíķľ": 6889,
  "ĠìłķíĻķíŀĪ": 5672,
  "ĠìłķíĻķíŀĪëĬĶ": 6916,
  "Ġìłľ": 489,
  "Ġìłľê°Ģ": 6921,
  "Ġìłľê±°": 3674,
  "Ġìłľê³µ": 2793,
  "ĠìłľêµŃ": 3028,
  "ĠìłľêµŃìĿĺ": 6751,
  "Ġìłľê¸°": 5744,
  "Ġìłľë¡ľ": 5677,
  "Ġìłľëª©": 3564,
  "Ġìłľë²ķ": 6021,
  "ĠìłľëĮĢë¡ľ": 1879,
  "Ġìłľì¡°": 5643,
  "Ġìłľì£¼": 6238,
  "Ġìłľìĭľ": 4495,
  "ĠìłľìķĪ": 5381,
  "Ġìłľìķķ": 4610,
  "ĠìłľìĻ¸": 1682,
  "ĠìłľìĻ¸íķĺê³ł": 4960,
  "ĠìłľìĻ¸íķĺë©´": 3715,
  "ĠìłľìĻ¸íķľ": 3220,
  "ĠìłľìĿ´": 5809,
  "ĠìłľìĿ¼": 3245,
  "Ġìłľìŀĳ": 1663,
  "ĠìłľíĴĪ": 3427,
  "Ġìłľíķľ": 2924,
  "Ġìłł": 5799,
  "Ġí": 270,
  "ĠíĢ": 1884,
  "ĠíĢ¸": 7090,
  "ĠíĢĦ": 5986,
  "ĠíĢĦë¦¬íĭ°": 7009,
  "ĠíĢĺ": 2923,
  "ĠíĢĺìĬ¤íĬ¸": 3122,
  "Ġíģ": 821,
  "Ġíģ¬": 857,
  "Ġíģ¬ê²Į": 1804,
  "Ġíģ¬ê³ł": 6385,
  "Ġíģ¬ë¡ľ": 3026,
  "Ġíģ¬ë¡ľìĬ¤": 7042,
  "Ġíģ¬ë£¨": 6534,
  "Ġíģ¬ë¦¬": 5890,
  "Ġíģ¬ë¦¬ìĬ¤": 3193,
  "Ġíģ¬ëĭ¤": 4716,
  "Ġíģ¬ëłĪ": 6373,
  "Ġíģ°": 1238,
  "Ġíģ´": 1195,
  "Ġíģ´ë¡ľ": 5705,
  "Ġíģ´ë¦¬": 6118,
  "Ġíģ´ë¦¬ìĸ´": 2911,
  "Ġíģ´ëŀĺ": 3797,
  "Ġíģ´ëŁ½": 5342,
  "ĠíģĲ": 4347,
  "ĠíĤ": 1043,
  "ĠíĤ¤": 1165,
  "ĠíĤ¬": 4101,
  "ĠíĤ¹": 3968,
  "Ġíĥ": 492,
  "Ġíĥ±": 3417,
  "Ġíĥ±ì»¤": 6931,
  "ĠíĥĢ": 701,
  "ĠíĥĢê²©": 3775,
  "ĠíĥĢê³ł": 2874,
  "ĠíĥĢì¹´": 4145,
  "ĠíĥĢì¼Ģ": 7770,
  "ĠíĥĢìĽĮ": 6724,
  "ĠíĥĢìĿ´": 1798,
  "ĠíĥĢìĿ´ë°į": 4875,
  "ĠíĥĢìĿ´íĭĢ": 4444,
  "ĠíĥĢìŀĦ": 5316,
  "ĠíĥĢìŀħ": 3701,
  "Ġíĥģ": 6428,
  "ĠíĥĦ": 1608,
  "ĠíĥĦìĥĿ": 5535,
  "ĠíĥĪ": 1507,
  "ĠíĥĪëĿ½": 4007,
  "ĠíĥĪì¶ľ": 3534,
  "ĠíĥĲ": 2832,
  "Ġíĥĳ": 2045,
  "ĠíĥĳìĬ¹": 5257,
  "Ġíĥĳìŀ¬": 4597,
  "Ġíĥĵ": 2824,
  "ĠíĥĵìĹĲ": 3864,
  "Ġíĥľ": 1214,
  "Ġíĥľìĸ´": 6328,
  "Ġíĥľìĸ´ëĤĺ": 7536,
  "Ġíĥľìĸ´ëĤľ": 7306,
  "Ġíĥľìĸĳ": 4902,
  "ĠíĥĿ": 4283,
  "ĠíĦ": 1219,
  "ĠíĦ°": 1534,
  "ĠíĦ°ëľ¨": 7834,
  "ĠíĦ´": 4050,
  "ĠíĦ¸": 3473,
  "Ġíħ": 1044,
  "ĠíħĮ": 1248,
  "ĠíħĮë§Ī": 5660,
  "ĠíħĮëŀĢ": 7386,
  "ĠíħĮëŁ¬": 5081,
  "ĠíħĮìĬ¤íĬ¸": 7898,
  "ĠíħĮìĿ´": 5954,
  "ĠíħĮíģ¬": 5990,
  "Ġíħį": 6432,
  "ĠíħĲ": 4327,
  "ĠíħĶ": 5855,
  "ĠíħĶëłĪ": 7272,
  "Ġíħľ": 5876,
  "ĠíĨ": 632,
  "ĠíĨµ": 817,
  "ĠíĨµê³¼": 4506,
  "ĠíĨµìĥģ": 7944,
  "ĠíĨµìĭł": 6684,
  "ĠíĨµìĿ¼": 5787,
  "ĠíĨµìłľ": 7150,
  "ĠíĨµíķ©": 4132,
  "ĠíĨµíķ´": 1477,
  "ĠíĨµíķ´ìĦľ": 5476,
  "ĠíĨµíķľ": 5687,
  "ĠíĨł": 1095,
  "ĠíĨłëª¨": 7571,
  "Ġíĩ´": 2550,
  "ĠíĪ": 6233,
  "ĠíĪ¬": 1125,
  "ĠíĪ¬ìĪĺ": 4834,
  "ĠíĪ¬ìŀħ": 3938,
  "ĠíĪ¬ìŀĲ": 4643,
  "ĠíĪ¬íĳľ": 5216,
  "ĠíĬ": 670,
  "ĠíĬ¸": 1052,
  "ĠíĬ¸ë¡ľ": 7271,
  "ĠíĬ¸ë¦¬": 4275,
  "ĠíĬ¸ëŀĻ": 6390,
  "ĠíĬ¸ëłĪ": 5976,
  "ĠíĬ¸ëłĪìĿ´": 5107,
  "ĠíĬ¸ìľĦ": 4032,
  "ĠíĬ¸ìľĦíĦ°": 6180,
  "ĠíĬ¹": 703,
  "ĠíĬ¹ë³Ħ": 2885,
  "ĠíĬ¹ë³Ħíķľ": 6133,
  "ĠíĬ¹ì§ķ": 2537,
  "ĠíĬ¹ìĦ±": 2492,
  "ĠíĬ¹ìĦ±ìĥģ": 4221,
  "ĠíĬ¹ìĪĺ": 2335,
  "ĠíĬ¹ìľłìĿĺ": 3933,
  "ĠíĬ¹ìĿ´": 3453,
  "ĠíĬ¹ìĿ´íķľ": 6770,
  "ĠíĬ¹ìłķ": 3363,
  "ĠíĬ¹íŀĪ": 1395,
  "ĠíĬĢ": 3789,
  "ĠíĬĢìĸ´ëĤĺ": 6689,
  "ĠíĬľ": 7219,
  "Ġíĭ": 1403,
  "Ġíĭ°": 1933,
  "ĠíĭĢ": 3132,
  "ĠíĭĪ": 4870,
  "ĠíĮ": 455,
  "ĠíĮ¨": 889,
  "ĠíĮ¨ë°°": 2326,
  "ĠíĮ¨ëŁ¬": 4269,
  "ĠíĮ¨ëŁ¬ëĶĶ": 5197,
  "ĠíĮ¨ì¹ĺ": 4201,
  "ĠíĮ¨ì¹ĺë¡ľ": 5891,
  "ĠíĮ¨ìĭľë¸Į": 5943,
  "ĠíĮ¨íĦ´": 2386,
  "ĠíĮ¨íĦ´ìĿ´": 7407,
  "ĠíĮ©": 4953,
  "ĠíĮ¬": 1405,
  "ĠíĮ¬ëį¤": 6928,
  "ĠíĮ¬ëĵ¤ìĿ´": 6425,
  "ĠíĮ¬ëĵ¤ìĿĢ": 6478,
  "ĠíĮ¬ëĵ¤ìĿĺ": 7086,
  "ĠíĮĢ": 1142,
  "ĠíĮĢìĿ´": 4579,
  "ĠíĮĢìĿĢ": 5966,
  "ĠíĮĢìĿĦ": 5009,
  "ĠíĮĢìĿĺ": 4006,
  "ĠíĮĮ": 702,
  "ĠíĮĮê²¬": 6667,
  "ĠíĮĮê´´": 2114,
  "ĠíĮĮëĿ¼": 7603,
  "ĠíĮĮëŀĢ": 6544,
  "ĠíĮĮìķħ": 4637,
  "ĠíĮĮìĽĮ": 2987,
  "ĠíĮĮìĿ´": 3697,
  "ĠíĮĮìĿ´ëĦĲ": 6492,
  "ĠíĮĮìĿ´ìĸ´": 6656,
  "ĠíĮĮìĿ´íĦ°": 6372,
  "ĠíĮĮìĿ¼": 4166,
  "ĠíĮĮìĿ¼ëŁ¿": 6481,
  "ĠíĮĮíĬ¸": 5092,
  "ĠíĮĮíĬ¸ëĦĪ": 7233,
  "ĠíĮĮíĭ°": 3644,
  "ĠíĮĲ": 1148,
  "ĠíĮĲë§¤": 2535,
  "ĠíĮĲëĭ¨": 3437,
  "ĠíĮĲìłķ": 6837,
  "ĠíĮĲíĥĢ": 5749,
  "ĠíĮĲíĥĢì§Ģ": 7158,
  "ĠíĮĶ": 1718,
  "ĠíĮĿ": 6693,
  "Ġíį¼": 1922,
  "Ġíİ": 1531,
  "Ġíİ¸": 875,
  "Ġíİ¸ì§ĳ": 5054,
  "Ġíİ¸ìĦ±": 7284,
  "Ġíİ¸ìĿ´": 5812,
  "Ġíİ¸ìĿ´ëĭ¤": 2404,
  "Ġíİ¸ìĿĺ": 6469,
  "Ġíİ¼": 3141,
  "Ġíİ¼ì³Ĳ": 6567,
  "ĠíİĢ": 6554,
  "Ġíİĺ": 1341,
  "Ġíİĺë¥´": 5592,
  "ĠíİĺìĿ´": 4636,
  "ĠíİĺìĿ´ì§Ģ": 7847,
  "ĠíİĺìĿ´ìĬ¤": 7331,
  "Ġíİľ": 4662,
  "Ġíİł": 7718,
  "Ġíı": 497,
  "Ġíı¬": 738,
  "Ġíı¬ê¸°": 3454,
  "Ġíı¬ë¥´": 5754,
  "Ġíı¬ì§Ģìħĺ": 3929,
  "Ġíı¬ì¼ĵ": 3323,
  "Ġíı¬ì¼ĵëª¬": 3504,
  "Ġíı¬ìĬ¤íĬ¸": 7518,
  "Ġíı¬ìĿ¸": 6082,
  "Ġíı¬ìĿ¸íĬ¸": 5211,
  "Ġíı¬íĥĳ": 6997,
  "Ġíı¬íķ¨": 1995,
  "Ġíı¬íķ¨íķľ": 4976,
  "Ġíı°": 5764,
  "Ġíı´": 2870,
  "Ġíı¼": 5755,
  "Ġíıī": 906,
  "Ġíıīê°Ģ": 1814,
  "Ġíıīê°Ģê°Ģ": 6225,
  "Ġíıīê°Ģë¥¼": 4773,
  "Ġíıīê·ł": 3819,
  "Ġíıīë²Ķ": 3740,
  "Ġíıīë²Ķíķľ": 4595,
  "ĠíıīìĨĮ": 3800,
  "ĠíıīìĿ´": 7160,
  "ĠíıīíĻĶ": 6521,
  "ĠíıĲ": 2217,
  "ĠíıĲì§Ģ": 6766,
  "ĠíıŃ": 1187,
  "ĠíıŃë°ľ": 2765,
  "ĠíıŃì£¼": 6923,
  "ĠíıŃíĥĦ": 5310,
  "ĠíıŃíĴį": 6332,
  "Ġíĳ¸": 2732,
  "Ġíĳ¸ë¥¸": 6291,
  "Ġíĳľ": 1078,
  "Ġíĳľê¸°": 3816,
  "Ġíĳľì¤Ģ": 6101,
  "Ġíĳľìĭľ": 4149,
  "ĠíĳľíĺĦ": 2310,
  "ĠíĴ": 1155,
  "ĠíĴĢ": 1621,
  "ĠíĴĢìĸ´": 6685,
  "ĠíĴĪ": 3348,
  "ĠíĴį": 2393,
  "Ġíĵ¨": 6381,
  "ĠíĶ": 485,
  "ĠíĶ¼": 799,
  "ĠíĶ¼ë¥¼": 7259,
  "ĠíĶ¼ìķĦ": 5919,
  "ĠíĶ¼íķ´": 1580,
  "ĠíĶ¼íķ´ë¥¼": 2991,
  "ĠíĶ½": 4248,
  "ĠíĶĦ": 781,
  "ĠíĶĦë¡ľ": 1201,
  "ĠíĶĦë¡ľê·¸ëŀ¨": 2803,
  "ĠíĶĦë¡ľëĵĢ": 5082,
  "ĠíĶĦë¡ľìłĿ": 4415,
  "ĠíĶĦë¡ľìłĿíĬ¸": 6884,
  "ĠíĶĦë¡ľíĨł": 5927,
  "ĠíĶĦë¦¬": 2192,
  "ĠíĶĦë¦¬ë¯¸": 6733,
  "ĠíĶĦë¦°": 7288,
  "ĠíĶĦëĿ¼": 7668,
  "ĠíĶĦëŀĳ": 2315,
  "ĠíĶĦëŀĳìĬ¤": 3329,
  "ĠíĶĦëłĪ": 4064,
  "ĠíĶĮ": 948,
  "ĠíĶĮëĿ¼": 5969,
  "ĠíĶĮëŀĺ": 4558,
  "ĠíĶĮëłĪ": 7216,
  "ĠíĶĮëłĪìĿ´": 1198,
  "ĠíĶĮëłĪìĿ´ë¥¼": 6499,
  "ĠíĶĮëłĪìĿ´ìĸ´": 2193,
  "ĠíĶĮëłĪìĿ´ìĸ´ê°Ģ": 5392,
  "Ġíķ": 415,
  "Ġíķ¨": 854,
  "Ġíķ¨ê»ĺ": 1031,
  "Ġíķ¨ìłķ": 6606,
  "Ġíķ©": 1269,
  "Ġíķ©ê²©": 6902,
  "Ġíķ©ë¥ĺ": 3944,
  "Ġíķ©ëĭĪëĭ¤": 6365,
  "Ġíķ©ì³Ĳ": 6869,
  "Ġíķ©ìĦ±": 7990,
  "Ġíķ«": 7209,
  "Ġíķ´": 541,
  "Ġíķ´ê²°": 2631,
  "Ġíķ´êµ°": 5110,
  "Ġíķ´ê¸Ī": 5311,
  "Ġíķ´ë°©": 6296,
  "Ġíķ´ë³ĳ": 7667,
  "Ġíķ´ëĭ¹": 1411,
  "Ġíķ´ëĭ¹íķĺëĬĶ": 6245,
  "Ġíķ´ëıĦ": 1921,
  "Ġíķ´ì£¼": 4806,
  "Ġíķ´ì²´": 6216,
  "Ġíķ´ìĦ¤": 5322,
  "Ġíķ´ìĦľ": 2339,
  "Ġíķ´ìĦĿ": 4593,
  "Ġíķ´ìķ¼": 2806,
  "Ġíķ´ìĻ¸": 3605,
  "Ġíķ´ìłģ": 6306,
  "Ġíķ´ìłľ": 5822,
  "Ġíķµ": 2616,
  "Ġíķµìĭ¬": 4830,
  "Ġíķ¸": 5282,
  "ĠíķĢ": 6027,
  "ĠíķĦ": 987,
  "ĠíķĦëĵľ": 7094,
  "ĠíķĦìĤ´": 4628,
  "ĠíķĦìĪĺ": 4754,
  "ĠíķĦìļĶ": 1340,
  "ĠíķĦìļĶê°Ģ": 4254,
  "ĠíķĦìļĶíķĺëĭ¤": 4994,
  "ĠíķĦìļĶíķľ": 3227,
  "Ġíķĳ": 5479,
  "Ġíķĺ": 371,
  "Ġíķĺê±°ëĤĺ": 6136,
  "Ġíķĺê²Į": 3349,
  "Ġíķĺê³ł": 1188,
  "Ġíķĺê¸°": 2850,
  "Ġíķĺê¸°ëıĦ": 5410,
  "Ġíķĺë£¨": 2353,
  "Ġíķĺë©°": 2049,
  "Ġíķĺë©´": 2028,
  "Ġíķĺë©´ìĦľ": 2897,
  "ĠíķĺëĤĺ": 953,
  "ĠíķĺëĤĺê°Ģ": 4940,
  "ĠíķĺëĤĺë¡ľ": 4242,
  "ĠíķĺëĤĺë¥¼": 5083,
  "ĠíķĺëĤĺëĬĶ": 6140,
  "ĠíķĺëĤĺëıĦ": 7604,
  "ĠíķĺëĤĺìĿ¸": 5988,
  "ĠíķĺëĤĺìĿĺ": 4219,
  "ĠíķĺëĬĶ": 908,
  "ĠíķĺëĬĶëį°": 2391,
  "ĠíķĺëĬĺ": 3104,
  "Ġíķĺëĭ¤": 1609,
  "Ġíķĺëĭ¤ê°Ģ": 5331,
  "ĠíķĺëĭĪ": 6253,
  "ĠíķĺëįĶëĿ¼ëıĦ": 5761,
  "Ġíķĺëįĺ": 5360,
  "Ġíķĺëĵľ": 4092,
  "ĠíķĺëĿ½": 7027,
  "Ġíķĺì§Ģ": 1852,
  "Ġíķĺì§Ģë§Į": 883,
  "ĠíķĺìĪĺ": 7525,
  "Ġíķĺìķ¼": 7625,
  "ĠíķĺìĸĢ": 7215,
  "ĠíķĺìĹ¬": 2919,
  "ĠíķĺìĺĢëĭ¤": 2828,
  "ĠíķĺìľĦ": 5598,
  "ĠíķĺìĿ´": 2614,
  "ĠíķĺìŀĲ": 2692,
  "ĠíķĺíķĦ": 6487,
  "ĠíķĻ": 1012,
  "ĠíķĻêµĲ": 2044,
  "ĠíķĻìĤ´": 6548,
  "ĠíķĻìĥĿ": 2020,
  "ĠíķĻìĥĿëĵ¤ìĿ´": 7844,
  "ĠíķĻìĽĲ": 7111,
  "Ġíķľ": 394,
  "Ġíķľê³Ħ": 6988,
  "ĠíķľêµŃ": 1047,
  "ĠíķľêµŃìĸ´": 5918,
  "ĠíķľêµŃìĹĲìĦľ": 7378,
  "ĠíķľêµŃìĿĺ": 3909,
  "Ġíķľê¸Ģ": 6504,
  "Ġíķľë§Ī": 5750,
  "Ġíķľë²Ī": 2223,
  "Ġíķľëĭ¤": 616,
  "Ġíķľëĭ¤ê³ł": 4381,
  "Ġíķľëĭ¤ë©´": 6623,
  "Ġíķľëĭ¤ëĬĶ": 3435,
  "Ġíķľëį°": 6426,
  "ĠíķľëıĻìķĪ": 6566,
  "ĠíķľëķĮ": 5620,
  "Ġíķľìª½": 7784,
  "Ġíķľì°¸": 6448,
  "ĠíķľìŀĲ": 7164,
  "Ġíķľìłķ": 2825,
  "Ġíķľìłķìľ¼ë¡ľ": 7861,
  "ĠíķľíĥĢ": 7292,
  "Ġíķľíİ¸": 2857,
  "ĠíķľíĻĶ": 6768,
  "Ġíķł": 853,
  "Ġíķłë¨¸ëĭĪ": 6840,
  "ĠíķłìķĦë²Ħ": 6858,
  "ĠíķŃ": 1246,
  "ĠíķŃê³µ": 3397,
  "ĠíķŃëª©": 2882,
  "ĠíķŃìĥģ": 2927,
  "Ġíĸ": 548,
  "Ġíĸ¥": 1805,
  "Ġíĸ¥ìĥģ": 7527,
  "Ġíĸ¥íķ´": 4788,
  "ĠíĸĪ": 1030,
  "ĠíĸĪê³ł": 4035,
  "ĠíĸĪëĬĶëį°": 3648,
  "ĠíĸĪëĭ¤": 1051,
  "ĠíĸĪëĭ¤ê³ł": 5170,
  "ĠíĸĪëĭ¤ëĬĶ": 6991,
  "ĠíĸĪëįĺ": 3439,
  "ĠíĸĪì§Ģë§Į": 2406,
  "ĠíĸĪìľ¼ë©°": 7032,
  "ĠíĸĪìľ¼ëĤĺ": 3531,
  "ĠíĸĪìĿĦ": 5703,
  "Ġíĸī": 1024,
  "Ġíĸīë³µ": 3957,
  "ĠíĸīëıĻ": 2111,
  "ĠíĸīëıĻìĿĦ": 5401,
  "ĠíĸīìĤ¬": 6130,
  "ĠíĸīìĦ±": 7185,
  "ĠíĸīìľĦ": 7397,
  "Ġíĸīìłķ": 4080,
  "ĠíĹ": 815,
  "ĠíĹ¤": 1648,
  "ĠíĹ¤ëĵľ": 6418,
  "ĠíĹ¤ìĸ´": 6480,
  "ĠíĹ¨": 7664,
  "ĠíĹ¬": 2749,
  "ĠíĹĪ": 1379,
  "ĠíĹĪëĤĺ": 7316,
  "ĠíĹĪìļ©": 4876,
  "ĠíĹĮ": 2786,
  "ĠíĹĮíĦ°": 7923,
  "ĠíĹĺ": 7367,
  "ĠíĹĽ": 7324,
  "Ġíĺ": 464,
  "Ġíĺ¸": 969,
  "Ġíĺ¸íħĶ": 7389,
  "Ġíĺ¸íıī": 6164,
  "Ġíĺ¹": 1827,
  "Ġíĺ¹ìĭľ": 7710,
  "Ġíĺ¹ìĿĢ": 2253,
  "Ġíĺ¼": 1468,
  "Ġíĺ¼ëŀĢ": 5359,
  "Ġíĺ¼ìŀĲ": 2586,
  "Ġíĺ¼ìŀĲìĦľ": 5908,
  "Ġíĺģ": 4635,
  "ĠíĺĦ": 771,
  "ĠíĺĦëĮĢ": 2771,
  "ĠíĺĦì§Ģ": 7013,
  "ĠíĺĦìĥģ": 6512,
  "ĠíĺĦìĭ¤": 2405,
  "ĠíĺĦìŀ¬": 1272,
  "ĠíĺĦìŀ¬ëĬĶ": 3125,
  "ĠíĺĦìŀ¬ìĿĺ": 5965,
  "ĠíĺĪ": 3553,
  "ĠíĺĲ": 4575,
  "Ġíĺĳ": 1983,
  "Ġíĺĳë°ķ": 6932,
  "Ġíĺĳëł¥": 6397,
  "Ġíĺķ": 1136,
  "ĠíĺķìĦ±": 4990,
  "Ġíĺķìłľ": 5934,
  "Ġíĺķíĥľ": 2145,
  "Ġíĺķíĥľë¡ľ": 4934,
  "ĠíĺķíĥľìĿĺ": 6750,
  "Ġíĺľ": 4989,
  "ĠíĻ": 463,
  "ĠíĻ©": 1427,
  "ĠíĻ©ê¸Ī": 5181,
  "ĠíĻ©ìłľ": 5632,
  "ĠíĻĢ": 3992,
  "ĠíĻĢë¡ľ": 6550,
  "ĠíĻĪ": 1981,
  "ĠíĻĪëŁ°": 4476,
  "ĠíĻĪíİĺìĿ´ì§Ģ": 4996,
  "ĠíĻį": 1802,
  "ĠíĻįë³´": 6032,
  "ĠíĻįì½©": 5689,
  "ĠíĻĶ": 926,
  "ĠíĻĶë¥¼": 7636,
  "ĠíĻĶë©´": 3840,
  "ĠíĻĶëł¤": 5735,
  "ĠíĻĶìĤ´": 5724,
  "ĠíĻĶìĹ¼": 4562,
  "ĠíĻĶìĿ´íĬ¸": 6619,
  "ĠíĻĶìŀ¥": 5997,
  "ĠíĻķ": 937,
  "ĠíĻķë¥ł": 2503,
  "ĠíĻķë¥łë¡ľ": 5455,
  "ĠíĻķë¥łìĿ´": 5528,
  "ĠíĻķë³´": 4459,
  "ĠíĻķì§Ħ": 7004,
  "ĠíĻķìĭ¤": 2489,
  "ĠíĻķìĭ¤íŀĪ": 4367,
  "ĠíĻķìĿ¸": 2231,
  "ĠíĻķìĿ¸íķł": 7624,
  "ĠíĻķìŀ¥": 4353,
  "ĠíĻķìłķ": 3357,
  "ĠíĻĺ": 1474,
  "ĠíĻĺê²½": 3546,
  "ĠíĻĺìĺģ": 7715,
  "ĠíĻľ": 1045,
  "ĠíĻľë°ľ": 7737,
  "ĠíĻľëıĻ": 1701,
  "ĠíĻľëıĻìĿĦ": 4740,
  "ĠíĻľìĦ±": 7187,
  "ĠíĻľìķ½": 2282,
  "ĠíĻľìķ½ìĿĦ": 5463,
  "ĠíĻľìļ©": 2585,
  "Ġíļ": 1037,
  "Ġíļ¡": 7856,
  "Ġíļ¨": 1222,
  "Ġíļ¨ê³¼": 1426,
  "Ġíļ¨ê³¼ê°Ģ": 3651,
  "Ġíļ¨ê³¼ë¥¼": 3445,
  "Ġíļ¨ê³¼ëĬĶ": 6573,
  "Ġíļ¨ìľ¨": 4869,
  "ĠíļĮ": 997,
  "ĠíļĮë³µ": 2345,
  "ĠíļĮìĤ¬": 3619,
  "ĠíļĮìĪĺ": 7867,
  "ĠíļĮìĿĺ": 7606,
  "ĠíļĮìłĦ": 6308,
  "ĠíļĮíĶ¼": 4320,
  "Ġíļį": 2715,
  "ĠíļįëĵĿ": 2932,
  "ĠíļŁ": 6904,
  "ĠíĽ": 1308,
  "ĠíĽ¨": 2524,
  "ĠíĽ¨ìĶ¬": 2562,
  "ĠíĽĦ": 615,
  "ĠíĽĦë°ĺ": 2093,
  "ĠíĽĦë³´": 2905,
  "ĠíĽĦì§Ģ": 7608,
  "ĠíĽĦì¿ł": 7681,
  "ĠíĽĦìĨį": 4280,
  "ĠíĽĦìĨįìŀĳ": 7580,
  "ĠíĽĦìĪł": 7842,
  "ĠíĽĦìĹĲ": 2762,
  "ĠíĽĦìĹĲëĬĶ": 5888,
  "ĠíĽĪ": 2506,
  "ĠíĽĪëł¨": 3281,
  "ĠíĽĮ": 4279,
  "ĠíĽĮë¥Ń": 4914,
  "ĠíĽĮë¥Ńíķľ": 6642,
  "ĠíĽĶ": 6077,
  "ĠíĽĹ": 7128,
  "ĠíĽĹëĤł": 7576,
  "Ġíľ": 1488,
  "Ġíľ´": 2295,
  "Ġíľ´ëĮĢ": 7985,
  "Ġíľĺ": 2508,
  "ĠíľĺëĳĲ": 7775,
  "ĠíĿ": 784,
  "ĠíĿ¡": 2836,
  "ĠíĿ¡ìĪĺ": 5134,
  "ĠíĿ¥": 2826,
  "ĠíĿ¥íĸī": 7643,
  "ĠíĿ¬": 1930,
  "ĠíĿ¬ë§Ŀ": 4439,
  "ĠíĿ¬ìĥĿ": 4031,
  "ĠíĿ°": 5380,
  "ĠíĿī": 4311,
  "ĠíĿĲ": 2899,
  "ĠíĿĳ": 2285,
  "ĠíĿĶ": 2140,
  "ĠíĿĶëĵ¤": 5428,
  "ĠíĿĶíŀĪ": 4919,
  "ĠíĿĺ": 3004,
  "ĠíĿĺëŁ¬": 5671,
  "ĠíĿł": 7757,
  "Ġíŀ": 970,
  "ĠíŀĪ": 1191,
  "ĠíŀĪë¡ľ": 3237,
  "ĠíŀĪìĸ´ë¡ľ": 4235,
  "ĠíŀĪíĬ¸": 5285,
  "ĠíŀĲ": 3801,
  "Ġíŀĺ": 1058,
  "Ġíŀĺëĵ¤": 2124,
  "Ġíŀĺëĵ¤ëĭ¤": 4895,
  "Ġíŀĺëĵ¤ìĸ´": 7627,
  "Ġíŀĺëĵł": 3962,
  "Ġíŀĺìľ¼ë¡ľ": 7093,
  "ĠíŀĺìĿ´": 4641,
  "ĠíŀĺìĿĦ": 2367,
  "ĠĊ": 1595,
  "ĠĠ": 264,
  "ĠĠĠ": 379,
  "ĠĠĠĠ": 316,
  "ĠĠĠĠĠ": 539,
  "ĠĠĠĠĠĠ": 581,
  "ĠĠĠĠĠĠĠ": 1696,
  "ĠĠĠĠĠĠĠĠ": 1040,
  "ĠĠĠĠĠĠĠĠĠ": 2554,
  "ĠĠĠĠĠĠĠĠĠĠ": 1510,
  "ĠĠĠĠĠĠĠĠĠĠĠ": 3919,
  "ĠĠĠĠĠĠĠĠĠĠĠĠ": 4599,
  "ĠĠĠĠĠĠĠĠĠĠĠĠĠĠĠĠ": 3217,
  "ĠĠĠĠĠĠĠĠĠĠĠĠĠĠĠĠĠĠĠĠĠĠĠĠĠĠĠĠĠĠĠĠ": 7499,
  "ġ": 226,
  "Ģ": 227,
  "Ģë¡ľ": 1059,
  "Ģëĭ¤": 5531,
  "ĢìĿ´": 1083,
  "ģ": 228,
  "ģ¬": 509,
  "Ĥ": 229,
  "Ĥ¬": 309,
  "Ĥĺ": 315,
  "ĥ": 230,
  "ĥģ": 350,
  "ĥĿ": 461,
  "Ħ": 231,
  "ĦëĬĶ": 6495,
  "ħ": 232,
  "Ĩ": 233,
  "ĨĮ": 407,
  "Ĩį": 534,
  "ĩ": 234,
  "ĩ´": 1582,
  "ĩĮ": 2544,
  "Ī": 235,
  "Ī¬": 693,
  "Īëĭ¤": 327,
  "Īĺ": 332,
  "ī": 236,
  "ī´": 1616,
  "īìĿĢ": 3218,
  "īìŀ¥": 2195,
  "īĺ": 5064,
  "Ĭ": 237,
  "Ĭ¸": 387,
  "ĬìĿĢ": 2755,
  "Ĭľ": 6995,
  "ĭ": 238,
  "Į": 239,
  "ĮĢ": 322,
  "į": 240,
  "į¨": 1392,
  "į¼": 951,
  "İ": 241,
  "İ¸": 647,
  "İìĿĢ": 3470,
  "İĺ": 897,
  "ı": 242,
  "Ĳ": 243,
  "Ĳëĭ¤": 1803,
  "ĳ": 244,
  "ĳ¸": 2086,
  "ĳ¼": 7655,
  "ĳĲ": 558,
  "ĳľ": 697,
  "Ĵ": 245,
  "ĵ": 246,
  "ĵ¨": 2866,
  "Ķ": 247,
  "Ķëĭ¤": 1107,
  "ķ": 248,
  "ķĮ": 423,
  "ĸ": 249,
  "ĸ´": 310,
  "ĸìĹĲ": 1649,
  "Ĺ": 250,
  "ĺ": 251,
  "Ļ": 252,
  "ļ": 253,
  "ļĮ": 537,
  "Ľ": 254,
  "Ľ°": 1602,
  "ĽĦ": 454,
  "ľ": 255,
  "Ŀ": 256,
  "Ŀ¼": 324,
  "Ŀ½": 1072,
  "ŀ": 257,
  "ŀĪ": 441,
  "Ł": 258,
  "ŁìķĦ": 4247,
  "Łģ": 1216,
  "ŁĪ": 6536,
  "ł": 259,
  "Ń": 260,
  "Ńī": 5144
}
