<p>	0
<unk>	0
<s>	0
</s>	0
▁	-2.98255
.	-3.53796
,	-3.7188
:	-4.56246
s	-4.56862
의	-4.84588
-	-5.12817
이	-5.13188
▁-	-5.28302
을	-5.28944
에	-5.36843
가	-5.40523
'	-5.45697
는	-5.48568
▁the	-5.49132
일	-5.49377
▁3	-5.57573
;	-5.58539
px	-5.6136
로	-5.63683
▁2	-5.64158
은	-5.64598
를	-5.66298
월	-5.70847
년	-5.72348
▁1	-5.75247
▁I	-5.8381
▁of	-5.84024
▁:	-5.84983
"	-5.87356
t	-5.88416
/	-5.91492
m	-5.91642
도	-5.95439
지	-5.95811
▁and	-6.03885
e	-6.05487
한	-6.06406
2	-6.11681
에서	-6.13628
기	-6.14279
!	-6.15237
리	-6.15728
d	-6.16216
▁S	-6.17167
고	-6.17619
ing	-6.18514
▁to	-6.18904
▁/	-6.18919
인	-6.19526
y	-6.20606
▁이	-6.2143
▁a	-6.26647
▁A	-6.27496
▁in	-6.27668
스	-6.30297
으로	-6.33501
시	-6.34048
어	-6.34469
▁"	-6.37162
n	-6.37187
ed	-6.37516
▁4	-6.3752
사	-6.37879
과	-6.39051
와	-6.39895
다	-6.39922
▁수	-6.40196
▁you	-6.43867
="	-6.48093
a	-6.48241
▁style	-6.49675
▁5	-6.49921
er	-6.50751
wiki	-6.50826
1	-6.54205
3	-6.56072
S	-6.56123
▁B	-6.56218
라	-6.56742
▁{{{#!	-6.58873
?	-6.58896
▁C	-6.60307
자	-6.60424
▁The	-6.62703
c	-6.65003
in	-6.71187
나	-6.71259
▁10	-6.72863
해	-6.74555
▁D	-6.74741
이다	-6.74966
5	-6.75418
▁M	-6.76109
수	-6.76502
대	-6.76623
▁#	-6.76951
드	-6.77913
서	-6.7807
▁7	-6.80391
▁6	-6.80638
A	-6.80967
em	-6.82957
▁F	-6.83088
▁그	-6.83362
i	-6.84344
아	-6.84841
트	-6.85245
al	-6.85381
▁8	-6.85405
▁제	-6.85582
4	-6.85806
만	-6.85871
▁있다	-6.86413
f	-6.86455
M	-6.88658
D	-6.88979
▁P	-6.89407
re	-6.89562
장	-6.89675
▁E	-6.89837
o	-6.91863
▁T	-6.91925
원	-6.92205
▁19	-6.92363
B	-6.94039
▁+	-6.95595
r	-6.95743
전	-6.96656
T	-6.96745
위	-6.96858
▁me	-6.97599
하는	-6.98668
P	-6.98892
▁'	-6.99284
▁it	-6.99854
상	-7.00271
▁9	-7.01468
C	-7.01579
E	-7.04114
▁G	-7.04438
게	-7.04469
b	-7.04499
회	-7.05298
▁for	-7.06238
G	-7.06363
화	-7.06808
주	-7.07343
치	-7.07603
F	-7.07933
면	-7.08361
▁K	-7.08669
정	-7.09544
▁내	-7.0989
▁12	-7.09934
▁아	-7.09984
▁R	-7.11038
▁is	-7.11088
▁padding	-7.11571
▁background	-7.12134
6	-7.12233
p	-7.12545
할	-7.13886
부	-7.14957
명	-7.15837
_	-7.1609
오	-7.16959
▁be	-7.1718
▁11	-7.17256
size	-7.1758
▁전	-7.18701
성	-7.18901
▁font	-7.19235
니	-7.20278
display	-7.20382
en	-7.20479
h	-7.2076
margin	-7.21538
~	-7.21842
미	-7.22291
▁W	-7.22636
radius	-7.22748
마	-7.22769
K	-7.23017
▁inline	-7.23224
or	-7.23238
7	-7.2328
▁border	-7.23486
le	-7.23514
적	-7.23552
l	-7.23933
▁on	-7.24782
르	-7.25022
L	-7.25546
▁18	-7.2561
구	-7.26011
g	-7.26367
R	-7.26496
제	-7.26934
es	-7.28496
th	-7.28786
...	-7.28948
▁H	-7.29522
▁L	-7.30655
보	-7.31037
비	-7.31147
▁-1	-7.31188
요	-7.31461
▁마	-7.31794
▁that	-7.31951
▁J	-7.32691
하고	-7.32705
▁<	-7.33016
ly	-7.33357
u	-7.33703
타	-7.34321
▁중	-7.3442
▁&	-7.35655
▁시	-7.35656
on	-7.36363
우	-7.36649
▁N	-7.37338
▁my	-7.37769
진	-7.37931
’	-7.38056
an	-7.38184
H	-7.38279
하	-7.38288
W	-7.38614
야	-7.3872
O	-7.39589
us	-7.39728
8	-7.39767
I	-7.39788
▁나	-7.40021
▁오	-7.40057
▁사	-7.40216
0	-7.40396
소	-7.41527
▁20	-7.41592
)	-7.42582
한다	-7.43105
동	-7.43233
▁한	-7.43351
9	-7.43502
▁유	-7.44899
it	-7.45161
st	-7.45455
즈	-7.46123
개	-7.46481
호	-7.46914
차	-7.47704
Y	-7.48053
x	-7.48151
조	-7.48743
▁대	-7.48814
▁신	-7.48946
00	-7.49278
▁있는	-7.49344
▁~	-7.49689
▁다	-7.50126
ll	-7.50453
il	-7.50583
▁with	-7.50882
▁You	-7.51255
▁더	-7.51411
w	-7.51681
러	-7.51771
▁보	-7.52472
선	-7.53242
했다	-7.53662
ve	-7.53952
▁가	-7.5432
ar	-7.54522
된	-7.54853
▁de	-7.5534
▁15	-7.55403
▁미	-7.55534
들	-7.55708
단	-7.55836
▁주	-7.56616
▁16	-7.56947
루	-7.58497
형	-7.58801
용	-7.59295
카	-7.59677
▁or	-7.59924
el	-7.60057
▁In	-7.60322
▁V	-7.60634
크	-7.60904
▁re	-7.61172
▁your	-7.61183
신	-7.61653
k	-7.61731
▁말	-7.6197
10	-7.62581
et	-7.62731
▁지	-7.63176
V	-7.63606
▁f	-7.63629
식	-7.63769
노	-7.64038
모	-7.64131
▁0	-7.6414
N	-7.64226
ri	-7.65118
U	-7.6512
키	-7.65832
▁부	-7.66766
▁Re	-7.66886
ation	-7.66965
=	-7.67376
네	-7.67421
at	-7.68197
ra	-7.69658
ter	-7.69951
▁13	-7.70464
분	-7.70593
세	-7.70665
20	-7.70965
▁we	-7.71063
코	-7.71261
레	-7.71372
▁소	-7.72084
▁안	-7.72278
▁해	-7.72651
중	-7.72987
관	-7.73747
ur	-7.74096
://	-7.74263
is	-7.7447
▁때	-7.74621
z	-7.74928
v	-7.75192
te	-7.75614
그	-7.75686
▁비	-7.75865
▁기	-7.75876
산	-7.76419
영	-7.76578
▁by	-7.76857
▁14	-7.77203
곡	-7.77379
▁O	-7.77662
▁스	-7.77784
▁정	-7.78093
▁무	-7.78366
층	-7.78756
▁고	-7.79162
▁p	-7.79704
까지	-7.79711
토	-7.79847
프	-7.80372
력	-7.80398
▁후	-7.80571
체	-7.80998
▁난	-7.81036
▁공	-7.8127
국	-7.81373
▁2019	-7.81649
여	-7.82183
ff	-7.82432
▁2018	-7.82481
X	-7.83277
히	-7.83686
에게	-7.83908
ent	-7.84139
▁인	-7.84185
▁U	-7.84458
▁We	-7.84624
행	-7.84759
la	-7.84783
ro	-7.84928
방	-7.85454
문	-7.85597
▁17	-7.85684
>	-7.85746
de	-7.85952
id	-7.86082
30	-7.8626
▁조	-7.86273
려	-7.86475
세대	-7.86521
ia	-7.86662
▁김	-7.86826
:-2	-7.87003
▁자	-7.87039
▁→	-7.8706
,#	-7.87327
집	-7.87633
당	-7.87715
▁are	-7.87755
하게	-7.88722
▁can	-7.89101
바	-7.8918
▁동	-7.89689
▁어	-7.90199
▁거	-7.90407
▁하	-7.90536
▁No	-7.90761
계	-7.90787
+	-7.92006
들이	-7.92391
▁것	-7.92507
▁모	-7.92524
se	-7.92922
터	-7.92996
하여	-7.93021
com	-7.93034
무	-7.93212
▁up	-7.93252
래	-7.93445
급	-7.93583
."	-7.93706
▁Me	-7.93744
▁세	-7.94819
▁불	-7.94992
▁2020	-7.95054
ry	-7.95108
の	-7.95293
파	-7.95318
mm	-7.955
um	-7.95584
더	-7.95616
공	-7.95786
▁this	-7.95788
적인	-7.96002
판	-7.96182
▁개	-7.9626
▁한다	-7.96623
▁코	-7.96761
린	-7.97432
▁사용	-7.97505
▁not	-7.97529
▁do	-7.97768
티	-7.98017
포	-7.98106
강	-7.98327
ce	-7.985
연	-7.98914
디	-7.98984
▁2015	-7.99339
ir	-7.99497
데	-7.99711
업	-7.99741
역	-7.99764
되었다	-8.00085
번	-8.00274
▁so	-8.00276
▁연	-8.00396
▁all	-8.00671
내	-8.00752
유	-8.00772
▁as	-8.00896
▁두	-8.01411
19	-8.01481
권	-8.01599
▁구	-8.01678
에는	-8.01815
발	-8.01861
재	-8.0189
▁no	-8.02204
▁2017	-8.02321
간	-8.02828
▁앨범	-8.03324
24	-8.03494
▁상	-8.03498
안	-8.03894
▁It	-8.03956
▁30	-8.0421
▁총	-8.04447
ne	-8.04539
▁강	-8.04539
학	-8.04893
J	-8.04993
am	-8.05261
▁*	-8.05292
▁저	-8.05305
점	-8.05501
ol	-8.05629
&	-8.05696
▁및	-8.05792
테	-8.06394
ment	-8.06412
▁-2	-8.06498
▁la	-8.0665
▁b	-8.06808
▁날	-8.07328
11	-8.07329
▁X	-8.0754
경	-8.07644
민	-8.07969
스트	-8.08123
ine	-8.08269
ion	-8.08294
ic	-8.0839
▁적	-8.08417
초	-8.08425
군	-8.09289
운	-8.09496
li	-8.09759
50	-8.09819
▁모든	-8.09962
▁2016	-8.10069
▁love	-8.10258
버	-8.10308
》	-8.10697
하지	-8.10892
▁바	-8.10944
me	-8.1096
15	-8.11246
na	-8.11266
속	-8.11321
거	-8.11469
13	-8.11591
츠	-8.11616
man	-8.11691
물	-8.11883
▁go	-8.12313
▁And	-8.12372
금	-8.12616
co	-8.12696
▁from	-8.12765
▁알	-8.12921
40	-8.13334
ate	-8.13516
하면	-8.13774
12	-8.14086
석	-8.14117
▁포	-8.14164
▁will	-8.14222
ie	-8.14293
▁like	-8.14787
음	-8.14886
▁파	-8.1502
▁《	-8.1522
▁To	-8.15233
0%	-8.15665
▁25	-8.1571
▁was	-8.16257
에서는	-8.16676
▁-10	-8.16814
현	-8.16852
워	-8.16891
던	-8.17097
▁원	-8.1713
▁카	-8.17188
▁know	-8.17262
▁have	-8.17421
im	-8.17602
종	-8.18386
▁New	-8.18451
란	-8.18622
▁21	-8.18866
lo	-8.19297
14	-8.19411
▁역	-8.19447
▁예	-8.19821
▁La	-8.20095
25	-8.20131
un	-8.20257
▁Co	-8.20853
16	-8.21272
▁1.	-8.21281
▁at	-8.21313
18	-8.21355
적으로	-8.2166
to	-8.21707
▁he	-8.22105
▁재	-8.22133
법	-8.22223
편	-8.22308
▁걸	-8.22436
▁게임	-8.22491
▁하나	-8.22545
▁서	-8.22817
▁e	-8.22836
부터	-8.23178
하다	-8.23242
▁c	-8.23336
임	-8.23345
Z	-8.23416
ive	-8.23543
as	-8.23676
▁2013	-8.23784
작	-8.24189
병	-8.24192
실	-8.24437
▁피	-8.24501
son	-8.24577
ers	-8.246
age	-8.24646
되어	-8.24668
▁그리고	-8.24743
▁So	-8.24909
▁선	-8.24929
▁첫	-8.25265
▁Oh	-8.25385
▁Be	-8.25805
▁De	-8.25831
라는	-8.26184
▁할	-8.26212
▁24	-8.26294
▁사랑	-8.26426
▁Le	-8.26491
▁경우	-8.26522
www	-8.2681
ch	-8.26903
라고	-8.27029
mo	-8.27285
▁등	-8.27496
▁외	-8.27689
ot	-8.27708
쿠	-8.27826
▁우	-8.27877
▁같은	-8.27903
▁경	-8.27951
ta	-8.2816
▁단	-8.28355
▁다른	-8.28358
하였다	-8.2837
하기	-8.28624
된다	-8.28885
est	-8.28922
▁Z	-8.28988
▁도	-8.29038
ge	-8.29157
브	-8.29332
ist	-8.29508
▁곡	-8.29855
▁2012	-8.29921
ity	-8.29972
▁한국	-8.30097
▁위	-8.30365
반	-8.30564
ut	-8.30581
01	-8.3072
▁22	-8.30739
▁-5	-8.30871
교	-8.30991
질	-8.31064
▁2014	-8.31183
▁함께	-8.31336
▁이후	-8.31536
-1	-8.31753
건	-8.31857
17	-8.322
▁반	-8.33311
▁out	-8.3332
The	-8.33566
색	-8.33593
들을	-8.33704
sh	-8.33914
▁an	-8.33927
no	-8.33929
엔	-8.33983
▁장	-8.3399
be	-8.34111
ty	-8.34342
피	-8.34477
▁이상	-8.34937
21	-8.35351
보다	-8.3557
000	-8.35606
nd	-8.3561
pe	-8.36026
량	-8.36063
생	-8.36088
▁네	-8.36199
지만	-8.36264
ant	-8.36393
▁남	-8.36449
▁23	-8.3658
론	-8.36666
▁My	-8.36774
▁Mo	-8.37078
▁oh	-8.37379
22	-8.37463
ad	-8.37836
▁내가	-8.3803
설	-8.38416
저	-8.3844
80	-8.38666
▁시작	-8.3868
▁time	-8.38828
▁n	-8.38966
▁one	-8.39235
들은	-8.39303
▁추가	-8.39318
▁http	-8.39417
▁매	-8.3943
블	-8.3959
60	-8.3961
99	-8.39652
▁con	-8.40622
end	-8.40856
▁모두	-8.41036
▁박	-8.41336
▁실	-8.41448
메	-8.42113
48	-8.42164
며	-8.42195
ma	-8.42425
격	-8.42557
▁what	-8.42593
ig	-8.4267
▁너	-8.42766
▁성	-8.42775
▁못	-8.43044
▁28	-8.43151
승	-8.4318
28	-8.43393
▁=	-8.43548
▁대한	-8.4375
ang	-8.43983
너	-8.44012
술	-8.44107
%	-8.44367
함	-8.44484
▁Ma	-8.44497
▁배	-8.44537
▁d	-8.44928
▁여	-8.45132
!"	-8.45236
▁don	-8.45559
양	-8.45721
▁Con	-8.46008
▁노	-8.4616
배	-8.46236
▁타	-8.46407
▁버전	-8.46514
é	-8.46849
▁입	-8.4694
op	-8.47112
23	-8.47121
▁발매	-8.47907
▁본	-8.47963
ard	-8.47966
▁『	-8.48112
▁토	-8.48248
ha	-8.4826
▁된다	-8.48279
▁있어	-8.48297
▁호	-8.48467
5%	-8.48603
▁now	-8.48841
▁최	-8.48889
표	-8.4913
하며	-8.49164
▁건	-8.49354
▁Ha	-8.49504
▁He	-8.49519
▁26	-8.49639
언	-8.49952
」	-8.50115
▁수록	-8.50116
감	-8.50127
▁Ro	-8.50196
▁27	-8.50283
ung	-8.50424
류	-8.50486
▁Love	-8.5085
ci	-8.50866
ick	-8.5087
▁Pro	-8.50892
ac	-8.50968
▁초	-8.51006
▁just	-8.51034
▁우리	-8.51041
절	-8.51096
all	-8.51143
▁팀	-8.51671
▁.95	-8.51795
▁THE	-8.52147
매	-8.52254
▁것이	-8.52336
천	-8.52381
-2	-8.52408
▁다시	-8.52494
27	-8.52511
처럼	-8.52879
까	-8.53171
▁but	-8.53182
05	-8.5322
▁2011	-8.53292
▁리	-8.53308
ance	-8.53329
ass	-8.53378
달	-8.53413
26	-8.53519
▁시간	-8.53844
▁때문에	-8.54395
▁영상	-8.5441
ni	-8.54901
되는	-8.55076
출	-8.55439
들의	-8.55686
각	-8.55725
해서	-8.55865
om	-8.55879
두	-8.55928
탄	-8.55974
▁Ook	-8.56514
▁Do	-8.56675
든	-8.56862
▁w	-8.56966
ver	-8.57006
▁진	-8.57207
통	-8.57235
이나	-8.57479
ti	-8.57569
울	-8.57583
▁시리즈	-8.581
29	-8.58105
▁his	-8.58308
о	-8.58318
▁노래	-8.58325
j	-8.58359
________________	-8.58417
▁것이다	-8.58475
▁증가	-8.58531
향	-8.58549
▁통	-8.58562
ul	-8.58578
쳐	-8.58755
09	-8.588
ton	-8.58883
▁100	-8.58889
ー	-8.5891
и	-8.58951
날	-8.59056
▁x	-8.59142
с	-8.59194
후	-8.59205
▁An	-8.59235
▁잘	-8.59332
▁get	-8.59357
mp	-8.59393
AR	-8.5987
▁가장	-8.60193
▁2010	-8.60295
이며	-8.60458
tic	-8.60749
08	-8.60814
▁데	-8.60895
▁없다	-8.61086
▁버	-8.61141
▁발	-8.61193
져	-8.61387
▁t	-8.61528
ng	-8.61683
per	-8.61771
lu	-8.6193
90	-8.62096
▁싱글	-8.62109
▁29	-8.62163
go	-8.62297
환	-8.62395
▁차	-8.63006
ah	-8.63088
▁|	-8.63102
▁손	-8.63119
션	-8.64231
31	-8.6424
▁ma	-8.64305
▁2000	-8.64331
태	-8.64401
항	-8.64412
ian	-8.64435
입	-8.64594
07	-8.6463
@	-8.64643
▁방	-8.6467
04	-8.64671
▁All	-8.64775
▁For	-8.64918
70	-8.65274
ong	-8.65795
남	-8.6594
심	-8.66048
-3	-8.6631
е	-8.66766
▁see	-8.67092
▁요	-8.67159
커	-8.67338
▁약	-8.67402
▁일본	-8.67406
51	-8.67434
투	-8.67481
▁https	-8.67521
▁Al	-8.67537
퍼	-8.67541
▁양	-8.67628
▁Go	-8.67747
난	-8.67752
▁「	-8.67787
os	-8.67902
▁생각	-8.68068
▁메	-8.68123
do	-8.68124
47	-8.68166
min	-8.68202
03	-8.68721
등	-8.68917
ン	-8.68972
▁효과	-8.68997
락	-8.69092
▁없는	-8.6921
hi	-8.69263
に	-8.69294
▁시즌	-8.69347
cc	-8.69378
▁지금	-8.69483
▁교	-8.69583
able	-8.6972
and	-8.69829
66	-8.69843
▁달	-8.69922
ON	-8.69923
▁버스	-8.69933
い	-8.69988
머	-8.70041
었다	-8.70151
걸	-8.70193
▁레	-8.7022
our	-8.70287
링	-8.70343
▁화	-8.70657
der	-8.7068
길	-8.70917
ice	-8.71209
림	-8.71284
품	-8.71338
희	-8.71571
▁Press	-8.716
준	-8.71617
▁없	-8.71772
본	-8.71853
▁문	-8.71918
ide	-8.72047
▁want	-8.724
one	-8.72468
▁간	-8.72509
55	-8.72691
▁죽	-8.72705
랑	-8.7273
98	-8.72916
▁Y	-8.7314
결	-8.73154
▁they	-8.73418
▁미국	-8.73491
▁make	-8.73642
▁more	-8.73737
▁위해	-8.73738
온	-8.73754
る	-8.73796
라이	-8.73825
▁공격	-8.73863
▁50	-8.73971
▁세계	-8.74037
▁co	-8.74125
he	-8.74164
▁나는	-8.74395
▁감	-8.74422
▁명	-8.74704
쪽	-8.74713
ow	-8.74799
▁게	-8.75067
▁키	-8.75146
▁하지만	-8.75237
ill	-8.75266
ence	-8.75292
▁서울	-8.75413
▁2009	-8.75431
▁변	-8.75476
▁But	-8.75479
88	-8.75512
에도	-8.75608
▁Lv	-8.75629
▁열	-8.75671
▁들어	-8.75909
예	-8.75937
청	-8.75978
릴	-8.76028
▁–	-8.76045
49	-8.76136
겨	-8.7619
▁없어	-8.76201
▁볼	-8.76314
ary	-8.76324
ear	-8.76488
▁Ra	-8.76612
립	-8.76674
▁합	-8.76692
▁Don	-8.76774
va	-8.76849
06	-8.76871
▁un	-8.77246
▁쓰	-8.77284
▁4.	-8.77348
▁것을	-8.77634
46	-8.77738
▁there	-8.77793
▁Sa	-8.78078
act	-8.7809
▁분	-8.78271
IN	-8.78304
별	-8.78415
지는	-8.7854
▁Da	-8.78649
59	-8.78668
▁넌	-8.78821
ap	-8.7888
65	-8.7893
▁York	-8.78948
합	-8.7904
▁se	-8.79143
ER	-8.7918
▁널	-8.79197
▁관	-8.79243
목	-8.79333
bo	-8.79434
▁지원	-8.79684
▁속	-8.79909
약	-8.80016
▁Th	-8.80126
▁back	-8.80185
▁Li	-8.80312
qu	-8.80363
fe	-8.80377
▁사이	-8.80412
ach	-8.80431
▁또	-8.80612
35	-8.80651
▁★	-8.80654
▁5.	-8.80691
ner	-8.80716
긴	-8.80723
▁편	-8.80743
54	-8.80771
ub	-8.80773
살	-8.80806
▁31	-8.80814
▁0.75	-8.81002
br	-8.81147
▁if	-8.81312
mon	-8.81341
▁아이	-8.81342
▁i	-8.81537
io	-8.81686
da	-8.818
▁who	-8.82051
53	-8.82263
RO	-8.82337
봐	-8.82348
▁Ch	-8.82387
▁Let	-8.82509
줘	-8.82526
▁Se	-8.82768
▁당	-8.82806
▁별	-8.8289
처	-8.82986
57	-8.83405
▁추	-8.83433
33	-8.83441
▁h	-8.83751
37	-8.83822
플	-8.83986
▁하는	-8.83991
▁down	-8.84113
▁눈	-8.84298
▁pro	-8.84359
ell	-8.84399
ca	-8.84427
45	-8.8466
ck	-8.84856
ke	-8.85129
▁다음	-8.85136
od	-8.85223
복	-8.85296
port	-8.85311
▁따라	-8.85365
ak	-8.85504
!!	-8.85661
ten	-8.85662
창	-8.8582
58	-8.85847
록	-8.85885
▁2008	-8.86003
▁2007	-8.86033
백	-8.86106
말	-8.86241
▁이제	-8.86246
클	-8.86248
이라는	-8.86307
di	-8.8638
▁물	-8.86399
▁way	-8.86862
▁용	-8.8694
▁.8	-8.86991
tro	-8.86991
ft	-8.87036
▁Ne	-8.87262
2~1	-8.87289
les	-8.87316
른	-8.87357
▁when	-8.87371
und	-8.87411
vi	-8.87569
▁라	-8.87657
▁2005	-8.87668
32	-8.87671
ag	-8.87677
▁심	-8.87734
▁애	-8.88151
▁sh	-8.88233
▁줄	-8.88237
44	-8.88261
▁루	-8.88321
▁got	-8.88339
▁Mar	-8.88343
▁만	-8.88373
▁천	-8.88587
▁우승	-8.88597
열	-8.88601
▁Man	-8.88605
67	-8.88906
”	-8.88968
IT	-8.89048
▁our	-8.8908
#	-8.89119
41	-8.89135
▁Lo	-8.89283
×	-8.8929
▁레벨	-8.89296
▁vs	-8.89429
▁2004	-8.89456
▁복	-8.89475
ᆞ	-8.89506
▁has	-8.89523
▁산	-8.8975
▁모델	-8.89793
▁What	-8.89798
ite	-8.8992
▁거야	-8.90017
송	-8.90153
▁뒤	-8.90193
▁또한	-8.9021
▁해당	-8.90515
52	-8.90624
☆	-8.90649
▁이벤트	-8.90649
36	-8.90675
0000	-8.90696
▁Mi	-8.90747
▁카드	-8.90759
▁World	-8.90824
▁2006	-8.91042
는데	-8.91058
pp	-8.9119
▁This	-8.91226
ster	-8.91256
시간	-8.91276
61	-8.91412
ud	-8.91428
AC	-8.91548
▁디	-8.91716
▁Bo	-8.91733
▁가능	-8.91811
령	-8.91832
▁진행	-8.91942
tion	-8.91966
▁또는	-8.91992
▁Ho	-8.9201
▁yeah	-8.92014
▁받	-8.92023
직	-8.9203
34	-8.92215
▁40	-8.92231
gi	-8.92307
▁현재	-8.92435
56	-8.92489
85	-8.92541
외	-8.92606
75	-8.92878
ga	-8.92916
96	-8.92937
▁Sp	-8.93032
▁최대	-8.93044
red	-8.93075
ru	-8.9311
low	-8.93139
▁“	-8.93225
▁경기	-8.9325
▁살	-8.93387
▁등장	-8.93387
때	-8.93458
▁st	-8.93854
번째	-8.93931
▁테	-8.94071
이라고	-8.94179
ED	-8.94187
AN	-8.94323
▁day	-8.94323
ab	-8.94368
な	-8.94502
▁힘	-8.9455
▁각	-8.94742
ka	-8.94781
▁say	-8.94786
▁같이	-8.94946
▁g	-8.9496
RA	-8.95055
▁히	-8.95086
▁10.	-8.95114
▁6.	-8.95118
▁맞	-8.95278
틀	-8.95342
▁음악	-8.95552
케	-8.95613
▁많은	-8.95622
up	-8.95718
▁금	-8.95854
런	-8.95894
▁k	-8.95949
료	-8.95988
광	-8.96128
▁사람	-8.9622
89	-8.96276
▁연구	-8.96442
▁'''	-8.96473
▁아니	-8.965
less	-8.96545
gen	-8.96776
름	-8.96855
해야	-8.96894
▁TV	-8.96962
▁현	-8.96998
▁2001	-8.97019
▁ex	-8.9703
▁sp	-8.97212
팀	-8.97246
500	-8.973
▁밤	-8.97376
▁생	-8.97455
▁승	-8.97505
▁크	-8.97643
▁Un	-8.97683
레이	-8.97685
탈	-8.97704
02	-8.97773
ber	-8.9778
▁태	-8.97887
▁2002	-8.97991
▁끝	-8.97996
▁da	-8.98011
으며	-8.98034
land	-8.98096
42	-8.98204
au	-8.98228
▁치	-8.98379
71	-8.98396
ea	-8.98451
76	-8.98513
▁HP	-8.9854
▁Ba	-8.98614
AL	-8.98637
ron	-8.98658
▁any	-8.98872
day	-8.98953
ight	-8.99118
담	-8.99204
ip	-8.99267
▁University	-8.9937
▁Vi	-8.99394
대로	-8.99514
ness	-8.99658
97	-8.99706
▁패	-8.99768
▁영	-8.99966
77	-8.99984
박	-9.00006
sion	-9.00032
범	-9.00061
ning	-9.0009
ex	-9.00094
▁right	-9.00096
den	-9.00108
UN	-9.00262
EC	-9.00276
▁법	-9.00298
획	-9.00336
철	-9.00387
▁come	-9.00548
▁집	-9.00575
▁l	-9.00603
▁their	-9.00648
▁Ver	-9.00664
▁Pa	-9.00743
pa	-9.00832
▁take	-9.00849
○	-9.00876
ting	-9.00996
스터	-9.01067
▁world	-9.01098
증	-9.01118
되지	-9.01404
68	-9.01417
▁페	-9.01472
▁am	-9.01483
▁번	-9.01548
▁변경	-9.01555
▁here	-9.01713
84	-9.01838
oo	-9.01841
'''	-9.01842
▁been	-9.01949
ee	-9.01984
▁1999	-9.0202
wa	-9.02097
▁베	-9.02186
패	-9.02252
▁Car	-9.02297
79	-9.02308
▁야	-9.02389
IC	-9.02438
74	-9.02456
▁있	-9.02526
리는	-9.0253
▁백	-9.02532
▁헤	-9.02582
으	-9.02657
▁Ex	-9.02699
line	-9.02743
83	-9.02762
69	-9.02831
』	-9.02876
▁Po	-9.02941
능	-9.02962
▁되었다	-9.03214
▁너무	-9.03236
주의	-9.03269
▁것은	-9.03368
▁1998	-9.035
▁let	-9.03529
▁pp	-9.03556
ba	-9.03669
▁활동	-9.03776
▁곳	-9.03856
ies	-9.03922
▁7.	-9.03935
73	-9.04019
▁32	-9.04076
▁Can	-9.04093
글	-9.04135
78	-9.04145
▁플레이	-9.04204
규	-9.04276
che	-9.04335
ther	-9.04385
87	-9.04399
▁출	-9.0441
м	-9.04465
▁공식	-9.0482
EN	-9.04821
▁뜻	-9.0484
は	-9.04905
RE	-9.05145
image	-9.05177
-4	-9.05179
*	-9.05243
bb	-9.05264
▁di	-9.05344
▁너의	-9.05519
되고	-9.05833
▁12.	-9.05936
▁일반	-9.0596
ho	-9.05965
▁us	-9.06015
▁Yeah	-9.06095
▁창	-9.0615
▁baby	-9.06189
62	-9.06208
▁need	-9.06261
▁na	-9.0633
rr	-9.06373
43	-9.06429
▁life	-9.06542
mer	-9.06614
▁투	-9.06621
▁v	-9.06643
▁체	-9.06684
페	-9.06733
▁올	-9.06758
▁One	-9.06828
▁빛	-9.06875
86	-9.06981
а	-9.07145
▁En	-9.07171
▁never	-9.07204
▁only	-9.0725
ai	-9.07258
sch	-9.07272
▁문제	-9.07395
합니다	-9.07422
ct	-9.0751
ical	-9.07518
쉬	-9.07584
으면	-9.07631
▁2003	-9.07754
헌	-9.0785
·	-9.07855
▁평	-9.07859
92	-9.08027
년에	-9.08097
▁많이	-9.08243
일에	-9.08273
▁mi	-9.08409
と	-9.08416
▁over	-9.08458
축	-9.0856
nn	-9.08643
▁작곡	-9.08832
64	-9.08837
▁‘	-9.08923
▁마지막	-9.08924
39	-9.09008
94	-9.09048
▁좀	-9.09088
▁On	-9.09111
ous	-9.09126
▁청	-9.09147
했	-9.09246
▁good	-9.09263
▁As	-9.09357
독	-9.09438
면서	-9.09607
ated	-9.09709
율	-9.09748
죠	-9.09825
▁위한	-9.09933
▁●	-9.1001
맨	-9.10215
▁왕	-9.10234
▁Na	-9.10269
▁1997	-9.10388
art	-9.10389
dy	-9.1052
▁통해	-9.10547
습니다	-9.1055
▁참조	-9.10653
▁some	-9.1068
.12	-9.10741
72	-9.1079
▁-3	-9.10806
old	-9.10869
갈	-9.10888
Q	-9.10913
▁her	-9.10956
▁의미	-9.11044
▁Ta	-9.11099
▁KBS	-9.11133
▁der	-9.11144
▁프로	-9.11175
▁나를	-9.11185
▁11.	-9.11644
▁Te	-9.11734
uck	-9.11735
(	-9.11785
▁man	-9.11813
LE	-9.11954
ま	-9.11992
▁Sch	-9.12075
95	-9.12078
91	-9.12098
gu	-9.12132
た	-9.12139
렌	-9.12178
▁필요	-9.12333
▁Star	-9.12373
▁about	-9.1238
▁기록	-9.12387
▁것으로	-9.12429
왕	-9.12448
▁임	-9.12474
ake	-9.12493
mi	-9.12636
북	-9.12646
▁방송	-9.12759
했던	-9.12859
었	-9.129
tal	-9.12906
▁기본	-9.12945
net	-9.12997
▁feel	-9.13001
ame	-9.13047
100	-9.13082
ü	-9.1311
ven	-9.13225
악	-9.13327
▁문서	-9.13335
63	-9.13411
▁직	-9.1342
▁갈	-9.13517
▁속도	-9.13752
ay	-9.138
▁Su	-9.13821
▁Journal	-9.1383
▁않아	-9.13934
받	-9.13975
38	-9.14038
』,	-9.1406
wi	-9.14128
82	-9.14235
슬	-9.14256
팩	-9.14271
81	-9.14355
이야	-9.14452
ki	-9.14545
▁레이	-9.14599
▁•	-9.14602
▁점	-9.14752
▁감독	-9.14795
▁8.	-9.1498
▁That	-9.14985
ted	-9.1502
▁네가	-9.15034
▁제작	-9.15069
93	-9.153
▁바로	-9.15327
▁될	-9.15411
を	-9.15542
ko	-9.15609
▁If	-9.15623
애	-9.15631
망	-9.15684
님	-9.15734
스타	-9.15779
▁나의	-9.15783
▁II	-9.15831
ING	-9.15928
▁other	-9.1608
▁them	-9.16102
▁않	-9.16119
▁오늘	-9.16268
훈	-9.16344
q	-9.1637
ik	-9.16426
▁채	-9.16542
OR	-9.16551
▁Just	-9.16627
▁꿈	-9.16659
▁되	-9.16664
▁mo	-9.16815
▁달성	-9.16827
▁막	-9.16886
▁모드	-9.16957
▁특	-9.16977
qui	-9.17137
▁des	-9.17186
▁발표	-9.17291
▁9.	-9.17362
▁night	-9.17387
the	-9.17544
AM	-9.17596
▁당시	-9.17698
▁Di	-9.17798
ire	-9.17815
▁MC	-9.17991
cl	-9.18003
gradient	-9.18035
▁wanna	-9.18068
vo	-9.18156
イ	-9.18158
▁허	-9.18161
▁ST	-9.18466
ix	-9.18555
ise	-9.18585
▁둘	-9.18702
ou	-9.18764
베	-9.18806
▁기타	-9.18931
▁이용	-9.18939
tra	-9.18986
▁01	-9.19011
▁영화	-9.19079
▁linear	-9.19094
▁su	-9.19111
▁Baby	-9.19167
▁앞	-9.19356
▁†	-9.19443
▁세상	-9.19491
▁책	-9.19566
▁권	-9.19726
ec	-9.19733
▁라이브	-9.19743
▁1995	-9.19765
▁부분	-9.19781
▁und	-9.19785
험	-9.19863
▁아니라	-9.19867
pi	-9.19923
▁r	-9.20008
▁커	-9.20089
く	-9.20122
▁Fa	-9.20123
AD	-9.20174
▁같다	-9.20235
fff	-9.20257
였다	-9.20309
근	-9.20401
TV	-9.20466
ism	-9.20479
▁적용	-9.20497
▁오후	-9.20543
ful	-9.20585
▁60	-9.20637
이라	-9.20729
▁좋아	-9.20768
su	-9.20773
▁트	-9.20819
▁군	-9.20903
▁du	-9.21022
▁않는다	-9.2114
았	-9.2122
we	-9.21334
▁Br	-9.21381
ger	-9.21381
기를	-9.21398
▁War	-9.21399
▁작사	-9.21538
올	-9.21585
▁than	-9.21617
で	-9.21682
▁Si	-9.21714
▁참여	-9.21739
▁종	-9.21774
ore	-9.21857
form	-9.21907
▁ho	-9.22061
▁were	-9.22089
sa	-9.22093
완	-9.22105
▁Vol	-9.22109
▁die	-9.22111
▁공개	-9.22133
ld	-9.22143
▁comp	-9.22265
▁pre	-9.22278
평	-9.22353
▁순	-9.22444
▁캐릭터	-9.22493
FF	-9.22528
ace	-9.22556
kr	-9.22595
у	-9.22733
▁into	-9.22792
았다	-9.22796
▁heart	-9.22826
▁보면	-9.22965
▁공격력	-9.23053
▁#000000,#	-9.23122
▁기준	-9.23179
dd	-9.23217
리아	-9.23234
ps	-9.23359
에서도	-9.23383
▁관련	-9.23413
▁스킬	-9.23421
▁포함	-9.23457
ier	-9.23465
ling	-9.23489
효	-9.23552
▁1996	-9.23589
▁따	-9.23608
▁잡	-9.23615
▁사실	-9.23624
▁무기	-9.23703
り	-9.23769
▁이야기	-9.2383
▁드	-9.23977
0000000000000000	-9.23981
▁큰	-9.23991
팅	-9.24012
▁아닌	-9.24047
▁keep	-9.24083
▁새	-9.24168
움	-9.24178
▁she	-9.242
row	-9.24305
▁정도	-9.24308
▁왜	-9.24336
▁구성	-9.24347
▁회	-9.24358
oc	-9.24486
ual	-9.24508
▁et	-9.24708
▁이름	-9.24789
int	-9.25048
con	-9.25261
▁think	-9.2528
▁좋은	-9.25326
▁마음	-9.25472
▁계속	-9.25484
볼	-9.25487
lin	-9.25531
air	-9.25607
km	-9.25714
위를	-9.25783
▁girl	-9.25874
RI	-9.25888
덕	-9.2598
▁온	-9.26044
ep	-9.26343
]]	-9.26442
졌다	-9.26457
▁give	-9.26465
▁Season	-9.26522
ure	-9.26551
ations	-9.26606
칭	-9.26708
ign	-9.26731
니까	-9.26733
ph	-9.26745
줄	-9.26847
sen	-9.26848
ek	-9.26874
▁him	-9.26881
▁기간	-9.26929
ward	-9.26959
▁Up	-9.26975
▁글	-9.26992
▁새로운	-9.27065
▁브	-9.27089
ock	-9.27157
개의	-9.27164
▁상태	-9.27229
▁파일	-9.27262
람	-9.27273
▁Time	-9.27293
▁일본어	-9.27442
▁아래	-9.27459
ator	-9.27501
か	-9.27582
OS	-9.2759
▁Your	-9.27598
200	-9.27655
추	-9.27685
▁광	-9.27713
▁le	-9.27715
▁붙	-9.2778
▁Korea	-9.27815
순	-9.27822
▁이런	-9.27872
▁Lu	-9.2788
ade	-9.27908
gg	-9.27968
▁맘	-9.2797
▁·	-9.28166
が	-9.28351
▁which	-9.28387
▁j	-9.2839
▁삼	-9.28396
하면서	-9.28605
▁있을	-9.28635
▁Gu	-9.28654
▁국가	-9.28717
て	-9.28773
hy	-9.28798
▁had	-9.2895
▁02	-9.28972
▁돌아	-9.28974
▁공연	-9.28999
▁출시	-9.29037
극	-9.29113
sta	-9.29167
▁계	-9.2923
/1	-9.29284
막	-9.29346
05.	-9.29411
▁출연	-9.29458
ze	-9.29475
▁Jo	-9.29509
▁않는	-9.29533
▁선수	-9.29584
▁가사	-9.29664
tu	-9.2975
TE	-9.29942
친	-9.29953
ome	-9.30057
こ	-9.30185
▁봐	-9.30192
슨	-9.30196
▁Sh	-9.30244
▁sa	-9.30262
▁dis	-9.3032
ス	-9.3037
ial	-9.30421
▁선택	-9.30434
입니다	-9.30442
STER	-9.30517
옥	-9.30593
▁여자	-9.30616
▁길	-9.30646
불	-9.30717
이고	-9.30833
▁존재	-9.30901
IS	-9.30949
▁철	-9.31143
롤	-9.31189
▁즉	-9.31321
▁Ar	-9.31357
▁When	-9.31421
랜	-9.31488
될	-9.31492
기도	-9.31645
men	-9.31702
06.	-9.31705
▁could	-9.31714
tain	-9.31744
▁내용	-9.31831
▁would	-9.31864
07.	-9.31888
▁어떤	-9.31904
▁pa	-9.31941
▁지역	-9.31982
변	-9.32022
찬	-9.32053
・	-9.32053
ative	-9.32103
▁숨	-9.32127
릭	-9.32128
▁보상	-9.32137
▁전투	-9.32207
ue	-9.32257
▁new	-9.32351
cle	-9.3243
▁존	-9.32496
out	-9.32531
-10	-9.32705
▁1993	-9.32707
▁Wi	-9.32744
리스	-9.32746
▁풀	-9.32756
▁영국	-9.32877
총	-9.32951
▁그러나	-9.33034
▁bu	-9.33076
▁Op	-9.33092
ord	-9.33098
▁증	-9.33113
tor	-9.3325
bit	-9.33334
▁돌	-9.33354
자가	-9.33354
OL	-9.3344
bi	-9.33496
н	-9.33521
▁매우	-9.33589
po	-9.33595
▁1994	-9.33936
▁리그	-9.33946
nt	-9.34008
OO	-9.34182
킹	-9.34187
▁처음	-9.34205
ov	-9.34243
▁방영	-9.34282
▁개발	-9.34366
▁워	-9.34423
ler	-9.34429
2%	-9.34452
ES	-9.34683
▁Cha	-9.34755
▁있으며	-9.34785
ess	-9.34831
-5	-9.34851
▁내게	-9.35135
ey	-9.35139
ition	-9.35173
ris	-9.35259
▁찾	-9.35266
ran	-9.35311
cr	-9.35357
칸	-9.35428
돌	-9.35456
▁Ge	-9.35622
iv	-9.35633
▁She	-9.35687
경기	-9.35688
so	-9.35751
▁함	-9.35756
▁듯	-9.35818
▁남자	-9.35874
▁마법	-9.35881
▁여기	-9.35912
스크	-9.35949
08.	-9.36003
ology	-9.36051
si	-9.36106
거나	-9.36128
▁Day	-9.3615
택	-9.36211
얼	-9.36215
▁들	-9.36217
▁how	-9.36259
▁영어	-9.36354
▁뭐	-9.36446
▁스타	-9.36467
▁팬	-9.36472
600	-9.36513
ship	-9.36636
▁결과	-9.36789
▁through	-9.36882
▁했다	-9.36893
US	-9.36899
▁학	-9.36903
▁취	-9.37021
ley	-9.37037
sk	-9.37062
TA	-9.37101
하자	-9.37108
▁결	-9.37312
▁슬	-9.37335
▁London	-9.37438
NA	-9.3744
▁있었	-9.37518
▁정보	-9.37573
ding	-9.37578
▁long	-9.37597
org	-9.37604
착	-9.37686
▁번째	-9.37712
gan	-9.37795
▁기술	-9.37813
끼	-9.37975
idae	-9.38089
▁일부	-9.38254
▁대표	-9.38307
▁귀	-9.38384
기에	-9.38525
씨	-9.38578
side	-9.38712
새	-9.38771
▁Or	-9.38828
arm	-9.38837
unt	-9.38952
ET	-9.39001
rry	-9.39038
▁독일	-9.39047
▁여러	-9.39069
폰	-9.39123
▁1992	-9.39307
냐	-9.39319
も	-9.39349
-20	-9.39359
채	-9.39373
ug	-9.39377
ish	-9.39454
▁올라	-9.39497
ら	-9.39547
칠	-9.3957
▁밀	-9.39616
д	-9.39617
▁SP	-9.39794
련	-9.39911
▁다음과	-9.39941
것	-9.39943
▁수록곡	-9.4
iz	-9.40015
▁표	-9.40033
▁국	-9.40094
▁EX	-9.40094
▁정규	-9.40095
ress	-9.40109
▁체력	-9.40111
-19	-9.40201
▁이유	-9.40218
hr	-9.40221
▁깨	-9.40241
▁너를	-9.40286
ries	-9.40437
거리	-9.40554
▁35	-9.40617
▁멤버	-9.40659
han	-9.40676
ple	-9.40709
by	-9.40721
▁John	-9.40765
느	-9.40791
▁그냥	-9.40812
,000,000	-9.40944
-12	-9.40953
き	-9.41127
▁생산	-9.41155
▁이전	-9.41176
AT	-9.41193
▁획득	-9.4121
잖아	-9.41257
73,	-9.41261
▁트랙	-9.41298
▁난이도	-9.413
light	-9.4131
ja	-9.4136
녀	-9.41406
▁03	-9.41417
▁있었다	-9.41459
다고	-9.41492
▁미니	-9.41537
▁#33	-9.41627
<	-9.41711
억	-9.41721
▁1990	-9.41725
▁보고	-9.41871
▁Ca	-9.41945
다가	-9.41967
▁동안	-9.41971
▁나오는	-9.42024
▁니	-9.42146
▁라이	-9.42158
▁Of	-9.4218
▁80	-9.42187
▁소리	-9.4219
만큼	-9.42224
▁설명	-9.4229
cho	-9.42296
▁팔	-9.42338
있	-9.4252
▁Now	-9.42555
▁넘	-9.42583
▁○	-9.42625
ya	-9.42637
▁경험치	-9.42738
ren	-9.4275
LO	-9.42868
▁쿠	-9.42968
ious	-9.42971
▁전체	-9.4299
견	-9.43027
ana	-9.43058
▁담	-9.43099
▁American	-9.43146
▁무장	-9.43183
▁그러	-9.43248
▁병	-9.43317
▁아직	-9.43402
▁교육	-9.43427
aw	-9.43433
▁방법	-9.43499
▁와	-9.43561
ない	-9.43595
▁누	-9.43601
▁유닛	-9.43613
▁ba	-9.43638
tin	-9.43684
▁ha	-9.43842
▁업데이트	-9.43848
▁may	-9.43904
▁플레이어	-9.43945
빠	-9.44054
▁al	-9.44144
ト	-9.44145
▁Ka	-9.44262
▁shall	-9.44269
▁높	-9.44295
▁감소	-9.44317
ob	-9.44431
▁∙	-9.44441
way	-9.44463
▁먹	-9.44473
스의	-9.44476
800	-9.44479
IL	-9.4455
족	-9.44619
턴	-9.44625
▁작품	-9.44631
ile	-9.44676
▁찾아	-9.44689
▁There	-9.44697
リ	-9.447
닉	-9.44743
▁목	-9.44865
/2	-9.44881
▁Har	-9.44898
▁vi	-9.44927
ル	-9.45024
컨	-9.45043
였	-9.45138
습	-9.45158
▁St	-9.45231
CK	-9.45241
▁그것	-9.45245
▁자신의	-9.45253
혁	-9.45258
CH	-9.45343
use	-9.45348
cent	-9.45406
▁×	-9.45411
▁+1	-9.45427
▁pr	-9.45528
BO	-9.45544
엄	-9.45556
▁Life	-9.45677
진다	-9.45774
】	-9.45819
sp	-9.45844
▁gonna	-9.45863
▁po	-9.45873
.03	-9.45886
먼	-9.45991
yo	-9.46031
う	-9.46083
▁사회	-9.46106
▁Ri	-9.46181
▁away	-9.46196
▁제공	-9.462
▁캐	-9.46259
TH	-9.46261
ef	-9.46271
▁오브	-9.46324
1%	-9.46374
▁With	-9.46398
▁Pre	-9.46476
▁{	-9.46525
▁stop	-9.46604
fl	-9.46682
og	-9.46752
▁준	-9.46763
fer	-9.46802
▁그래	-9.46861
?"	-9.46894
tri	-9.46904
▁Du	-9.46925
rd	-9.46943
▁아이템	-9.46959
▁인간	-9.47041
▁자신	-9.47046
씩	-9.47082
mit	-9.47155
이자	-9.47168
▁Get	-9.47169
CC	-9.47188
갑	-9.47272
하라	-9.47294
▁Pi	-9.47312
▁싶	-9.47328
▁Team	-9.47348
지도	-9.47387
chi	-9.47402
tre	-9.47424
▁만들어	-9.47497
ラ	-9.47555
▁어디	-9.47592
{	-9.47599
인지	-9.47687
▁터	-9.47772
▁플	-9.47827
}	-9.4784
▁번역	-9.47847
▁악	-9.47916
▁Dr	-9.47946
.10.	-9.47953
▁우린	-9.48046
й	-9.48051
▁Girl	-9.48052
▁MBC	-9.48052
손	-9.48054
▁AP	-9.48062
▁황	-9.48114
▁소속	-9.48162
▁중국	-9.48184
▁보컬	-9.48316
잡	-9.48327
TR	-9.48329
졌	-9.48344
.11.	-9.48355
;"	-9.48605
▁판	-9.48767
tes	-9.48821
▁그대	-9.48932
▁Ja	-9.48964
▁International	-9.48985
pt	-9.49036
れ	-9.49049
</	-9.49065
▁잠	-9.49123
▁없이	-9.49149
ST	-9.49205
ring	-9.4934
PS	-9.49397
LA	-9.49418
례	-9.49452
し	-9.49457
lt	-9.49519
▁again	-9.49553
객	-9.49567
▁상대	-9.49595
▁하고	-9.496
▁만든	-9.49661
측	-9.49694
▁참	-9.49696
▁Am	-9.49728
ash	-9.49926
MA	-9.50081
명이	-9.50159
▁전부	-9.50199
if	-9.50241
학교	-9.50281
액	-9.50392
황	-9.50426
▁확인	-9.50439
빌	-9.50473
ern	-9.50489
척	-9.50561
▁능력	-9.50596
▁가격	-9.50647
▁work	-9.50733
누	-9.50751
▁방식	-9.50779
▁1991	-9.50807
▁다만	-9.5083
lic	-9.50906
gue	-9.50909
인데	-9.50956
▁가지고	-9.51008
거야	-9.51035
+5	-9.51119
렉	-9.51198
cur	-9.51221
▁should	-9.51244
귀	-9.51305
ens	-9.51361
4%	-9.51364
т	-9.51385
▁돼	-9.51401
▁데뷔	-9.51474
▁떠	-9.51508
▁Ga	-9.51531
▁윤	-9.51547
빈	-9.51583
kin	-9.5163
ん	-9.51656
▁검	-9.51658
▁우리는	-9.51694
▁Je	-9.51709
▁코드	-9.51761
벌	-9.51787
들과	-9.51811
▁취임	-9.51825
▁o	-9.51834
+1	-9.51851
▁가지	-9.51852
GA	-9.51921
▁MA	-9.51935
atch	-9.51941
▁under	-9.52018
▁ye	-9.52081
▁정말	-9.52113
▁돈	-9.52266
트리	-9.52277
▁순간	-9.523
dic	-9.52358
▁않고	-9.52417
ina	-9.52458
ich	-9.52464
흐	-9.52485
▁싶어	-9.52493
▁every	-9.52545
▁ᆞ	-9.52583
▁학교	-9.52592
콘	-9.52699
▁환	-9.52731
▁프	-9.52841
궁	-9.52902
view	-9.52918
▁자체	-9.52971
라운드	-9.53044
들에게	-9.53046
▁그의	-9.5307
300	-9.5309
▁필	-9.53121
......	-9.5314
▁나오	-9.53281
▁Ju	-9.53329
▁end	-9.53427
▁Mon	-9.53438
fo	-9.53442
dr	-9.53464
700	-9.53567
대학교	-9.53596
▁만들	-9.53601
흥	-9.53695
률	-9.53719
ju	-9.53759
▁70	-9.53787
▁bo	-9.53788
략	-9.53836
버스	-9.53864
▁Hey	-9.5391
▁si	-9.53942
rs	-9.53982
MS	-9.53989
▁방어	-9.54011
▁#3	-9.5402
▁people	-9.54024
ack	-9.54051
▁식	-9.54056
▁ca	-9.54065
▁대해	-9.54114
▁되어	-9.54126
ok	-9.54134
▁th	-9.54138
되	-9.5416
▁하늘	-9.54183
뜨	-9.54306
▁Fo	-9.54308
▁Q	-9.54412
▁폭	-9.54414
к	-9.54417
▁Super	-9.5443
▁않은	-9.54452
▁IDOLM	-9.54495
～	-9.54542
▁even	-9.54797
이지	-9.54866
▁Come	-9.55089
3%	-9.55112
▁도쿄	-9.5512
▁li	-9.55237
rt	-9.55249
я	-9.55281
▁성공	-9.55298
▁high	-9.5536
▁데미지	-9.55397
▁이동	-9.55445
▁look	-9.5546
▁off	-9.55474
▁좋	-9.55506
▁역시	-9.55507
vel	-9.55507
ella	-9.55571
폭	-9.55604
▁Black	-9.55643
lit	-9.55647
▁Like	-9.5574
▁기억	-9.55743
ally	-9.5576
▁Ste	-9.55765
튼	-9.55772
▁Pri	-9.55785
낸	-9.55825
▁맵	-9.5585
▁독	-9.55867
▁뿐	-9.55927
az	-9.55932
찰	-9.56039
▁per	-9.56047
▁call	-9.56051
▁lo	-9.56067
▁How	-9.56069
ble	-9.56127
01.	-9.56151
▁Dis	-9.56177
▁교장	-9.56184
▁03.	-9.56209
IR	-9.56214
▁{{{-2	-9.56312
rain	-9.56329
▁45	-9.56411
▁울	-9.56458
▁보이	-9.56459
val	-9.56477
▁Hu	-9.56604
▁1000	-9.56668
▁ch	-9.56732
▁그런	-9.56761
▁조금	-9.56913
슈	-9.57013
있는	-9.57073
▁제목	-9.57166
cal	-9.57247
▁200	-9.57269
read	-9.57348
골	-9.57434
6%	-9.5744
ins	-9.57466
ev	-9.57485
센터	-9.57498
-11	-9.57565
▁90	-9.57606
ä	-9.57611
준다	-9.57614
나이	-9.57635
MO	-9.57635
▁500	-9.57657
▁36	-9.57666
▁있고	-9.57687
▁벌	-9.57697
쟁	-9.57698
▁2021	-9.57727
▁클리어	-9.57858
▁차트	-9.57905
▁이렇게	-9.57952
▁They	-9.57953
▁그는	-9.58041
충	-9.58045
셀	-9.58099
sure	-9.58134
▁하이	-9.583
▁El	-9.5833
▁탄	-9.58357
are	-9.58455
▁ad	-9.5847
▁too	-9.58474
▁이것	-9.58524
이었다	-9.58556
▁알아	-9.58605
▁name	-9.58663
▁ya	-9.58737
ever	-9.58747
las	-9.58765
▁대상	-9.58812
▁골드	-9.58829
▁MP	-9.58876
▁이미	-9.58904
▁몸	-9.58942
▁en	-9.59039
▁퍼	-9.59053
▁tell	-9.59104
▁38	-9.59148
▁must	-9.59156
99;	-9.5916
▁대사	-9.59177
▁33	-9.59288
▁its	-9.59295
▁where	-9.59337
▁Night	-9.59399
uro	-9.59459
곤	-9.59479
VI	-9.59518
в	-9.59547
▁슈퍼	-9.59582
ö	-9.59628
tory	-9.59721
▁ra	-9.59812
▁Per	-9.59843
▁상황	-9.59868
▁LG	-9.59872
!!!	-9.59879
짜	-9.59972
gar	-9.59974
득	-9.59988
▁달리	-9.59995
▁원화	-9.59997
교육	-9.60048
ア	-9.60176
▁암	-9.60218
MB	-9.6027
자의	-9.60277
02.	-9.60289
▁쇼	-9.60368
04.	-9.6038
▁fa	-9.60454
▁역사	-9.60594
▁Cl	-9.60627
리그	-9.60654
ture	-9.60658
▁기존	-9.60726
▁아무	-9.60741
필	-9.60749
▁북	-9.60793
딩	-9.60826
트로	-9.60864
▁수도	-9.60946
▁몇	-9.60992
ose	-9.61016
▁놀	-9.61023
▁하루	-9.61031
gr	-9.6106
AND	-9.61126
▁친	-9.61136
게임	-9.61212
벤	-9.61382
▁Dream	-9.61434
▁유튜브	-9.61442
ics	-9.61489
▁Str	-9.61495
ste	-9.6154
▁...	-9.61616
확	-9.61632
▁졸업식	-9.61679
ser	-9.61789
▁그대로	-9.61816
nk	-9.61829
ken	-9.61831
어서	-9.61848
king	-9.61869
▁At	-9.6206
탑	-9.6209
ost	-9.62104
▁작	-9.62124
▁Part	-9.62136
염	-9.62173
▁+2	-9.62216
레벨	-9.62274
푸	-9.62347
엘	-9.62413
IA	-9.62468
▁참고	-9.62491
shi	-9.62529
▁.9	-9.62566
▁권장	-9.62574
▁Out	-9.62582
nce	-9.62583
DE	-9.62593
kg	-9.62671
In	-9.62708
▁휴	-9.62784
▁자유	-9.62835
SS	-9.62843
십	-9.62859
▁Tra	-9.62864
▁▶	-9.63085
▁확	-9.63095
ors	-9.63124
▁특히	-9.6318
▁dream	-9.63219
▁Power	-9.63232
▁DJ	-9.63247
있다	-9.63281
킨	-9.63321
▁ga	-9.6333
ny	-9.63561
봉	-9.63569
▁34	-9.63598
윤	-9.63651
gin	-9.63668
▁갤럭시	-9.63839
omb	-9.63878
▁Science	-9.63891
▁한정	-9.6398
TER	-9.64024
▁스테이지	-9.64116
▁머리	-9.64143
▁있는데	-9.64207
▁ta	-9.64221
▁목록	-9.64222
{{{#!	-9.64222
~20	-9.64249
센	-9.64276
셔	-9.64359
단지	-9.64456
▁아이돌	-9.64484
▁회복	-9.64546
pos	-9.64555
▁mind	-9.64592
▁이어	-9.64593
▁보여	-9.64634
▁어떻게	-9.64672
Re	-9.64701
앙	-9.64762
▁기능	-9.64823
▁change	-9.64854
win	-9.64947
▁사운드	-9.65039
▁그녀	-9.65077
▁웃	-9.65139
▁송	-9.65231
빛	-9.65242
▁08	-9.65254
▁획수	-9.65312
▁표현	-9.65342
▁평가	-9.65349
▁Ad	-9.6539
▁설정	-9.65392
:#	-9.65397
cm	-9.65426
さ	-9.65512
럭	-9.65512
이지만	-9.65519
mar	-9.65547
ID	-9.65586
▁Gra	-9.65621
cy	-9.65645
SM	-9.65654
▁링크	-9.65677
right	-9.65724
지를	-9.65812
텐	-9.65828
▁나온다	-9.65843
vin	-9.65904
▁피해	-9.65929
▁프랑스	-9.65934
rate	-9.66014
몬	-9.66019
II	-9.66036
틴	-9.6604
▁God	-9.66116
▁show	-9.66289
왔	-9.66345
▁Ti	-9.66402
ook	-9.66433
컵	-9.66459
▁위치	-9.6647
ale	-9.66474
▁Ph	-9.66496
ient	-9.66529
ari	-9.66592
▁find	-9.66604
▁어느	-9.66631
▁되는	-9.66676
▁민	-9.66703
값	-9.66731
▁하지	-9.66753
린다	-9.66784
년대	-9.66785
▁boy	-9.66923
mber	-9.66979
▁Art	-9.67001
▁망	-9.67059
다는	-9.67062
lan	-9.67066
니다	-9.6708
▁종료	-9.67129
8%	-9.67144
▁Pu	-9.67156
▁Bu	-9.67237
▁낮	-9.67346
▁절	-9.67376
▁관계	-9.67452
릿	-9.67481
rn	-9.67539
п	-9.67641
ection	-9.67649
▁수상	-9.67749
法	-9.6775
킬	-9.67752
징	-9.67756
▁06	-9.67788
▁word	-9.67793
eg	-9.6782
▁모습	-9.67832
▁LV	-9.67856
yn	-9.67935
▁Fre	-9.67956
존	-9.67972
▁대회	-9.68037
으나	-9.6812
▁Windows	-9.68128
▁작은	-9.68149
CA	-9.68186
▁play	-9.68201
news	-9.68204
짓	-9.68236
▁IN	-9.68237
sis	-9.6825
▁1989	-9.68281
▁음	-9.68284
str	-9.68355
bl	-9.68396
AS	-9.6842
す	-9.68453
▁place	-9.68534
성을	-9.68537
▁대신	-9.6856
▁차량	-9.68571
▁개인	-9.68578
7%	-9.68581
▁원래	-9.68592
▁우리가	-9.68698
5,000	-9.68699
б	-9.68725
▁wo	-9.68748
▁Ed	-9.68861
900	-9.68899
고등학교	-9.68943
로서	-9.68944
▁대부분	-9.68998
자는	-9.69022
마다	-9.69132
▁sm	-9.69137
-02	-9.69192
▁같	-9.69228
검	-9.69246
▁거의	-9.69266
▁관한	-9.69276
-8	-9.69343
▁나이	-9.69364
▁따라서	-9.69369
▁표기	-9.69522
▁편곡	-9.69602
▁【	-9.69652
베이	-9.69709
탐	-9.69709
단계	-9.69719
▁승리	-9.69728
ail	-9.69788
CD	-9.69828
wer	-9.69884
que	-9.70034
▁#373	-9.70054
풍	-9.70055
ox	-9.70056
え	-9.70095
ration	-9.70123
나는	-9.70194
칙	-9.70227
ense	-9.70229
▁AT	-9.70239
▁02.	-9.70269
▁42	-9.70285
▁light	-9.70367
ult	-9.7039
▁조건	-9.70426
EA	-9.7046
기가	-9.70488
▁참가	-9.70502
▁극	-9.70528
굴	-9.70592
▁누구	-9.70618
▁still	-9.70644
∼	-9.70648
왔다	-9.70778
▁Not	-9.70785
ions	-9.70794
け	-9.70802
à	-9.70815
▁Tri	-9.70891
vis	-9.70957
▁근	-9.71237
인가	-9.71257
멘	-9.7126
▁표준	-9.71285
▁Fe	-9.7129
▁Ru	-9.71318
▁OST	-9.71355
▁테마	-9.71363
lot	-9.71379
→	-9.71389
cu	-9.71423
▁직접	-9.71434
▁졸업	-9.71604
▁협	-9.71612
TO	-9.71729
▁결정	-9.71783
▁너와	-9.71835
-6	-9.71873
▁된	-9.71909
HO	-9.71913
▁#5	-9.71924
혀	-9.71963
eb	-9.72082
▁친구	-9.72132
ib	-9.72207
los	-9.72227
ME	-9.72271
GO	-9.72293
▁응	-9.72398
소녀	-9.72414
▁국제	-9.72448
춘	-9.72495
/12	-9.72597
▁않을	-9.72656
▁#00	-9.72678
▁part	-9.72726
▁Who	-9.72767
▁Light	-9.72871
/20	-9.72902
활	-9.72916
하지만	-9.72932
MP	-9.72942
duc	-9.72961
▁보스	-9.72965
닝	-9.73006
다면	-9.73117
혜	-9.73119
▁결국	-9.73182
rus	-9.73223
▁충	-9.73229
PA	-9.73288
▁몰	-9.73288
400	-9.73292
LI	-9.73421
ating	-9.73427
▁game	-9.73439
리고	-9.73551
성이	-9.73622
▁채널	-9.73669
▁Good	-9.73677
▁Bar	-9.73726
웨	-9.73734
▁Korean	-9.73735
▁가능하다	-9.7375
ric	-9.73759
▁물론	-9.73809
▁07	-9.73914
▁현대	-9.73941
.02	-9.73961
▁sc	-9.73994
★	-9.74014
ALL	-9.74027
ality	-9.74045
OT	-9.74062
▁High	-9.74131
휘	-9.74144
▁37	-9.74144
▁Cor	-9.74175
▁live	-9.74212
▁혼	-9.74289
▁나온	-9.74293
MI	-9.74368
▁특별	-9.74406
방송	-9.74408
ase	-9.7441
▁Over	-9.74422
rit	-9.74428
▁trans	-9.74439
CE	-9.74464
シ	-9.74494
▁Mor	-9.74592
▁최고	-9.74614
▁tra	-9.74619
▁Pe	-9.74626
▁설	-9.74651
sky	-9.74658
콤	-9.74719
▁느낌	-9.74724
▁개최	-9.74746
▁준우승	-9.74782
큐	-9.74782
▁Ko	-9.74804
짝	-9.74826
р	-9.74862
▁Music	-9.74868
▁전쟁	-9.74878
했고	-9.74899
nes	-9.749
▁무엇	-9.74907
▁then	-9.74962
nch	-9.74996
▁Are	-9.75015
▁높은	-9.75086
▁made	-9.75126
▁little	-9.7513
let	-9.75177
ort	-9.75373
이란	-9.75399
▁ro	-9.7542
▁사람들	-9.75474
ink	-9.75484
▁수정	-9.75501
랜드	-9.75527
▁Bi	-9.75569
▁car	-9.75592
á	-9.75595
나무	-9.75596
▁본래	-9.75612
▁vol	-9.75642
▁war	-9.75648
▁절대	-9.75705
리가	-9.75761
pl	-9.75809
▁나머지	-9.7583
책	-9.75907
▁39	-9.75911
▁HD	-9.7593
벽	-9.75935
컬	-9.76002
▁홍	-9.76026
치는	-9.7604
렸다	-9.76041
▁300	-9.7605
▁곡이다	-9.76102
기관	-9.7611
주는	-9.76119
▁슈	-9.76121
▁such	-9.76169
▁사건	-9.76181
▁05	-9.76263
▁바람	-9.76291
UM	-9.76301
▁머	-9.76322
▁준비	-9.76338
▁지나	-9.76347
chan	-9.76369
협	-9.76427
▁Some	-9.76439
▁등의	-9.76498
등급	-9.76517
▁않았	-9.76611
밖에	-9.76632
zz	-9.76709
▁Pla	-9.76729
▁여성	-9.76741
▁잔	-9.76783
▁월드	-9.76793
▁2017.	-9.76893
▁프리	-9.76912
ments	-9.76913
익	-9.76916
▁있습니다	-9.76969
▁44	-9.76999
▁설치	-9.77002
▁기사	-9.77024
▁ne	-9.77062
キ	-9.77181
▁1988	-9.77217
je	-9.77234
▁각각	-9.77288
з	-9.77299
的	-9.773
SE	-9.77315
▁믿	-9.77412
시키	-9.77415
핑	-9.77419
데이	-9.77486
뉴	-9.7753
▁Die	-9.77612
가지	-9.77669
리지	-9.77684
self	-9.77692
기는	-9.77703
솔	-9.77876
over	-9.7795
だ	-9.78
▁성능	-9.78009
za	-9.78088
윈	-9.78133
▁power	-9.78143
----------------	-9.7817
▁아마	-9.7827
▁운영	-9.78302
▁Sun	-9.78326
롭	-9.78433
cus	-9.78461
▁after	-9.78677
▁48	-9.78681
▁타이	-9.78762
▁64	-9.78791
널	-9.78866
▁질	-9.78893
▁RE	-9.78946
▁2016.	-9.79112
알	-9.79144
09.	-9.79144
▁Dance	-9.7925
of	-9.79364
van	-9.7939
▁이러한	-9.79402
▁hu	-9.79422
▁바이	-9.79452
▁before	-9.79458
▁칼	-9.79474
л	-9.79479
▁(	-9.79482
▁Rock	-9.79519
▁set	-9.79529
▁발생	-9.79602
une	-9.79752
UR	-9.7977
▁SBS	-9.79827
▁said	-9.79828
▁Back	-9.79866
▁밴드	-9.79886
EX	-9.79934
fr	-9.79946
▁정신	-9.79989
젤	-9.80065
▁들어가	-9.80069
▁요구	-9.80085
あ	-9.80126
▁도시	-9.80311
watch	-9.80336
도록	-9.80336
AB	-9.8035
よ	-9.80363
죄	-9.80492
▁탑재	-9.80495
▁MAX	-9.80532
스티	-9.8056
▁ver	-9.80605
▁Heart	-9.80607
block	-9.80621
먹	-9.80696
▁always	-9.808
▁국내	-9.80801
▁정치	-9.80813
▁미션	-9.80979
но	-9.81014
▁가수	-9.81033
▁제한	-9.81091
싱	-9.81106
↓	-9.81107
pect	-9.81155
전차	-9.8122
▁사진	-9.81224
html	-9.81258
▁fall	-9.81285
밀	-9.81422
▁놓	-9.81444
/10	-9.81497
▁turn	-9.81528
nger	-9.81535
▁these	-9.81568
▁TO	-9.81586
BA	-9.81629
Max	-9.81631
▁Ni	-9.81634
▁55	-9.81645
log	-9.81736
▁하다	-9.8175
▁시간이	-9.81758
버리	-9.81833
lie	-9.81944
-01	-9.82014
침	-9.82038
▁Sta	-9.8204
unk	-9.82078
▁OP	-9.82082
몽	-9.82097
펜	-9.82097
HA	-9.82171
힌	-9.82222
▁해금	-9.82309
됨	-9.82347
▁샤	-9.82362
랄	-9.82409
▁프로그램	-9.82537
▁가진	-9.82541
▁인해	-9.82578
ject	-9.82587
▁가져	-9.82602
▁상품	-9.82648
▁여기서	-9.82904
▁75	-9.82929
▁콜	-9.82954
빙	-9.82972
car	-9.83002
、	-9.83034
▁주로	-9.8306
span	-9.83079
lf	-9.83196
되었고	-9.83274
▁mean	-9.83398
ization	-9.83417
▁의해	-9.83425
혹	-9.83458
탁	-9.83475
놈	-9.83493
NO	-9.83501
tation	-9.8354
▁Blue	-9.83611
ray	-9.83641
на	-9.83684
▁$	-9.83694
▁two	-9.83735
▁알고	-9.83747
=1	-9.83782
aster	-9.83857
▁서로	-9.83867
tle	-9.83913
9%	-9.83916
▁Hi	-9.8396
oh	-9.84024
-15	-9.84058
째	-9.84061
hen	-9.84063
정책	-9.84065
▁Air	-9.84139
▁going	-9.84149
됐	-9.84173
▁그리	-9.84237
rap	-9.8425
▁Ke	-9.84264
없이	-9.84291
▁1.0	-9.84365
학생	-9.84372
▁최종	-9.84408
▁Law	-9.84443
▁43	-9.84506
▁01.	-9.84546
/3	-9.84569
▁항목	-9.8457
ium	-9.84578
▁III	-9.84636
ama	-9.84648
버린	-9.84652
key	-9.84652
▁US	-9.84733
late	-9.84736
▁Run	-9.84786
amp	-9.84789
▁맥	-9.84888
BC	-9.84919
▁자기	-9.84935
-18	-9.84972
ral	-9.84994
하는데	-9.85003
action	-9.85023
▁특수	-9.85039
▁그렇게	-9.85065
って	-9.85072
ata	-9.85072
참	-9.85115
니아	-9.85141
▁침	-9.85164
스가	-9.85274
uch	-9.85288
vers	-9.85296
퇴	-9.85303
▁CD	-9.85314
힐	-9.85321
▁사람이	-9.85324
짐	-9.85386
▁Sha	-9.854
▁알려	-9.85424
▁04	-9.85438
▁Red	-9.85479
▁형태	-9.85587
tan	-9.85604
▁판매	-9.85655
▁move	-9.85661
▁Comp	-9.85673
▁나와	-9.85728
▁в	-9.85729
lay	-9.85757
되었	-9.8576
컴	-9.85771
듀	-9.85772
uf	-9.85848
▁Game	-9.85849
bu	-9.85879
▁이번	-9.8595
▁own	-9.85955
▁넘어	-9.85957
▁Summer	-9.85966
▁OF	-9.85974
▁그룹	-9.86024
人	-9.86095
▁Ob	-9.861
▁←	-9.86119
꺼	-9.8616
▁Tru	-9.86285
▁Vo	-9.86321
써	-9.86348
▁Her	-9.86421
▁Take	-9.86543
렸	-9.86595
▁차이	-9.86643
장을	-9.86679
▁과거	-9.86687
듯	-9.86693
▁골	-9.86709
EL	-9.86725
▁논	-9.86725
은행	-9.86735
시아	-9.86781
▁선정	-9.86814
▁Cla	-9.86867
-7	-9.86894
▁받아	-9.86962
명의	-9.86987
뢰	-9.87006
▁first	-9.87006
▁유럽	-9.87124
▁혹은	-9.87155
▁명의	-9.87165
▁이해	-9.87182
깊	-9.87202
▁did	-9.87214
jo	-9.87235
top	-9.87387
테이	-9.87395
▁지정	-9.87399
▁블랙	-9.87399
▁보인다	-9.87406
▁기념	-9.87441
▁YOU	-9.87469
에선	-9.87541
▁Mc	-9.87591
xi	-9.87632
lock	-9.87635
꾸	-9.87649
우스	-9.87662
▁스토리	-9.87723
덤	-9.87793
des	-9.87886
▁뉴스	-9.8789
▁1987	-9.87895
픽	-9.87983
▁Pol	-9.88036
명을	-9.88104
SP	-9.88112
▁much	-9.88128
tz	-9.88134
fin	-9.88135
uk	-9.88146
▁real	-9.88168
쇼	-9.88199
▁Economic	-9.88255
▁전에	-9.88309
▁같아	-9.88318
▁곡을	-9.88361
att	-9.8843
▁150	-9.88444
日	-9.88454
▁비교	-9.88478
벨	-9.8856
▁투어	-9.88617
▁@	-9.88683
▁VS	-9.88708
ible	-9.88723
break	-9.88772
レ	-9.88786
▁차지	-9.88802
▁ever	-9.88814
톤	-9.88906
▁오리지널	-9.88919
中	-9.89052
hn	-9.89069
lor	-9.8911
▁빌	-9.89125
serv	-9.89208
▁SK	-9.89315
oke	-9.89332
▁패턴	-9.8934
fect	-9.89525
▁United	-9.89528
ч	-9.89587
▁너는	-9.89595
롱	-9.89654
▁around	-9.89705
▁star	-9.8975
ы	-9.8978
▁평균	-9.89797
▁1986	-9.89818
▁Ah	-9.89862
▁1980	-9.8996
점을	-9.89985
▁Ze	-9.90007
MG	-9.90024
▁기반	-9.90051
▁않았다	-9.90143
▁better	-9.90195
▁Ab	-9.9024
▁자주	-9.90254
ド	-9.90395
Type	-9.90406
레스	-9.90442
▁이는	-9.90557
▁홈페이지	-9.90586
▁Fire	-9.9059
▁09	-9.90653
▁삶	-9.90666
넣	-9.90677
력을	-9.90741
▁제품	-9.90755
ute	-9.90801
▁애니메이션	-9.90801
숙	-9.90881
-03	-9.90983
▁이를	-9.91055
▁color	-9.91131
itch	-9.91134
▁디자인	-9.91142
▁운	-9.91192
ique	-9.91193
▁모르	-9.91226
ara	-9.91235
▁무대	-9.91247
▁음반	-9.91248
▁LIVE	-9.91322
▁Cho	-9.91335
▁다이	-9.91479
▁계약	-9.91485
du	-9.91506
▁눈물	-9.9157
▁fire	-9.91747
▁시스템	-9.91756
▁2014.	-9.9177
▁HE	-9.91884
book	-9.92046
쉽	-9.92095
▁전용	-9.92103
lip	-9.92111
word	-9.92162
av	-9.92188
맹	-9.92237
▁hear	-9.92237
ко	-9.92264
▁plan	-9.92294
▁영웅	-9.92316
욕	-9.92369
▁경제	-9.92376
▁Social	-9.92391
자를	-9.92404
▁Hol	-9.92409
▁쓸	-9.92421
oph	-9.92436
struct	-9.92441
프레	-9.92465
▁사용한다	-9.92484
속도	-9.92491
되기	-9.92493
ura	-9.92585
▁목표	-9.92618
ino	-9.92641
IM	-9.92822
▁담당	-9.92856
셋	-9.92928
▁tr	-9.92956
cer	-9.93035
▁있게	-9.93078
▁free	-9.93098
▁뉴	-9.93106
ра	-9.93124
▁많다	-9.93191
세요	-9.93193
버전	-9.93238
ONE	-9.93261
▁있어서	-9.93292
▁농	-9.93322
Com	-9.93431
▁Cre	-9.93505
▁유지	-9.93511
bin	-9.93538
▁한번	-9.93554
클럽	-9.93567
get	-9.93586
own	-9.93592
▁Trans	-9.93678
혼	-9.93679
코어	-9.93703
캐	-9.93719
▁항	-9.9378
▁Inter	-9.93829
▁참고로	-9.93832
▁엘리	-9.93847
▁04.	-9.93871
▁케이	-9.93901
▁폐	-9.93927
▁FIFA	-9.93973
Cause	-9.9399
め	-9.94043
ities	-9.94075
vid	-9.94112
color	-9.94176
▁살아	-9.9419
NE	-9.94212
hu	-9.94216
▁Gi	-9.94321
잇	-9.94324
set	-9.94411
샤	-9.94441
▁Fall	-9.94481
▁try	-9.94491
삼	-9.94513
▁stand	-9.94525
▁-4	-9.94636
▁Free	-9.94642
▁전문	-9.94705
lim	-9.94719
ica	-9.94806
버려	-9.94838
▁does	-9.94845
▁없음	-9.94961
nu	-9.95074
chen	-9.95149
▁시절	-9.95195
▁먼저	-9.95244
▁대체	-9.9527
켓	-9.95293
▁System	-9.95385
ku	-9.954
▁NO	-9.95447
▁feat	-9.95481
▁use	-9.95482
▁Mr	-9.95498
^	-9.95526
▁Fi	-9.95538
▁항공	-9.95575
ert	-9.95631
▁kill	-9.95649
▁Every	-9.95665
▁본인	-9.95677
gl	-9.95717
▁우주	-9.95721
틱	-9.9574
▁Say	-9.95764
▁엘	-9.95769
델	-9.95772
▁아주	-9.95815
▁EP	-9.95825
웨이	-9.95826
▁솔로	-9.95832
▁Col	-9.95925
〉	-9.95954
럴	-9.95954
▁대한민국의	-9.9596
▁위험	-9.96017
▁미래	-9.96021
par	-9.96065
▁Para	-9.96164
▁run	-9.96171
▁특징	-9.96183
낙	-9.9624
rop	-9.96296
취	-9.96303
▁something	-9.96312
▁CPU	-9.96313
▁GSL	-9.96401
EE	-9.96414
▁주제	-9.96422
▁목소리	-9.96535
▁에이	-9.96643
text	-9.9665
▁언어	-9.96853
一	-9.96887
번호	-9.96894
▁Got	-9.96906
ele	-9.96952
-17	-9.96956
비트	-9.97014
round	-9.97067
▁que	-9.97107
ク	-9.97172
▁Review	-9.97177
▁엔진	-9.97192
▁×1	-9.97266
▁really	-9.97332
▁예정	-9.97356
겐	-9.97393
time	-9.97416
for	-9.97473
▁언급	-9.97474
▁격	-9.97476
ffffff	-9.97561
수록	-9.97571
▁월드컵	-9.97619
ker	-9.97619
▁꽃	-9.97629
▁달려	-9.9769
▁End	-9.97705
했을	-9.97761
▁Never	-9.97763
▁상당히	-9.97829
▁속에	-9.97841
▁폴	-9.97872
▁늘	-9.97912
▁인기	-9.97918
▁Human	-9.97949
▁41	-9.97954
-9	-9.98016
▁말해	-9.98016
▁그래서	-9.98019
▁State	-9.98069
브라	-9.98095
▁1985	-9.98107
잉	-9.98121
최초	-9.98121
허	-9.98133
▁파워	-9.98203
cha	-9.9821
▁케	-9.98258
▁History	-9.9842
▁without	-9.98444
▁메인	-9.98522
▁Apple	-9.98552
IP	-9.98573
연구	-9.98599
▁}	-9.98616
▁동시에	-9.98714
▁{{{#	-9.98722
▁풍	-9.9875
▁표기된	-9.98771
▁작업	-9.98839
라도	-9.98842
중학교	-9.98848
▁뛰어	-9.99009
tis	-9.99039
▁Gen	-9.99043
문화	-9.99065
rum	-9.99069
▁start	-9.99072
▁듣기	-9.99085
▁범위	-9.99115
▁표시	-9.99139
▁Des	-9.99147
▁Boy	-9.99195
핀	-9.99222
▁매일	-9.99224
▁Act	-9.99234
럽	-9.99296
▁아니다	-9.99302
▁1983	-9.99346
▁hand	-9.99353
▁올해의	-9.99372
mann	-9.99394
논	-9.99453
▁이름을	-9.99477
▁초기	-9.9949
uni	-9.995
-16	-9.99505
▁실행	-9.99571
▁보통	-9.99573
▁very	-9.99608
TS	-9.99759
▁있다고	-9.99796
▁연주	-9.99871
▁mu	-9.99884
▁#1	-9.99894
AP	-9.99915
blue	-9.9992
??	-9.99942
-09	-9.99964
넷	-10.0004
tical	-10.0013
▁exp	-10.0018
▁Cat	-10.0025
▁bi	-10.0028
▁head	-10.0029
ize	-10.003
했어	-10.005
▁장비	-10.0051
ria	-10.0058
▁강화	-10.006
페이지	-10.0066
▁eyes	-10.0072
family	-10.0079
▁those	-10.008
oper	-10.0084
ike	-10.0085
▁엔딩	-10.0086
▁last	-10.0099
▁SS	-10.0102
py	-10.0106
▁]	-10.0111
캐시	-10.0112
생활	-10.0113
▁주연	-10.0121
~15	-10.0121
list	-10.013
dia	-10.0134
▁By	-10.0135
eu	-10.0136
▁빌보드	-10.0139
▁늘어	-10.0146
▁서비스	-10.0161
럼	-10.0162
▁Development	-10.0169
gre	-10.0172
▁항상	-10.0173
꼬	-10.0176
딜	-10.0184
▁적이	-10.0187
▁지속	-10.0187
ji	-10.0188
하기도	-10.0189
▁great	-10.02
프라	-10.0206
▁San	-10.0208
▁King	-10.021
▁₩	-10.0216
▁씨	-10.0226
+2	-10.0227
▁Inc	-10.0236
▁우리의	-10.0238
▁......	-10.0245
▁등이	-10.0253
ae	-10.0257
▁동일	-10.0266
EST	-10.0268
▁행복	-10.0268
▁방어력	-10.0274
지고	-10.0274
밝	-10.0275
ark	-10.0276
▁드라마	-10.0283
▁곡이	-10.0284
▁CH	-10.0286
ux	-10.0287
то	-10.0291
▁일이	-10.0295
SL	-10.0306
▁리믹스	-10.0306
ular	-10.0306
▁〈	-10.0309
▁Show	-10.031
났	-10.0312
▁Master	-10.0312
되며	-10.0316
▁세트	-10.0319
................	-10.0319
▁str	-10.032
大	-10.0329
▁자리	-10.0333
▁why	-10.0334
▁회사	-10.0341
ident	-10.0347
uth	-10.0347
▁발매된	-10.0348
스케	-10.0348
▁same	-10.0349
맛	-10.0352
▁Why	-10.0353
-08	-10.0357
▁person	-10.0357
main	-10.0361
▁한자	-10.0368
/11	-10.0374
▁위에	-10.0378
ero	-10.0381
께	-10.039
▁home	-10.0391
ett	-10.0392
▁상승	-10.0394
vent	-10.04
▁발견	-10.0402
둥	-10.0406
oma	-10.0412
▁imp	-10.0415
암	-10.0415
▁GB	-10.0418
DD	-10.0419
▁것도	-10.0421
▁기울임체로	-10.0422
▁수준	-10.0425
타임	-10.0427
▁Public	-10.043
▁BGM	-10.043
▁위해서	-10.043
マ	-10.0437
bel	-10.0442
カ	-10.0445
▁follow	-10.0445
▁believe	-10.0445
▁혼자	-10.0448
onic	-10.045
즘	-10.0461
▁Ya	-10.0462
▁56	-10.0463
▁break	-10.0464
▁SH	-10.0471
ugh	-10.0471
통신	-10.0471
▁Research	-10.0471
▁떠나	-10.0474
▁120	-10.0475
컷	-10.0476
▁Gold	-10.0476
tur	-10.0478
ew	-10.0482
▁won	-10.0483
君	-10.0484
낼	-10.0484
텔	-10.049
됐다	-10.0492
▁Er	-10.0492
▁Book	-10.0497
▁출신	-10.0499
▁앤	-10.0502
▁비고	-10.0511
▁Look	-10.0513
rin	-10.0515
▁Work	-10.0516
ano	-10.0521
뽑	-10.0523
1,000	-10.0527
보자	-10.0532
gn	-10.0535
▁있지만	-10.0548
▁close	-10.055
▁app	-10.055
로우	-10.0551
AI	-10.056
▁업그레이드	-10.0562
▁답	-10.0565
▁sur	-10.0565
▁말을	-10.0566
bab	-10.0569
되었으며	-10.0572
▁만나	-10.0577
하거나	-10.058
ham	-10.0581
af	-10.0588
▁근접	-10.0593
▁운동	-10.0593
주년	-10.0597
▁Miss	-10.0597
har	-10.0598
No	-10.0598
GB	-10.0609
ッ	-10.0609
eo	-10.0612
로부터	-10.0612
▁콘서트	-10.0613
ground	-10.062
▁전설	-10.0621
▁1984	-10.0623
▁베스트	-10.0627
학급	-10.0631
▁써	-10.0631
▁속성	-10.0636
했으며	-10.0637
아이	-10.064
▁ME	-10.0641
▁급수	-10.0646
body	-10.0647
zi	-10.0648
è	-10.0649
▁Arm	-10.0656
▁fi	-10.0662
쿨	-10.0673
▁특성	-10.0678
▁0.9	-10.0683
▁bad	-10.0687
sol	-10.0687
mod	-10.0692
▁진짜	-10.0693
わ	-10.0697
add	-10.07
학과	-10.0705
밍	-10.0705
▁대한민국	-10.0708
▁진출	-10.0715
can	-10.0718
▁Down	-10.072
タ	-10.0721
▁FC	-10.0726
▁소모	-10.0727
0.0	-10.0727
▁thing	-10.0731
▁이하	-10.0732
▁잃	-10.0737
▁내려	-10.074
▁Song	-10.0741
▁Nu	-10.0742
▁CO	-10.0744
▁fight	-10.0745
ロ	-10.0745
み	-10.0745
간다	-10.0751
—	-10.0753
▁얼굴	-10.0753
press	-10.0765
pho	-10.0769
rim	-10.0771
▁홀	-10.0773
▁PC	-10.0774
냥	-10.0774
г	-10.0775
▁Step	-10.0778
ime	-10.0778
겠어	-10.0779
ula	-10.0779
▁face	-10.0779
cul	-10.078
▁문화	-10.0784
▁안에	-10.0787
▁부수	-10.0788
혈	-10.0793
▁things	-10.0794
리스트	-10.0798
-14	-10.0799
lex	-10.0799
▁액	-10.0801
▁프로젝트	-10.0801
▁부산	-10.0805
▁당신	-10.081
▁입학식	-10.0812
black	-10.0813
라이트	-10.0828
▁95	-10.0832
▁Val	-10.0832
▁크게	-10.0832
▁완료	-10.0834
▁꽤	-10.0837
▁Ele	-10.0839
▁때문	-10.0846
ada	-10.0849
/4	-10.0851
템	-10.0856
▁코스	-10.0859
lar	-10.0861
ith	-10.0862
▁SE	-10.0867
gun	-10.0871
▁인정	-10.0872
믹	-10.0873
야마	-10.0873
berg	-10.0875
nel	-10.0876
▁also	-10.0878
▁배우	-10.0884
pha	-10.089
▁보여주	-10.0893
했지만	-10.0897
▁Make	-10.0898
field	-10.0899
▁형식	-10.0902
▁개념	-10.091
▁West	-10.0915
board	-10.0916
▁히트	-10.0916
▁Fu	-10.0921
▁From	-10.0921
▁hold	-10.0928
▁한자가	-10.093
▁발사	-10.0932
▁입장	-10.0941
▁LA	-10.0946
zer	-10.0949
lla	-10.0951
카이	-10.0953
pen	-10.0957
겠	-10.0964
▁body	-10.0969
▁stay	-10.0971
▁Feel	-10.0973
젠	-10.0974
▁비용	-10.0974
학년	-10.0974
▁파트	-10.0981
▁등을	-10.0984
-07	-10.0985
room	-10.0987
섭	-10.0989
▁좋다	-10.0995
라면	-10.0999
념	-10.1004
▁과정	-10.1005
▁마치	-10.1014
ony	-10.1015
▁마스터	-10.1026
▁신자체	-10.1038
UL	-10.1046
VE	-10.1047
DA	-10.1047
▁1982	-10.1048
▁MASTER	-10.1048
col	-10.1052
rge	-10.1056
▁말이	-10.1057
ault	-10.106
▁Battle	-10.1063
홍	-10.1064
cip	-10.1066
ney	-10.1068
▁너에게	-10.1069
▁건담	-10.1069
▁축	-10.1076
aking	-10.1077
▁날아	-10.108
▁LOVE	-10.1081
특	-10.1084
そ	-10.1087
▁독음은	-10.1088
▁EZ	-10.109
마리	-10.109
▁1981	-10.1096
▁His	-10.1097
ctor	-10.1104
▁노트	-10.1115
▁사이트	-10.1119
▁care	-10.112
좌	-10.1122
하던	-10.1134
rac	-10.1137
IV	-10.1137
PO	-10.1137
hol	-10.1142
▁갖	-10.1144
▁well	-10.1146
istic	-10.1148
스포츠	-10.1149
ita	-10.1149
▁빈	-10.1151
뷰	-10.1151
▁당신의	-10.1152
▁기준으로	-10.116
▁숫자	-10.1163
선거	-10.1164
▁관리	-10.1165
▁돌아가	-10.1169
▁이젠	-10.1169
▁실제로	-10.117
▁있지	-10.117
rch	-10.117
▁uh	-10.1171
▁May	-10.1174
▁ob	-10.1175
oth	-10.1176
▁이건	-10.1176
-13	-10.1177
▁드래곤	-10.1179
▁삭제	-10.1179
멸	-10.1188
년부터	-10.1188
려고	-10.1192
-06	-10.1194
article	-10.1195
ре	-10.1196
▁일정	-10.1196
го	-10.1198
▁맨	-10.1205
()	-10.1207
▁행동	-10.1207
로운	-10.121
▁모습을	-10.1216
▁거리	-10.1219
コ	-10.1221
Ch	-10.1223
▁Dark	-10.1229
겼	-10.123
▁_______________	-10.124
app	-10.1244
듯이	-10.1245
▁확률	-10.1246
▁스카우트	-10.1246
콜	-10.1249
▁보내	-10.1252
▁best	-10.1254
▁human	-10.1259
세기	-10.1261
▁느껴	-10.1263
사회	-10.1283
▁어린	-10.1286
▁BE	-10.1288
▁있다는	-10.1289
▁랭크	-10.1297
▁help	-10.1298
cept	-10.1301
▁해도	-10.1302
her	-10.1306
▁확진자	-10.1314
▁확장	-10.1319
▁나타냄	-10.1323
,0000,0000,0000	-10.1323
▁변화	-10.1323
▁교육용	-10.1325
ological	-10.1328
▁배틀	-10.133
▁States	-10.1335
▁흑	-10.1336
토리	-10.1339
▁축구	-10.134
せ	-10.1348
▁비트	-10.1353
▁Paris	-10.1354
ender	-10.1355
납	-10.1357
▁주요	-10.1357
▁Hand	-10.1358
■	-10.1365
▁Break	-10.1367
LU	-10.1369
렬	-10.1374
ische	-10.1375
っ	-10.1381
▁생성	-10.1388
▁gra	-10.1389
다니	-10.1389
룸	-10.1391
▁음독	-10.1393
▁Live	-10.1395
pri	-10.1396
▁땅	-10.1396
▁정부	-10.1397
rom	-10.1409
▁하드	-10.1412
▁Where	-10.1417
▁Chi	-10.1423
nder	-10.1424
어요	-10.1426
tern	-10.143
▁정도로	-10.1431
▁many	-10.1433
▁부르	-10.1438
under	-10.1439
▁비밀	-10.144
▁숙	-10.144
▁par	-10.1441
▁Cap	-10.1443
마스	-10.1443
len	-10.1449
흡	-10.1451
▁UP	-10.1454
▁단어	-10.1455
ien	-10.1456
▁오래	-10.1458
▁ain	-10.1466
▁순위	-10.1475
▁Yo	-10.1475
▁녹	-10.1478
프트	-10.1481
▁그림	-10.1481
▁Way	-10.149
▁나가	-10.149
▁Yes	-10.1492
▁접	-10.1493
well	-10.1494
▁익	-10.15
잔	-10.15
ison	-10.1503
▁장갑	-10.1508
▁Open	-10.1508
▁정의	-10.1513
ARD	-10.1514
▁연결	-10.1517
▁AS	-10.1522
▁정상	-10.1524
멀	-10.1527
▁talk	-10.1533
▁주장	-10.1533
▁Will	-10.1535
▁아티스트	-10.1537
▁another	-10.1537
▁사거리	-10.1544
PL	-10.1544
▁pass	-10.1544
같은	-10.1546
▁때문이다	-10.1559
카드	-10.1559
х	-10.1562
▁뮤직비디오	-10.1572
웠	-10.1572
▁싸	-10.1572
▁분류	-10.1572
▁어둠	-10.1573
이기도	-10.1577
。	-10.1581
▁에피소드	-10.1581
▁포인트	-10.1582
▁메이	-10.1583
▁가능한	-10.1583
rie	-10.1589
▁between	-10.1589
▁비상용한자임을	-10.1589
▁National	-10.1591
둔	-10.1598
▁꼭	-10.16
▁America	-10.1605
▁나라	-10.1605
tric	-10.1606
▁비해	-10.1608
▁1979	-10.1612
▁cha	-10.1616
▁파괴	-10.1618
즐	-10.1621
-05	-10.1632
CO	-10.1632
한다고	-10.1633
▁Pop	-10.165
svg	-10.1651
lk	-10.1653
▁설립	-10.1654
oid	-10.1657
▁Bad	-10.1657
▁소개	-10.1661
▁봉	-10.1664
-04	-10.1667
▁빠져	-10.1668
ability	-10.1669
▁부족	-10.167
▁count	-10.1673
▁섬	-10.1677
cess	-10.1678
ille	-10.1678
▁true	-10.1682
▁벨	-10.169
▁장착	-10.1692
팔	-10.1702
▁구조	-10.1704
▁most	-10.1708
▁자료	-10.171
김	-10.172
▁등장하는	-10.1721
▁White	-10.1721
uel	-10.1721
▁규정	-10.1722
▁Hy	-10.1723
▁put	-10.1724
ky	-10.1726
don	-10.1727
시티	-10.1728
▁위의	-10.1728
Th	-10.1729
NS	-10.1729
▁중앙	-10.1732
hal	-10.1735
Co	-10.1736
─	-10.1739
▁달라	-10.1742
▁Fla	-10.1743
gel	-10.1743
▁기계	-10.1746
▁hard	-10.1747
▁소수	-10.1749
▁장소	-10.1749
▁읽	-10.1752
웹	-10.1757
▁400	-10.1764
XX	-10.1782
▁라디오	-10.1783
▁Play	-10.1783
▁물리	-10.1788
HE	-10.1789
▁주인공	-10.1792
Qu	-10.1793
▁1978	-10.1797
홈	-10.1801
▁보너스	-10.1801
▁계열	-10.1805
tar	-10.1805
`	-10.181
봤	-10.1819
▁어문회	-10.1819
▁Right	-10.182
bar	-10.1821
▁1970	-10.1821
▁Plan	-10.1824
▁School	-10.1828
닌	-10.1828
▁Bla	-10.183
iving	-10.183
▁최근	-10.1833
▁공동	-10.1842
바이	-10.1846
bert	-10.1859
줄게	-10.186
ジ	-10.1864
▁control	-10.1864
▁Robert	-10.1866
ж	-10.1872
▁대미지	-10.1873
pin	-10.1878
▁※	-10.1878
ни	-10.1882
욱	-10.1885
버렸	-10.1887
▁sw	-10.1888
▁만약	-10.1889
ini	-10.189
▁SA	-10.1895
▁정식	-10.1896
▁fuck	-10.1897
▁effect	-10.1899
▁다양한	-10.19
ane	-10.1907
한테	-10.1908
스토	-10.1909
▁불러	-10.1915
ART	-10.1916
문학	-10.1923
フ	-10.1926
▁자연	-10.1929
▁과학	-10.1935
▁배경	-10.1936
ball	-10.1941
▁않다	-10.1942
▁공개되었다	-10.1944
í	-10.1945
▁LEVEL	-10.1945
▁zu	-10.1945
▁주의	-10.1948
load	-10.1948
▁인터뷰	-10.1954
▁+3	-10.196
▁大判	-10.1963
▁sub	-10.1966
▁육	-10.1967
▁being	-10.197
▁환경	-10.1973
▁사망자	-10.1973
▁dance	-10.1973
▁종류	-10.1978
뿐	-10.1989
gle	-10.199
FA	-10.1993
▁Home	-10.1994
ott	-10.1994
겠지	-10.1999
▁found	-10.1999
pon	-10.2001
▁비슷한	-10.2002
rk	-10.2009
▁오프닝	-10.2017
▁메모리	-10.2018
▁pop	-10.2018
▁전국	-10.2023
▁Bra	-10.2025
▁시대	-10.2028
eng	-10.2028
uc	-10.203
▁선발	-10.2034
つ	-10.2035
▁가는	-10.204
▁딱	-10.2041
▁당신이	-10.2044
rat	-10.2045
cher	-10.2059
:0	-10.2062
where	-10.2067
▁Sound	-10.2073
▁sea	-10.2079
▁sun	-10.2088
▁David	-10.2092
앨범	-10.2098
お	-10.2109
▁nothing	-10.2109
▁가득	-10.2113
▁Franc	-10.2122
▁gr	-10.2126
▁몰라	-10.2127
▁Mix	-10.2128
운동	-10.2131
탕	-10.2136
▁손을	-10.2139
▁흔들	-10.2139
▁fly	-10.2141
▁UEFA	-10.2145
▁Mac	-10.2153
퀴	-10.2155
▁해석	-10.2158
CR	-10.2162
쓰	-10.2167
SI	-10.2168
▁비행	-10.2176
▁건물	-10.2182
La	-10.2182
닐	-10.2182
▁정리	-10.2189
atter	-10.2189
▁사용할	-10.2192
대회	-10.2193
▁곡들	-10.2198
▁09.	-10.2202
▁여름	-10.2209
led	-10.2212
었어	-10.2215
▁실제	-10.2219
ried	-10.2219
▁기대	-10.2221
▁있다면	-10.2224
icht	-10.2228
니스	-10.2229
▁사망	-10.2229
KA	-10.2234
iver	-10.2234
아파트	-10.2239
▁무슨	-10.224
▁dark	-10.2244
poli	-10.2244
▁Ben	-10.2248
▁Che	-10.2251
▁입력	-10.2256
▁연속	-10.2257
▁system	-10.226
▁City	-10.2261
TION	-10.2265
났다	-10.2267
AGE	-10.2271
하시	-10.2274
▁전자	-10.2275
▁because	-10.2275
▁East	-10.2277
▁von	-10.2277
▁North	-10.2278
▁인천	-10.2283
ち	-10.2285
gy	-10.2285
▁Mu	-10.2287
road	-10.2297
▁목적	-10.23
▁POWER	-10.2303
▁있기	-10.2306
▁IV	-10.231
▁괴	-10.231
세트	-10.2313
시켜	-10.2314
치고	-10.232
▁팝	-10.232
들도	-10.2323
▁대전	-10.2327
BR	-10.2327
0.5	-10.2329
▁패치	-10.2329
▁대학	-10.2332
▁Track	-10.2332
▁Beat	-10.2334
러스	-10.2339
▁이적	-10.234
텍	-10.2341
▁랩	-10.2341
▁커버	-10.2342
▁대통령	-10.235
봄	-10.235
▁구매	-10.2352
▁fun	-10.2352
소리	-10.2356
▁Pan	-10.236
▁디지털	-10.236
▁Nor	-10.2362
압	-10.2365
되면	-10.2367
▁성우	-10.2368
으로서	-10.2369
house	-10.2373
▁big	-10.2374
레이션	-10.2379
룡	-10.2379
elect	-10.2379
▁빼	-10.2385
보면	-10.2388
▁Def	-10.239
▁압	-10.2393
▁수록되었다	-10.2398
RP	-10.24
arch	-10.2402
켄	-10.2407
▁훈독	-10.2407
▁Spring	-10.241
뇌	-10.2416
RT	-10.2418
▁음원	-10.2419
You	-10.2419
type	-10.2422
/01	-10.2424
▁50%	-10.243
▁아침	-10.2439
ato	-10.2441
lli	-10.2442
era	-10.2445
He	-10.2445
▁Party	-10.2446
▁특정	-10.2461
font	-10.2462
▁한국어	-10.2463
▁베이스	-10.2468
ı	-10.2473
▁빅	-10.2474
였던	-10.2477
▁끝나	-10.2479
세계	-10.248
음을	-10.2484
uff	-10.2487
GE	-10.2489
▁2)	-10.249
elle	-10.2493
cb	-10.2494
레인	-10.2499
▁내장	-10.2503
대학	-10.2511
▁{{{-3	-10.2513
▁pain	-10.2516
▁찍	-10.2516
nz	-10.2517
▁Policy	-10.2521
하나	-10.2521
▁바라	-10.2523
Pro	-10.2525
▁앞에	-10.2531
▁주는	-10.2533
KI	-10.2536
vision	-10.2537
▁Woo	-10.2538
균	-10.2539
▁inter	-10.2543
렇	-10.2549
▁장면	-10.2552
▁이미지	-10.2554
▁Hel	-10.2557
ā	-10.256
동안	-10.2561
으니	-10.2563
ius	-10.2564
▁헬	-10.2565
▁미국의	-10.2565
메이	-10.2565
▁Here	-10.2567
갔다	-10.2569
접	-10.2573
홀	-10.2575
▁while	-10.2579
▁좌	-10.2587
▁기분	-10.259
matic	-10.2592
▁left	-10.2594
따	-10.2594
▁눈을	-10.2596
SA	-10.26
pro	-10.2603
▁사용하는	-10.2608
▁cri	-10.2613
▁명칭	-10.2613
▁ready	-10.2619
gon	-10.2624
ati	-10.2625
▁Great	-10.2626
▁자동	-10.2634
엠	-10.2637
▁gotta	-10.2638
▁beat	-10.2639
▁최고의	-10.2644
▁있던	-10.2647
답	-10.2647
▁Moon	-10.2648
▁스타일	-10.2677
▁반응	-10.2678
▁계산	-10.2689
개를	-10.269
important	-10.2695
force	-10.2696
▁보는	-10.2698
ANG	-10.2704
▁많	-10.2707
▁1977	-10.271
헤	-10.2712
했다고	-10.2715
▁중요한	-10.2715
▁분위기	-10.2715
▁Only	-10.2717
▁sign	-10.272
▁인물	-10.2727
▁중간	-10.2729
없	-10.2733
찌	-10.2734
▼	-10.2744
▁사람들이	-10.2746
▁심장	-10.2747
▁곡으로	-10.2748
▁더욱	-10.275
▁GT	-10.2752
lon	-10.2757
IGHT	-10.276
▁SC	-10.2763
▁가슴	-10.2765
▁수록된	-10.2765
▁Gre	-10.2766
▁1)	-10.2769
▁everything	-10.2773
yu	-10.2781
▁부문	-10.2781
▁배치	-10.2786
▁시리즈의	-10.2792
▁잘못	-10.2794
▁속에서	-10.2798
▁+10%	-10.2802
▁유명한	-10.2804
▁Under	-10.2804
▁블루	-10.2804
ez	-10.281
ю	-10.2813
▁Mus	-10.282
소총	-10.282
점이	-10.2822
▁인생	-10.2826
▁Give	-10.283
가요	-10.2831
클래스	-10.2832
tim	-10.2832
파크	-10.2835
없는	-10.2837
▁언제나	-10.2844
▁Qua	-10.2847
OP	-10.2855
▁years	-10.2861
싸	-10.2863
해줘	-10.2866
▁cause	-10.2867
50,000	-10.2867
▁장르	-10.2873
verse	-10.2875
▁song	-10.2876
▁온라인	-10.2882
▁far	-10.2883
▁Sky	-10.2888
펠	-10.2892
MHz	-10.2893
▁Paul	-10.2895
ERS	-10.2895
2,000	-10.2897
▁eh	-10.2897
rag	-10.29
gh	-10.2901
▁leave	-10.2902
▁Ve	-10.2902
rick	-10.2903
111	-10.2905
unch	-10.2906
웅	-10.291
▁니가	-10.2913
http	-10.2914
▁cre	-10.2915
▁출처	-10.2917
▁화면	-10.2924
eck	-10.2926
ulation	-10.2926
Player	-10.2928
베르	-10.2931
끄	-10.2932
지마	-10.2939
▁노선	-10.2939
▁삼성	-10.2942
core	-10.2944
▁Sk	-10.2949
▁불가능	-10.2952
▁러시아	-10.2952
▁지구	-10.2952
▁저항	-10.2959
깔	-10.2962
최	-10.2964
▁표창	-10.2965
▁cor	-10.2969
▁LTE	-10.297
▁Global	-10.2972
륙	-10.2972
▁몬스터	-10.2972
연합	-10.2978
▁자신이	-10.2978
▁빨리	-10.2983
밴	-10.2991
겁	-10.2992
ど	-10.2992
했습니다	-10.2995
▁댄스	-10.3003
티브	-10.3006
▁Tell	-10.3008
▁뮤직	-10.3009
して	-10.3014
랙	-10.302
mic	-10.302
랐	-10.3022
▁컴퓨터	-10.3022
▁바다	-10.3022
들에	-10.3026
곱	-10.3042
▁tu	-10.3042
rise	-10.3046
촌	-10.3052
lish	-10.3052
pre	-10.3052
▁작곡가	-10.3063
▁걸어	-10.3063
▁잡아	-10.3064
▁예선	-10.3067
lv	-10.3068
▁조선	-10.3068
▁tonight	-10.3073
▁핫	-10.3073
▁누가	-10.3074
ami	-10.3076
▁계획	-10.3076
ified	-10.3077
hop	-10.3078
▁명령	-10.308
▁태양	-10.3081
▁타이틀	-10.3091
▁pay	-10.3098
▁자세한	-10.3103
갔	-10.3103
PE	-10.3103
▁곧	-10.3104
▁지하	-10.3106
빨	-10.311
ession	-10.3115
했는데	-10.3117
▁용량	-10.3125
▁1973	-10.3131
떨	-10.3132
行	-10.3133
▁Cambridge	-10.3133
들어	-10.3133
KO	-10.3135
▁hope	-10.3135
「	-10.3158
▁Call	-10.3159
Count	-10.316
티어	-10.3161
딘	-10.3164
ст	-10.3165
▁point	-10.3167
ICE	-10.3169
▁Final	-10.3172
▁additem	-10.3174
극장	-10.3176
▁당신은	-10.3178
▁옵션	-10.3184
Sh	-10.3193
FC	-10.3201
▁약간	-10.3202
하였	-10.3206
WA	-10.3207
rill	-10.3213
▁스페셜	-10.3215
ribu	-10.3215
▁떨어	-10.3216
▁Hot	-10.3216
▁1974	-10.3221
흔	-10.3222
룬	-10.3225
▁싶은	-10.3226
▁open	-10.3231
프로	-10.3232
▁후에	-10.3233
▁Political	-10.3235
direct	-10.3236
▁bring	-10.3238
스키	-10.3241
▁애니	-10.3243
늘	-10.3244
톰	-10.3246
▁BGA	-10.3248
▁Rain	-10.3254
position	-10.3255
▁아버지	-10.3257
▁현실	-10.3257
▁Uni	-10.3258
▁1976	-10.3264
RY	-10.3265
▁10%	-10.327
▁도전	-10.3275
묘	-10.3276
밤	-10.3277
▁영향을	-10.3279
▁말고	-10.3283
▁크리스	-10.3284
youtu	-10.3284
▁힘들	-10.3285
▁간체자	-10.3287
box	-10.3293
▁경우에는	-10.3294
CI	-10.33
▁대응	-10.3303
TI	-10.331
▁Special	-10.3318
위원회	-10.3318
▁against	-10.3321
▁250	-10.3323
loc	-10.3328
▁Please	-10.3328
켜	-10.3331
▁Asia	-10.3333
▁작성	-10.3334
▁2.0	-10.3336
▁Big	-10.3343
▁해외	-10.3349
▁Oxford	-10.3349
렛	-10.3349
밥	-10.3349
▁에너지	-10.3349
▁그저	-10.3353
▁101	-10.3354
하세요	-10.3356
ó	-10.336
▁Well	-10.3361
풀	-10.3364
OU	-10.3364
만원	-10.3364
▁팬들	-10.3365
east	-10.3369
캠	-10.337
▁After	-10.337
~19	-10.3372
▁실패	-10.3389
기간	-10.339
▁원곡	-10.3392
nny	-10.3394
▁곡은	-10.3395
▁도움	-10.3403
▁step	-10.3405
▁로마	-10.341
▁카메라	-10.3412
NY	-10.3415
▁Green	-10.3417
▁녹음	-10.342
wing	-10.3421
▁Park	-10.3422
털	-10.3422
이므로	-10.3424
돈	-10.343
DAY	-10.3434
III	-10.3438
▁그런데	-10.344
춤	-10.3441
–	-10.3441
▁발음	-10.3442
▁William	-10.3443
보다는	-10.3453
ATION	-10.3456
▁Theory	-10.3465
한다면	-10.347
во	-10.3473
쁘	-10.3475
▁인터넷	-10.3475
케이	-10.3479
▁Eye	-10.348
▁1975	-10.3485
▁똑같	-10.3497
▁레드	-10.3499
LY	-10.35
육	-10.3505
ナ	-10.3506
▁IIDX	-10.3506
▁리듬	-10.3508
zo	-10.3509
lia	-10.3512
Grand	-10.3514
▁공포	-10.352
▁기업	-10.352
ウ	-10.3528
▁James	-10.3528
ette	-10.3533
평가	-10.3536
♪	-10.3538
▁Society	-10.3538
별로	-10.354
MIX	-10.3547
▁발전	-10.3548
▁퀘스트	-10.3549
▁order	-10.3553
▁Management	-10.3559
ミ	-10.3559
카라	-10.3561
▁지급	-10.3565
▁Van	-10.3566
▁Jack	-10.3568
▁Arch	-10.3568
▁이론	-10.3569
ized	-10.3576
▁처리	-10.3576
LL	-10.3579
▁ein	-10.359
▁후반	-10.3592
▁110	-10.3592
▁생명	-10.3593
▁thought	-10.3601
▁노래를	-10.3605
не	-10.3606
025;	-10.3613
▁walk	-10.3614
▁House	-10.3616
BE	-10.362
▁damage	-10.3623
▁App	-10.3631
dddddd	-10.3634
α	-10.3634
▁Education	-10.3634
▁독립	-10.3638
▁분석	-10.3639
▁First	-10.3645
▁present	-10.3645
파이어	-10.3653
워드	-10.3654
▁mine	-10.3654
멜	-10.3655
INE	-10.3659
▁대화	-10.3661
듣	-10.3664
스턴	-10.3671
괴	-10.3673
ello	-10.3674
▁신규	-10.3677
▁lead	-10.3692
▁hands	-10.3695
핵	-10.3698
上	-10.3698
▁영혼	-10.3701
del	-10.3702
▁1972	-10.3703
mag	-10.3705
▁길이	-10.3706
▁스코어	-10.3707
▁마찬가지로	-10.3711
eath	-10.3712
아웃	-10.372
前	-10.372
펀	-10.372
lement	-10.372
dge	-10.3724
홈페이지	-10.3733
이익	-10.374
▁Studies	-10.3742
ease	-10.3743
▁죽음	-10.3744
=20	-10.3745
▁중국어	-10.3752
크로	-10.3754
scape	-10.3758
▁each	-10.3761
▁지방	-10.3762
쌍	-10.3763
▁music	-10.3764
타운	-10.3766
▁Tour	-10.3768
▁여전히	-10.3774
▁보호	-10.3781
▁Uh	-10.3784
▁Long	-10.3785
▁오전	-10.3785
fit	-10.3789
VA	-10.379
쥐	-10.3796
▁이탈리아	-10.3796
write	-10.3799
▁자원	-10.3799
pan	-10.3803
▁dead	-10.3815
▁South	-10.3822
oul	-10.3826
일부터	-10.3826
▁More	-10.3827
▁재생	-10.3828
▁Wanna	-10.3829
▁대구	-10.3834
ped	-10.3836
▁iPhone	-10.3839
▁Little	-10.3839
▁나도	-10.384
시즌	-10.3843
▁방향	-10.3851
▁Land	-10.3855
▁멀리	-10.3863
되면서	-10.3865
vie	-10.3872
▁예를	-10.3873
Po	-10.3877
▁나왔다	-10.3879
▁Shi	-10.388
**	-10.3888
▁might	-10.3889
▁중에서	-10.3892
포트	-10.3892
born	-10.3893
▁싫어	-10.3896
rang	-10.3899
▁조직	-10.3901
▁Sub	-10.3907
HD	-10.3908
wav	-10.391
옷	-10.3916
ui	-10.3916
print	-10.392
▁party	-10.3926
ль	-10.3927
tant	-10.3929
▁마이크	-10.3934
ency	-10.3937
zen	-10.3938
▁Mag	-10.3939
ben	-10.3941
ли	-10.3944
▁초반	-10.3945
▁유명	-10.3945
▁used	-10.3947
IVE	-10.3948
덱	-10.3949
▁Happy	-10.3949
wind	-10.3953
▁순서	-10.3954
▁필요한	-10.3956
▁합작	-10.3963
ider	-10.3967
▁1971	-10.3969
▁Fly	-10.3971
作	-10.3971
▁Business	-10.3971
▁state	-10.3975
▁burn	-10.3983
스톤	-10.3985
스카	-10.3985
카와	-10.3986
비아	-10.3989
▁가족	-10.3991
▁가치	-10.3995
▁Mill	-10.3999
▁비슷	-10.4001
어야	-10.4003
出	-10.4005
gger	-10.4009
lam	-10.4009
001	-10.4009
bow	-10.4012
▁쓰는	-10.4013
▁보기	-10.4013
▁came	-10.4014
eau	-10.4016
▁유니	-10.4019
▁현재는	-10.402
▁건설	-10.4021
UT	-10.4028
/06	-10.4029
▁Bur	-10.4029
▁lost	-10.403
▁Shin	-10.4039
END	-10.4042
▁행정	-10.4043
▁Sto	-10.4049
×1	-10.405
▁Men	-10.405
▁부활	-10.4053
▁서버	-10.4059
뛰	-10.4059
UC	-10.406
ны	-10.4062
uit	-10.4069
곳	-10.4079
pic	-10.4081
앗	-10.4083
▁때까지	-10.4087
▁Blood	-10.4105
▁반대	-10.4106
▁편성	-10.4125
▁together	-10.4139
▁Keep	-10.4141
ION	-10.4143
▁대하여	-10.4145
▁Kim	-10.4149
▁올리	-10.4152
▁Winter	-10.4154
▁사실상	-10.4157
▁타카	-10.4157
▁Hall	-10.416
퓨	-10.4161
から	-10.4164
ico	-10.4168
폴	-10.4172
▁있음	-10.4177
inae	-10.4181
▁Best	-10.4183
▁See	-10.4183
으므로	-10.4184
▁Cal	-10.4185
aught	-10.4187
▁지켜	-10.4191
disc	-10.4193
▁스피	-10.4193
▁사업	-10.4194
▁점수	-10.4197
▁Hard	-10.4198
▁그들은	-10.42
cross	-10.4207
▁Japan	-10.4207
▁반복	-10.4208
▁그게	-10.4209
▁드럼	-10.4209
/03	-10.4213
칩	-10.4218
▁Our	-10.4218
레이드	-10.422
▁주변	-10.4223
チ	-10.4229
▁+0	-10.423
phy	-10.4239
▁개선	-10.424
▁의상	-10.4246
▁Real	-10.4247
cht	-10.4251
▁교수	-10.4253
▁없을	-10.426
ford	-10.4261
NI	-10.4261
탱	-10.4263
]	-10.4266
VO	-10.4271
과학	-10.4271
▁관심	-10.4274
FM	-10.4275
▁dist	-10.4281
떼	-10.4286
acy	-10.4287
기록	-10.4289
▁타입	-10.4289
▁성격	-10.4294
▁Cup	-10.4302
▁최소	-10.4306
칼	-10.4306
오스	-10.4306
응	-10.4309
lig	-10.431
vention	-10.4313
View	-10.4315
rich	-10.432
▁국민	-10.432
븐	-10.432
▁please	-10.4321
▁아카	-10.4323
▁완전히	-10.4324
hang	-10.433
구역	-10.4332
▁Gaming	-10.4332
끌	-10.4342
▁Pat	-10.4346
▁sing	-10.4347
▁이름이	-10.4349
었던	-10.4351
▁0.85	-10.4352
덴	-10.4355
wood	-10.4358
▁공중	-10.436
▁done	-10.4361
▁hey	-10.4362
▁전작	-10.437
▁우선	-10.4372
ado	-10.4374
▁rock	-10.4376
オ	-10.4378
▁피아노	-10.4378
▁중요	-10.438
CL	-10.4382
▁공간	-10.4382
딸	-10.4389
Bo	-10.4397
▁고려	-10.44
활동	-10.4402
그룹	-10.4403
사랑	-10.4404
▁sound	-10.4406
▁거기	-10.4412
▁Health	-10.4413
▁특이한	-10.4413
▁앞으로	-10.4417
▁return	-10.4424
▁경우가	-10.4427
▁bank	-10.4428
▁드러	-10.443
▁그래도	-10.4435
죽	-10.4439
▁по	-10.4448
콩	-10.4458
▁second	-10.4471
▁Kill	-10.4471
프리	-10.4473
▁Band	-10.448
script	-10.4487
▁Port	-10.4487
롯	-10.4493
플레이	-10.4495
▁제대로	-10.4496
QU	-10.4497
학자	-10.4498
▁RAM	-10.4499
깨	-10.45
illa	-10.4501
▁독음	-10.4502
▁디스	-10.4505
므	-10.4509
▁Ann	-10.4511
ski	-10.4512
▁추정	-10.4513
▁데이터	-10.4518
▁para	-10.4519
온다	-10.4521
/02	-10.4528
▁Mark	-10.4534
▁꿈을	-10.4537
▁활용	-10.4541
▁요소	-10.4548
サ	-10.4552
hip	-10.456
iel	-10.4563
▁Reg	-10.4566
▁뒤에	-10.4571
성과	-10.4571
닿	-10.4576
▁matter	-10.4578
▁새로	-10.4578
▁역대	-10.4582
셰	-10.4588
숲	-10.4588
バ	-10.4588
▁아르	-10.4594
▁HOT	-10.4604
▁모양	-10.4604
band	-10.4605
▁rest	-10.4608
事	-10.4611
△	-10.4611
ension	-10.4619
▁Tu	-10.4623
▁일어나	-10.4623
▁Lee	-10.4627
wan	-10.4632
stone	-10.4635
▁hit	-10.4635
▁마음을	-10.4636
Con	-10.4637
▁Last	-10.4638
▁가끔	-10.464
▁100%	-10.4642
▁제외한	-10.4648
하우스	-10.4648
work	-10.465
ction	-10.4651
공사	-10.4651
5000	-10.4659
▁해결	-10.4663
face	-10.4665
ifi	-10.4667
ш	-10.467
cial	-10.4677
▁더블	-10.468
naver	-10.4681
놓	-10.4681
▁언제	-10.4683
▁파티	-10.4684
▁Edition	-10.4684
▁후보	-10.4686
▁Year	-10.4686
ENT	-10.4698
▁Young	-10.4699
픈	-10.47
ima	-10.4702
▁이때	-10.4705
▁Sweet	-10.4706
▁inside	-10.4708
공격	-10.4712
▁경찰	-10.4713
▁길을	-10.4717
협회	-10.4724
▁영향	-10.4725
ivity	-10.4726
▁명중률	-10.473
▁발매되었다	-10.4731
IX	-10.4731
▁시장	-10.4734
▁소환	-10.4736
itive	-10.4738
▁폭발	-10.4739
▁통합	-10.474
↘	-10.4742
▁soul	-10.4747
▁cry	-10.4751
▁영원	-10.4753
999	-10.4755
시키는	-10.4755
▁시기	-10.4762
part	-10.4762
▁Angel	-10.477
10,000	-10.4771
더라도	-10.4772
체육	-10.4772
▁여행	-10.4774
▁×2	-10.4775
▁Mad	-10.4777
ida	-10.4778
관계	-10.4781
ро	-10.4787
▁유저	-10.4791
▁Politics	-10.4802
▁크기	-10.4804
/09	-10.4806
600;	-10.4807
▁alone	-10.481
ister	-10.4822
▁save	-10.4823
▁바뀌	-10.4824
▁SCP	-10.4827
▁water	-10.4827
▁안녕	-10.4828
▁구간	-10.4832
▁얼마나	-10.4834
▁Change	-10.4837
쇄	-10.4838
▁myself	-10.4839
▁못한	-10.4843
▁Par	-10.4845
겠다	-10.4846
見	-10.4862
▁신경	-10.4871
▁원문	-10.4872
bus	-10.4873
▁클라	-10.4873
옹	-10.4874
머니	-10.4878
▁기다리	-10.488
▁wish	-10.4881
▁Two	-10.4882
/05	-10.4882
▁마나	-10.4884
メ	-10.4886
▁blood	-10.4886
▁flow	-10.4889
gene	-10.4894
▁굉장히	-10.4898
렴	-10.4898
▁발동	-10.4905
닥	-10.4907
mission	-10.4909
▁보물	-10.4911
▁feeling	-10.4918
▁#000000	-10.4918
▁sto	-10.4925
▁최초로	-10.4926
윙	-10.4935
▁지휘	-10.4936
▁case	-10.4936
lies	-10.4938
play	-10.4941
▁분명	-10.4948
▁Phys	-10.495
▁향해	-10.495
0000;	-10.495
융	-10.4959
▁콜라보	-10.4959
▁Everybody	-10.496
▁쉽게	-10.496
▁Know	-10.4961
▁Project	-10.4963
Ro	-10.4966
ridge	-10.4969
▁다르게	-10.4972
경제	-10.4974
▁woo	-10.4979
▁의한	-10.4979
▁도입	-10.4983
틸	-10.4984
▁트위터	-10.4984
▁next	-10.4984
▁]{{{#!	-10.4985
▁Qui	-10.4985
0001	-10.4988
▁모바일	-10.4996
▁부여	-10.4996
▁너만	-10.4997
▁door	-10.5005
▁단순	-10.5006
▁non	-10.5008
▁Peter	-10.5008
촉	-10.5008
tru	-10.5009
▁약속	-10.5011
정보	-10.5013
▁키미	-10.5021
white	-10.5021
둘	-10.5029
▁forever	-10.503
head	-10.5032
cture	-10.5032
▁DJMAX	-10.5033
줬	-10.5033
ュ	-10.5033
▁reason	-10.5033
▁결혼	-10.5035
▁Brown	-10.5035
×3	-10.5036
psych	-10.5036
▁일을	-10.5039
▁1968	-10.5042
理	-10.5045
꾼	-10.5045
무기	-10.5046
rage	-10.5049
▁Cur	-10.5055
▁Martin	-10.5056
▁원하는	-10.5058
▁나타나	-10.5058
▁사람은	-10.5063
▁PRO	-10.5065
▁자꾸	-10.5066
ification	-10.5068
▁비디오	-10.507
▁닥터	-10.507
▁얘기	-10.5072
▁Auto	-10.5074
▁???	-10.5075
▁상상	-10.5082
▁문제가	-10.5086
▁받았다	-10.5087
겸	-10.5095
▁따르면	-10.5107
▁노력	-10.5107
▁WCS	-10.5107
DJ	-10.5109
▁strong	-10.5111
▁Magic	-10.5111
▁이름으로	-10.5113
▁바꾸	-10.5113
▁없었	-10.5116
php	-10.5126
▁1969	-10.5127
멋	-10.5132
▁Group	-10.5133
▁전화	-10.5136
udi	-10.514
↙	-10.5144
넥	-10.5144
아프리카	-10.5144
모토	-10.5145
GN	-10.5148
구나	-10.5154
▁제국	-10.5156
피아	-10.5165
SHI	-10.5166
댄	-10.5168
▁1967	-10.5171
피스	-10.5174
▁DLC	-10.5181
▁player	-10.5181
스러운	-10.5182
▁Direct	-10.5187
▁브레	-10.5187
dies	-10.519
꿀	-10.5194
▁Sports	-10.5196
▁both	-10.5197
했으나	-10.5197
off	-10.5201
▁여기에	-10.5204
mma	-10.5205
▁number	-10.5207
▁이곳	-10.5208
▁enough	-10.5208
afa	-10.5208
mark	-10.5209
spec	-10.5211
▁Wal	-10.5217
춰	-10.5218
밑	-10.5219
ban	-10.5226
박스	-10.5228
▁Tur	-10.523
▁______________	-10.5231
▁돌파	-10.5231
▁날개	-10.5237
エ	-10.5244
▁Rap	-10.5254
▁Bon	-10.5257
▁육군	-10.5261
▁전혀	-10.5263
/07	-10.5269
▁learn	-10.527
▁15:00	-10.5271
▁채보	-10.5272
▁final	-10.5274
▁ask	-10.5275
▁Fate	-10.53
GFSEX	-10.5307
▁Richard	-10.5307
▁반드시	-10.5308
▁위하여	-10.5309
▁Top	-10.531
▁플라	-10.5313
▁종합	-10.5314
dio	-10.5318
▁악마	-10.532
쥬	-10.532
▁비율	-10.5327
content	-10.5328
今	-10.5333
▁지난	-10.5334
▁조합	-10.5344
▁너희	-10.5347
사키	-10.535
▁Michael	-10.5358
本	-10.5358
▁광고	-10.536
▁등장한다	-10.5366
뮤	-10.5369
었지만	-10.538
/04	-10.5383
▁주문	-10.5383
▁future	-10.5384
▁class	-10.5385
ough	-10.539
▁엑스	-10.5392
▁해상도	-10.5397
search	-10.5398
맥	-10.5406
▁Univ	-10.5407
▁fine	-10.5408
▁탈락	-10.541
path	-10.5415
▁기록했다	-10.5421
▁걱정	-10.5422
▁three	-10.5422
▁블록	-10.5423
▁관련된	-10.5431
▁안전	-10.5432
▁준공	-10.5433
▁메소	-10.5437
table	-10.5443
/08	-10.5444
ム	-10.5448
▁GPU	-10.5448
latest	-10.5449
▁Fight	-10.5451
▁사양	-10.5452
▁아니면	-10.5458
ا	-10.546
◆	-10.546
shadow	-10.546
▁Legend	-10.546
▁attack	-10.5461
▁스스로	-10.5462
▁else	-10.5464
▁Hero	-10.5466
▁그럼	-10.5466
었고	-10.5468
put	-10.5468
으로부터	-10.5469
▁Have	-10.547
늦	-10.5473
▁그래픽	-10.5475
▁그녀는	-10.5485
weapon	-10.5487
포지션	-10.5487
,#000	-10.5494
▁완전	-10.5497
▁Bru	-10.5497
▁인식	-10.5497
냉	-10.5499
▁+10	-10.5499
ega	-10.5499
▁이동속도	-10.55
▁진입	-10.5501
능력	-10.5509
▁Psychology	-10.5512
▁내용은	-10.5518
▁Mk	-10.5519
쓴	-10.552
vor	-10.5522
▁bla	-10.5526
▁Water	-10.5526
▁것처럼	-10.5527
▁처음으로	-10.5533
craft	-10.5535
▁충분	-10.5536
cast	-10.5543
▁운명	-10.5546
▁Ooh	-10.5547
star	-10.5549
▁Dragon	-10.5551
▁완벽	-10.5551
▁children	-10.5551
▁핫타임	-10.5551
▁전통	-10.5555
▁스페인	-10.5564
▁보이는	-10.5575
▁여담으로	-10.5577
▁멤버들	-10.5581
och	-10.5585
앨	-10.5588
―	-10.559
▁Series	-10.5595
▁연기	-10.5605
▁투자	-10.5608
▁full	-10.5611
▁Hello	-10.5613
AVE	-10.5613
▁편집	-10.5614
▁높이	-10.5615
國	-10.5616
▁Thomas	-10.5616
▁General	-10.5616
▁Gro	-10.5619
▁선물	-10.5623
▁kind	-10.5625
++	-10.5632
▁신곡	-10.5632
이라면	-10.5632
rack	-10.5632
▁once	-10.5639
▁MX	-10.564
첨	-10.5642
▁추가된	-10.5642
▁생각해	-10.5642
▁jump	-10.5642
▁가정	-10.5642
hl	-10.5643
▁STR	-10.5643
3.5	-10.5648
YO	-10.5651
▁로드	-10.5654
▁Chicago	-10.5655
▁희망	-10.5655
▁Turn	-10.5661
tell	-10.5662
▁존재한다	-10.5663
不	-10.5668
▁안정	-10.5671
▁Sea	-10.5672
▁Space	-10.5674
닛	-10.5675
▁Soul	-10.5676
▁초대	-10.5678
렵	-10.5681
▁다운로드	-10.5681
붕	-10.5681
bur	-10.5682
|	-10.5685
▁전환	-10.5686
quest	-10.5692
ハ	-10.5694
▁become	-10.5696
음악	-10.5697
▁있으면	-10.57
▁China	-10.5704
lude	-10.5705
IST	-10.5706
▁Report	-10.5707
▁아름다운	-10.5707
▁public	-10.5707
▁콘티	-10.5708
▁Future	-10.5709
▁아무도	-10.571
да	-10.5711
▁FOR	-10.5715
▁문장	-10.5717
por	-10.5718
▁gone	-10.5725
▁Mini	-10.5733
▁고통	-10.5733
쯤	-10.5734
▁Add	-10.5735
겠지만	-10.5737
▁hot	-10.5739
셨	-10.5747
▁레전드	-10.5747
ties	-10.5751
▁영원히	-10.5751
igh	-10.5752
오리	-10.5753
롬	-10.576
▁남성	-10.5769
▁Association	-10.5774
▁크리티컬	-10.5774
했었	-10.5776
▁1965	-10.5779
리온	-10.5779
폐	-10.5782
▁issue	-10.5784
ブ	-10.5787
▁#000,#	-10.5787
웃	-10.5788
▁이름은	-10.5802
▁Lord	-10.5803
하도록	-10.5805
꽃	-10.5807
num	-10.5808
▁upon	-10.581
▁운행	-10.581
bout	-10.5814
bre	-10.5816
포인트	-10.5825
▁crazy	-10.584
▁Far	-10.5845
▁death	-10.5858
▁소비	-10.5859
rist	-10.5866
LIGHT	-10.5871
필드	-10.5872
▁Gun	-10.5875
▁메탈	-10.5876
♡	-10.588
プ	-10.588
▁촬영	-10.588
▁Want	-10.5884
dust	-10.5898
▁최초의	-10.5901
war	-10.5901
▁miss	-10.5903
▁Government	-10.5907
뿌	-10.5907
▁무료	-10.5916
▁1960	-10.5919
char	-10.5919
▁fact	-10.592
묵	-10.592
튜	-10.592
Japanese	-10.5921
▁고정	-10.5929
룰	-10.5947
주차	-10.5953
pot	-10.5958
뱅	-10.5961
▁효율	-10.5961
▁괜찮	-10.5964
▁타이틀곡	-10.5966
놓고	-10.5968
те	-10.5973
▁감정	-10.5979
mental	-10.5981
▁위치한	-10.5982
tech	-10.5988
▁1966	-10.5988
▁타고	-10.5988
cker	-10.5989
ва	-10.5998
▁Ye	-10.5998
▁만들었	-10.6003
▁그들의	-10.6006
▁받고	-10.6008
유키	-10.6014
▁연출	-10.6015
cell	-10.6016
$	-10.6022
섯	-10.6036
▁Char	-10.6043
▁Death	-10.6045
▁완성	-10.6045
비용	-10.6049
RB	-10.605
▁비판	-10.6053
ка	-10.6059
▁{{{	-10.6062
▁#18	-10.6063
▁grow	-10.6064
worth	-10.6064
▁주포	-10.6065
▁today	-10.6066
▁Friend	-10.6069
▁맞춰	-10.6071
▁Even	-10.6074
pher	-10.6075
▁미치	-10.608
ND	-10.6082
쩌	-10.6097
▁Service	-10.6097
▁Earth	-10.6097
▁디스플레이	-10.6097
하니	-10.6102
붙	-10.6107
튀	-10.611
벗	-10.6124
ANCE	-10.6127
▁during	-10.6128
▁갖고	-10.6131
▁제거	-10.6133
▁논문	-10.6134
▁flare	-10.6138
▁캠페인	-10.6152
主	-10.6152
graph	-10.6156
aka	-10.6156
▁Stu	-10.6157
▁평화	-10.6165
▁감사	-10.6166
램	-10.6173
youtube	-10.6174
aker	-10.6177
▁크리스마스	-10.618
맞	-10.618
▁1945	-10.6184
▁Gal	-10.6188
조차	-10.619
▁사람들은	-10.6192
▁BEMANI	-10.6193
▁Championship	-10.6193
▁Single	-10.6196
▁social	-10.6197
미야	-10.6199
▁성장	-10.6201
▁읽는	-10.6202
▁상위	-10.6203
▁기회	-10.6203
lich	-10.6205
ば	-10.6207
ノ	-10.6207
우드	-10.6207
Hill	-10.6207
▁young	-10.6209
▁점점	-10.6209
ando	-10.621
zu	-10.6216
▁패배	-10.6218
LC	-10.6219
룩	-10.6221
ABC	-10.6221
▁happen	-10.6221
▁Remix	-10.6221
▁잠시	-10.6222
같이	-10.6223
2000	-10.6228
▁오픈	-10.6228
▁성적	-10.6229
▁wait	-10.623
ニ	-10.6235
페이스	-10.6236
▁유일한	-10.6237
▁현상	-10.6246
▁Secret	-10.6249
넓	-10.6249
십시오	-10.6249
▁작가	-10.6258
atur	-10.626
夢	-10.6262
▁Walk	-10.6264
▁국기	-10.6276
學	-10.6276
▁만드는	-10.6279
rant	-10.6283
▁들고	-10.6287
テ	-10.629
▁시청	-10.6295
ь	-10.6297
샷	-10.6304
▁울산	-10.6305
▁Post	-10.6314
▁qua	-10.6315
넘	-10.632
▁ARM	-10.632
펙	-10.6327
무라	-10.6331
ava	-10.6333
Record	-10.6341
▁Hell	-10.6345
2.1	-10.6345
▁주소	-10.6346
□	-10.6346
ね	-10.6346
챠	-10.6346
20,000	-10.6347
itor	-10.6357
▁Machine	-10.636
▁Wall	-10.6363
index	-10.6363
▁__________	-10.6365
▁Bill	-10.6365
▁해군	-10.6368
▁Mind	-10.6372
▁멈추	-10.6374
▁아시아	-10.638
mond	-10.6381
▁Jump	-10.6382
vol	-10.6382
▁Bull	-10.6392
▁지배	-10.6401
▁방면	-10.6401
▁누군가	-10.6403
놓은	-10.6404
▁테크	-10.6407
▁0.7	-10.6408
▁Stra	-10.6409
▁People	-10.6417
냈	-10.6421
▁아이콘	-10.6421
▁시점	-10.6433
챔피언	-10.6444
굳	-10.6445
▁document	-10.6445
▁슬롯	-10.6446
▁train	-10.6447
▁{{{-1	-10.6448
연구소	-10.6452
ле	-10.6452
냈다	-10.6455
▁deep	-10.646
▁1963	-10.6463
▁네게	-10.6464
witch	-10.647
▁meet	-10.6471
본부	-10.6472
▁money	-10.6476
ternal	-10.6483
▁우수학교	-10.6488
▁Control	-10.6488
▁느끼	-10.6488
▁appear	-10.6491
▁두번째	-10.6492
▁치명타	-10.6502
schaft	-10.6502
▁접근	-10.6504
▁rule	-10.6513
▁종교	-10.6514
옛	-10.6516
▁Again	-10.6516
▁조회수	-10.6516
난다	-10.6522
town	-10.6526
▁편이다	-10.6527
▁Dead	-10.6528
▁understand	-10.653
▁업로드	-10.653
이었던	-10.6531
▁여러분	-10.6532
▁guy	-10.6535
▁검은	-10.6543
pur	-10.6548
▁미친	-10.6552
▁연습	-10.6556
ESS	-10.6559
▁Smith	-10.6559
▁AKB	-10.656
도서관	-10.656
▁problem	-10.6561
▁폭탄	-10.6565
▁nobody	-10.6565
▁따로	-10.6566
iction	-10.6566
▁피해를	-10.6568
心	-10.6573
▁대해서	-10.6574
▁경험	-10.6575
▁등록	-10.6575
득점	-10.6576
▁Person	-10.6581
▁didn	-10.6583
베리	-10.6587
▁different	-10.6588
▁Wind	-10.6588
미디어	-10.659
ARE	-10.6595
AST	-10.6597
▁의사	-10.6602
뭘	-10.6602
nish	-10.6603
▁없고	-10.6619
밖	-10.6621
▁super	-10.6626
▁저장	-10.6627
duction	-10.6627
手	-10.6631
▁한계돌파	-10.6631
▁로켓	-10.6635
▁것들	-10.6636
down	-10.6642
▁0.8	-10.6644
▁지능	-10.6648
▁ooh	-10.665
디아	-10.6654
₩	-10.6657
revision	-10.6658
▁Medicine	-10.666
▁말한다	-10.666
▁좋아하는	-10.666
▁trust	-10.6661
750	-10.6662
▁Roll	-10.6666
하였고	-10.6675
▁극장판	-10.6675
시킨다	-10.6675
▁소설	-10.6677
▁CINDERELLA	-10.6689
▁악곡	-10.6689
▁Rose	-10.6692
▁cla	-10.6697
▁Key	-10.6699
▁Story	-10.6699
▁Was	-10.67
센트	-10.6702
주세요	-10.6705
▁until	-10.6708
▁test	-10.671
▁끝까지	-10.6711
gro	-10.6715
ла	-10.6721
▁옆에	-10.6721
▁Road	-10.6724
교실	-10.6729
ify	-10.673
▁작동	-10.6742
ware	-10.6746
▁훈련	-10.6747
▁단체	-10.6752
뒷	-10.6762
▁민주	-10.6762
▁소련	-10.6764
▲	-10.6769
이라도	-10.6769
▁계정	-10.6772
낭	-10.6776
뚜	-10.6776
▁밝혀	-10.6777
0.1	-10.6782
actor	-10.679
▁듀얼	-10.6791
▁첫번째	-10.6791
Stat	-10.6792
▁fear	-10.68
▁shit	-10.6803
folding	-10.6806
▁신자체는	-10.6806
▁겨울	-10.6806
▁미사일	-10.6808
rush	-10.6813
▁스마트폰	-10.6821
▁삽입	-10.6821
▁빠른	-10.6821
▁원해	-10.6823
▁출전	-10.6829
▁동방	-10.6829
옆	-10.6832
GI	-10.6833
▁coming	-10.6837
▁확률로	-10.6839
recht	-10.684
잭	-10.685
▁멜로디	-10.685
▁훨씬	-10.685
愛	-10.685
▁Standard	-10.6852
▁동물	-10.6858
back	-10.6864
몰	-10.6865
PER	-10.6869
▁Bank	-10.6871
▁확정	-10.6877
ANT	-10.6879
▁유형	-10.6879
▁상처	-10.6889
▁보유	-10.6889
증권	-10.6889
▁Office	-10.6894
▁부르는	-10.6898
▁yourself	-10.6907
앵	-10.6909
▁Modern	-10.6909
▁Old	-10.6918
▁Washington	-10.6924
빵	-10.6924
▁Center	-10.6925
▁위키	-10.6926
MAN	-10.6927
▁힙합	-10.6939
▁Christ	-10.694
▁Ol	-10.694
gov	-10.694
▁회피	-10.6953
fish	-10.6954
▁battle	-10.6954
▁있었던	-10.6966
▁만화	-10.6967
매출	-10.6967
였으나	-10.6968
▁자랑	-10.6972
교통	-10.6972
▁올려	-10.6974
▁iOS	-10.6977
自	-10.6984
▁민첩	-10.6985
▁그때	-10.6987
></	-10.6992
▁______	-10.6997
▁구분	-10.6997
chu	-10.6999
팡	-10.6999
С	-10.6999
子	-10.6999
▁어려운	-10.6999
▁조각	-10.7004
▁따른	-10.7005
▁소유	-10.7009
뿐만	-10.7012
グ	-10.7014
▁장군	-10.7023
▁수익	-10.7027
ョ	-10.7029
랭크	-10.7035
랭	-10.7038
▁whole	-10.704
빗	-10.7044
▁수많은	-10.7044
▁Sport	-10.7045
▁빌드	-10.7056
▁엄마	-10.706
▁아예	-10.706
▁생물	-10.7062
Temp	-10.7065
▁beatmania	-10.7074
▁Company	-10.7074
▁clear	-10.7076
▁도망	-10.7077
▁다크	-10.7078
▁1964	-10.708
▁안드로이드	-10.7089
▁그건	-10.7103
▁불렀다	-10.7104
▁당신을	-10.7108
▁Order	-10.7111
▁않게	-10.7115
GU	-10.7116
렀	-10.7119
닫	-10.7119
▁아케이드	-10.7119
▁value	-10.7119
▁페이즈	-10.7119
▁touch	-10.7123
▁리더	-10.7123
엑	-10.7125
▁못해	-10.7127
▁예상	-10.7128
▁진실	-10.713
▁Bou	-10.7131
깃	-10.7134
셜	-10.7134
▁쿨타임	-10.7134
▁Speed	-10.7135
wor	-10.7146
ャ	-10.715
▁Christmas	-10.715
▁많아	-10.7151
▁서술	-10.7151
boo	-10.7153
클리	-10.7154
▁한글	-10.7158
▁레이블	-10.7161
맵	-10.7172
alism	-10.7173
▁상징	-10.7175
▁sweet	-10.718
▁재료	-10.7197
▁에어	-10.7202
▁TOP	-10.7202
burg	-10.7203
avi	-10.7203
150	-10.7204
時	-10.7211
▁↓↙←	-10.7211
▁Program	-10.7212
▁chance	-10.7221
▁Head	-10.7229
▁Stand	-10.7231
▁Stop	-10.7233
▁근데	-10.7236
文	-10.7241
▁looking	-10.7246
project	-10.7253
첩	-10.7256
▁출력	-10.7256
stitution	-10.7257
▁DVD	-10.7257
▁조정	-10.7258
▁character	-10.7272
쟈	-10.7272
▁스킨	-10.7272
쳤	-10.7274
▁때마다	-10.7285
▁Institute	-10.7287
▁프로듀서	-10.7287
▁wrong	-10.7288
▁열린	-10.7297
엽	-10.7303
▁바보	-10.7308
8000	-10.7313
▁Stay	-10.7314
▁마크	-10.7314
4,000	-10.7315
▁괄호를	-10.7318
섞	-10.7318
▁왼쪽	-10.7318
tention	-10.7321
▁임무	-10.7324
▁Records	-10.7325
▁원작	-10.7328
킷	-10.7334
▁Study	-10.7335
▁음성	-10.7338
333	-10.7339
▁story	-10.7339
▁Full	-10.7347
我	-10.7349
ç	-10.7349
▁질문	-10.7362
post	-10.7364
raw	-10.7368
=0	-10.7369
▁OK	-10.7369
▁충격	-10.7371
▁오직	-10.7374
▁치료	-10.7375
뱀	-10.738
▁바꿔	-10.7381
▁Club	-10.7385
や	-10.7396
ろ	-10.7396
▁뭔가	-10.7398
3.1	-10.74
▁점프	-10.741
삭	-10.7411
▁Thank	-10.7412
▁EXH	-10.7413
▁스텝	-10.7414
▁wonder	-10.7416
▁동일한	-10.7417
xx	-10.7424
▁모르겠	-10.7425
▁게스트	-10.7426
▁광주	-10.7427
▁랜덤	-10.7427
った	-10.7428
ло	-10.7432
벌레	-10.7433
▁mother	-10.7434
▁voice	-10.7443
▁히어로	-10.7443
▁1938	-10.745
▁Watch	-10.7453
▁한계	-10.7455
▁추천	-10.7457
▁운용	-10.7458
FFFFFF	-10.7459
▁remember	-10.7459
▁Album	-10.7459
▁심지어	-10.7459
vari	-10.7466
▁있으니	-10.7466
▁1962	-10.7467
▁Chapter	-10.7474
▁브랜드	-10.7477
▁사격	-10.7482
샌	-10.749
훌	-10.749
▁moon	-10.7493
▁시작했다	-10.7498
▁↓↘→	-10.7506
▁base	-10.7506
▁Wood	-10.7517
權	-10.7521
▁Second	-10.7522
▁측면	-10.7523
▁Gray	-10.7527
▁형성	-10.7529
ré	-10.7533
▁떨어지	-10.7535
▁대해서는	-10.7536
▁아군	-10.7536
▁anything	-10.7537
섬	-10.7538
▁Block	-10.7541
▁아무것도	-10.7553
됩니다	-10.7553
▁special	-10.7553
▁그렇지	-10.7554
▁check	-10.7556
itz	-10.7568
會	-10.7569
▁beautiful	-10.7569
끊	-10.7569
▁롯데	-10.7569
▁told	-10.7575
▁Market	-10.7577
0.2	-10.7579
aving	-10.7586
▁알았	-10.7592
HER	-10.7609
버릴	-10.7609
있어	-10.7609
리얼	-10.7612
▁Stage	-10.7613
生	-10.7617
톱	-10.7617
▁kiss	-10.7617
▁크루	-10.762
▁논란	-10.7624
▁Prince	-10.7631
へ	-10.7633
ダ	-10.7633
엣	-10.7633
mination	-10.7636
캔	-10.7649
▁peace	-10.7649
▁규격	-10.7649
ри	-10.7664
셈	-10.7665
▁패러디	-10.7665
▁cannot	-10.7665
▁sin	-10.7668
ought	-10.7678
▁Burn	-10.768
츄	-10.7681
▁Wow	-10.7683
▁mor	-10.7688
▁불구하고	-10.7697
▁노동	-10.7699
▁있도록	-10.77
▁구축	-10.77
겠습니다	-10.7701
%▲	-10.7705
▁화염	-10.7719
ception	-10.772
天	-10.7729
▁추가되었다	-10.7733
▁피해량	-10.7736
▁대공	-10.7736
file	-10.7737
lent	-10.7741
ONG	-10.7745
▁smile	-10.7748
▁level	-10.775
▁믿어	-10.7755
▁LoL	-10.7758
ELL	-10.7759
ガ	-10.7761
렐	-10.7761
▁녀석	-10.7762
▁필살기	-10.7777
▁Psycho	-10.7777
source	-10.779
▁필요하다	-10.7792
よう	-10.7796
▁빠르게	-10.7799
휴	-10.7801
찍	-10.7801
되어있다	-10.7818
EVER	-10.7821
▁그림자	-10.7823
쾌	-10.7826
▁Queen	-10.7826
돼	-10.783
▁받았	-10.7833
▁러브	-10.7835
htm	-10.7835
시킬	-10.7842
곰	-10.7842
▁Double	-10.7842
←	-10.7853
▁moment	-10.7853
loo	-10.7856
IDE	-10.7857
~12	-10.7858
▁Champions	-10.7858
者	-10.7859
텀	-10.7859
▁Heaven	-10.7859
▁경쟁	-10.7868
▁샘플	-10.7875
▁좀비	-10.7879
▁Doctor	-10.7879
눈	-10.7887
▁무려	-10.789
じ	-10.7891
年	-10.7891
÷	-10.7891
켈	-10.7891
▁Studio	-10.7892
Mbps	-10.7892
.03.01	-10.7892
▁각종	-10.7894
▁though	-10.7896
끔	-10.79
▁대전차	-10.79
jp	-10.7902
▁드림	-10.7904
▁집중	-10.7905
kan	-10.7906
月	-10.7908
윌	-10.7908
▁없었다	-10.7909
▁문자	-10.7915
明	-10.7924
끈	-10.7924
▁최우수	-10.7924
▁Street	-10.7924
▁행사	-10.794
▁Cross	-10.7941
▁someone	-10.795
▁Paper	-10.7952
社	-10.7957
▁강력한	-10.7957
▁가까이	-10.7958
▁다르다	-10.7958
▁Physical	-10.7959
><	-10.7961
1-2	-10.7966
wel	-10.7966
었는데	-10.797
▁캐나다	-10.7974
▁George	-10.7975
걷	-10.799
숨	-10.7991
▁NEW	-10.7991
▁처치	-10.7993
▁말이야	-10.7996
멍	-10.8007
▁컨셉	-10.8007
▁중심	-10.8007
▁얼음	-10.8008
▁DDR	-10.8008
1.2	-10.8009
▁분야	-10.801
▁건강	-10.801
▁입학	-10.8016
▁의견	-10.8022
▁흘러	-10.8023
▁그리스	-10.803
▁city	-10.8032
거든	-10.8038
▁단독	-10.8039
▁Storm	-10.8041
▁상용독음을	-10.8042
▁스타리그	-10.8043
으니까	-10.8043
де	-10.8049
rupt	-10.8053
▁Challenge	-10.8056
▁Style	-10.8057
▁친구들	-10.8058
▁데려	-10.8061
▁어머니	-10.8063
차량	-10.8066
▁싸우	-10.807
갱	-10.8073
쏘	-10.8073
자동차	-10.8078
▁temp	-10.8083
ficial	-10.8083
▁더불어	-10.809
▁breath	-10.809
▁아니야	-10.8096
▁이끌	-10.8107
▁14:59	-10.8107
та	-10.8109
▁형제	-10.8115
AKE	-10.8121
▁Crazy	-10.8123
▁result	-10.8123
▁잠깐	-10.8124
▁결승	-10.8124
▁조준	-10.814
▁청주	-10.8142
crease	-10.8144
▁탄약	-10.8146
▁생긴	-10.815
▁화력	-10.8157
▁오른쪽	-10.8157
▁MVP	-10.8157
▁Force	-10.8158
▁드랍	-10.8158
▁사례	-10.8166
_____________	-10.8168
いて	-10.8171
В	-10.8174
앱	-10.8174
▁서브	-10.8176
株	-10.8191
▁옮김	-10.8191
ズ	-10.8191
▁happy	-10.8191
▁일러스트	-10.8191
▁subject	-10.8192
COM	-10.8192
▁근거	-10.8196
▁발행	-10.8196
▁판단	-10.8198
ть	-10.82
▁크레딧	-10.8207
パ	-10.8207
▁티켓	-10.8208
▁require	-10.8208
▁Christian	-10.821
▁Pack	-10.821
▁의미한다	-10.8221
▁헌법	-10.8225
ATE	-10.823
▁Forever	-10.8231
▁Meta	-10.8236
▁past	-10.8236
▁괜찮아	-10.8238
▁hero	-10.824
▁Shadow	-10.8241
▁Tele	-10.8244
▁Boom	-10.825
▁소재	-10.8252
○○○	-10.8258
▁부른	-10.8261
▁Video	-10.8268
▁거짓말	-10.8275
▁엄청난	-10.8275
夜	-10.8275
픔	-10.8275
▁Nature	-10.828
▁Yu	-10.8283
▁실험	-10.8287
▁그렇다	-10.8293
▁뉴욕	-10.8294
▁Model	-10.8299
▁Wild	-10.8302
랩	-10.8309
▁가샤	-10.8311
▁들려	-10.8314
▁Camp	-10.8318
▁Low	-10.8321
▁동영상	-10.8327
▁판타지	-10.8327
매입	-10.8328
▁since	-10.8336
▁luck	-10.8336
▁황금	-10.8339
xecut	-10.834
合	-10.8344
▁가운데	-10.8344
DER	-10.8352
▁설계	-10.8357
▁Organization	-10.8361
▁파이널	-10.8361
▁갑옷	-10.8361
▁Hold	-10.8375
▁Article	-10.8378
▁푸른	-10.8378
▁교체	-10.8381
ми	-10.8384
쿼	-10.8395
▁영역	-10.8403
▁지원한다	-10.8409
▁study	-10.8412
▁Level	-10.8422
ì	-10.843
▁스탠	-10.843
▁있으나	-10.8434
▁출발	-10.8434
plication	-10.8436
▁자격	-10.8446
볼트	-10.8451
▁중심으로	-10.8454
▁기초	-10.8462
▁리메이크	-10.8464
▁기다려	-10.8465
spir	-10.8475
▁퀄컴	-10.8482
▁alive	-10.8483
공연	-10.8488
▁얼마	-10.8489
닉네임	-10.8499
▁lose	-10.8499
▁kid	-10.8504
▁추억	-10.8505
▁않으면	-10.8505
web	-10.8508
▁않음	-10.8509
stein	-10.8516
▁support	-10.8517
▁향상	-10.8521
▁자연수	-10.8521
8,000	-10.8528
ти	-10.8533
벳	-10.8534
▁역할을	-10.8535
100,000	-10.8536
▁눈빛	-10.8539
앤	-10.8546
겟	-10.8551
想	-10.8551
▁provide	-10.8553
▁아냐	-10.8555
OUT	-10.8556
▁1939	-10.8558
dium	-10.8561
▁zh	-10.8565
green	-10.8566
하였으며	-10.8571
▁year	-10.858
방법	-10.8585
▁패널	-10.859
▁생존	-10.8591
▁research	-10.8594
front	-10.8599
TOR	-10.86
랍	-10.8602
▁취급	-10.8603
벅	-10.8604
섹	-10.8604
▁Kiss	-10.8606
▁Shake	-10.8607
padding	-10.8619
モ	-10.8622
▁마이클	-10.8622
▁사라지	-10.8628
bell	-10.8636
사이드	-10.8636
갓	-10.8639
킥	-10.8639
▁German	-10.864
레이터	-10.864
▁accept	-10.864
▁일단	-10.8642
2,3	-10.8643
vice	-10.8651
낫	-10.8657
웰	-10.8657
▁작전	-10.8661
▁Skill	-10.8664
ologie	-10.8665
▁검색	-10.8667
3,000	-10.8668
짱	-10.8675
▁춤을	-10.8679
▁Frank	-10.8684
%9	-10.8686
되었던	-10.8688
▁Department	-10.8692
▁제작자	-10.8698
たい	-10.8699
▁knock	-10.871
▁고양이	-10.8711
▁alright	-10.8715
▁interest	-10.8715
▁스카이	-10.8717
00000	-10.8719
상용독음	-10.8725
▁#000;	-10.8729
▁착용	-10.8729
▁분노	-10.8737
▁도착	-10.8745
来	-10.8746
│	-10.8746
탭	-10.8746
▁랭킹	-10.8746
▁Arc	-10.8748
▁hate	-10.8748
▁모험	-10.8749
▁drop	-10.8755
▁동료	-10.8755
二	-10.8764
▁respect	-10.8764
▁Royal	-10.8765
▁로봇	-10.8765
▁Wait	-10.8766
▁Collection	-10.8768
▁아이들	-10.8781
▁(1)	-10.8782
쿄	-10.8796
흘	-10.8799
펫	-10.8799
▁근접해서	-10.8804
▁pack	-10.8807
LAY	-10.882
흑	-10.8826
▁date	-10.8826
▁날짜	-10.8829
계약	-10.8831
▁무너	-10.8831
MENT	-10.8832
定	-10.8835
▁오히려	-10.8835
POP	-10.8837
論	-10.8853
숭	-10.8853
450	-10.8854
ography	-10.886
대한민국	-10.8863
▁충전	-10.8867
▁매력	-10.8868
▁Radio	-10.8869
▁당연히	-10.8871
▁Commun	-10.8872
▁above	-10.8872
▁slow	-10.8872
▁Deep	-10.8888
言	-10.889
▁Tonight	-10.889
▁Russia	-10.889
▁Jan	-10.8892
,#19191	-10.8908
괄	-10.8908
흰	-10.8908
▁물건	-10.891
놀이	-10.8913
▁나타내는	-10.8926
▁SideM	-10.8926
새끼	-10.8935
▁결승전	-10.8936
▁shake	-10.8944
톨	-10.8944
▁실력	-10.8948
▁만족	-10.8952
▁waiting	-10.8953
▁proper	-10.896
▁(2)	-10.8962
▁group	-10.8962
▁Monster	-10.8968
▁WORLD	-10.898
쿵	-10.898
▁Everything	-10.8981
▁접속	-10.8987
▁나올	-10.8998
代	-10.8999
럿	-10.8999
뤄	-10.8999
읍	-10.8999
▁object	-10.9
▁Case	-10.9
plan	-10.9008
툴	-10.9017
펑	-10.9017
[	-10.9017
▁function	-10.9018
▁나왔	-10.9021
닷	-10.9035
ール	-10.9043
▁GIRLS	-10.9054
꼽	-10.9054
▁boom	-10.9062
▁만들어진	-10.9066
▁getting	-10.9067
bird	-10.9072
▁Boo	-10.9087
팝	-10.9094
▁맞추	-10.9097
▁Wake	-10.9108
▁Beautiful	-10.9109
空	-10.9109
▁Wolf	-10.9114
▁Exercise	-10.9128
▁Attack	-10.9128
초등학교	-10.9128
▁스파이	-10.9132
hood	-10.9136
▁돌격	-10.9139
▁share	-10.9144
▁것입니다	-10.9146
▁loss	-10.9151
▁Maybe	-10.9157
스텔	-10.9157
田	-10.9165
▁붉은	-10.9165
▁창조	-10.9166
▁래퍼	-10.9166
僕	-10.9183
▁배트맨	-10.9183
▁시험	-10.9187
▁연료	-10.919
gram	-10.9197
▁것이라고	-10.9201
§	-10.9202
▁토너먼트	-10.9202
덜	-10.9202
톡	-10.9202
▁College	-10.9202
▁몇몇	-10.9202
▁Three	-10.9202
分	-10.9221
삐	-10.9221
▁Ready	-10.9221
▁Other	-10.9232
▁인텔	-10.9232
▁Action	-10.9234
▁영문	-10.9239
▁Welcome	-10.924
▁횟수	-10.924
▁limit	-10.9245
6,000	-10.9253
▁부른다	-10.9258
ツ	-10.9258
▁정찰	-10.9277
▁European	-10.9277
▁뮤지컬	-10.9277
▁공개된	-10.9278
▁조심	-10.9279
▁cover	-10.9282
▁구입	-10.9294
겹	-10.9296
▁등장인물	-10.9296
▁Nothing	-10.9296
▁Seoul	-10.9298
media	-10.93
『	-10.931
К	-10.9315
띠	-10.9315
Drive	-10.9315
▁판매량	-10.9322
▁던전	-10.9322
적이고	-10.9327
▁Anti	-10.9328
벼	-10.9334
▁스튜디오	-10.9334
▁탈퇴	-10.9334
▁Damage	-10.9334
▁멀티	-10.9334
▁March	-10.9337
▁안돼	-10.9339
▁Think	-10.934
▁테스트	-10.9341
▁Expl	-10.9341
▁small	-10.9341
同	-10.9353
▁호환	-10.9358
▁있겠	-10.9363
▁Revolution	-10.9375
▁GTX	-10.9379
쳤다	-10.9388
▁TOUR	-10.9392
▁few	-10.9396
surviv	-10.9408
link	-10.9409
無	-10.941
▁wir	-10.9411
▁USB	-10.942
▁NEKO	-10.9429
UST	-10.9439
▁선언	-10.9443
URE	-10.9445
샘	-10.9448
▁business	-10.9448
▁에디션	-10.9448
▁스타크래프트	-10.9449
▁Talk	-10.946
でも	-10.9462
렘	-10.9467
▁behind	-10.9467
▁shoot	-10.9467
왔던	-10.9469
background	-10.947
▁불꽃	-10.9472
▁색상	-10.9473
▁괴물	-10.9473
ß	-10.9486
▁정류장	-10.9486
science	-10.9486
▁create	-10.9488
▁women	-10.9489
▁allow	-10.949
▁법률	-10.9492
気	-10.9505
▁Child	-10.9507
▁슈퍼맨	-10.951
않	-10.951
▁홍보	-10.9513
쇠	-10.9523
▁움직이	-10.9525
▁범죄	-10.9525
▁끌어	-10.9527
▁방문	-10.953
▁골든	-10.9531
농	-10.9531
What	-10.9531
시리즈	-10.9532
▁Color	-10.9543
▁fast	-10.9544
美	-10.9544
目	-10.9544
쌓	-10.9544
▁알려져	-10.9549
▁wow	-10.955
▁행성	-10.955
liche	-10.9555
500,000	-10.9563
잎	-10.9563
▁Analysis	-10.9563
ず	-10.9563
▁sleep	-10.9563
▁running	-10.9567
쁜	-10.9576
넨	-10.9583
▁Environmental	-10.9583
▁정확히	-10.9583
New	-10.9584
▁나중에	-10.9586
▁은퇴	-10.9588
▁fail	-10.9589
▁결성	-10.9606
ologi	-10.9606
▁다섯	-10.9611
間	-10.9622
깜	-10.9622
뮬	-10.9622
쫓	-10.9622
▁장난	-10.9631
ве	-10.9635
금액	-10.9637
▁development	-10.9638
렁	-10.9641
▁Publishing	-10.9641
▁환상	-10.9644
되었습니다	-10.9644
▁Clark	-10.9645
▁쓴다	-10.9648
product	-10.9654
▁agree	-10.9655
굿	-10.9661
▁condition	-10.9661
▁유일하게	-10.9661
▁Snow	-10.9661
▁idea	-10.967
恋	-10.968
▁English	-10.968
▁챔피언십	-10.968
되는데	-10.9682
▁father	-10.9685
ancy	-10.969
▁유저들	-10.9698
▁요청	-10.9699
▁네이버	-10.97
▁question	-10.9701
▁cut	-10.9706
▁babe	-10.9707
똑	-10.9717
클레	-10.9719
°	-10.9719
ν	-10.9719
ビ	-10.9719
덩	-10.9719
▁British	-10.9719
▁대법원	-10.972
▁빨간	-10.972
탓	-10.9739
썼	-10.9739
▁process	-10.9742
▁Beyond	-10.9759
올림픽	-10.9759
▁북미	-10.977
guard	-10.9773
▁Harvard	-10.9779
777	-10.9779
▁클릭	-10.9779
40,000	-10.9783
▁near	-10.9792
맨션	-10.9796
옵	-10.9798
퀸	-10.9798
▁화이트	-10.98
▁mini	-10.981
▁오버워치	-10.9818
띄	-10.9818
▁heaven	-10.9818
▁Fairy	-10.9818
▁메시지	-10.9821
▁요약	-10.9836
星	-10.9838
넬	-10.9838
▁들어간	-10.984
▁트레이	-10.984
퀘	-10.9858
ο	-10.9858
高	-10.9858
▁knew	-10.9858
▁Command	-10.9858
잠	-10.9861
▁갑자기	-10.9878
▁morning	-10.988
▁리뷰	-10.9886
▁child	-10.9898
▁Technology	-10.9898
륭	-10.9898
출판사	-10.9898
▁카페	-10.9899
▁claim	-10.9902
aku	-10.9907
▁대답	-10.9911
캡	-10.9918
뜬	-10.9918
▁듣고	-10.992
▁Honey	-10.9922
▁개봉	-10.9933
▁Because	-10.9938
▁California	-10.9938
〜	-10.9938
▁President	-10.9938
▁Wonder	-10.9938
▁쓰인다	-10.9939
▁나타난	-10.994
▁roll	-10.995
팬	-10.9956
光	-10.9958
新	-10.9958
▁마리오	-10.996
▁Design	-10.9961
▁Basic	-10.997
▁Trade	-10.9976
女	-10.9978
▁easy	-10.9979
GHz	-10.998
▁Disco	-10.9986
▁Touch	-10.9988
▁바라보	-10.9989
▁Lady	-10.9998
▁그곳	-10.9998
윗	-10.9999
▁credit	-10.9999
▁어렵다	-10.9999
답게	-11.0001
▁들었	-11.0002
▁Energy	-11.0019
▁Information	-11.0019
世界	-11.0019
▁consider	-11.002
공화국	-11.002
▁safe	-11.0032
AAA	-11.0032
랬	-11.0039
뻔	-11.0039
▁Cloud	-11.0039
▁Build	-11.004
OME	-11.0044
▁Rule	-11.0048
▁ride	-11.0049
▁영광	-11.005
ARA	-11.0056
ú	-11.0059
э	-11.0059
ᅳ	-11.0059
▁작화감독	-11.0059
혔	-11.0059
▁상관없	-11.006
▁새벽	-11.0063
또	-11.0073
스테이지	-11.0074
▁already	-11.008
둬	-11.008
▁Another	-11.008
▁유명하다	-11.0085
▁protect	-11.0094
▁office	-11.0098
П	-11.01
쉐	-11.01
▁JTBC	-11.01
▁Knight	-11.01
▁Women	-11.01
▁Brand	-11.0115
▁remain	-11.0115
▁sorry	-11.0118
▁DreamHack	-11.0121
▁챕터	-11.0121
▁배터리	-11.0121
▁멋진	-11.0121
▁규모	-11.0122
▁teach	-11.0123
▁나쁜	-11.0128
▁exist	-11.013
セ	-11.0141
좋	-11.0159
神	-11.0162
▁Classic	-11.0162
▁Armor	-11.0165
▁끝내	-11.0167
▁0.3	-11.017
firm	-11.0177
▁Engine	-11.0182
▁탈출	-11.0183
▁Plus	-11.0185
▁채워	-11.0201
phone	-11.0202
world	-11.0204
point	-11.0205
▁0.6	-11.0209
0~2	-11.0219
젝	-11.0224
▁피쳐링	-11.0224
【	-11.0224
▁음식	-11.0226
£	-11.0244
땐	-11.0244
묶	-11.0244
▁근처	-11.025
으려	-11.0257
▁single	-11.0262
햄	-11.0265
▁truth	-11.0267
▁secret	-11.0286
▁활약	-11.0286
▁축복	-11.029
학습	-11.0291
▁drive	-11.0293
▁투표	-11.0302
떡	-11.0307
▁브라질	-11.0307
▁없지만	-11.031
봇	-11.0326
花	-11.0328
▁Follow	-11.0328
▁Spirit	-11.0328
▁Fixed	-11.0328
▁쉬운	-11.0329
▁바뀌었다	-11.033
▁직업	-11.0331
意	-11.0348
▁살아남	-11.0354
extra	-11.0362
▁출시된	-11.0367
ц	-11.0368
地	-11.0369
▁Empire	-11.0369
▁제임스	-11.037
▁Problem	-11.0375
대학원	-11.0379
ل	-11.039
書	-11.039
아메리카	-11.039
▁Esports	-11.039
▁Though	-11.0391
abili	-11.0404
▁AMD	-11.0416
float	-11.0422
place	-11.0428
全	-11.0433
▁Through	-11.0433
▁장애	-11.0452
▁명예	-11.0452
렙	-11.0454
▁perfect	-11.0457
앞	-11.0466
큰	-11.0466
▁여왕	-11.047
싫	-11.0472
▁디스크	-11.0473
́	-11.0475
▁초필살기	-11.0475
▁Honor	-11.0475
▁원칙	-11.0488
▁출생	-11.0494
썬	-11.0496
▁Charles	-11.0499
▁믹스	-11.05
▁정답	-11.0514
▁Council	-11.0517
쉴	-11.0517
▁Issue	-11.0518
▁living	-11.0521
だけ	-11.0522
▁활성화	-11.0539
꼴	-11.0539
닮	-11.0539
딕	-11.0539
2~7	-11.0553
샵	-11.056
▁덕분에	-11.056
▁Ghost	-11.056
▁라인업	-11.056
そう	-11.0562
ī	-11.0582
▁India	-11.0596
듬	-11.06
▁기본적으로	-11.06
方	-11.0603
얄	-11.0603
▁destroy	-11.0603
▁채택	-11.0609
bound	-11.0614
▁'''{{{#	-11.0625
▁Wave	-11.0627
▁Evolution	-11.0634
▁Digital	-11.0646
엔터테인먼트	-11.0646
▁Field	-11.0646
▁이외에	-11.066
した	-11.0665
▁Dynam	-11.0668
▁SHOW	-11.0668
finite	-11.0673
30,000	-11.0683
ù	-11.0689
▁기동전사	-11.0689
▁brother	-11.0689
▁invest	-11.069
▁listen	-11.0691
▁short	-11.0697
しい	-11.0697
▁영입	-11.0706
▁school	-11.0711
▁폴더	-11.0722
첼	-11.0733
▁짧은	-11.0734
▁0.865	-11.0735
헨	-11.0751
τ	-11.0754
▁Relations	-11.0755
▁large	-11.0771
▁cold	-11.0777
함으로써	-11.0784
하므로	-11.0787
햇	-11.0798
logue	-11.0799
▁싸움	-11.0801
↑	-11.082
▁클래식	-11.082
▁author	-11.082
▁Guide	-11.0835
▁정규군	-11.0837
크래프트	-11.0841
▁밝혔다	-11.0842
何	-11.0842
▁period	-11.0842
▁홍콩	-11.0843
▁magic	-11.0846
▁있을까	-11.0854
▁earth	-11.0868
▁making	-11.0876
ǎ	-11.0886
둑	-11.0886
킴	-11.0886
げ	-11.0886
뀐	-11.0908
▁command	-11.0908
▁Culture	-11.0931
▁Daniel	-11.0931
▁Better	-11.0931
▁BPM	-11.0931
▁스펙	-11.0939
▁Multi	-11.0941
▁레슨	-11.0942
title	-11.0951
風	-11.0953
▁iPad	-11.0953
▁기관총	-11.0953
▁네트워크	-11.0975
릉	-11.0975
▁Original	-11.0978
их	-11.0979
rank	-11.0981
▁job	-11.0982
制	-11.0997
十	-11.0997
▁이루어진	-11.0997
道	-11.0997
▁신입생	-11.0997
▁다가와	-11.1005
0.00	-11.1006
▁리버	-11.1014
ê	-11.102
ε	-11.102
▁Academy	-11.102
▁micro	-11.102
▁model	-11.1025
▁공격속도	-11.1025
▁physical	-11.1042
웬	-11.1042
툰	-11.1042
▁데이즈	-11.1044
2.8	-11.105
4.1	-11.1055
하겠다	-11.1055
ств	-11.1065
▁저녁	-11.1065
되었는데	-11.1076
weight	-11.1078
▁Close	-11.1082
졸	-11.1087
▁VOCALOID	-11.1087
▁course	-11.1087
이었으나	-11.1087
▁Jesus	-11.1088
▁런던	-11.1088
義	-11.111
흉	-11.111
▁운영체제	-11.111
▁draw	-11.1115
▁어레인지	-11.1132
,#000000	-11.1136
짧	-11.1153
東	-11.1155
뻐	-11.1155
▁후속작	-11.1155
▁끝난	-11.1157
▁void	-11.116
デ	-11.1178
▁Perspective	-11.1178
connect	-11.1181
▁Flash	-11.1184
▁Micro	-11.1201
륜	-11.1223
▁general	-11.1224
▁speak	-11.1225
▁Resource	-11.123
▁탄생	-11.1236
▁Still	-11.1243
▁Security	-11.1246
▁챔피언스	-11.1248
4.5	-11.1263
ə	-11.1269
▁Major	-11.1269
뜻	-11.1275
RUBY	-11.1292
▁네덜란드	-11.1292
줌	-11.1292
▁modern	-11.1292
▁service	-11.1292
▁보여준다	-11.1295
▁Introduction	-11.1315
▁합성수로	-11.1315
딴	-11.1315
▁lonely	-11.1315
▁information	-11.1315
▁헨리	-11.1318
▁design	-11.1323
채널	-11.1331
歌	-11.1338
щ	-11.1338
▁BLACK	-11.1338
▁Cortex	-11.1338
▁가까운	-11.1338
▁auto	-11.1344
▁데몬	-11.1347
▁Performance	-11.1361
▁government	-11.1361
色	-11.1361
▁DREAM	-11.1361
▁메이저	-11.1368
4.0	-11.137
쩔	-11.1385
▁시어터	-11.1385
로이드	-11.1386
▁+15%	-11.1396
넌	-11.1401
▁바랍니다	-11.1408
▁커뮤니티	-11.1408
▁엘튼	-11.141
▁DEF	-11.1415
그램	-11.1418
▁purpose	-11.1431
껏	-11.1431
▁education	-11.1431
▁SUPER	-11.1431
▁글로벌	-11.1431
▁Always	-11.1431
▁어떠한	-11.1455
▁전면장갑	-11.1455
▁fool	-11.1459
れる	-11.1463
opsis	-11.1463
돋	-11.1478
▁소인수분해하면	-11.1478
▁컨트롤	-11.1478
덮	-11.1478
풋	-11.1478
▁Heavy	-11.1478
▁record	-11.1478
pdf	-11.1479
▁faith	-11.148
▁Ellie	-11.1481
改	-11.1501
궤	-11.1501
▁Boston	-11.1502
▁monster	-11.1502
▁Island	-11.1504
▁Blast	-11.1506
ライ	-11.1507
▁Process	-11.1507
▁experience	-11.1525
♤	-11.1525
▁MUSIC	-11.1525
▁볼텍스	-11.1525
status	-11.1526
ック	-11.1526
▁everyone	-11.1533
▁스웨덴	-11.1549
▁Knock	-11.1549
▁SNH	-11.1549
なら	-11.1556
▁treat	-11.1557
Love	-11.156
▁놈들	-11.1565
놀	-11.1569
▁Merc	-11.1569
▁컬러	-11.1574
▁Body	-11.1584
▁0.4	-11.1584
んだ	-11.1596
ş	-11.1596
┗	-11.1596
▁GeForce	-11.1596
▁멈춰	-11.1596
私	-11.1596
▁answer	-11.1596
會社	-11.1596
▁Behavior	-11.162
▁아일랜드	-11.162
ер	-11.1621
▁skill	-11.1621
잘	-11.1623
▁빠지	-11.1629
▁Vocal	-11.1646
▁half	-11.1649
storm	-11.165
千	-11.1667
▁Urban	-11.1667
▁콤보	-11.1669
▁하얀	-11.1671
▁Stone	-11.1679
動	-11.1691
▁멸망	-11.1691
▁enemy	-11.1691
▁민족	-11.1696
▁Bird	-11.1696
れて	-11.1696
▁느낄	-11.1715
▁floor	-11.1715
▁Credit	-11.1715
▁Charge	-11.1718
▁살짝	-11.1721
▁Victor	-11.1721
▁---------------	-11.1731
썸	-11.1739
▁creature	-11.1739
▁폭풍	-11.1743
▁Peace	-11.1744
▁serve	-11.1762
金	-11.1763
쿤	-11.1763
▁펼쳐	-11.1763
싶	-11.1767
▁언젠가	-11.1788
▁spirit	-11.1788
▁마이너	-11.1788
▁Princeton	-11.179
▁나아가	-11.179
***	-11.1795
もう	-11.1804
펴	-11.1812
ほ	-11.1812
스럽게	-11.1812
▁However	-11.1815
▁Shoot	-11.1837
volution	-11.1845
ся	-11.1845
▁전반적	-11.1859
▁JAPAN	-11.186
앙상블	-11.186
▁바닥	-11.1867
ボ	-11.1983
엉	-11.1983
못	-11.2027
핏	-11.2057
갇	-11.2082
즌	-11.2083
ワ	-11.2107
씬	-11.2107
훔	-11.2107
思	-11.2132
®	-11.2157
音	-11.2182
맺	-11.2182
뱃	-11.2182
켰	-11.2207
옴	-11.2207
뭔	-11.223
ぐ	-11.2233
놔	-11.2233
海	-11.2283
ピ	-11.2283
最	-11.2309
빡	-11.2309
캣	-11.2309
度	-11.2309
늑	-11.236
百	-11.2385
ひ	-11.2385
少	-11.2411
싼	-11.2411
갤	-11.2463
說	-11.2489
얀	-11.2511
녕	-11.2562
ふ	-11.2567
팽	-11.2593
び	-11.2698
ñ	-11.2725
《	-11.2734
未	-11.2752
ن	-11.2778
헬	-11.279
む	-11.2805
랫	-11.2805
訴	-11.2832
홉	-11.2832
笑	-11.2832
好	-11.2859
下	-11.2913
꿈	-11.2929
μ	-11.294
곽	-11.294
닭	-11.294
立	-11.294
뒤	-11.296
틈	-11.2967
씀	-11.2994
三	-11.3049
ェ	-11.3104
現	-11.3104
셉	-11.3131
之	-11.3131
性	-11.3159
밈	-11.3159
잼	-11.3159
ゆ	-11.3187
部	-11.3215
会	-11.3215
你	-11.3271
얘	-11.3295
붐	-11.3299
判	-11.3327
力	-11.3327
뚱	-11.3327
뭉	-11.3355
빔	-11.3355
小	-11.3412
ᄂ	-11.3412
ネ	-11.344
엇	-11.3465
民	-11.3469
펄	-11.3498
А	-11.3498
â	-11.3526
ァ	-11.3555
갯	-11.3555
山	-11.3613
ソ	-11.3613
같	-11.3639
原	-11.3642
몹	-11.3642
덧	-11.3701
Н	-11.3789
­	-11.3818
ι	-11.3878
م	-11.3908
끝	-11.392
찾	-11.3921
有	-11.3938
真	-11.3938
콧	-11.3938
ょ	-11.3968
止	-11.3968
릎	-11.3968
信	-11.3968
曲	-11.3968
所	-11.4028
횡	-11.4058
흠	-11.4058
物	-11.4089
폼	-11.4089
家	-11.4119
짤	-11.4119
記	-11.4119
史	-11.415
몸	-11.4176
젼	-11.418
ǒ	-11.4211
決	-11.4242
夏	-11.4242
밸	-11.4242
ô	-11.4273
楽	-11.4304
셸	-11.4304
좁	-11.4304
ा	-11.4335
녹	-11.4339
超	-11.4367
保	-11.4429
찢	-11.4429
正	-11.4461
슐	-11.4461
命	-11.4461
版	-11.4461
쓸	-11.4471
딱	-11.4471
公	-11.4492
向	-11.4492
情	-11.4493
꽉	-11.4493
ǐ	-11.4524
옳	-11.4524
왈	-11.4556
줍	-11.4556
解	-11.4588
깁	-11.4588
싹	-11.4588
ポ	-11.4588
팜	-11.462
ر	-11.4652
멈	-11.4684
魔	-11.4685
󰡕	-11.4685
ぶ	-11.4717
太	-11.4717
و	-11.4749
水	-11.4749
냄	-11.4749
젖	-11.4749
知	-11.4749
在	-11.4782
任	-11.4782
ィ	-11.4814
●	-11.4844
빅	-11.4844
ご	-11.4847
憲	-11.4847
≪	-11.488
󰡔	-11.488
É	-11.4913
外	-11.4946
白	-11.4946
챙	-11.4946
낀	-11.5046
찮	-11.5046
댈	-11.508
맷	-11.508
쯔	-11.508
캄	-11.508
↔	-11.5114
☞	-11.5114
ケ	-11.5114
М	-11.5114
韓	-11.5147
σ	-11.5147
≫	-11.5147
낚	-11.5147
뿔	-11.5147
썩	-11.5147
땅	-11.5196
Д	-11.5215
뼈	-11.5215
式	-11.5249
感	-11.5284
벡	-11.5284
限	-11.5318
京	-11.5318
λ	-11.5353
ò	-11.5353
Р	-11.5353
똥	-11.5353
찔	-11.5353
木	-11.5353
平	-11.5387
낯	-11.5387
ᄒ	-11.5387
힘	-11.5413
由	-11.5422
긋	-11.5422
ᄀ	-11.5457
륨	-11.5457
릇	-11.5457
回	-11.5527
푼	-11.5527
튠	-11.5562
ρ	-11.5597
‐	-11.5633
♥	-11.5633
べ	-11.5633
遠	-11.5668
И	-11.5668
ベ	-11.5668
和	-11.5704
껴	-11.5704
終	-11.5704
変	-11.5704
利	-11.574
첸	-11.5776
第	-11.5776
늬	-11.5848
뚝	-11.5848
맙	-11.5885
흩	-11.5885
깝	-11.5921
誰	-11.5921
成	-11.5958
ς	-11.5958
섰	-11.5958
헛	-11.5958
콰	-11.5994
ヤ	-11.5994
要	-11.5994
О	-11.6031
팟	-11.6031
▬	-11.6068
開	-11.6068
後	-11.6068
化	-11.6106
ᆯ	-11.6106
좆	-11.6106
펼	-11.6143
入	-11.6143
場	-11.6143
넛	-11.6143
쁨	-11.6143
핸	-11.618
集	-11.618
ō	-11.618
ي	-11.618
맑	-11.618
왼	-11.6218
둠	-11.6251
ギ	-11.6256
훼	-11.6256
د	-11.6294
州	-11.6294
늙	-11.6332
業	-11.637
ē	-11.637
β	-11.637
겔	-11.637
깐	-11.6407
⇒	-11.6408
野	-11.6408
텝	-11.6441
̶	-11.6485
밭	-11.6485
ゴ	-11.6485
通	-11.6524
뤼	-11.6524
슴	-11.6555
政	-11.6563
ぎ	-11.6563
å	-11.6563
Т	-11.6602
声	-11.6602
혐	-11.6602
맴	-11.6641
用	-11.668
턱	-11.668
待	-11.668
春	-11.668
훗	-11.668
뉘	-11.672
告	-11.672
ヒ	-11.676
役	-11.676
굵	-11.676
눌	-11.6799
돕	-11.6799
流	-11.6839
돔	-11.6839
넉	-11.688
約	-11.692
쵸	-11.692
멤	-11.696
四	-11.696
늄	-11.696
땡	-11.696
뻗	-11.696
能	-11.7001
々	-11.7001
青	-11.7001
員	-11.7042
솜	-11.7042
헝	-11.7042
걔	-11.7083
陽	-11.7083
名	-11.7124
起	-11.7124
챈	-11.7124
井	-11.7165
뎀	-11.7165
火	-11.7207
̷	-11.7207
ф	-11.7207
쩍	-11.7207
엿	-11.7249
商	-11.7332
究	-11.7332
議	-11.7332
ã	-11.7417
ホ	-11.7417
옌	-11.7417
҉	-11.746
ᄅ	-11.746
ヴ	-11.746
샹	-11.7502
앰	-11.7502
′	-11.7545
務	-11.7545
爲	-11.7545
先	-11.7588
굽	-11.7588
뺏	-11.7588
캇	-11.7588
튬	-11.7588
ペ	-11.7588
및	-11.7612
飛	-11.7632
쭉	-11.7632
̸	-11.7675
딧	-11.7675
뜰	-11.7675
뽀	-11.7675
쏴	-11.7675
젯	-11.7675
췄	-11.7675
共	-11.7719
次	-11.7719
헷	-11.7719
戦	-11.7719
ᄃ	-11.7719
왜	-11.775
ğ	-11.7763
望	-11.7763
華	-11.7763
눠	-11.7763
初	-11.7807
굉	-11.7807
끗	-11.7807
휠	-11.7807
王	-11.7851
깡	-11.7851
왠	-11.7851
낳	-11.7895
̴	-11.794
運	-11.794
輝	-11.794
솟	-11.794
쌀	-11.794
놨	-11.7985
š	-11.803
去	-11.803
消	-11.803
쏠	-11.803
옐	-11.803
콕	-11.803
헐	-11.803
்	-11.8121
κ	-11.8121
괜	-11.8166
ゲ	-11.8166
朝	-11.8166
舞	-11.8166
큘	-11.8166
뷔	-11.821
士	-11.8212
藤	-11.8212
達	-11.8212
期	-11.8304
닙	-11.8351
猫	-11.8398
ᄏ	-11.8398
◇	-11.8398
過	-11.8445
始	-11.8492
ø	-11.8492
果	-11.8539
υ	-11.8539
ヨ	-11.8539
犯	-11.8539
口	-11.8587
뜩	-11.8587
語	-11.8635
멧	-11.8635
숴	-11.8635
킵	-11.8635
갖	-11.8668
͘	-11.8683
進	-11.8683
쨌	-11.8683
持	-11.8731
ぜ	-11.8731
結	-11.8731
特	-11.878
熱	-11.878
永	-11.878
꿔	-11.8825
͢	-11.8828
샨	-11.8828
쫛	-11.8828
캘	-11.8877
씹	-11.8877
八	-11.8927
밋	-11.8927
強	-11.8976
李	-11.8976
硏	-11.8976
実	-11.8976
듭	-11.8976
볍	-11.8976
‘	-11.8977
̡	-11.9026
̵	-11.9026
〔	-11.9026
ի	-11.9026
ր	-11.9026
重	-11.9026
붉	-11.9124
ū	-11.9126
ه	-11.9126
〕	-11.9126
九	-11.9126
짙	-11.9126
實	-11.9126
是	-11.9126
館	-11.9126
캉	-11.9126
삽	-11.9177
ب	-11.9177
र	-11.9177
報	-11.9177
葉	-11.9177
붓	-11.9177
콥	-11.9177
形	-11.9177
訟	-11.9227
텟	-11.9227
헥	-11.9227
좀	-11.9241
長	-11.9278
六	-11.933
經	-11.933
쪼	-11.933
흙	-11.933
求	-11.9381
聞	-11.9381
녔	-11.9381
챔	-11.9381
雨	-11.9381
̨	-11.9433
願	-11.9433
쨩	-11.9433
̛	-11.9485
機	-11.9485
例	-11.9485
川	-11.9485
┃	-11.9485
꽂	-11.9485
떠	-11.9513
َ	-11.9538
ë	-11.9538
ت	-11.959
깎	-11.959
텅	-11.959
ザ	-11.959
π	-11.959
͜	-11.9643
높	-11.9659
越	-11.9696
뇨	-11.9696
꼭	-11.9736
펌	-11.975
使	-11.975
北	-11.975
志	-11.975
村	-11.975
ա	-11.975
¡	-11.9804
꿨	-11.9804
휩	-11.9804
͝	-11.9857
͡	-11.9858
팍	-11.9858
퀵	-11.9858
七	-11.9912
쌔	-11.9912
귄	-11.9912
面	-11.9912
ć	-11.9967
♭	-11.9967
겉	-11.9967
꼈	-11.9967
뿜	-11.9967
빚	-11.9967
Г	-12.0022
↗	-12.0022
表	-12.0022
責	-12.0022
走	-12.0022
팁	-12.0022
体	-12.0077
世	-12.0077
썰	-12.0077
힙	-12.0132
院	-12.0132
關	-12.0132
取	-12.0188
咲	-12.0188
紅	-12.0188
證	-12.0188
市	-12.0188
뜯	-12.0188
∞	-12.0244
ե	-12.0244
顔	-12.0244
ᄆ	-12.0301
配	-12.0301
體	-12.0301
퉁	-12.0301
딥	-12.0301
젊	-12.0356
国	-12.0358
̕	-12.0358
탬	-12.0358
땀	-12.0358
뮌	-12.0358
팻	-12.0358
安	-12.0358
踊	-12.0358
͠	-12.0415
ě	-12.0415
資	-12.0415
랏	-12.0415
相	-12.0415
違	-12.0415
Ü	-12.0472
基	-12.0472
祭	-12.0472
彩	-12.053
福	-12.053
꼼	-12.053
덥	-12.053
敎	-12.0588
ᄋ	-12.0588
伝	-12.0588
엎	-12.0588
身	-12.0647
깥	-12.0647
왓	-12.0647
反	-12.0647
팰	-12.0647
̀	-12.0705
失	-12.0706
足	-12.0706
욘	-12.0706
幸	-12.0706
南	-12.0765
̢	-12.0824
洋	-12.0824
♬	-12.0824
벙	-12.0824
툼	-12.0824
▷	-12.0884
元	-12.0884
切	-12.0884
껍	-12.0884
윽	-12.0944
可	-12.1005
Я	-12.1005
┠	-12.1005
퍽	-12.1005
當	-12.1066
ᆡ	-12.1066
張	-12.1066
俺	-12.1066
雪	-12.1127
松	-12.1127
“	-12.1188
計	-12.1189
♧	-12.1189
以	-12.1189
뒀	-12.1189
샬	-12.1189
퐁	-12.1189
ユ	-12.1189
波	-12.1189
迷	-12.1189
也	-12.1251
랴	-12.1251
組	-12.1251
編	-12.1314
五	-12.1314
對	-12.1314
画	-12.1314
긿	-12.1314
話	-12.1377
指	-12.1377
様	-12.1377
律	-12.1377
離	-12.1377
城	-12.1377
잖	-12.1429
♯	-12.144
슌	-12.144
씌	-12.144
젬	-12.144
西	-12.1503
ă	-12.1504
č	-12.1504
귓	-12.1504
귤	-12.1504
쎄	-12.1504
Б	-12.1504
ی	-12.1568
直	-12.1568
쟤	-12.1568
̧	-12.1568
幻	-12.1568
都	-12.1632
쉘	-12.1632
被	-12.1697
路	-12.1697
胸	-12.1697
đ	-12.1697
覚	-12.1697
궐	-12.1697
닦	-12.1697
펭	-12.1697
香	-12.1762
電	-12.1762
ぼ	-12.1762
큼	-12.18
別	-12.1828
味	-12.1828
ゃ	-12.1894
再	-12.1894
뭇	-12.1894
請	-12.1961
連	-12.1961
影	-12.1961
낱	-12.1961
랠	-12.1961
삿	-12.1961
節	-12.1961
æ	-12.2028
ᄉ	-12.2028
씻	-12.2028
낮	-12.2063
放	-12.2096
ί	-12.2096
發	-12.2096
總	-12.2096
쑤	-12.2096
産	-12.2096
멩	-12.2096
훅	-12.2096
速	-12.2096
̊	-12.2096
受	-12.2164
γ	-12.2164
英	-12.2164
냅	-12.2164
探	-12.2232
◎	-12.2232
뽕	-12.2232
윅	-12.2232
ն	-12.2232
歩	-12.2232
ォ	-12.2232
͟	-12.2301
旅	-12.2301
땜	-12.2301
샐	-12.2301
푹	-12.2301
彼	-12.2371
付	-12.2371
┼	-12.2371
司	-12.2371
治	-12.2371
꽁	-12.2371
護	-12.2441
️	-12.2441
罪	-12.2441
둡	-12.2441
魂	-12.2441
ヘ	-12.2441
î	-12.2511
η	-12.2511
뎌	-12.2511
θ	-12.2511
͞	-12.2582
З	-12.2582
눔	-12.2582
⋅	-12.2582
涙	-12.2582
那	-12.2582
ł	-12.2653
多	-12.2653
ぁ	-12.2653
優	-12.2725
ŏ	-12.2725
林	-12.2725
狂	-12.2725
눅	-12.2725
ᄌ	-12.2725
係	-12.2725
抜	-12.2725
겜	-12.2725
떴	-12.2798
س	-12.2798
加	-12.2798
勝	-12.2798
込	-12.2798
댓	-12.2871
퀄	-12.2871
博	-12.2871
絶	-12.2871
ъ	-12.2871
쉼	-12.2871
忘	-12.2944
쭈	-12.2944
ո	-12.2944
꿰	-12.2944
師	-12.3018
Ä	-12.3018
崎	-12.3018
數	-12.3018
瞬	-12.3018
빼	-12.3044
※	-12.3044
†	-12.3044
提	-12.3093
ᄇ	-12.3093
欲	-12.3093
深	-12.3093
軍	-12.3093
륵	-12.3093
ざ	-12.3168
線	-12.3168
死	-12.3168
続	-12.3244
ǔ	-12.3244
ά	-12.3244
룻	-12.3244
ѣ	-12.3244
統	-12.3244
着	-12.332
支	-12.332
숀	-12.332
ぇ	-12.332
近	-12.3397
宮	-12.3397
益	-12.3397
덫	-12.3397
펩	-12.3397
了	-12.3475
얽	-12.3475
ర	-12.3475
얌	-12.3475
쥰	-12.3475
쩡	-12.3475
챌	-12.3475
ి	-12.3475
選	-12.3475
然	-12.3553
土	-12.3553
響	-12.3553
숫	-12.3628
考	-12.3632
▽	-12.3632
古	-12.3632
렷	-12.3632
ŭ	-12.3632
Х	-12.3632
赤	-12.3632
黒	-12.3632
当	-12.3632
쏜	-12.3711
늪	-12.3711
씽	-12.3711
戰	-12.3711
撃	-12.3711
品	-12.3791
像	-12.3791
ぬ	-12.3791
떻	-12.3791
े	-12.3791
效	-12.3791
術	-12.3791
몫	-12.3791
툭	-12.3791
ゼ	-12.3791
園	-12.3791
校	-12.3791
界	-12.3872
»	-12.3872
ω	-12.3872
念	-12.3872
規	-12.3872
ý	-12.3872
龍	-12.3872
샴	-12.3953
險	-12.3953
걀	-12.3953
릅	-12.3953
밧	-12.3953
島	-12.3953
常	-12.4035
引	-12.4035
슛	-12.4035
鮮	-12.4035
싯	-12.4035
則	-12.4118
桜	-12.4118
秋	-12.4118
◈	-12.4118
ぱ	-12.4118
뭐	-12.412
追	-12.4201
і	-12.4201
件	-12.4201
ك	-12.4201
づ	-12.4201
承	-12.4201
얏	-12.4201
͏	-12.4285
石	-12.4285
Е	-12.4285
濟	-12.4285
聖	-12.4285
딛	-12.4285
즛	-12.4285
칵	-12.4285
्	-12.4285
希	-12.4285
━	-12.437
学	-12.437
車	-12.437
里	-12.437
圖	-12.437
섀	-12.437
홋	-12.437
¥	-12.437
〃	-12.4455
友	-12.4455
著	-12.4455
審	-12.4455
웍	-12.4455
素	-12.4455
爱	-12.4541
勇	-12.4541
叉	-12.4541
夫	-12.4541
害	-12.4541
位	-12.4628
問	-12.4628
格	-12.4628
멕	-12.4628
빤	-12.4628
«	-12.4628
Ö	-12.4716
完	-12.4716
片	-12.4716
緒	-12.4716
聯	-12.4716
落	-12.4716
쥔	-12.4716
췌	-12.4716
吉	-12.4805
打	-12.4805
內	-12.4805
届	-12.4805
武	-12.4805
独	-12.4805
男	-12.4805
칫	-12.4805
ِ	-12.4805
ᅵ	-12.4805
ս	-12.4805
ư	-12.4894
到	-12.4894
暗	-12.4894
눕	-12.4894
У	-12.4894
ゅ	-12.4894
調	-12.4894
띵	-12.4894
컸	-12.4894
맘	-12.4938
來	-12.4984
叫	-12.4984
得	-12.4984
案	-12.4984
泣	-12.4984
非	-12.4984
款	-12.4984
쾅	-12.4984
Л	-12.4984
示	-12.5075
認	-12.5075
闇	-12.5075
댑	-12.5075
雲	-12.5167
交	-12.5167
育	-12.5167
送	-12.5167
έ	-12.5167
等	-12.5259
א	-12.5259
確	-12.5259
森	-12.5259
펍	-12.5259
準	-12.5353
甘	-12.5353
왁	-12.5353
촛	-12.5353
핍	-12.5353
奇	-12.5353
悪	-12.5447
Ø	-12.5447
ύ	-12.5447
料	-12.5447
觀	-12.5447
δ	-12.5447
ع	-12.5447
団	-12.5447
秘	-12.5447
背	-12.5447
갚	-12.5447
웜	-12.5447
良	-12.5542
必	-12.5542
∑	-12.5542
管	-12.5542
ح	-12.5542
⁄	-12.5542
쉿	-12.5542
잣	-12.5542
劇	-12.5542
街	-12.5542
핫	-12.5625
곧	-12.5625
協	-12.5638
宇	-12.5638
渡	-12.5638
馬	-12.5638
屋	-12.5638
造	-12.5638
遊	-12.5638
껌	-12.5638
숍	-12.5638
翼	-12.5638
궈	-12.5638
傷	-12.5638
抱	-12.5735
裁	-12.5735
閉	-12.5735
照	-12.5735
鬼	-12.5735
敵	-12.5833
價	-12.5833
構	-12.5833
탤	-12.5833
夕	-12.5833
站	-12.5932
宙	-12.5932
ᅲ	-12.5932
呼	-12.5932
郎	-12.5932
캬	-12.5932
स	-12.5932
ᄎ	-12.5932
獨	-12.5932
突	-12.5932
鄭	-12.5932
긁	-12.5932
짠	-12.5932
振	-12.5932
壊	-12.5932
映	-12.6032
梦	-12.6032
€	-12.6032
깰	-12.6032
껄	-12.6032
쟝	-12.6032
燃	-12.6032
科	-12.6133
守	-12.6133
얇	-12.6133
œ	-12.6133
快	-12.6133
鳴	-12.6133
委	-12.6133
極	-12.6236
탔	-12.6236
弾	-12.6236
̈	-12.6338
乱	-12.6339
ᅡ	-12.6339
刻	-12.6339
河	-12.6339
쩐	-12.6339
♦	-12.6339
奏	-12.6339
束	-12.6339
況	-12.6339
邦	-12.6339
題	-12.6339
容	-12.6339
存	-12.6443
鏡	-12.6443
門	-12.6443
番	-12.6443
程	-12.6443
谷	-12.6443
散	-12.6443
景	-12.6443
잿	-12.6443
如	-12.6548
故	-12.6548
ल	-12.6548
跡	-12.6548
乗	-12.6654
羽	-12.6654
갸	-12.6654
엥	-12.6654
令	-12.6654
揺	-12.6654
満	-12.6654
瞳	-12.6654
믈	-12.6654
த	-12.6762
ف	-12.6762
ぷ	-12.6762
周	-12.6762
就	-12.6762
悲	-12.6762
虎	-12.6762
典	-12.6762
契	-12.6762
긍	-12.687
χ	-12.6871
償	-12.6871
逃	-12.6871
깬	-12.6871
쑨	-12.6871
麗	-12.6871
즉	-12.6924
系	-12.698
号	-12.698
食	-12.6981
防	-12.6981
û	-12.6981
乙	-12.6981
깍	-12.6981
숏	-12.6981
󰠛	-12.6981
質	-12.6981
純	-12.6981
•	-12.704
点	-12.7092
Ω	-12.7092
降	-12.7092
羅	-12.7092
붸	-12.7092
債	-12.7092
樹	-12.7092
負	-12.7092
雄	-12.7092
짚	-12.7092
転	-12.7092
〈	-12.7158
횟	-12.7203
因	-12.7204
補	-12.7204
繋	-12.7204
詩	-12.7204
隆	-12.7204
序	-12.7204
錄	-12.7204
म	-12.7204
్	-12.7204
ぞ	-12.7204
血	-12.7204
息	-12.7318
残	-12.7318
營	-12.7318
範	-12.7318
革	-12.7318
퀀	-12.7318
볶	-12.7318
쉰	-12.7318
✲	-12.7433
刑	-12.7433
譯	-12.7433
逢	-12.7433
얗	-12.7433
걍	-12.7433
末	-12.7549
発	-12.7549
活	-12.7549
眼	-12.7549
返	-12.7549
破	-12.7549
類	-12.7549
텨	-12.7549
痛	-12.7549
팸	-12.7549
演	-12.7666
י	-12.7667
Ф	-12.7667
괭	-12.7667
댕	-12.7667
뜸	-12.7667
뺀	-12.7667
孤	-12.7667
惑	-12.7786
教	-12.7786
ि	-12.7786
ो	-12.7786
久	-12.7786
工	-12.7786
牙	-12.7786
雅	-12.7786
깅	-12.7786
쿡	-12.7786
ւ	-12.7786
字	-12.7786
対	-12.7906
虹	-12.7906
染	-12.7906
許	-12.7906
헴	-12.7906
व	-12.7906
堂	-12.7906
떤	-12.8023
Σ	-12.8028
旨	-12.8028
江	-12.8028
紀	-12.8028
吹	-12.8028
財	-12.8028
注	-12.8151
க	-12.8151
Π	-12.8151
ج	-12.8151
損	-12.8151
禁	-12.8151
돗	-12.8151
뫼	-12.8151
앓	-12.8151
ం	-12.8151
炎	-12.8151
説	-12.8276
ह	-12.8276
ế	-12.8276
印	-12.8276
広	-12.8276
頭	-12.8276
젓	-12.8276
쩜	-12.8276
ό	-12.8276
鳥	-12.8276
微	-12.8276
為	-12.8276
∙	-12.8284
ゾ	-12.8403
差	-12.8403
佐	-12.8403
槪	-12.8403
答	-12.8403
ా	-12.8403
촬	-12.8531
̄	-12.8531
急	-12.8531
낌	-12.8531
装	-12.8531
激	-12.8531
Š	-12.8531
녜	-12.8531
±	-12.8531
密	-12.8531
갬	-12.8531
랗	-12.8531
य	-12.8531
内	-12.8661
店	-12.8661
ी	-12.8661
釋	-12.8661
क	-12.8661
∴	-12.8661
巻	-12.8661
꼰	-12.8661
̓	-12.8793
助	-12.8793
服	-12.8793
♂	-12.8793
種	-12.8793
Ч	-12.8793
船	-12.8793
銀	-12.8793
쑥	-12.8793
첫	-12.8828
ज	-12.8926
玉	-12.8926
除	-12.8926
ơ	-12.8926
室	-12.8926
斷	-12.8926
隊	-12.8926
싣	-12.8926
ன	-12.8926
ா	-12.8926
備	-12.8926
券	-12.8926
角	-12.8926
أ	-12.8926
त	-12.8926
族	-12.9061
態	-12.9061
뻥	-12.9061
他	-12.9061
哲	-12.9061
己	-12.9061
章	-12.9061
켠	-12.9061
修	-12.9061
Û	-12.9061
헉	-12.9061
奴	-12.9061
많	-12.911
ص	-12.9198
査	-12.9198
變	-12.9198
逆	-12.9198
댔	-12.9198
룽	-12.9198
윕	-12.9198
մ	-12.9198
器	-12.9337
忍	-12.9337
條	-12.9337
▪	-12.9337
爆	-12.9337
申	-12.9337
象	-12.9337
읊	-12.9337
鼓	-12.9337
量	-12.9337
府	-12.9478
客	-12.9478
精	-12.9478
낄	-12.9478
幕	-12.9478
導	-12.9478
季	-12.9478
暁	-12.9478
퓌	-12.9478
號	-12.9478
試	-12.9478
双	-12.9478
晴	-12.9478
탯	-12.9616
善	-12.9621
供	-12.9621
源	-12.9621
滅	-12.9621
叶	-12.9621
宗	-12.9621
뮈	-12.9621
쁠	-12.9621
앳	-12.9621
ή	-12.9621
걱	-12.9765
威	-12.9766
駆	-12.9766
ń	-12.9766
Λ	-12.9766
ْ	-12.9766
憶	-12.9766
녘	-12.9766
댁	-12.9766
뻑	-12.9766
쫄	-12.9766
ś	-12.9766
Φ	-12.9766
爭	-12.9766
黄	-12.9766
更	-12.9913
¿	-12.9913
这	-12.9913
数	-12.9913
省	-12.9913
ி	-12.9913
‪	-12.9913
德	-12.9913
踏	-12.9913
ž	-12.9913
万	-12.9913
創	-12.9913
讓	-12.9913
뗄	-12.9913
쫒	-12.9913
換	-13.0062
빽	-13.0062
샛	-13.0062
వ	-13.0062
旋	-13.0062
異	-13.0062
넵	-13.0062
뛸	-13.0062
뺨	-13.0062
캅	-13.0062
콴	-13.0062
न	-13.0062
喜	-13.0062
央	-13.0062
投	-13.0062
静	-13.0062
騒	-13.0062
ல	-13.0213
妖	-13.0213
恵	-13.0213
暴	-13.0213
슘	-13.0213
橋	-13.0213
짬	-13.0213
普	-13.0214
比	-13.0367
恐	-13.0367
根	-13.0367
樂	-13.0367
प	-13.0367
ش	-13.0367
뽐	-13.0367
즙	-13.0367
巡	-13.0367
際	-13.0367
뚤	-13.0367
ق	-13.0524
Á	-13.0524
Κ	-13.0524
危	-13.0524
團	-13.0524
救	-13.0524
넋	-13.0524
貴	-13.0524
早	-13.0524
읽	-13.0665
半	-13.0682
裏	-13.0682
屬	-13.0682
兵	-13.0682
設	-13.0682
隠	-13.0682
Э	-13.0682
న	-13.0682
ấ	-13.0682
−	-13.0682
參	-13.0682
看	-13.0682
糸	-13.0682
費	-13.0682
附	-13.0682
項	-13.0682
맬	-13.0682
φ	-13.0682
座	-13.0682
眞	-13.0682
處	-13.0682
轉	-13.0682
깽	-13.0682
꽝	-13.0682
찐	-13.0682
富	-13.0844
視	-13.0844
寄	-13.0844
職	-13.0844
ё	-13.0844
劉	-13.0844
왑	-13.0844
蒼	-13.0844
額	-13.0844
탠	-13.1002
冬	-13.1008
砂	-13.1008
Δ	-13.1008
據	-13.1008
ぽ	-13.1008
伊	-13.1008
无	-13.1008
眠	-13.1008
藝	-13.1008
駅	-13.1008
멎	-13.1008
츈	-13.1008
폿	-13.1008
昭	-13.1008
難	-13.1008
듈	-13.117
港	-13.1174
抗	-13.1174
個	-13.1174
識	-13.1174
ż	-13.1174
冷	-13.1174
风	-13.1174
點	-13.1174
Ú	-13.1174
ة	-13.1174
険	-13.1174
댐	-13.1174
쌈	-13.1174
쳇	-13.1174
Ц	-13.1174
∀	-13.1174
戻	-13.1174
꾀	-13.1174
企	-13.1174
否	-13.1174
녁	-13.134
为	-13.1344
仕	-13.1344
射	-13.1344
氏	-13.1344
놋	-13.1344
関	-13.1344
뎃	-13.1344
ゥ	-13.1344
値	-13.1344
寺	-13.1344
岡	-13.1344
奈	-13.1344
列	-13.1516
境	-13.1516
介	-13.1516
姫	-13.1516
ל	-13.1516
靑	-13.1516
늠	-13.1516
퀼	-13.1516
󰊱	-13.1516
Ç	-13.1516
ӕ	-13.1516
彦	-13.1516
氣	-13.1516
触	-13.1516
찼	-13.1516
續	-13.1516
雷	-13.1516
描	-13.1516
་	-13.1691
與	-13.1692
接	-13.1692
帰	-13.1692
技	-13.1692
評	-13.1692
展	-13.1692
拾	-13.1692
殺	-13.1692
置	-13.1692
衣	-13.1692
ζ	-13.1692
傳	-13.1692
舊	-13.1692
꺄	-13.1692
쿱	-13.1692
ग	-13.1692
側	-13.1692
ّ	-13.187
ו	-13.187
織	-13.187
乃	-13.187
冥	-13.187
擔	-13.187
藏	-13.187
衝	-13.187
辯	-13.187
逸	-13.187
嫌	-13.187
黑	-13.187
怪	-13.187
陸	-13.187
슷	-13.2047
丈	-13.2052
ு	-13.2052
ు	-13.2052
房	-13.2052
詞	-13.2052
亡	-13.2052
領	-13.2052
갛	-13.2052
듦	-13.2052
띤	-13.2052
뼛	-13.2052
闘	-13.2052
뷸	-13.2052
登	-13.2052
縣	-13.2052
̾	-13.2052
焼	-13.2237
ę	-13.2237
米	-13.2237
怒	-13.2237
聴	-13.2237
Ж	-13.2237
耳	-13.2237
À	-13.2237
ம	-13.2237
步	-13.2237
罰	-13.2237
裂	-13.2237
맣	-13.2237
벵	-13.2237
쥴	-13.2237
只	-13.2237
台	-13.2237
給	-13.2426
լ	-13.2426
建	-13.2426
딤	-13.2426
ே	-13.2426
剣	-13.2426
歷	-13.2426
適	-13.2426
숄	-13.2426
횃	-13.2426
佛	-13.2426
淸	-13.2426
漢	-13.2426
閣	-13.2426
͌	-13.2618
充	-13.2618
与	-13.2618
郞	-13.2618
眩	-13.2618
浦	-13.2618
測	-13.2618
覽	-13.2618
ώ	-13.2618
冒	-13.2618
忠	-13.2618
扉	-13.2618
溶	-13.2618
草	-13.2618
透	-13.2618
뻘	-13.2618
춥	-13.2618
ُ	-13.2618
ந	-13.2618
ద	-13.2618
伸	-13.2618
嘘	-13.2618
宿	-13.2618
犬	-13.2618
鈴	-13.2618
局	-13.2618
増	-13.2618
믿	-13.271
吸	-13.2814
魅	-13.2814
ै	-13.2814
‬	-13.2814
秒	-13.2814
遂	-13.2814
셴	-13.2814
쟌	-13.2814
乘	-13.3014
及	-13.3014
住	-13.3014
環	-13.3014
ạ	-13.3014
震	-13.3014
型	-13.3014
召	-13.3014
御	-13.3014
球	-13.3014
麻	-13.3014
ु	-13.3014
図	-13.3014
强	-13.3014
移	-13.3014
絆	-13.3014
避	-13.3014
鹿	-13.3014
뇽	-13.3014
뭄	-13.3014
톈	-13.3014
भ	-13.3014
ᅮ	-13.3014
各	-13.3014
尾	-13.3014
쾰	-13.3014
似	-13.3014
̃	-13.3014
毒	-13.3218
奪	-13.3218
们	-13.3218
攻	-13.3218
կ	-13.3218
స	-13.3218
ᇰ	-13.3218
聲	-13.3218
곶	-13.3218
뭣	-13.3218
뿡	-13.3218
톳	-13.3218
≒	-13.3218
姿	-13.3218
ぴ	-13.3218
擧	-13.3218
肉	-13.3218
챕	-13.3426
将	-13.3427
留	-13.3427
頃	-13.3427
匠	-13.3427
秀	-13.3427
航	-13.3427
ï	-13.3427
処	-13.3427
断	-13.3427
ք	-13.3427
♀	-13.3427
具	-13.3427
甲	-13.3427
矢	-13.3427
親	-13.3427
긱	-13.3427
좇	-13.3427
켐	-13.3427
ز	-13.3427
仮	-13.3427
朴	-13.3427
沈	-13.3427
閱	-13.3427
察	-13.3427
祖	-13.3427
͋	-13.3427
而	-13.3639
此	-13.3639
般	-13.3639
ذ	-13.3639
쾨	-13.3639
ד	-13.3639
ע	-13.3639
√	-13.3639
ぺ	-13.3639
丸	-13.3639
執	-13.3639
掴	-13.3639
朱	-13.3639
脱	-13.3639
괘	-13.3639
닳	-13.3639
똘	-13.3639
뿅	-13.3639
쏭	-13.3639
찜	-13.3639
Α	-13.3639
滿	-13.3639
翔	-13.3639
ṣ	-13.3639
ἐ	-13.3639
怖	-13.3639
浮	-13.3639
温	-13.3639
씁	-13.3639
卒	-13.3639
̒	-13.364
몇	-13.3797
뀌	-13.3854
苦	-13.3857
வ	-13.3857
塚	-13.3857
居	-13.3857
ى	-13.3857
ḥ	-13.3857
官	-13.3857
虫	-13.3857
途	-13.3857
꿉	-13.3857
뎅	-13.3857
뮐	-13.3857
仁	-13.3857
刺	-13.3857
崔	-13.3857
网	-13.3857
脳	-13.3857
꺚	-13.3857
쏙	-13.3857
핥	-13.3857
ː	-13.3857
復	-13.3857
予	-13.3857
룹	-13.4063
退	-13.4079
験	-13.4079
İ	-13.4079
毛	-13.4079
时	-13.4079
灼	-13.4079
ờ	-13.4079
∠	-13.4079
⭐	-13.4079
丘	-13.4079
唄	-13.4079
澤	-13.4079
皆	-13.4079
竹	-13.4079
託	-13.4079
끽	-13.4079
셩	-13.4079
얍	-13.4079
ʻ	-13.4079
娘	-13.4079
衛	-13.4079
区	-13.4079
警	-13.4079
̆	-13.4306
砲	-13.4306
右	-13.4306
Ó	-13.4306
ř	-13.4306
尽	-13.4306
憂	-13.4306
監	-13.4306
뻬	-13.4306
쿳	-13.4306
햐	-13.4306
ð	-13.4306
ר	-13.4306
≠	-13.4306
亞	-13.4306
坂	-13.4306
岩	-13.4306
曜	-13.4306
獄	-13.4306
群	-13.4306
菜	-13.4306
跳	-13.4306
紙	-13.4306
絵	-13.4306
̽	-13.4306
̋	-13.4306
͗	-13.4539
◀	-13.4539
又	-13.4539
ं	-13.4539
ῦ	-13.4539
智	-13.4539
볕	-13.4539
ộ	-13.4539
帆	-13.4539
清	-13.4539
講	-13.4539
쌤	-13.4539
웁	-13.4539
챗	-13.4539
争	-13.4539
廻	-13.4539
տ	-13.4539
每	-13.4539
町	-13.4539
賢	-13.4539
̉	-13.4777
段	-13.4777
盛	-13.4777
域	-13.4777
宵	-13.4777
帝	-13.4777
ᄐ	-13.4777
ớ	-13.4777
們	-13.4777
戸	-13.4777
易	-13.4777
津	-13.4777
냠	-13.4777
캥	-13.4777
팥	-13.4777
唱	-13.4777
遺	-13.4777
鬱	-13.4777
썅	-13.4777
յ	-13.4777
త	-13.4777
倒	-13.4777
級	-13.4777
̅	-13.4777
잃	-13.5018
삶	-13.5018
͒	-13.5021
謝	-13.5021
├	-13.5021
焔	-13.5021
策	-13.5021
נ	-13.5021
狀	-13.5021
茶	-13.5021
ắ	-13.5021
廣	-13.5021
楼	-13.5021
還	-13.5021
醒	-13.5021
髪	-13.5021
꾹	-13.5021
꿍	-13.5021
떄	-13.5021
맏	-13.5021
핼	-13.5021
힛	-13.5021
勢	-13.5021
昇	-13.5021
課	-13.5021
ヽ	-13.5021
邪	-13.5021
గ	-13.5021
̜	-13.5021
า	-13.527
曰	-13.5271
施	-13.5271
萬	-13.5271
ᅥ	-13.5271
戯	-13.5271
郷	-13.5271
ת	-13.5271
ᅦ	-13.5271
ᆨ	-13.5271
免	-13.5271
削	-13.5271
洞	-13.5271
瀬	-13.5271
積	-13.5271
録	-13.5271
긔	-13.5271
뺄	-13.5271
찻	-13.5271
챤	-13.5271
퓸	-13.5271
ᄑ	-13.5271
刊	-13.5271
徐	-13.5271
才	-13.5271
浪	-13.5271
握	-13.5271
毎	-13.5271
漫	-13.5271
迎	-13.5271
̇	-13.5527
興	-13.5527
Ю	-13.5527
ط	-13.5527
休	-13.5527
宣	-13.5527
泉	-13.5527
阿	-13.5527
۰	-13.5527
仰	-13.5527
刀	-13.5527
敗	-13.5527
昌	-13.5527
辿	-13.5527
驛	-13.5527
뵈	-13.5527
컹	-13.5527
氷	-13.5527
包	-13.5527
͉	-13.579
弱	-13.579
做	-13.579
凛	-13.579
応	-13.579
母	-13.579
占	-13.579
操	-13.579
焦	-13.579
„	-13.579
壁	-13.579
奥	-13.579
洙	-13.579
玄	-13.579
病	-13.579
盤	-13.579
욧	-13.579
ப	-13.579
≡	-13.579
俊	-13.579
唯	-13.579
祈	-13.579
誤	-13.579
꺽	-13.579
놉	-13.579
썽	-13.579
왐	-13.579
쫟	-13.579
쬐	-13.579
츤	-13.579
🌙	-13.579
క	-13.579
競	-13.579
誓	-13.579
誘	-13.579
階	-13.579
қ	-13.579
已	-13.579
庭	-13.579
ぃ	-13.579
̣	-13.606
̐	-13.606
间	-13.6061
買	-13.6061
͊	-13.6061
仲	-13.6061
孝	-13.6061
研	-13.6061
\	-13.6061
状	-13.6061
ṭ	-13.6061
挑	-13.6061
捨	-13.6061
礼	-13.6061
렝	-13.6061
ň	-13.6061
ồ	-13.6061
假	-13.6061
却	-13.6061
派	-13.6061
父	-13.6061
蝶	-13.6061
녈	-13.6061
솝	-13.6061
썹	-13.6061
잰	-13.6061
쿰	-13.6061
ү	-13.6061
خ	-13.6061
啓	-13.6061
牧	-13.6061
让	-13.6061
ల	-13.6061
భ	-13.6061
͆	-13.6338
后	-13.6338
功	-13.6338
陣	-13.6338
먀	-13.6338
ң	-13.6338
ה	-13.6338
倂	-13.6338
弓	-13.6338
煌	-13.6338
핌	-13.6338
Ш	-13.6338
द	-13.6338
☀	-13.6338
欠	-13.6338
潮	-13.6338
趙	-13.6338
閃	-13.6338
阪	-13.6338
닻	-13.6338
띨	-13.6338
욤	-13.6338
웸	-13.6338
윳	-13.6338
훤	-13.6338
妄	-13.6338
゚	-13.6338
斯	-13.6338
略	-13.6338
左	-13.6338
̔	-13.6339
薬	-13.6624
習	-13.6624
往	-13.6624
敢	-13.6624
ప	-13.6624
偶	-13.6624
疑	-13.6624
嵐	-13.6624
黃	-13.6624
غ	-13.6624
ἀ	-13.6624
ὶ	-13.6624
▨	-13.6624
悟	-13.6624
推	-13.6624
率	-13.6624
疾	-13.6624
軌	-13.6624
酒	-13.6624
쫑	-13.6624
ŋ	-13.6624
丁	-13.6624
柳	-13.6624
零	-13.6624
靈	-13.6624
짭	-13.6624
獣	-13.6624
祝	-13.6624
虚	-13.6624
從	-13.6624
烈	-13.6624
过	-13.6918
致	-13.6918
吼	-13.6918
算	-13.6918
桃	-13.6918
細	-13.6918
ـ	-13.6918
ध	-13.6918
旗	-13.6918
泰	-13.6918
狼	-13.6918
稅	-13.6918
綺	-13.6918
臺	-13.6918
贈	-13.6918
Č	-13.6918
ک	-13.6918
ధ	-13.6918
ọ	-13.6918
☎	-13.6918
健	-13.6918
剩	-13.6918
哀	-13.6918
押	-13.6918
曹	-13.6918
繼	-13.6918
貝	-13.6918
궂	-13.6918
뒈	-13.6918
쌩	-13.6918
웩	-13.6918
츨	-13.6918
╹	-13.6918
割	-13.6918
裕	-13.6918
굼	-13.6918
ą	-13.6918
מ	-13.7221
ġ	-13.7221
ө	-13.7221
ू	-13.7221
唐	-13.7221
悔	-13.7221
観	-13.7221
퓰	-13.7221
ர	-13.7221
ᅩ	-13.7221
ầ	-13.7221
ố	-13.7221
亮	-13.7221
單	-13.7221
將	-13.7221
慶	-13.7221
收	-13.7221
紫	-13.7221
臨	-13.7221
辭	-13.7221
述	-13.7221
餘	-13.7221
귈	-13.7221
돛	-13.7221
떳	-13.7221
솥	-13.7221
잌	-13.7221
줏	-13.7221
悠	-13.7221
荒	-13.7221
鉄	-13.7221
干	-13.7221
沙	-13.7221
̙	-13.7533
ͧ	-13.7534
ล	-13.7534
̏	-13.7534
ͬ	-13.7534
互	-13.7534
授	-13.7534
开	-13.7534
艦	-13.7534
其	-13.7534
晶	-13.7534
若	-13.7534
쭐	-13.7534
昧	-13.7534
秩	-13.7534
倉	-13.7534
惹	-13.7534
暮	-13.7534
훙	-13.7534
ש	-13.7534
ᅀ	-13.7534
└	-13.7534
克	-13.7534
圍	-13.7534
宏	-13.7534
幽	-13.7534
折	-13.7534
揭	-13.7534
朗	-13.7534
獻	-13.7534
豫	-13.7534
載	-13.7534
頂	-13.7534
魚	-13.7534
깠	-13.7534
롸	-13.7534
뭩	-13.7534
뮴	-13.7534
슁	-13.7534
욜	-13.7534
쫙	-13.7534
촐	-13.7534
컥	-13.7534
햅	-13.7534
ց	-13.7534
儚	-13.7534
延	-13.7534
杯	-13.7534
陪	-13.7534
晩	-13.7534
融	-13.7534
慢	-13.7534
̍	-13.7534
̚	-13.7534
訳	-13.7534
͛	-13.7534
ͩ	-13.7534
ͅ	-13.7856
͚	-13.7856
̥	-13.7856
于	-13.7856
侵	-13.7856
衆	-13.7856
̯	-13.7856
並	-13.7856
ヲ	-13.7856
巨	-13.7856
弟	-13.7856
陰	-13.7856
吐	-13.7856
拳	-13.7856
模	-13.7856
索	-13.7856
蜜	-13.7856
覇	-13.7856
ĉ	-13.7856
Ε	-13.7856
什	-13.7856
佑	-13.7856
席	-13.7856
弘	-13.7856
應	-13.7856
斗	-13.7856
浩	-13.7856
霊	-13.7856
黨	-13.7856
엡	-13.7856
찡	-13.7856
휙	-13.7856
إ	-13.7856
悩	-13.7856
灯	-13.7856
辨	-13.7856
뎁	-13.7856
ṃ	-13.7856
骨	-13.7856
͑	-13.8189
̰	-13.819
端	-13.819
涼	-13.819
̖	-13.819
班	-13.819
植	-13.819
弥	-13.819
‧	-13.819
依	-13.819
障	-13.819
È	-13.819
Й	-13.819
ᄊ	-13.819
ὸ	-13.819
≤	-13.819
偽	-13.819
婚	-13.819
灰	-13.819
票	-13.819
粉	-13.819
씰	-13.819
Å	-13.819
ब	-13.819
亜	-13.819
便	-13.819
捕	-13.819
援	-13.819
替	-13.819
沢	-13.819
繰	-13.819
誠	-13.819
飲	-13.819
갠	-13.819
갭	-13.819
మ	-13.819
呪	-13.819
油	-13.819
爪	-13.819
箱	-13.819
誇	-13.819
霧	-13.819
捧	-13.819
̠	-13.8534
̫	-13.8534
线	-13.8534
絡	-13.8534
至	-13.8534
雀	-13.8534
对	-13.8535
両	-13.8535
ச	-13.8535
么	-13.8535
兄	-13.8535
把	-13.8535
拓	-13.8535
棄	-13.8535
洲	-13.8535
遥	-13.8535
闢	-13.8535
듐	-13.8535
¢	-13.8535
Ş	-13.8535
ț	-13.8535
ɪ	-13.8535
ᆼ	-13.8535
ả	-13.8535
≥	-13.8535
▣	-13.8535
洪	-13.8535
脚	-13.8535
鐵	-13.8535
隣	-13.8535
괌	-13.8535
맸	-13.8535
죃	-13.8535
ʃ	-13.8535
Τ	-13.8535
宝	-13.8535
惡	-13.8535
批	-13.8535
狙	-13.8535
皇	-13.8535
輪	-13.8535
辺	-13.8535
銃	-13.8535
쓱	-13.8535
ғ	-13.8535
վ	-13.8535
仟	-13.8535
停	-13.8535
蛇	-13.8535
混	-13.8891
戒	-13.8892
製	-13.8892
老	-13.8892
广	-13.8892
↖	-13.8892
凡	-13.8892
鄕	-13.8892
义	-13.8892
勞	-13.8892
遅	-13.8892
首	-13.8892
앍	-13.8892
҈	-13.8892
ᅧ	-13.8892
箕	-13.8892
Θ	-13.8892
ξ	-13.8892
ᆷ	-13.8892
❤	-13.8892
吾	-13.8892
寫	-13.8892
巫	-13.8892
摩	-13.8892
板	-13.8892
篇	-13.8892
練	-13.8892
錯	-13.8892
飾	-13.8892
뎐	-13.8892
됬	-13.8892
밉	-13.8892
뱁	-13.8892
춋	-13.8892
폈	-13.8892
ĝ	-13.8892
ᅢ	-13.8892
句	-13.8892
堕	-13.8892
徒	-13.8892
葵	-13.8892
豪	-13.8892
빕	-13.8892
윔	-13.8892
ள	-13.8892
昏	-13.8892
軽	-13.8892
发	-13.8892
崩	-13.8892
恨	-13.8892
横	-13.8892
盟	-13.8892
͔	-13.8892
於	-13.8892
寝	-13.8892
ș	-13.8892
̳	-13.8892
͎	-13.9262
順	-13.9262
糖	-13.9262
底	-13.9262
斐	-13.9262
谁	-13.9262
ב	-13.9262
ૂ	-13.9262
丽	-13.9262
佳	-13.9262
卓	-13.9262
即	-13.9262
敬	-13.9262
檢	-13.9262
禮	-13.9262
见	-13.9262
註	-13.9262
넹	-13.9262
뵤	-13.9262
뿍	-13.9262
웡	-13.9262
잤	-13.9262
잽	-13.9262
줋	-13.9262
Ν	-13.9262
♨	-13.9262
✽	-13.9262
东	-13.9262
写	-13.9262
卷	-13.9262
尹	-13.9262
掛	-13.9262
琴	-13.9262
短	-13.9262
談	-13.9262
说	-13.9262
쫀	-13.9262
큭	-13.9262
鎖	-13.9262
症	-13.9262
迅	-13.9262
ˊ	-13.9262
հ	-13.9262
̌	-13.9262
̪	-13.9262
̑	-13.9262
̤	-13.9646
ร	-13.9646
̲	-13.9646
变	-13.9647
̿	-13.9647
児	-13.9647
嗚	-13.9647
鳳	-13.9647
仙	-13.9647
没	-13.9647
襲	-13.9647
ோ	-13.9647
余	-13.9647
戀	-13.9647
賭	-13.9647
Æ	-13.9647
ħ	-13.9647
‹	-13.9647
▤	-13.9647
叢	-13.9647
孫	-13.9647
淵	-13.9647
玩	-13.9647
諸	-13.9647
醫	-13.9647
露	-13.9647
뺑	-13.9647
슝	-13.9647
죤	-13.9647
ヌ	-13.9647
単	-13.9647
壇	-13.9647
崇	-13.9647
康	-13.9647
样	-13.9647
浜	-13.9647
蓮	-13.9647
遇	-13.9647
텡	-13.9647
动	-13.9647
童	-13.9647
罠	-13.9647
肩	-13.9647
距	-13.9647
璧	-13.9647
疲	-13.9647
証	-13.9647
池	-13.9647
͈	-13.9647
ͫ	-14.0046
ั	-14.0046
长	-14.0046
権	-14.0047
樣	-14.0047
効	-14.0047
吧	-14.0047
̎	-14.0047
嘆	-14.0047
Ё	-14.0047
别	-14.0047
ܐ	-14.0047
俗	-14.0047
妹	-14.0047
梁	-14.0047
牛	-14.0047
穴	-14.0047
蘇	-14.0047
远	-14.0047
ם	-14.0047
ய	-14.0047
›	-14.0047
◯	-14.0047
劍	-14.0047
单	-14.0047
寧	-14.0047
抹	-14.0047
整	-14.0047
檎	-14.0047
渚	-14.0047
熙	-14.0047
넝	-14.0047
눴	-14.0047
엌	-14.0047
찹	-14.0047
헹	-14.0047
ט	-14.0047
ṅ	-14.0047
乾	-14.0047
刃	-14.0047
埋	-14.0047
貫	-14.0047
뒹	-14.0047
締	-14.0047
숑	-14.0047
幾	-14.0047
恩	-14.0047
筆	-14.0047
̞	-14.0047
̩	-14.0047
̮	-14.0463
ย	-14.0463
ี	-14.0463
腹	-14.0463
収	-14.0463
飽	-14.0463
臣	-14.0463
隅	-14.0463
塔	-14.0463
还	-14.0463
ͥ	-14.0463
现	-14.0463
̟	-14.0463
ட	-14.0463
冠	-14.0463
嚴	-14.0463
欺	-14.0463
Ž	-14.0463
ˇ	-14.0463
ܢ	-14.0463
ệ	-14.0463
ὐ	-14.0463
∕	-14.0463
☜	-14.0463
宴	-14.0463
枚	-14.0463
碧	-14.0463
譚	-14.0463
黎	-14.0463
뼉	-14.0463
삘	-14.0463
쉔	-14.0463
쩨	-14.0463
큥	-14.0463
퓐	-14.0463
च	-14.0463
履	-14.0463
廳	-14.0463
淫	-14.0463
督	-14.0463
Γ	-14.0463
昨	-14.0463
湖	-14.0463
竜	-14.0463
య	-14.0463
徹	-14.0463
胡	-14.0463
寂	-14.0463
͐	-14.0464
̺	-14.0898
̦	-14.0898
车	-14.0898
̘	-14.0898
ิ	-14.0898
蟲	-14.0898
封	-14.0898
帶	-14.0898
卑	-14.0898
材	-14.0898
┴	-14.0898
姉	-14.0898
顧	-14.0898
춉	-14.0898
胆	-14.0898
舶	-14.0898
討	-14.0898
鋼	-14.0898
õ	-14.0898
ء	-14.0898
ự	-14.0898
⟫	-14.0898
兩	-14.0898
妙	-14.0898
灣	-14.0898
芸	-14.0898
針	-14.0898
뇰	-14.0898
쎈	-14.0898
젭	-14.0898
줴	-14.0898
쨍	-14.0898
훠	-14.0898
힝	-14.0898
Ρ	-14.0898
哭	-14.0898
넴	-14.0898
晃	-14.0898
爽	-14.0898
簿	-14.0898
辛	-14.0898
辰	-14.0898
̝	-14.0898
͖	-14.1352
͍	-14.1353
Ā	-14.1353
þ	-14.1353
ů	-14.1353
ᆫ	-14.1353
ứ	-14.1353
ῶ	-14.1353
ᄠ	-14.1353
պ	-14.1353
ͪ	-14.1353
̬	-14.1353
됩	-14.3998
꽤	-15.0119
詐	-15.1275
⟪	-15.1276
튤	-15.1277
찝	-15.1278
अ	-15.1279
츰	-15.128
彳	-15.1281
➡	-15.1282
탉	-15.1283
눗	-15.1284
艸	-15.1285
ᄡ	-15.1286
훑	-15.1287
팎	-15.1288
쐐	-15.1289
繚	-15.129
ἡ	-15.1291
죂	-15.1292
뻣	-15.1293
렜	-15.1294
է	-15.1295
샅	-15.1296
賠	-15.1297
倶	-15.1298
▫	-15.1299
튈	-15.13
숟	-15.1301
蔡	-15.1302
챘	-15.1303
뻤	-15.1304
갉	-15.1305
촘	-15.1306
셧	-15.1307
辵	-15.1308
땠	-15.1309
⌀	-15.131
⚭	-15.1311
뀜	-15.1312
꿋	-15.1313
档	-15.1314
빴	-15.1315
띈	-15.1316
뛴	-15.1317
Đ	-15.1318
짊	-15.1319
뵙	-15.132
깼	-15.1321
팠	-15.1322
溢	-15.1323
딨	-15.1324
얕	-15.1325
껑	-15.1326
┣	-15.1327
쪾	-15.1328
⊙	-15.1329
뤘	-15.133
▒	-15.1331
¶	-15.1332
뀔	-15.1333
컫	-15.1334
샀	-15.1335
뾰	-15.1336
굶	-15.1337
▸	-15.1338
잦	-15.1339
얹	-15.134
뉜	-15.1341
◾	-15.1342
낡	-15.1343
봅	-15.1344
█	-15.1345
끓	-15.1346
꿇	-15.1347
튕	-15.1348
덟	-15.1349
짖	-15.135
엮	-15.1351
벚	-15.1352
▘	-15.1353
딪	-15.1354
꺾	-15.1355
뱉	-15.1356
밌	-15.1357
겪	-15.1358
밟	-15.1359
쏟	-15.136
뚫	-15.1361
훨	-15.1362
앉	-15.1363
묻	-15.1364
곁	-15.1365
옮	-15.1366
잊	-15.1367
맡	-15.1368
▶	-15.1369
얻	-15.1369
