<p>	0
<unk>	0
<s>	0
</s>	0
▁이	-0
▁있	-1
▁그	-2
으로	-3
에서	-4
▁사	-5
▁수	-6
▁아	-7
▁하	-8
▁것	-9
▁대	-10
▁1	-11
▁가	-12
▁한	-13
▁자	-14
▁보	-15
▁시	-16
▁다	-17
▁2	-18
▁기	-19
▁나	-20
▁전	-21
▁지	-22
하는	-23
이다	-24
▁정	-25
▁있다	-26
▁일	-27
었다	-28
▁때	-29
▁모	-30
▁마	-31
지만	-32
▁상	-33
▁없	-34
▁주	-35
▁않	-36
▁경	-37
▁인	-38
▁어	-39
▁제	-40
하고	-41
▁부	-42
했다	-43
▁중	-44
▁유	-45
▁공	-46
▁위	-47
에게	-48
..	-49
▁되	-50
▁스	-51
▁무	-52
▁말	-53
▁소	-54
▁있는	-55
▁오	-56
▁비	-57
▁여	-58
한다	-59
▁내	-60
▁등	-61
▁해	-62
▁고	-63
▁만	-64
▁생	-65
▁바	-66
이라	-67
▁조	-68
▁의	-69
▁3	-70
▁미	-71
▁'	-72
▁20	-73
▁거	-74
▁동	-75
들이	-76
▁"	-77
▁성	-78
▁우	-79
▁도	-80
▁신	-81
▁한다	-82
▁안	-83
하게	-84
▁세	-85
니다	-86
▁때문	-87
▁구	-88
▁선	-89
▁방	-90
▁연	-91
▁발	-92
▁영	-93
에는	-94
▁사람	-95
▁관	-96
적인	-97
면서	-98
▁같	-99
▁문	-100
▁불	-101
▁장	-102
까지	-103
▁개	-104
된다	-105
▁결	-106
▁후	-107
▁서	-108
▁실	-109
▁많	-110
▁더	-111
▁당	-112
▁들	-113
▁적	-114
적으로	-115
하여	-116
는데	-117
▁알	-118
▁원	-119
▁진	-120
▁-	-121
▁강	-122
▁반	-123
▁최	-124
리고	-125
하다	-126
▁경우	-127
▁못	-128
▁따	-129
▁4	-130
▁자신	-131
▁특	-132
00	-133
▁노	-134
▁남	-135
▁또	-136
▁게	-137
였다	-138
▁받	-139
▁것이	-140
▁물	-141
해서	-142
에서는	-143
▁단	-144
▁작	-145
▁아니	-146
들은	-147
▁파	-148
▁현	-149
▁때문에	-150
▁역	-151
하기	-152
▁통	-153
으며	-154
▁차	-155
부터	-156
▁타	-157
▁5	-158
▁카	-159
다는	-160
▁국	-161
▁두	-162
▁할	-163
▁것이다	-164
▁좋	-165
라고	-166
▁계	-167
▁그러	-168
레이	-169
라는	-170
▁매	-171
▁분	-172
▁포	-173
▁예	-174
▁배	-175
▁19	-176
▁본	-177
▁추	-178
▁감	-179
▁달	-180
▁201	-181
▁재	-182
이나	-183
▁저	-184
하지	-185
▁피	-186
들의	-187
대로	-188
▁교	-189
들을	-190
▁입	-191
▁데	-192
▁하는	-193
다고	-194
▁생각	-195
▁리	-196
▁프	-197
▁대한	-198
▁다른	-199
▁건	-200
▁요	-201
▁출	-202
▁살	-203
리는	-204
하면	-205
▁사용	-206
▁과	-207
▁이후	-208
▁초	-209
▁된다	-210
▁점	-211
▁그리고	-212
▁함	-213
▁잘	-214
▁버	-215
▁설	-216
▁명	-217
▁정도	-218
았다	-219
기를	-220
▁에	-221
▁드	-222
▁참	-223
▁같은	-224
▁돌	-225
▁속	-226
▁행	-227
▁들어	-228
▁평	-229
에도	-230
지는	-231
▁하나	-232
▁크	-233
▁확	-234
▁변	-235
▁걸	-236
▁외	-237
▁직	-238
▁필	-239
▁죽	-240
▁편	-241
▁하지만	-242
▁처	-243
▁6	-244
▁심	-245
▁사실	-246
▁S	-247
▁화	-248
▁것을	-249
▁학	-250
되어	-251
▁올	-252
▁회	-253
▁것은	-254
▁라	-255
기에	-256
▁김	-257
▁:	-258
▁집	-259
."	-260
기도	-261
리를	-262
▁목	-263
는다	-264
▁아이	-265
▁쓰	-266
스트	-267
보다	-268
습니다	-269
▁코	-270
▁맞	-271
▁문제	-272
▁따라	-273
▁종	-274
▁뒤	-275
▁공격	-276
되었다	-277
하며	-278
거나	-279
으나	-280
▁간	-281
처럼	-282
▁가능	-283
▁로	-284
▁시작	-285
▁언	-286
▁호	-287
▁7	-288
in	-289
이라고	-290
▁치	-291
▁있었다	-292
이라는	-293
▁패	-294
▁없다	-295
▁했다	-296
▁높	-297
▁손	-298
▁운	-299
▁번	-300
er	-301
...	-302
▁10	-303
▁그러나	-304
▁위해	-305
어서	-306
리가	-307
▁했	-308
되는	-309
▁메	-310
▁양	-311
▁8	-312
▁날	-313
▁표	-314
▁그런	-315
▁새	-316
▁모습	-317
▁활	-318
▁존	-319
▁약	-320
▁형	-321
▁함께	-322
▁등장	-323
▁A	-324
▁없는	-325
다가	-326
▁각	-327
▁체	-328
▁만들	-329
▁애	-330
▁레	-331
▁열	-332
▁힘	-333
▁다시	-334
▁있었	-335
▁독	-336
▁가지	-337
기가	-338
▁이상	-339
▁가장	-340
▁근	-341
▁눈	-342
▁플	-343
▁한국	-344
▁순	-345
▁M	-346
▁앞	-347
▁하고	-348
▁너	-349
▁9	-350
▁캐	-351
▁박	-352
▁또한	-353
▁투	-354
▁모든	-355
▁얼	-356
▁끝	-357
력을	-358
이었다	-359
▁C	-360
으면	-361
▁사이	-362
▁모두	-363
지를	-364
▁그렇	-365
▁잡	-366
▁증	-367
이고	-368
▁일본	-369
▁시간	-370
▁토	-371
▁군	-372
on	-373
▁완	-374
▁게임	-375
▁되었다	-376
▁판	-377
▁누	-378
▁T	-379
▁채	-380
▁볼	-381
자가	-382
▁승	-383
▁나오	-384
▁태	-385
하였다	-386
기는	-387
▁자신의	-388
에서도	-389
▁상황	-390
▁친	-391
an	-392
▁찾	-393
▁아니라	-394
▁것으로	-395
▁트	-396
▁필요	-397
▁많은	-398
이는	-399
▁먹	-400
주의	-401
▁큰	-402
▁산	-403
▁우리	-404
▁그래	-405
▁막	-406
▁합	-407
▁이름	-408
▁이런	-409
▁느	-410
▁당시	-411
▁B	-412
▁충	-413
력이	-414
▁용	-415
▁효	-416
▁복	-417
▁총	-418
▁음	-419
▁존재	-420
▁상대	-421
들에게	-422
▁난	-423
▁많이	-424
▁다음	-425
▁및	-426
▁민	-427
▁줄	-428
므로	-429
하면서	-430
해야	-431
▁결국	-432
▁항	-433
이었	-434
▁빠	-435
▁넘	-436
이며	-437
▁금	-438
▁천	-439
▁임	-440
가는	-441
▁왕	-442
▁능	-443
....	-444
▁준	-445
▁길	-446
▁P	-447
▁베	-448
▁디	-449
▁세계	-450
성이	-451
▁보여	-452
▁인간	-453
▁듯	-454
▁식	-455
▁절	-456
▁보면	-457
▁그것	-458
▁별	-459
▁D	-460
성을	-461
▁키	-462
▁바로	-463
▁야	-464
▁병	-465
▁t	-466
▁취	-467
▁폭	-468
▁200	-469
이지	-470
▁네	-471
사를	-472
▁삼	-473
▁돌아	-474
스터	-475
▁팀	-476
▁엄	-477
▁즉	-478
▁있을	-479
▁상태	-480
▁광	-481
▁아무	-482
▁프로	-483
▁환	-484
▁여러	-485
▁않는	-486
▁검	-487
인이	-488
▁법	-489
이트	-490
▁이유	-491
▁싶	-492
▁마음	-493
▁얻	-494
▁된	-495
▁이야	-496
or	-497
▁온	-498
▁물론	-499
라도	-500
▁커	-501
▁미국	-502
▁허	-503
▁히	-504
▁이미	-505
▁매우	-506
도록	-507
▁창	-508
시키	-509
▁곳	-510
▁권	-511
▁테	-512
▁않고	-513
되었	-514
어나	-515
릭터	-516
▁현재	-517
▁갈	-518
▁클	-519
▁머	-520
들과	-521
▁다만	-522
▁사회	-523
▁백	-524
he	-525
스의	-526
가지	-527
▁12	-528
스를	-529
상을	-530
▁지금	-531
▁I	-532
▁청	-533
▁잠	-534
▁벌	-535
▁아닌	-536
▁L	-537
▁떨	-538
▁은	-539
▁캐릭터	-540
졌다	-541
ar	-542
자의	-543
▁책	-544
학교	-545
▁그녀	-546
▁떠	-547
▁되어	-548
▁악	-549
▁통해	-550
▁처음	-551
▁나는	-552
▁몸	-553
▁될	-554
▁브	-555
▁F	-556
▁극	-557
▁있어	-558
라이	-559
어진	-560
▁그는	-561
▁싸	-562
▁의미	-563
▁첫	-564
▁이러	-565
▁같이	-566
▁루	-567
스가	-568
사가	-569
▁플레이	-570
▁수도	-571
▁특히	-572
▁이용	-573
▁실제	-574
▁몰	-575
▁어느	-576
▁자체	-577
정을	-578
▁어떤	-579
장을	-580
▁되는	-581
▁담	-582
▁업	-583
로운	-584
인다	-585
▁그의	-586
▁뿐	-587
했던	-588
▁좋은	-589
▁‘	-590
▁역시	-591
▁상당	-592
인지	-593
인데	-594
부분	-595
▁갖	-596
▁나온	-597
▁둘	-598
자는	-599
▁G	-600
▁황	-601
at	-602
지가	-603
▁혼	-604
리아	-605
인의	-606
▁보고	-607
▁지역	-608
▁몇	-609
▁질	-610
▁대해	-611
▁철	-612
▁귀	-613
▁추가	-614
되고	-615
en	-616
▁와	-617
▁자기	-618
st	-619
▁나타	-620
▁거의	-621
렸다	-622
▁밀	-623
▁이러한	-624
▁일반	-625
▁기술	-626
▁북	-627
르는	-628
▁11	-629
이가	-630
▁페	-631
▁중요	-632
▁않은	-633
▁관련	-634
▁효과	-635
▁E	-636
기로	-637
▁논	-638
▁않는다	-639
▁계속	-640
리스	-641
▁좀	-642
▁내용	-643
주는	-644
▁모습을	-645
▁규	-646
자를	-647
▁<	-648
ou	-649
▁가지고	-650
▁블	-651
▁기록	-652
하자	-653
▁않았	-654
▁이를	-655
▁있으며	-656
▁있고	-657
으니	-658
▁관계	-659
▁방법	-660
▁너무	-661
▁N	-662
▁때문이다	-663
▁전투	-664
▁해당	-665
▁밝	-666
▁K	-667
도가	-668
▁시즌	-669
화를	-670
▁붙	-671
▁부분	-672
▁R	-673
입니다	-674
▁이것	-675
▁여기	-676
리즈	-677
리에	-678
▁것도	-679
20	-680
▁국가	-681
린다	-682
▁대부분	-683
▁있는데	-684
▁없이	-685
전히	-686
려고	-687
아서	-688
al	-689
사의	-690
▁범	-691
?"	-692
▁H	-693
▁기본	-694
왔다	-695
▁글	-696
▁진행	-697
▁성공	-698
▁결과	-699
▁터	-700
▁이렇	-701
▁위한	-702
로서	-703
어지	-704
▁사랑	-705
▁사건	-706
지막	-707
▁중국	-708
밖에	-709
스로	-710
하지만	-711
이지만	-712
▁작품	-713
지도	-714
▁늘	-715
▁접	-716
▁향	-717
▁0	-718
드는	-719
▁주인	-720
▁있다는	-721
▁선수	-722
▁199	-723
▁면	-724
▁골	-725
시아	-726
로는	-727
머니	-728
▁찾아	-729
장이	-730
▁돈	-731
▁말을	-732
▁탈	-733
▁받아	-734
▁/	-735
▁사람이	-736
했고	-737
▁풀	-738
▁동안	-739
le	-740
▁달리	-741
▁올라	-742
▁어떻	-743
없이	-744
▁왜	-745
▁마지막	-746
시에	-747
식을	-748
▁팬	-749
▁스킬	-750
▁이루	-751
▁먼	-752
it	-753
▁내가	-754
드를	-755
하였	-756
도를	-757
▁15	-758
▁이는	-759
▁연구	-760
▁되었	-761
▁정도로	-762
▁경기	-763
치는	-764
▁그런데	-765
▁활동	-766
치를	-767
▁W	-768
▁직접	-769
re	-770
▁자신이	-771
니까	-772
▁수준	-773
▁좋아	-774
마다	-775
들도	-776
진다	-777
▁낮	-778
▁지나	-779
▁놓	-780
▁어떻게	-781
▁일부	-782
음을	-783
▁뛰	-784
스는	-785
▁않았다	-786
▁시리즈	-787
▁이렇게	-788
위를	-789
어가	-790
▁팔	-791
▁깨	-792
대의	-793
년에	-794
▁아니다	-795
▁헤	-796
에선	-797
▁대신	-798
▁놀	-799
정이	-800
▁탄	-801
▁하지	-802
▁그대로	-803
▁피해	-804
▁그래서	-805
▁따라서	-806
▁슈	-807
▁그냥	-808
▁만들어	-809
▁높은	-810
나는	-811
수가	-812
▁또는	-813
▁보인다	-814
▁맡	-815
▁쉽	-816
▁엔	-817
▁인해	-818
▁이전	-819
▁아버	-820
다면	-821
▁비슷	-822
▁18	-823
▁그렇게	-824
000	-825
▁암	-826
▁새로운	-827
▁O	-828
▁혹	-829
▁영화	-830
▁선택	-831
▁라이	-832
▁영향	-833
▁「	-834
수를	-835
▁대표	-836
▁하다	-837
▁등의	-838
▁있던	-839
▁월	-840
상이	-841
거리	-842
▁인물	-843
▁정신	-844
▁참고	-845
르게	-846
▁“	-847
▁친구	-848
▁침	-849
▁정치	-850
▁격	-851
▁설명	-852
▁일이	-853
▁서로	-854
▁살아	-855
▁울	-856
▁축	-857
▁이제	-858
▁30	-859
▁뜻	-860
▁방송	-861
▁있어서	-862
▁없었다	-863
시간	-864
▁이에	-865
▁평가	-866
▁쿠	-867
▁주인공	-868
▁레이	-869
▁농	-870
▁의해	-871
▁전체	-872
▁기준	-873
기의	-874
이를	-875
점을	-876
▁급	-877
▁덕	-878
is	-879
▁과거	-880
▁협	-881
▁크게	-882
▁무엇	-883
▁조금	-884
▁정보	-885
▁위해서	-886
리의	-887
▁얼마	-888
트를	-889
▁이해	-890
대를	-891
▁희	-892
▁능력	-893
ing	-894
▁발생	-895
▁아직	-896
전을	-897
있는	-898
▁케	-899
▁행동	-900
▁있지만	-901
▁b	-902
▁마법	-903
▁경우가	-904
국의	-905
▁곡	-906
▁상당히	-907
▁듣	-908
되지	-909
▁결정	-910
인을	-911
▁알고	-912
▁스타	-913
▁엘	-914
__	-915
원이	-916
▁서울	-917
▁언급	-918
▁많다	-919
대한	-920
도로	-921
▁+	-922
▁육	-923
▁망	-924
와의	-925
서는	-926
▁있다고	-927
▁제외	-928
▁넣	-929
하던	-930
우는	-931
▁어려	-932
▁홍	-933
▁경제	-934
▁전쟁	-935
하려	-936
사는	-937
▁쪽	-938
▁역할	-939
나라	-940
리지	-941
ic	-942
▁#	-943
▁워	-944
▁측	-945
지고	-946
인은	-947
원을	-948
드가	-949
▁정말	-950
▁쓸	-951
▁제작	-952
▁자유	-953
▁먼저	-954
▁괴	-955
▁증가	-956
▁얼굴	-957
▁『	-958
▁여성	-959
▁알려	-960
▁갑	-961
는지	-962
▁해도	-963
▁당신	-964
만큼	-965
하는데	-966
이스	-967
중에	-968
▁하면	-969
과는	-970
▁등을	-971
▁학생	-972
치가	-973
어난	-974
이기	-975
▁시절	-976
▁포함	-977
▁슬	-978
▁원래	-979
드의	-980
▁최고	-981
상의	-982
▁16	-983
▁이동	-984
갔다	-985
히려	-986
▁러	-987
▁학교	-988
▁믿	-989
물을	-990
▁실제로	-991
▁던	-992
▁만든	-993
▁이때	-994
▁나오는	-995
▁제대로	-996
▁엄청	-997
▁오히려	-998
▁정부	-999
에서의	-1000
으로는	-1001
▁되고	-1002
▁기업	-1003
▁개발	-1004
▁사라	-1005
▁궁	-1006
▁s	-1007
▁m	-1008
▁o	-1009
▁비교	-1010
하거나	-1011
▁주장	-1012
▁마찬	-1013
명을	-1014
▁더욱	-1015
준다	-1016
임을	-1017
▁끌	-1018
▁불가	-1019
▁마찬가지	-1020
▁유지	-1021
▁빨	-1022
▁없었	-1023
▁묘	-1024
▁사람들이	-1025
▁현실	-1026
내는	-1027
▁p	-1028
!"	-1029
▁표현	-1030
더라도	-1031
▁압	-1032
▁내려	-1033
어를	-1034
▁흔	-1035
▁the	-1036
과의	-1037
이자	-1038
▁이야기	-1039
▁움	-1040
▁V	-1041
▁하며	-1042
▁바람	-1043
▁가진	-1044
했을	-1045
es	-1046
이션	-1047
▁교육	-1048
▁인터	-1049
▁자주	-1050
인가	-1051
▁봉	-1052
▁드러	-1053
▁성격	-1054
전에	-1055
▁당연	-1056
▁삶	-1057
▁멀	-1058
▁100	-1059
▁나라	-1060
▁적이	-1061
하기도	-1062
▁구성	-1063
▁숨	-1064
▁감독	-1065
르고	-1066
어져	-1067
오는	-1068
▁잔	-1069
▁꿈	-1070
지의	-1071
▁장면	-1072
명이	-1073
▁같다	-1074
▁퍼	-1075
▁중요한	-1076
화가	-1077
▁인정	-1078
▁읽	-1079
▁니	-1080
자로	-1081
▁형태	-1082
보다는	-1083
▁칼	-1084
▁.	-1085
▁유명	-1086
시켜	-1087
▁순간	-1088
▁말이	-1089
대에	-1090
▁w	-1091
동안	-1092
▁컨	-1093
으로써	-1094
▁자연	-1095
▁그가	-1096
▁일을	-1097
▁13	-1098
한다는	-1099
-1	-1100
▁때는	-1101
▁타이	-1102
▁풍	-1103
났다	-1104
▁발견	-1105
▁보여주	-1106
회의	-1107
▁생활	-1108
▁경험	-1109
▁전에	-1110
▁U	-1111
▁가까	-1112
▁다양	-1113
▁그리	-1114
▁견	-1115
수의	-1116
▁위치	-1117
▁유저	-1118
와는	-1119
▁빌	-1120
심을	-1121
▁기억	-1122
▁생산	-1123
어도	-1124
문을	-1125
▁어디	-1126
으로서	-1127
▁동시에	-1128
멤버	-1129
▁아래	-1130
정한	-1131
▁웃	-1132
른다	-1133
원의	-1134
트가	-1135
▁꽤	-1136
▁전부	-1137
▁티	-1138
▁요구	-1139
▁조선	-1140
이란	-1141
▁전혀	-1142
▁주로	-1143
▁도시	-1144
▁어머니	-1145
▁방어	-1146
▁f	-1147
▁기존	-1148
▁사람은	-1149
▁만나	-1150
▁대해서	-1151
▁잃	-1152
▁사망	-1153
▁14	-1154
▁아주	-1155
▁않을	-1156
움을	-1157
▁역사	-1158
om	-1159
▁빼	-1160
▁비해	-1161
▁혹은	-1162
▁운영	-1163
▁확인	-1164
했지만	-1165
▁뉴	-1166
장의	-1167
일에	-1168
ac	-1169
▁이번	-1170
--	-1171
▁부족	-1172
▁들어가	-1173
▁스토	-1174
▁여자	-1175
▁곧	-1176
▁애니	-1177
▁중심	-1178
▁이어	-1179
▁움직	-1180
▁봐	-1181
▁알아	-1182
어로	-1183
▁착	-1184
▁있기	-1185
▁198	-1186
▁해서	-1187
▁멤버	-1188
▁17	-1189
스타	-1190
번째	-1191
같은	-1192
적이	-1193
상으로	-1194
가가	-1195
▁노래	-1196
ion	-1197
▁만큼	-1198
ad	-1199
▁가져	-1200
였던	-1201
▁나온다	-1202
점이	-1203
▁하여	-1204
▁적용	-1205
▁과정	-1206
▁땅	-1207
대가	-1208
▁폐	-1209
도의	-1210
▁초반	-1211
명의	-1212
식이	-1213
▁강력	-1214
계를	-1215
▁않아	-1216
▁자신을	-1217
▁c	-1218
▁조직	-1219
▁찍	-1220
▁카드	-1221
▁좋다	-1222
르면	-1223
▁수가	-1224
지어	-1225
▁스스로	-1226
▁써	-1227
el	-1228
▁그림	-1229
▁힘들	-1230
어야	-1231
▁욕	-1232
제를	-1233
▁까	-1234
▁개인	-1235
▁있게	-1236
어요	-1237
▁d	-1238
▁기능	-1239
▁지원	-1240
▁하루	-1241
▁J	-1242
▁모양	-1243
▁보통	-1244
▁프랑	-1245
▁완전히	-1246
▁설정	-1247
▁긴	-1248
▁송	-1249
▁가능하다	-1250
▁준비	-1251
있다	-1252
년대	-1253
▁누구	-1254
▁일단	-1255
▁문제가	-1256
▁오늘	-1257
아가	-1258
▁몬	-1259
스러	-1260
통령	-1261
▁밤	-1262
▁대학	-1263
격을	-1264
▁좌	-1265
장은	-1266
▁자세	-1267
들에	-1268
장에서	-1269
▁등이	-1270
리로	-1271
▁가족	-1272
했다고	-1273
▁못한	-1274
and	-1275
▁홈	-1276
보면	-1277
합니다	-1278
▁주변	-1279
▁한번	-1280
▁계획	-1281
지에	-1282
▁윤	-1283
▁즐	-1284
▁술	-1285
▁운동	-1286
▁우리는	-1287
▁벗	-1288
리어	-1289
로부터	-1290
▁출신	-1291
랜드	-1292
▁쉬	-1293
▁뭐	-1294
▁파괴	-1295
▁응	-1296
▁게다가	-1297
자인	-1298
▁어린	-1299
겠다	-1300
10	-1301
스템	-1302
▁빈	-1303
▁위험	-1304
▁헌	-1305
권을	-1306
가를	-1307
▁해결	-1308
▁2020	-1309
분에	-1310
▁실패	-1311
▁국민	-1312
업을	-1313
▁독일	-1314
▁빛	-1315
......	-1316
▁그래도	-1317
▁못하고	-1318
▁문화	-1319
▁동일	-1320
▁휴	-1321
▁단순	-1322
성의	-1323
▁2018	-1324
▁고려	-1325
▁어렵	-1326
감을	-1327
▁얘	-1328
▁정확	-1329
▁50	-1330
▁해야	-1331
▁심지어	-1332
조차	-1333
간다	-1334
▁깊	-1335
으므로	-1336
▁참고로	-1337
치고	-1338
선을	-1339
▁of	-1340
▁겨	-1341
▁유닛	-1342
▁2019	-1343
▁a	-1344
이터	-1345
▁딸	-1346
▁아예	-1347
▁1.	-1348
▁유일	-1349
도는	-1350
▁않다	-1351
▁주는	-1352
▁25	-1353
ed	-1354
전에서	-1355
▁나가	-1356
▁무기	-1357
나가	-1358
▁있습니다	-1359
▁이벤	-1360
▁강화	-1361
▁사고	-1362
▁답	-1363
▁대통령	-1364
이기도	-1365
제가	-1366
▁가는	-1367
시킨	-1368
▁출연	-1369
이드	-1370
간에	-1371
▁데미	-1372
장에	-1373
▁힘을	-1374
구를	-1375
▁최종	-1376
그램	-1377
▁방식	-1378
▁공식	-1379
상에	-1380
▁바뀌	-1381
어버	-1382
만이	-1383
라면	-1384
▁시간이	-1385
의를	-1386
▁레벨	-1387
나마	-1388
▁관한	-1389
▁후반	-1390
▁공개	-1391
▁묻	-1392
부를	-1393
▁국내	-1394
운데	-1395
▁아이템	-1396
ol	-1397
▁변경	-1398
시키는	-1399
▁반응	-1400
▁받고	-1401
지로	-1402
▁섬	-1403
▁잘못	-1404
▁탑	-1405
▁쉽게	-1406
체를	-1407
이크	-1408
▁참여	-1409
스와	-1410
▁남자	-1411
리카	-1412
▁비슷한	-1413
▁작은	-1414
▁소속	-1415
▁보는	-1416
▁핵	-1417
▁결혼	-1418
성은	-1419
▁불가능	-1420
이어	-1421
▁비판	-1422
▁없고	-1423
▁활용	-1424
et	-1425
▁하였다	-1426
▁흐	-1427
▁사실상	-1428
개를	-1429
▁제공	-1430
간의	-1431
▁지속	-1432
었던	-1433
▁음악	-1434
으면서	-1435
▁뽑	-1436
수는	-1437
▁딜	-1438
am	-1439
▁구조	-1440
▁보내	-1441
▁있었던	-1442
듯이	-1443
▁받은	-1444
▁영향을	-1445
이라면	-1446
▁나와	-1447
서를	-1448
▁배우	-1449
▁부모	-1450
부의	-1451
해도	-1452
한테	-1453
▁목표	-1454
▁사실을	-1455
▁훨	-1456
▁아마	-1457
▁마을	-1458
▁여기서	-1459
▁옆	-1460
▁석	-1461
트의	-1462
▁말한다	-1463
▁2017	-1464
▁충분	-1465
▁죄	-1466
었고	-1467
▁차지	-1468
▁흑	-1469
자기	-1470
▁쓴	-1471
▁사진	-1472
▁하는데	-1473
만을	-1474
▁프리	-1475
▁개념	-1476
▁전문	-1477
이의	-1478
겠지만	-1479
▁짓	-1480
▁색	-1481
il	-1482
▁한편	-1483
▁번째	-1484
▁되면	-1485
▁익	-1486
▁훨씬	-1487
▁최초	-1488
▁꾸	-1489
▁특징	-1490
▁스트	-1491
적을	-1492
회를	-1493
운드	-1494
스럽	-1495
▁분명	-1496
화에서	-1497
▁훈	-1498
▁다르	-1499
▁솔	-1500
등학교	-1501
▁확실	-1502
ay	-1503
▁조건	-1504
▁,	-1505
▁퇴	-1506
력은	-1507
군의	-1508
▁회복	-1509
▁말했다	-1510
▁녹	-1511
▁언제	-1512
▁끊	-1513
▁불구	-1514
▁다양한	-1515
▁혼자	-1516
▁그를	-1517
▁2016	-1518
했는데	-1519
▁숙	-1520
했다는	-1521
▁사람들은	-1522
{{	-1523
수록	-1524
없는	-1525
▁시스템	-1526
▁판매	-1527
▁기사	-1528
더니	-1529
,000	-1530
▁소환	-1531
자들이	-1532
가의	-1533
▁대체	-1534
as	-1535
ow	-1536
▁자동	-1537
트로	-1538
▁몬스터	-1539
물이	-1540
리와	-1541
▁쓰는	-1542
▁했지만	-1543
▁변화	-1544
▁특별	-1545
.1	-1546
▁똑	-1547
비를	-1548
▁씨	-1549
소를	-1550
개의	-1551
▁경찰	-1552
▁졸	-1553
▁h	-1554
▁앨	-1555
▁경우도	-1556
리오	-1557
이었던	-1558
▁여전히	-1559
▁남아	-1560
▁《	-1561
▁리그	-1562
▁흥	-1563
전이	-1564
▁국제	-1565
했으며	-1566
▁영국	-1567
▁경우에는	-1568
▁휘	-1569
한다고	-1570
▁특수	-1571
▁가능한	-1572
▁무슨	-1573
려는	-1574
▁가격	-1575
▁역할을	-1576
약을	-1577
체가	-1578
▁발매	-1579
▁환경	-1580
에게는	-1581
▁성능	-1582
▁담당	-1583
▁오래	-1584
px	-1585
▁일어나	-1586
▁기다	-1587
▁그것은	-1588
▁우승	-1589
▁현대	-1590
▁굉	-1591
▁판단	-1592
▁필요한	-1593
▁없어	-1594
▁자체가	-1595
라마	-1596
▁투자	-1597
▁경쟁	-1598
!!	-1599
▁일으	-1600
▁하기	-1601
행을	-1602
▁모델	-1603
▁지방	-1604
▁불구하고	-1605
사에	-1606
▁흘	-1607
▁항상	-1608
▁보호	-1609
▁방향	-1610
▁떨어	-1611
▁소설	-1612
▁맥	-1613
▁최대	-1614
▁분위	-1615
대는	-1616
▁X	-1617
▁관리	-1618
▁마찬가지로	-1619
겠다고	-1620
▁대한민	-1621
▁영상	-1622
▁목소	-1623
▁싫	-1624
▁끼	-1625
드로	-1626
▁낙	-1627
▁발표	-1628
▁사업	-1629
▁최근	-1630
▁것에	-1631
▁in	-1632
▁밝혀	-1633
▁앉	-1634
▁습	-1635
하다는	-1636
무를	-1637
▁굉장	-1638
이라도	-1639
▁바라	-1640
놓고	-1641
▁넘어	-1642
▁없을	-1643
▁미래	-1644
냈다	-1645
▁그때	-1646
▁패배	-1647
▁갖고	-1648
▁각각	-1649
▁컴	-1650
▁가능성이	-1651
리그	-1652
▁얼마나	-1653
▁하늘	-1654
▁우리가	-1655
스크	-1656
▁콘	-1657
▁가운데	-1658
▁보이는	-1659
▁드래	-1660
▁→	-1661
량이	-1662
us	-1663
▁슈퍼	-1664
▁이유는	-1665
문에	-1666
▁문제는	-1667
▁만약	-1668
난다	-1669
▁맛	-1670
▁발전	-1671
▁절대	-1672
위원	-1673
▁이름을	-1674
하다고	-1675
▁되지	-1676
▁탐	-1677
▁후에	-1678
▁딱	-1679
▁쇼	-1680
▁느낌	-1681
성과	-1682
▁의견	-1683
▁한다는	-1684
▁21	-1685
▁그나마	-1686
▁2015	-1687
▁자리	-1688
▁틀	-1689
드시	-1690
▁하자	-1691
▁두고	-1692
ig	-1693
같이	-1694
▁억	-1695
함을	-1696
▁것과	-1697
이면	-1698
▁2.	-1699
사로	-1700
▁들고	-1701
까지는	-1702
▁영웅	-1703
▁찬	-1704
디오	-1705
주고	-1706
▁시점	-1707
▁사용하는	-1708
▁속에서	-1709
▁덕분에	-1710
▁따르면	-1711
▁받는	-1712
▁무시	-1713
▁모르	-1714
▁승리	-1715
ve	-1716
위가	-1717
▁나머	-1718
니아	-1719
▁비롯	-1720
▁엄청난	-1721
▁푸	-1722
▁반면	-1723
▁쳐	-1724
▁사람을	-1725
▁타고	-1726
▁샤	-1727
▁하면서	-1728
▁잡아	-1729
▁y	-1730
▁지난	-1731
▁중앙	-1732
보고	-1733
제로	-1734
움이	-1735
▁유럽	-1736
▁강한	-1737
▁느끼	-1738
▁우선	-1739
▁독립	-1740
▁수는	-1741
보는	-1742
▁당연히	-1743
▁원작	-1744
리기	-1745
트는	-1746
상은	-1747
▁다음과	-1748
부에	-1749
▁성장	-1750
▁콜	-1751
▁강력한	-1752
위에	-1753
▁참조	-1754
자와	-1755
▁을	-1756
기고	-1757
▁시작했다	-1758
▁위에	-1759
▁는	-1760
▁센	-1761
▁진짜	-1762
▁굴	-1763
▁문서	-1764
키는	-1765
▁왔	-1766
▁바이	-1767
▁197	-1768
▁예를	-1769
▁n	-1770
어들	-1771
말로	-1772
▁것처럼	-1773
▁스테	-1774
▁굳	-1775
성에	-1776
▁40	-1777
▁보스	-1778
▁이야기를	-1779
▁나이	-1780
▁품	-1781
▁Y	-1782
▁획	-1783
▁프로그램	-1784
▁편이다	-1785
▁제한	-1786
▁지구	-1787
ot	-1788
▁확률	-1789
▁l	-1790
▁기대	-1791
▁연결	-1792
▁과학	-1793
사와	-1794
금을	-1795
▁인식	-1796
▁신경	-1797
▁북한	-1798
▁아버지	-1799
▁작중	-1800
제의	-1801
장으로	-1802
▁짧	-1803
▁괜	-1804
▁나서	-1805
▁다니	-1806
비가	-1807
▁상승	-1808
▁민주	-1809
▁염	-1810
느냐	-1811
당한	-1812
▁받았	-1813
만한	-1814
▁처리	-1815
세를	-1816
운동	-1817
됐다	-1818
▁우주	-1819
프트	-1820
▁반드시	-1821
▁감소	-1822
▁꺼	-1823
일을	-1824
관이	-1825
수로	-1826
라가	-1827
▁달려	-1828
▁못하는	-1829
▁24	-1830
▁노동	-1831
▁넓	-1832
▁러시아	-1833
▁주의	-1834
50	-1835
시는	-1836
ch	-1837
▁노력	-1838
▁것이라고	-1839
▁난이	-1840
▁선생	-1841
되면서	-1842
▁설치	-1843
▁발동	-1844
원은	-1845
계의	-1846
히는	-1847
▁옷	-1848
전의	-1849
▁사람의	-1850
군이	-1851
정에	-1852
▁있다면	-1853
화의	-1854
▁보니	-1855
▁엄마	-1856
했으나	-1857
▁굉장히	-1858
▁주요	-1859
▁벽	-1860
부가	-1861
▁부정	-1862
un	-1863
▁플레이어	-1864
▁중에	-1865
기와	-1866
▁수행	-1867
▁제품	-1868
▁젊	-1869
▁꼭	-1870
▁맨	-1871
▁액	-1872
신을	-1873
▁상대로	-1874
▁갑자기	-1875
▁밖	-1876
▁동료	-1877
▁속에	-1878
▁출시	-1879
구가	-1880
▁없다는	-1881
▁쌓	-1882
지지	-1883
▁나왔	-1884
▁하이	-1885
____	-1886
메이션	-1887
▁빠져	-1888
▁가르	-1889
▁지배	-1890
▁전략	-1891
▁반대	-1892
▁정책	-1893
▁나무	-1894
▁나타나	-1895
▁대부분의	-1896
▁외국	-1897
하라	-1898
우스	-1899
겼다	-1900
정으로	-1901
▁선거	-1902
▁공격을	-1903
▁소리	-1904
체의	-1905
▁그녀의	-1906
▁흡	-1907
▁맵	-1908
▁이와	-1909
▁경우는	-1910
▁셈	-1911
▁불러	-1912
▁쓰러	-1913
▁안에	-1914
▁꽃	-1915
▁도망	-1916
심이	-1917
▁있지	-1918
▁보다	-1919
▁년	-1920
▁분석	-1921
▁성우	-1922
하나	-1923
▁뒷	-1924
▁에피	-1925
려서	-1926
자들은	-1927
▁가면	-1928
▁수밖에	-1929
한다면	-1930
▁그녀는	-1931
▁꼬	-1932
▁진출	-1933
위로	-1934
보니	-1935
▁만드는	-1936
▁행복	-1937
▁등장하는	-1938
학생	-1939
▁지도	-1940
▁탓	-1941
로를	-1942
으로부터	-1943
▁입장	-1944
롭게	-1945
ent	-1946
▁잠시	-1947
▁2014	-1948
▁못했다	-1949
▁돈을	-1950
고는	-1951
▁서비	-1952
▁옮	-1953
▁기간	-1954
정의	-1955
▁달라	-1956
▁대답	-1957
▁사용할	-1958
▁집중	-1959
▁특성	-1960
선이	-1961
-2	-1962
▁하나의	-1963
▁그것을	-1964
리며	-1965
하도록	-1966
▁이상의	-1967
▁앞으로	-1968
종의	-1969
스러운	-1970
시를	-1971
▁나의	-1972
라의	-1973
▁인간의	-1974
세요	-1975
▁오른	-1976
▁초기	-1977
일이	-1978
▁그들은	-1979
▁생각해	-1980
▁싱	-1981
▁것이었다	-1982
▁떠나	-1983
▁지켜	-1984
마저	-1985
▁거기	-1986
▁나를	-1987
ro	-1988
▁and	-1989
내고	-1990
▁이것은	-1991
되기	-1992
▁아니면	-1993
▁마치	-1994
▁취급	-1995
▁않으면	-1996
▁요소	-1997
되며	-1998
조건	-1999
▁본인	-2000
id	-2001
▁시청	-2002
타를	-2003
▁후보	-2004
▁인생	-2005
▁물건	-2006
고를	-2007
시켰	-2008
▁마음을	-2009
▁시간을	-2010
▁드래곤	-2011
▁돼	-2012
▁헬	-2013
경기	-2014
▁다이	-2015
▁칭	-2016
계가	-2017
▁건물	-2018
치로	-2019
▁사례	-2020
▁펼	-2021
▁전통	-2022
단의	-2023
▁조합	-2024
▁끝나	-2025
▁냉	-2026
▁유리	-2027
어진다	-2028
▁공동	-2029
▁아니고	-2030
▁낮은	-2031
▁에너	-2032
세기	-2033
▁폭발	-2034
▁하게	-2035
▁프랑스	-2036
▁이유로	-2037
▁제시	-2038
▁것입니다	-2039
▁마이	-2040
다니	-2041
▁폴	-2042
▁생긴	-2043
▁아름	-2044
되었고	-2045
▁종교	-2046
▁시도	-2047
▁에피소	-2048
▁22	-2049
▁챔	-2050
▁이벤트	-2051
▁참가	-2052
▁겪	-2053
▁애니메이션	-2054
▁홀	-2055
▁패턴	-2056
▁의한	-2057
▁걱	-2058
▁앞에	-2059
▁~	-2060
▁스페	-2061
▁나왔다	-2062
만에	-2063
▁받았다	-2064
▁아내	-2065
▁이끌	-2066
▁능력을	-2067
▁회사	-2068
분이	-2069
유의	-2070
▁소비	-2071
▁월드	-2072
▁차량	-2073
낸다	-2074
▁옛	-2075
▁드라마	-2076
▁소개	-2077
다운	-2078
해주	-2079
',	-2080
▁손을	-2081
▁남편	-2082
▁정도의	-2083
▁가슴	-2084
19	-2085
▁배경	-2086
정도	-2087
▁아르	-2088
였고	-2089
▁없다고	-2090
디어	-2091
▁더불	-2092
원에	-2093
▁듣고	-2094
▁아무리	-2095
▁이곳	-2096
▁경영	-2097
▁행정	-2098
.0	-2099
구나	-2100
▁사이에	-2101
▁민족	-2102
단을	-2103
▁사는	-2104
▁혈	-2105
주를	-2106
이로	-2107
▁있으면	-2108
▁오브	-2109
▁나머지	-2110
▁접근	-2111
▁선발	-2112
▁제국	-2113
적이고	-2114
.”	-2115
학년	-2116
이야	-2117
겠다는	-2118
▁가끔	-2119
프를	-2120
▁부르	-2121
▁보아	-2122
▁치료	-2123
▁예상	-2124
수한	-2125
리게	-2126
im	-2127
.2	-2128
▁않게	-2129
▁했던	-2130
▁여담	-2131
▁주고	-2132
▁밑	-2133
▁잊	-2134
았던	-2135
em	-2136
▁해석	-2137
▁몸을	-2138
▁얻을	-2139
▁위해서는	-2140
아버	-2141
만으로	-2142
▁g	-2143
신이	-2144
ik	-2145
▁st	-2146
쳤다	-2147
▁23	-2148
▁최소	-2149
▁뜨	-2150
▁획득	-2151
▁보이	-2152
▁각종	-2153
만의	-2154
▁문제를	-2155
관을	-2156
정은	-2157
도에	-2158
▁196	-2159
대학교	-2160
력과	-2161
버스	-2162
▁생존	-2163
들로	-2164
▁고객	-2165
▁납	-2166
라인	-2167
▁더불어	-2168
해진	-2169
리면	-2170
▁그들의	-2171
생활	-2172
▁훈련	-2173
▁점을	-2174
▁뒤에	-2175
▁1,	-2176
하다가	-2177
회가	-2178
▁기준으로	-2179
▁안정	-2180
▁앨범	-2181
▁상황에서	-2182
▁머리	-2183
▁징	-2184
▁어려운	-2185
▁죽음	-2186
로가	-2187
▁말하는	-2188
▁버전	-2189
▁모습이	-2190
▁이론	-2191
든지	-2192
명은	-2193
▁가서	-2194
▁수록	-2195
대학	-2196
▁말에	-2197
▁밖에	-2198
▁you	-2199
▁알게	-2200
▁인터넷	-2201
▁돌아가	-2202
원으로	-2203
▁활약	-2204
▁추정	-2205
력의	-2206
▁달성	-2207
▁바꾸	-2208
▁데뷔	-2209
▁고통	-2210
▁별로	-2211
30	-2212
▁거야	-2213
▁The	-2214
▁나름	-2215
▁중에서	-2216
▁좋지	-2217
▁to	-2218
▁논란	-2219
▁차이가	-2220
시킬	-2221
▁뿌	-2222
▁일은	-2223
▁과정에서	-2224
▁짐	-2225
▁번역	-2226
▁강조	-2227
차를	-2228
감이	-2229
티브	-2230
부는	-2231
▁나누	-2232
▁분노	-2233
력으로	-2234
시가	-2235
▁포기	-2236
호를	-2237
▁제일	-2238
많은	-2239
▁항목	-2240
냐고	-2241
▁받을	-2242
교육	-2243
질을	-2244
혔다	-2245
스럽게	-2246
▁등장한다	-2247
스에	-2248
▁지하	-2249
월에	-2250
▁등으로	-2251
나게	-2252
동을	-2253
시즌	-2254
▁괜찮	-2255
▁자랑	-2256
▁정리	-2257
▁공간	-2258
▁문학	-2259
점으로	-2260
식으로	-2261
▁메이	-2262
▁아프	-2263
▁앞에서	-2264
문이	-2265
▁있으니	-2266
▁뭔	-2267
▁특정	-2268
▁부여	-2269
ver	-2270
▁물리	-2271
라서	-2272
▁눈을	-2273
▁맹	-2274
▁늦	-2275
▁적극	-2276
▁약간	-2277
▁점점	-2278
▁높다	-2279
▁불안	-2280
▁필요가	-2281
▁링	-2282
▁피해를	-2283
▁스토리	-2284
시오	-2285
▁여기에	-2286
해지	-2287
▁장비	-2288
▁명령	-2289
님이	-2290
여서	-2291
시의	-2292
▁파악	-2293
우고	-2294
인으로	-2295
▁직업	-2296
▁혁	-2297
▁유명한	-2298
▁검은	-2299
▁계약	-2300
▁비밀	-2301
▁적은	-2302
게임	-2303
▁책임	-2304
▁이외	-2305
▁옥	-2306
기업	-2307
▁도착	-2308
▁전반	-2309
▁뮤	-2310
▁부산	-2311
▁깔	-2312
하려는	-2313
인물	-2314
음에도	-2315
▁수비	-2316
▁2013	-2317
▁있었고	-2318
들어	-2319
▁소유	-2320
▁건강	-2321
▁때마다	-2322
▁젊은	-2323
보다도	-2324
님의	-2325
율이	-2326
▁TV	-2327
▁벨	-2328
▁웨	-2329
▁상황이	-2330
자들의	-2331
자에	-2332
▁다르게	-2333
지와	-2334
▁대한민국	-2335
▁그것이	-2336
▁식으로	-2337
▁합니다	-2338
▁우리의	-2339
초에	-2340
세가	-2341
▁재미	-2342
▁대하여	-2343
BS	-2344
▁퀘	-2345
nd	-2346
▁바람에	-2347
▁부활	-2348
▁있도록	-2349
▁짜	-2350
▁종류	-2351
▁그럼	-2352
피언	-2353
▁수많은	-2354
▁스포	-2355
라며	-2356
▁형성	-2357
▁따로	-2358
▁있으나	-2359
▁뇌	-2360
자에게	-2361
구의	-2362
▁자료	-2363
위는	-2364
▁건설	-2365
▁마련	-2366
▁예정	-2367
▁죽은	-2368
▁지적	-2369
▁빨리	-2370
▁아들	-2371
▁적을	-2372
▁라인	-2373
로의	-2374
▁불과	-2375
.#	-2376
▁상품	-2377
▁새로	-2378
▁최고의	-2379
▁류	-2380
▁일본의	-2381
▁심각	-2382
▁살펴	-2383
었는데	-2384
▁리더	-2385
▁덤	-2386
ur	-2387
▁듀	-2388
▁준다	-2389
년부터	-2390
▁졸업	-2391
계에	-2392
▁목적	-2393
레벨	-2394
▁다루	-2395
▁연속	-2396
▁2000	-2397
▁묘사	-2398
▁28	-2399
▁조사	-2400
레이드	-2401
▁해외	-2402
▁버스	-2403
▁크로	-2404
▁빠른	-2405
▁싶은	-2406
산을	-2407
랐다	-2408
어의	-2409
▁효과를	-2410
법을	-2411
▁전개	-2412
▁분야	-2413
었다고	-2414
▁위하여	-2415
▁미국의	-2416
레스	-2417
하였고	-2418
려면	-2419
▁시대	-2420
식의	-2421
▁가까운	-2422
▁블랙	-2423
▁엑	-2424
▁군사	-2425
▁26	-2426
함으로써	-2427
▁일정	-2428
ir	-2429
▁보였다	-2430
량을	-2431
▁지지	-2432
▁St	-2433
▁대상	-2434
▁나중에	-2435
▁작업	-2436
----	-2437
▁자리를	-2438
▁충분히	-2439
사회	-2440
호가	-2441
▁등에	-2442
▁인터뷰	-2443
었지만	-2444
▁크리스	-2445
선의	-2446
데이트	-2447
▁파워	-2448
야말로	-2449
적으로는	-2450
이니	-2451
▁비행	-2452
▁털	-2453
▁왼	-2454
▁길을	-2455
▁아는	-2456
원에서	-2457
▁이탈	-2458
▁츠	-2459
▁이르	-2460
술을	-2461
웠다	-2462
역을	-2463
제는	-2464
시키고	-2465
▁생각을	-2466
▁챔피언	-2467
에만	-2468
퓨터	-2469
▁칸	-2470
▁본래	-2471
안을	-2472
▁3.	-2473
▁대미	-2474
기관	-2475
▁정작	-2476
▁쫓	-2477
▁갤	-2478
▁비용	-2479
▁유사	-2480
이에	-2481
리티	-2482
▁시험	-2483
▁아침	-2484
▁측면	-2485
군을	-2486
▁상대방	-2487
문의	-2488
▁2010	-2489
단이	-2490
▁도와	-2491
조의	-2492
▁구체	-2493
▁대중	-2494
▁점에서	-2495
▁만한	-2496
od	-2497
▁마침	-2498
▁맺	-2499
▁든	-2500
▁2012	-2501
되면	-2502
▁27	-2503
▁산업	-2504
ut	-2505
인과	-2506
진을	-2507
▁쓰고	-2508
인들이	-2509
치의	-2510
▁생명	-2511
었을	-2512
하려고	-2513
버린	-2514
▁동물	-2515
음이	-2516
ag	-2517
화된	-2518
▁e	-2519
형을	-2520
▁한다고	-2521
▁보유	-2522
▁v	-2523
▁사람들	-2524
마자	-2525
학과	-2526
▁전용	-2527
▁완전	-2528
녀석	-2529
▁기타	-2530
▁업데이트	-2531
▁라고	-2532
▁상관	-2533
주가	-2534
▁일어	-2535
▁위의	-2536
▁상징	-2537
▁60	-2538
▁되었고	-2539
실을	-2540
▁바다	-2541
▁갔	-2542
부로	-2543
▁놈	-2544
▁전국	-2545
▁거래	-2546
▁기반	-2547
적이다	-2548
▁정의	-2549
▁나올	-2550
▁반복	-2551
▁모르는	-2552
▁수정	-2553
▁종료	-2554
▁대회	-2555
▁연출	-2556
신의	-2557
▁브라	-2558
▁엘리	-2559
▁기관	-2560
▁확정	-2561
보자	-2562
▁관련된	-2563
마의	-2564
▁정상	-2565
▁많아	-2566
▁실험	-2567
▁지휘	-2568
▁엔딩	-2569
▁부탁	-2570
▁소모	-2571
▁십	-2572
▁주민	-2573
시로	-2574
것도	-2575
▁앞서	-2576
어지고	-2577
▁194	-2578
▁미션	-2579
▁발사	-2580
▁공연	-2581
▁높아	-2582
라운드	-2583
▁대해서는	-2584
▁삭	-2585
라를	-2586
ec	-2587
르크	-2588
ht	-2589
미가	-2590
▁먹고	-2591
▁척	-2592
▁도입	-2593
점은	-2594
▁눈에	-2595
▁일행	-2596
쪽으로	-2597
21	-2598
년에는	-2599
위의	-2600
진이	-2601
▁적절	-2602
세대	-2603
는가	-2604
개월	-2605
분을	-2606
▁제외한	-2607
▁완성	-2608
▁쌍	-2609
▁방영	-2610
▁의사	-2611
▁제거	-2612
▁평균	-2613
▁날아	-2614
차가	-2615
▁누군	-2616
나의	-2617
▁현재는	-2618
▁퀘스트	-2619
▁&	-2620
렀다	-2621
▁듯한	-2622
▁작가	-2623
▁좋아하는	-2624
▁중심으로	-2625
▁때까지	-2626
▁훌	-2627
▁마스터	-2628
▁한정	-2629
▁그저	-2630
▁완벽	-2631
▁끌어	-2632
▁근거	-2633
▁소녀	-2634
▁여담으로	-2635
경을	-2636
▁반대로	-2637
했습니다	-2638
군은	-2639
▁대전	-2640
▁이름이	-2641
▁널	-2642
체는	-2643
해를	-2644
▁간단	-2645
▁덱	-2646
▁사무	-2647
이즈	-2648
▁확보	-2649
▁클리어	-2650
▁멸	-2651
▁득	-2652
▁컴퓨터	-2653
▁밴	-2654
▁맞추	-2655
▁시장	-2656
▁장소	-2657
▁인도	-2658
▁동생	-2659
▁멋	-2660
▁생각이	-2661
▁곤	-2662
▁끝에	-2663
론을	-2664
ation	-2665
▁이것이	-2666
▁띄	-2667
▁노선	-2668
▁영혼	-2669
▁스피	-2670
▁있었는데	-2671
▁남은	-2672
▁따른	-2673
▁오랜	-2674
▁압도	-2675
▁본인이	-2676
▁시민	-2677
▁체력	-2678
▁빠르게	-2679
▁지키	-2680
▁겸	-2681
치게	-2682
▁대단	-2683
▁가정	-2684
지게	-2685
▁근처	-2686
▁안전	-2687
언을	-2688
잖아	-2689
▁보기	-2690
▁붉	-2691
외로	-2692
▁모드	-2693
하니	-2694
버렸다	-2695
▁항공	-2696
.'	-2697
▁어찌	-2698
져서	-2699
나이	-2700
어지는	-2701
▁인한	-2702
받은	-2703
▁이익	-2704
하의	-2705
▁말고	-2706
▁상당한	-2707
▁이게	-2708
▁다행	-2709
카이	-2710
▁규모	-2711
향이	-2712
▁빅	-2713
▁뿐만	-2714
▁부담	-2715
크를	-2716
▁전작	-2717
▁셋	-2718
했기	-2719
▁올려	-2720
▁축구	-2721
▁를	-2722
▁구매	-2723
▁다소	-2724
▁있어야	-2725
▁근접	-2726
▁느껴	-2727
▁평소	-2728
▁거부	-2729
권의	-2730
▁연습	-2731
아야	-2732
▁영어	-2733
▁멈	-2734
▁고정	-2735
▁약속	-2736
인트	-2737
▁뛰어난	-2738
▁통합	-2739
▁이들은	-2740
▁지금까지	-2741
▁여행	-2742
▁뛰어	-2743
지역	-2744
▁전설	-2745
▁유튜	-2746
▁메인	-2747
▁했는데	-2748
▁연기	-2749
▁정보를	-2750
▁녀석	-2751
▁처음으로	-2752
▁히로	-2753
▁저지	-2754
▁뿐이다	-2755
▁무려	-2756
▁이용해	-2757
▁*	-2758
▁밥	-2759
받는	-2760
▁그곳	-2761
▁구분	-2762
▁말해	-2763
▁때도	-2764
▁몽	-2765
▁걱정	-2766
심히	-2767
▁규정	-2768
▁칠	-2769
▁얘기	-2770
▁그러한	-2771
ak	-2772
▁게임을	-2773
두고	-2774
▁유일한	-2775
▁의하면	-2776
비아	-2777
▁유니	-2778
▁계열	-2779
▁남성	-2780
▁효과가	-2781
▁겁	-2782
지션	-2783
에게서	-2784
화에	-2785
목을	-2786
▁향해	-2787
▁그만	-2788
▁다가	-2789
▁사냥	-2790
▁없지만	-2791
▁집에	-2792
▁소재	-2793
▁아파	-2794
▁말았다	-2795
▁둔	-2796
▁th	-2797
▁상태에서	-2798
▁지금은	-2799
▁지니	-2800
온다	-2801
이와	-2802
▁범죄	-2803
락을	-2804
▁장기	-2805
▁쏘	-2806
▁자본	-2807
▁요청	-2808
▁내용을	-2809
▁소련	-2810
마가	-2811
▁대응	-2812
▁가치	-2813
▁구간	-2814
▁상황을	-2815
▁싸우	-2816
▁벤	-2817
▁희망	-2818
ack	-2819
▁특이	-2820
미를	-2821
▁그룹	-2822
▁희생	-2823
▁k	-2824
▁출전	-2825
방송	-2826
ER	-2827
▁싫어	-2828
▁그리스	-2829
▁에피소드	-2830
도와	-2831
▁전환	-2832
▁그에	-2833
▁이로	-2834
▁소리를	-2835
▁누가	-2836
▁존재한다	-2837
▁미리	-2838
▁공포	-2839
▁탈출	-2840
▁위협	-2841
11	-2842
▁핵심	-2843
▁의식	-2844
▁옵	-2845
▁분류	-2846
프로	-2847
우가	-2848
um	-2849
▁대사	-2850
▁29	-2851
▁삼성	-2852
격이	-2853
▁배틀	-2854
▁중간	-2855
▁쿨	-2856
▁포켓	-2857
▁보이지	-2858
▁관심을	-2859
▁만족	-2860
▁공부	-2861
▁저항	-2862
▁한국의	-2863
▁애초에	-2864
▁탱	-2865
▁맞는	-2866
▁비록	-2867
판을	-2868
지기	-2869
▁80	-2870
▁인류	-2871
임이	-2872
▁없어서	-2873
▁모른다	-2874
▁두려	-2875
▁말이다	-2876
▁택	-2877
▁언론	-2878
▁그럴	-2879
▁명의	-2880
▁바탕	-2881
▁했으나	-2882
▁사람들의	-2883
▁비중	-2884
제에	-2885
년의	-2886
▁점이	-2887
▁라는	-2888
부터는	-2889
▁장착	-2890
보를	-2891
▁원칙	-2892
세계	-2893
▁되는데	-2894
▁받아들	-2895
▁보여준다	-2896
다른	-2897
상에서	-2898
▁종종	-2899
▁평범	-2900
▁수익	-2901
▁그걸	-2902
▁케이	-2903
▁이들	-2904
▁대화	-2905
과를	-2906
▁아이돌	-2907
▁도전	-2908
▁무조건	-2909
▁듯하다	-2910
▁상처	-2911
▁능력이	-2912
▁배치	-2913
▁지급	-2914
▁콤	-2915
▁○	-2916
.5	-2917
▁튀	-2918
▁이후로	-2919
▁자세한	-2920
▁예술	-2921
물의	-2922
▁마무	-2923
▁이걸	-2924
▁공중	-2925
▁본격	-2926
▁이건	-2927
▁힐	-2928
▁대로	-2929
▁랜	-2930
▁거기에	-2931
▁썼	-2932
▁지닌	-2933
년이	-2934
▁힘든	-2935
양이	-2936
▁파티	-2937
▁표시	-2938
▁추천	-2939
▁싸움	-2940
▁2011	-2941
▁작용	-2942
▁단순히	-2943
▁롤	-2944
▁왔다	-2945
이버	-2946
ine	-2947
{{{	-2948
▁있었지만	-2949
▁결코	-2950
▁운행	-2951
일의	-2952
▁직후	-2953
지에서	-2954
▁낳	-2955
▁집단	-2956
▁우리나라	-2957
▁수상	-2958
▁Z	-2959
▁언어	-2960
트에	-2961
▁마음이	-2962
▁말할	-2963
▁벗어나	-2964
▁만화	-2965
이므로	-2966
주로	-2967
▁교체	-2968
▁스파	-2969
▁정당	-2970
▁아닐	-2971
▁지식	-2972
래도	-2973
나무	-2974
구는	-2975
▁촉	-2976
▁사회적	-2977
▁명칭	-2978
스티	-2979
관계	-2980
촬영	-2981
지요	-2982
하자면	-2983
됩니다	-2984
▁통해서	-2985
▁방문	-2986
▁부하	-2987
▁책을	-2988
▁바닥	-2989
▁걸어	-2990
▁거짓	-2991
장과	-2992
▁굳이	-2993
타로	-2994
▁기존의	-2995
▁이름은	-2996
▁못한다	-2997
▁관계를	-2998
방을	-2999
▁미사	-3000
▁어둠	-3001
▁시기	-3002
▁고민	-3003
스토	-3004
▁스포츠	-3005
▁했고	-3006
▁이쪽	-3007
▁필요하다	-3008
▁등장한	-3009
▁대비	-3010
▁창조	-3011
▁기계	-3012
▁도움을	-3013
였지만	-3014
os	-3015
▁원하는	-3016
▁아니었다	-3017
▁비롯한	-3018
▁몇몇	-3019
▁캠	-3020
크로	-3021
▁물어	-3022
▁가득	-3023
ce	-3024
▁멀리	-3025
▁무너	-3026
▁입고	-3027
12	-3028
▁말씀	-3029
▁열심히	-3030
▁방법을	-3031
▁도움이	-3032
▁싶어	-3033
▁실시	-3034
▁갈등	-3035
▁살고	-3036
▁힘이	-3037
ff	-3038
▁목숨	-3039
BC	-3040
▁기초	-3041
▁생각하는	-3042
▁앤	-3043
▁챙	-3044
력에	-3045
▁추측	-3046
▁설립	-3047
▁때에는	-3048
였으나	-3049
이브	-3050
▁그려	-3051
▁내부	-3052
▁봐도	-3053
▁다르다	-3054
▁이유가	-3055
▁얻어	-3056
▁기본적으로	-3057
▁광고	-3058
▁출발	-3059
▁사태	-3060
가에	-3061
▁훌륭	-3062
냐는	-3063
치지	-3064
전쟁	-3065
로서의	-3066
▁돌려	-3067
크가	-3068
▁연합	-3069
▁숫	-3070
▁곳에	-3071
▁포켓몬	-3072
▁최강	-3073
▁90	-3074
▁작성	-3075
▁떨어져	-3076
▁생각하면	-3077
되었으며	-3078
조를	-3079
▁철학	-3080
▁말은	-3081
▁베이	-3082
시고	-3083
자들	-3084
▁무한	-3085
▁흉	-3086
▁손에	-3087
아의	-3088
에게도	-3089
프가	-3090
▁덜	-3091
▁사람들을	-3092
▁혜	-3093
▁그야말로	-3094
▁점은	-3095
▁빼앗	-3096
▁70	-3097
▁제목	-3098
▁법률	-3099
▁올라가	-3100
all	-3101
명으로	-3102
이었고	-3103
▁살해	-3104
ap	-3105
▁그렇지	-3106
▁비난	-3107
▁받지	-3108
▁시전	-3109
▁깊은	-3110
연히	-3111
▁상태로	-3112
▁자체는	-3113
▁놓고	-3114
▁무리	-3115
▁뚫	-3116
▁어떠	-3117
▁단계	-3118
버린다	-3119
았고	-3120
▁시설	-3121
회에	-3122
15	-3123
▁뻔	-3124
▁개의	-3125
놓은	-3126
타가	-3127
▁섞	-3128
▁상위	-3129
터를	-3130
▁SK	-3131
▁늘어	-3132
▁됐	-3133
마를	-3134
▁차례	-3135
▁내에서	-3136
▁쏟	-3137
▁단지	-3138
▁대표적인	-3139
러가	-3140
권이	-3141
▁이기	-3142
세의	-3143
하고자	-3144
▁긍	-3145
규모	-3146
▁엉	-3147
th	-3148
▁린	-3149
▁충격	-3150
▁사용한다	-3151
▁데려	-3152
▁봤	-3153
문화	-3154
▁계산	-3155
▁놀라	-3156
▁맞춰	-3157
바로	-3158
▁둘러	-3159
▁않지만	-3160
▁워낙	-3161
▁서술	-3162
시킨다	-3163
▁떠올	-3164
▁주식	-3165
해진다	-3166
구에	-3167
▁ᆞ	-3168
용으로	-3169
▁{{{	-3170
면서도	-3171
▁반영	-3172
해졌다	-3173
▁그들이	-3174
함이	-3175
지라	-3176
▁촬영	-3177
▁텐	-3178
▁쥐	-3179
탄을	-3180
▁그녀가	-3181
워서	-3182
▁스테이지	-3183
▁전달	-3184
▁위로	-3185
▁복귀	-3186
▁숲	-3187
기술	-3188
▁차이	-3189
점에서	-3190
▁상호	-3191
가로	-3192
▁언제나	-3193
▁효율	-3194
▁타입	-3195
▁변신	-3196
▁아카	-3197
▁통일	-3198
▁머리를	-3199
ul	-3200
▁발휘	-3201
▁그러므로	-3202
▁얼굴을	-3203
▁오는	-3204
문학	-3205
졌고	-3206
▁거대한	-3207
▁붕	-3208
▁허용	-3209
▁되기	-3210
서가	-3211
텐츠	-3212
▁생겨	-3213
▁하나로	-3214
▁떡	-3215
▁내용은	-3216
▁유일하게	-3217
▁화면	-3218
▁일러	-3219
▁불리	-3220
만은	-3221
0000	-3222
▁31	-3223
일까	-3224
▁걷	-3225
▁보자	-3226
▁수입	-3227
▁투입	-3228
수도	-3229
단계	-3230
▁잡고	-3231
▁아무런	-3232
▁결승	-3233
▁자기가	-3234
▁음식	-3235
▁받는다	-3236
스테	-3237
기만	-3238
드와	-3239
▁개선	-3240
▁등장인물	-3241
▁공격력	-3242
▁웹	-3243
즈의	-3244
ter	-3245
까지도	-3246
▁붉은	-3247
▁증거	-3248
▁어렵다	-3249
정책	-3250
▁겨우	-3251
▁여름	-3252
▁의외로	-3253
iki	-3254
품을	-3255
▁조종	-3256
▁거쳐	-3257
질이	-3258
▁프레	-3259
시대	-3260
연구	-3261
▁신뢰	-3262
▁낫	-3263
▁로마	-3264
▁가게	-3265
▁묶	-3266
▁활동을	-3267
yle	-3268
▁찌	-3269
▁랭	-3270
▁대형	-3271
개로	-3272
▁삭제	-3273
▁생기	-3274
▁못할	-3275
▁떨어지	-3276
▁탓에	-3277
▁오르	-3278
키가	-3279
▁업무	-3280
▁표기	-3281
소가	-3282
▁빙	-3283
▁제기	-3284
▁심리	-3285
형이	-3286
▁중반	-3287
▁런	-3288
어는	-3289
나를	-3290
▁제외하면	-3291
ri	-3292
op	-3293
▁영역	-3294
▁꾸준	-3295
일은	-3296
▁이탈리아	-3297
쪽에	-3298
조가	-3299
하므로	-3300
▁본인의	-3301
▁헌법	-3302
▁운용	-3303
니스	-3304
ight	-3305
▁좁	-3306
▁다크	-3307
히고	-3308
▁도중	-3309
향을	-3310
▁먹는	-3311
▁무장	-3312
각을	-3313
▁갖추	-3314
▁없기	-3315
▁사실은	-3316
▁오늘날	-3317
▁흔히	-3318
▁그게	-3319
모를	-3320
▁사항	-3321
▁뒤로	-3322
▁모습으로	-3323
▁인사	-3324
▁아군	-3325
사람	-3326
▁안에서	-3327
▁외에도	-3328
▁디자인	-3329
▁장난	-3330
동이	-3331
▁때의	-3332
▁유튜브	-3333
▁합류	-3334
▁추진	-3335
▁클래	-3336
▁어쩌	-3337
▁삶을	-3338
▁최후	-3339
▁비교적	-3340
▁것이라는	-3341
크의	-3342
화는	-3343
▁다름	-3344
▁죽을	-3345
▁경기를	-3346
지면	-3347
리에서	-3348
르의	-3349
트라	-3350
▁공통	-3351
러스	-3352
▁카운	-3353
▁아니지만	-3354
▁어울	-3355
친다	-3356
▁그린	-3357
▁사상	-3358
국이	-3359
▁앉아	-3360
▁위에서	-3361
인들은	-3362
▁그렇다고	-3363
▁이름으로	-3364
▁확장	-3365
▁닥	-3366
wiki	-3367
▁종족	-3368
▁해주	-3369
▁둘째	-3370
키의	-3371
▁전기	-3372
▁자신에게	-3373
▁가깝	-3374
▁당장	-3375
▁살아남	-3376
▁틈	-3377
카와	-3378
▁상황에	-3379
방에	-3380
플레이	-3381
▁와서	-3382
▁붙어	-3383
뮤니	-3384
트와	-3385
▁행동을	-3386
▁닮	-3387
▁의미를	-3388
▁금융	-3389
▁기동	-3390
▁객	-3391
드에	-3392
▁특유의	-3393
관의	-3394
승을	-3395
mm	-3396
성으로	-3397
▁야구	-3398
호의	-3399
="	-3400
▁며	-3401
▁확실히	-3402
▁서비스	-3403
▁것인가	-3404
▁맞아	-3405
▁멘	-3406
oc	-3407
터가	-3408
▁봄	-3409
▁이루어	-3410
리자	-3411
▁균	-3412
▁나오지	-3413
▁구축	-3414
▁글을	-3415
▁부분이	-3416
▁사람들에게	-3417
▁교수	-3418
되어야	-3419
시켰다	-3420
▁하나가	-3421
▁신체	-3422
▁금지	-3423
▁상상	-3424
▁하더라도	-3425
▁포지션	-3426
40	-3427
대전	-3428
▁몰아	-3429
▁진입	-3430
아이	-3431
서의	-3432
회에서	-3433
▁분리	-3434
▁통한	-3435
▁의심	-3436
왕의	-3437
▁아쉬	-3438
▁프로젝	-3439
▁시작한	-3440
▁없게	-3441
▁그녀를	-3442
▁종합	-3443
▁조작	-3444
▁설득	-3445
-3	-3446
▁style	-3447
▁수용	-3448
ST	-3449
▁잉	-3450
미의	-3451
▁장애	-3452
km	-3453
▁것이고	-3454
▁달러	-3455
상태	-3456
der	-3457
▁매일	-3458
▁저녁	-3459
▁업그	-3460
▁일반적인	-3461
▁일이다	-3462
였는데	-3463
▁일어난	-3464
▁짧은	-3465
▁동일한	-3466
▁고대	-3467
답게	-3468
받고	-3469
▁킹	-3470
▁암살	-3471
▁겨울	-3472
▁정치적	-3473
거운	-3474
▁치명	-3475
▁건너	-3476
었다는	-3477
▁사기	-3478
하기로	-3479
▁에이	-3480
▁지정	-3481
▁통과	-3482
▁복잡	-3483
#!	-3484
사업	-3485
복을	-3486
▁주도	-3487
▁데이터	-3488
나와	-3489
▁은행	-3490
▁너무나	-3491
▁직원	-3492
▁파이	-3493
▁일반적으로	-3494
▁인천	-3495
스코	-3496
▁필수	-3497
▁감안	-3498
▁팀의	-3499
▁거두	-3500
▁밝혔다	-3501
체로	-3502
▁최대한	-3503
▁아직도	-3504
▁추구	-3505
▁최초의	-3506
▁선언	-3507
▁공급	-3508
▁기회를	-3509
료를	-3510
성도	-3511
▁카이	-3512
▁보험	-3513
▁킬	-3514
▁것이라	-3515
▁건담	-3516
▁전차	-3517
호는	-3518
하여야	-3519
▁흔들	-3520
▁사람도	-3521
▁집안	-3522
진의	-3523
▁마리	-3524
▁형태로	-3525
▁떼	-3526
▁LG	-3527
▁기념	-3528
▁전화	-3529
전은	-3530
로그	-3531
▁카메	-3532
독교	-3533
60	-3534
▁롯	-3535
▁나쁜	-3536
▁실질	-3537
▁작곡	-3538
▁행위	-3539
률이	-3540
물로	-3541
발을	-3542
▁마무리	-3543
사에서	-3544
▁철저	-3545
▁시행	-3546
▁관광	-3547
▁경우에	-3548
자들을	-3549
용한	-3550
▁자신은	-3551
▁부르는	-3552
다시	-3553
▁대결	-3554
개가	-3555
▁잠깐	-3556
▁된다는	-3557
▁궁극	-3558
스케	-3559
▁영원	-3560
트에서	-3561
▁수요	-3562
▁그만큼	-3563
공격	-3564
▁방해	-3565
▁장면이	-3566
기까지	-3567
ab	-3568
동생	-3569
▁되면서	-3570
▁그동안	-3571
님은	-3572
▁성적	-3573
▁긍정	-3574
▁거절	-3575
▁아무도	-3576
▁대기	-3577
▁도로	-3578
▁버그	-3579
.3	-3580
비의	-3581
▁그랬	-3582
▁최초로	-3583
로우	-3584
증을	-3585
▁기술을	-3586
▁켄	-3587
▁방식으로	-3588
▁패러	-3589
▁오버	-3590
뿐만	-3591
▁싱글	-3592
단에	-3593
고가	-3594
ie	-3595
회는	-3596
▁묵	-3597
▁커뮤니	-3598
그룹	-3599
▁옵션	-3600
▁보조	-3601
▁전사	-3602
▁나쁘	-3603
▁말한	-3604
▁잇	-3605
▁있으므로	-3606
▁그에게	-3607
▁의하여	-3608
론이	-3609
▁때부터	-3610
비는	-3611
▁제안	-3612
▁정규	-3613
기사	-3614
▁디지	-3615
▁말도	-3616
모가	-3617
라스	-3618
을까	-3619
▁보여주는	-3620
▁쉬운	-3621
인에게	-3622
▁대구	-3623
▁라이브	-3624
▁처음에는	-3625
▁진정한	-3626
관은	-3627
▁마음에	-3628
▁기울	-3629
▁온갖	-3630
▁무사	-3631
▁트위	-3632
▁뭔가	-3633
▁개그	-3634
▁시작한다	-3635
▁아키	-3636
▁195	-3637
▁회피	-3638
대표	-3639
▁이적	-3640
석을	-3641
18	-3642
▁기획	-3643
페이지	-3644
형의	-3645
▁일종의	-3646
▁정식	-3647
▁소리가	-3648
▁떨어진	-3649
▁이야기가	-3650
학을	-3651
▁청소	-3652
▁꼽	-3653
▁있음을	-3654
▁혐	-3655
리면서	-3656
▁웬	-3657
▁윌	-3658
은행	-3659
▁구입	-3660
▁셀	-3661
▁되며	-3662
▁디자	-3663
▁어쩔	-3664
▁못해	-3665
▁춤	-3666
▁요즘	-3667
겠습니다	-3668
▁문을	-3669
▁오후	-3670
▁흘러	-3671
▁멜	-3672
▁낭	-3673
▁전자	-3674
▁삶의	-3675
▁컨셉	-3676
▁록	-3677
▁Q	-3678
▁교통	-3679
▁어떠한	-3680
▁관심	-3681
▁생성	-3682
들이다	-3683
▁눈이	-3684
당의	-3685
습니까	-3686
▁발달	-3687
전으로	-3688
▁특별한	-3689
▁만다	-3690
▁가입	-3691
▁개최	-3692
▁선정	-3693
▁끝까지	-3694
▁시나	-3695
▁적의	-3696
25	-3697
인들의	-3698
▁하나는	-3699
▁마주	-3700
▁겹	-3701
▁연재	-3702
▁태양	-3703
일부터	-3704
분의	-3705
로드	-3706
버리는	-3707
▁턴	-3708
▁끝내	-3709
▁각성	-3710
▁바꿔	-3711
▁자리에	-3712
ill	-3713
▁의미가	-3714
▁평범한	-3715
▁때가	-3716
▁로봇	-3717
▁혼란	-3718
▁없었던	-3719
▁주목	-3720
와서	-3721
▁●	-3722
▁행사	-3723
인에	-3724
공을	-3725
▁소년	-3726
▁않기	-3727
▁이후에	-3728
▁오프	-3729
기간	-3730
▁들이	-3731
미는	-3732
▁아빠	-3733
▁미니	-3734
이상	-3735
▁시각	-3736
▁지상	-3737
▁Ch	-3738
▁i	-3739
▁채널	-3740
▁탈락	-3741
카가	-3742
표를	-3743
중한	-3744
▁보장	-3745
▁타격	-3746
었습니다	-3747
산의	-3748
▁위치한	-3749
▁193	-3750
▁고개를	-3751
▁모아	-3752
▁이전에	-3753
▁상대가	-3754
▁주문	-3755
▁바탕으로	-3756
▁밀어	-3757
르가	-3758
점에	-3759
▁범위	-3760
▁있었으나	-3761
▁{{{#!	-3762
▁2009	-3763
▁쏟아	-3764
수와	-3765
▁스크	-3766
▁알려져	-3767
▁무서	-3768
%,	-3769
▁조정	-3770
16	-3771
▁아무것도	-3772
산이	-3773
▁펀	-3774
았을	-3775
대에서	-3776
▁뜬	-3777
관리	-3778
▁들어오	-3779
량의	-3780
▁일러스트	-3781
민주	-3782
말을	-3783
▁옆에	-3784
▁값	-3785
▁감사	-3786
▁앙	-3787
▁쪽으로	-3788
▁인기	-3789
님을	-3790
▁본다	-3791
사건	-3792
리라	-3793
바이	-3794
▁크다	-3795
▁만들고	-3796
▁이하	-3797
▁점령	-3798
ra	-3799
▁병사	-3800
스에서	-3801
▁픽	-3802
▁내용이	-3803
▁패치	-3804
』,	-3805
▁on	-3806
▁타이틀	-3807
▁우려	-3808
iz	-3809
악의	-3810
▁잭	-3811
학적	-3812
▁자동차	-3813
▁사이의	-3814
▁강제	-3815
▁등록	-3816
▁나오고	-3817
병을	-3818
시마	-3819
▁극복	-3820
▁예전	-3821
▁세상을	-3822
▁내게	-3823
▁실행	-3824
▁나도	-3825
경제	-3826
▁근데	-3827
▁없으며	-3828
▁자살	-3829
▁제조	-3830
▁만들었다	-3831
▁시리즈의	-3832
힌다	-3833
이닝	-3834
▁4.	-3835
▁사실이	-3836
패를	-3837
▁하나를	-3838
▁제가	-3839
▁경기에서	-3840
▁꼴	-3841
▁성우는	-3842
▁아름다운	-3843
▁밸	-3844
▁인간이	-3845
한데	-3846
▁처음부터	-3847
.......	-3848
▁대립	-3849
▁어깨	-3850
시설	-3851
▁들어서	-3852
수에	-3853
▁가까이	-3854
▁사이에서	-3855
▁결과를	-3856
년간	-3857
▁당신이	-3858
▁블루	-3859
▁끝난	-3860
▁것이며	-3861
▁꽤나	-3862
당이	-3863
국을	-3864
▁가로	-3865
▁덮	-3866
▁네가	-3867
▁왜냐	-3868
▁늘어나	-3869
▁만에	-3870
▁탄생	-3871
의가	-3872
▁기독교	-3873
▁들었다	-3874
가락	-3875
▁가리	-3876
▁서서	-3877
판이	-3878
달라고	-3879
▁2,	-3880
▁방법이	-3881
▁덩	-3882
▁나아가	-3883
▁공략	-3884
▁이것을	-3885
▁2008	-3886
용이	-3887
▁트리	-3888
별로	-3889
▁살인	-3890
▁하드	-3891
▁모두가	-3892
▁포함한	-3893
▁생각하고	-3894
▁그와	-3895
▁카드를	-3896
하게도	-3897
▁부동	-3898
▁만들어진	-3899
▁상대적으로	-3900
우리	-3901
▁옛날	-3902
포를	-3903
라리	-3904
학의	-3905
▁등급	-3906
▁큐	-3907
▁당황	-3908
▁과연	-3909
▁보수	-3910
부에서	-3911
▁특성상	-3912
▁흰	-3913
▁아닌가	-3914
▁아스	-3915
ound	-3916
▁요리	-3917
하지는	-3918
렸고	-3919
▁막아	-3920
▁몸이	-3921
▁미친	-3922
▁타카	-3923
▁보상	-3924
▁만난	-3925
▁유도	-3926
거리는	-3927
▁역대	-3928
실에	-3929
개발	-3930
▁안타	-3931
▁섭	-3932
▁흐름	-3933
▁속도	-3934
▁근본	-3935
▁평가를	-3936
게도	-3937
▁문제로	-3938
▁주지	-3939
하기에	-3940
▁체력이	-3941
자들에게	-3942
▁줄어들	-3943
금이	-3944
▁한마	-3945
art	-3946
이었지만	-3947
▁하던	-3948
해져	-3949
▁이른	-3950
▁장갑	-3951
▁거주	-3952
▁편집	-3953
14	-3954
▁마르	-3955
께서	-3956
도시	-3957
원과	-3958
▁근무	-3959
▁곳에서	-3960
▁히어로	-3961
▁현상	-3962
란드	-3963
▁설계	-3964
▁마지막으로	-3965
▁해방	-3966
▁발언	-3967
▁대상으로	-3968
▁마침내	-3969
▁존재하는	-3970
우의	-3971
▁500	-3972
▁초대	-3973
-0	-3974
ont	-3975
▁영입	-3976
▁과정을	-3977
80	-3978
▁부른다	-3979
체에	-3980
▁차별	-3981
모토	-3982
▁의도	-3983
▁코스	-3984
▁간의	-3985
석이	-3986
▁그것도	-3987
▁세상	-3988
텔레	-3989
▁학습	-3990
▁갔다	-3991
▁모험	-3992
면을	-3993
▁맞고	-3994
▁롯데	-3995
다란	-3996
▁월드컵	-3997
▁도덕	-3998
트리	-3999
선수	-4000
그래	-4001
산업	-4002
이라서	-4003
▁아프리카	-4004
▁데리고	-4005
▁받게	-4006
▁후속	-4007
▁도쿄	-4008
▁들은	-4009
▁일상	-4010
▁다섯	-4011
▁평화	-4012
▁아시아	-4013
▁얻은	-4014
13	-4015
로도	-4016
▁악마	-4017
▁간다	-4018
▁이처럼	-4019
▁극장	-4020
▁수준의	-4021
▁있는지	-4022
어주	-4023
▁이들이	-4024
▁은퇴	-4025
일러	-4026
았지만	-4027
끼리	-4028
▁승리를	-4029
▁사건이	-4030
▁날려	-4031
가와	-4032
▁입을	-4033
▁열린	-4034
▁레드	-4035
내가	-4036
▁In	-4037
▁이용한	-4038
망을	-4039
▁귀족	-4040
용을	-4041
▁조심	-4042
식은	-4043
▁점이다	-4044
▁곁	-4045
치에	-4046
라우	-4047
▁선보	-4048
▁주었다	-4049
▁그렇다면	-4050
▁않으며	-4051
▁1990	-4052
시장	-4053
시다	-4054
▁꾸준히	-4055
▁be	-4056
▁탁	-4057
▁2002	-4058
▁공산	-4059
▁에서	-4060
▁여겨	-4061
년까지	-4062
▁여유	-4063
권에	-4064
해지는	-4065
▁점차	-4066
▁관계가	-4067
▁이제는	-4068
▁밟	-4069
▁진화	-4070
▁입은	-4071
▁아무래도	-4072
지면서	-4073
▁제압	-4074
라이더	-4075
▁35	-4076
▁모자	-4077
▁감정	-4078
ate	-4079
▁것인지	-4080
▁자녀	-4081
▁어쨌	-4082
▁첫째	-4083
▁증명	-4084
진은	-4085
▁기능을	-4086
▁중에서도	-4087
▁예측	-4088
pl	-4089
즈가	-4090
신은	-4091
림픽	-4092
▁속성	-4093
대와	-4094
▁실현	-4095
▁모티브	-4096
▁선배	-4097
▁지니고	-4098
긴다	-4099
AR	-4100
함에	-4101
▁컬	-4102
▁고등학교	-4103
드리	-4104
▁제외하고	-4105
▁2004	-4106
▁밖으로	-4107
▁서버	-4108
▁적어도	-4109
▁펜	-4110
▁재능	-4111
▁그러자	-4112
99	-4113
▁밀려	-4114
임에도	-4115
▁단순한	-4116
________	-4117
▁그다	-4118
gr	-4119
야마	-4120
로나	-4121
줬다	-4122
동의	-4123
▁이상한	-4124
보았다	-4125
라와	-4126
▁윈	-4127
우를	-4128
선에	-4129
프의	-4130
▁엄청나게	-4131
쳐서	-4132
선은	-4133
재를	-4134
▁계속해서	-4135
▁연장	-4136
이던	-4137
▁융	-4138
법은	-4139
류를	-4140
TV	-4141
이었으나	-4142
고등학교	-4143
▁파일	-4144
▁깎	-4145
▁이들의	-4146
▁보이고	-4147
▁들려	-4148
▁꺼내	-4149
카드	-4150
▁가고	-4151
▁=	-4152
▁같아	-4153
▁오리지	-4154
러운	-4155
▁꿈을	-4156
자도	-4157
르트	-4158
▁딱히	-4159
카의	-4160
▁공유	-4161
▁신청	-4162
▁변호	-4163
▁흡수	-4164
▁돌아오	-4165
크는	-4166
▁불편	-4167
▁에너지	-4168
▁당신의	-4169
▁닿	-4170
소의	-4171
해가	-4172
았는데	-4173
▁홈런	-4174
었으며	-4175
하였으며	-4176
▁파트	-4177
▁아나	-4178
▁정확히	-4179
▁뒤집	-4180
▁이사	-4181
▁많았다	-4182
▁내는	-4183
▁내에	-4184
▁훌륭한	-4185
▁중단	-4186
▁받아들이	-4187
▁현재의	-4188
년을	-4189
루가	-4190
▁심각한	-4191
생을	-4192
▁자가	-4193
되었던	-4194
량은	-4195
▁내내	-4196
▁그러면	-4197
▁2007	-4198
▁본인은	-4199
▁공화	-4200
▁임무	-4201
▁국회의	-4202
토가	-4203
▁즉시	-4204
▁2006	-4205
시브	-4206
▁게이	-4207
▁일에	-4208
코의	-4209
▁정체	-4210
하면서도	-4211
▁등은	-4212
▁당시의	-4213
▁생활을	-4214
▁다운	-4215
ss	-4216
▁떨어지는	-4217
▁통제	-4218
▁논란이	-4219
▁사랑을	-4220
역으로	-4221
타는	-4222
▁않았고	-4223
▁세월	-4224
▁거리	-4225
▁확대	-4226
▁할머니	-4227
▁일찍	-4228
요일	-4229
▁상대를	-4230
▁곳이	-4231
▁직전	-4232
▁오랫	-4233
▁되돌	-4234
으로서의	-4235
해서는	-4236
법이	-4237
▁끄	-4238
책을	-4239
▁어른	-4240
▁물러	-4241
▁재료	-4242
▁깨닫	-4243
▁나이트	-4244
즈를	-4245
▁스위	-4246
▁불리는	-4247
▁스코	-4248
▁걸려	-4249
▁민간	-4250
▁사과	-4251
▁몸에	-4252
▁란	-4253
▁자극	-4254
▁vs	-4255
▁팀이	-4256
▁건축	-4257
▁넘어가	-4258
관에	-4259
력도	-4260
▁먹을	-4261
으려	-4262
▁콩	-4263
▁르	-4264
조는	-4265
▁방법은	-4266
치기	-4267
레이션	-4268
▁눈치	-4269
▁세워	-4270
▁똑같은	-4271
었으나	-4272
▁도달	-4273
▁이래	-4274
▁왜냐하면	-4275
▁되자	-4276
▁붙잡	-4277
▁연주	-4278
▁32	-4279
▁이스	-4280
▁집을	-4281
였으며	-4282
▁조용	-4283
터의	-4284
문은	-4285
▁회의	-4286
▁사용한	-4287
▁의존	-4288
▁멸망	-4289
▁쓰지	-4290
▁신의	-4291
하러	-4292
▁화염	-4293
▁물을	-4294
▁계급	-4295
▁한다면	-4296
코가	-4297
▁저격	-4298
▁초월	-4299
▁외교	-4300
▁re	-4301
니가	-4302
▁방향으로	-4303
▁플래	-4304
구로	-4305
▁옮겨	-4306
▁PC	-4307
▁그럼에도	-4308
▁추가로	-4309
리온	-4310
▁찰	-4311
▁갤러	-4312
▁일도	-4313
▁황금	-4314
▁인기가	-4315
AN	-4316
▁데미지를	-4317
▁닌	-4318
레인	-4319
피아	-4320
cm	-4321
▁살짝	-4322
명한	-4323
17	-4324
키를	-4325
마트	-4326
▁이내	-4327
▁2005	-4328
▁조각	-4329
경이	-4330
▁화장	-4331
up	-4332
실이	-4333
모로	-4334
▁보급	-4335
판에	-4336
▁둘이	-4337
나다	-4338
▁정말로	-4339
▁바뀐	-4340
▁for	-4341
토를	-4342
때문에	-4343
정보	-4344
▁하다가	-4345
▁개혁	-4346
▁말로	-4347
서에	-4348
▁했을	-4349
▁알렉	-4350
렸을	-4351
▁상태가	-4352
▁정도는	-4353
실한	-4354
▁명이	-4355
~2	-4356
▁저는	-4357
사이	-4358
▁테러	-4359
▁익숙	-4360
▁II	-4361
▁대다	-4362
▁뱀	-4363
▁싶다	-4364
▁대놓고	-4365
▁갱	-4366
▁실천	-4367
되는데	-4368
면에	-4369
▁애매	-4370
▁엠	-4371
▁쇠	-4372
▁힘들다	-4373
았다고	-4374
율을	-4375
기에는	-4376
▁마케	-4377
화에서는	-4378
되기도	-4379
▁렌	-4380
▁미드	-4381
▁인지	-4382
▁근대	-4383
▁됐다	-4384
▁나타난	-4385
론의	-4386
▁외에	-4387
일로	-4388
▁유대	-4389
선거	-4390
원들이	-4391
▁들어가는	-4392
▁오랫동안	-4393
▁커다란	-4394
▁카페	-4395
▁FC	-4396
▁길이	-4397
▁공공	-4398
▁생물	-4399
▁교환	-4400
▁부대	-4401
ON	-4402
▁300	-4403
▁의무	-4404
▁모여	-4405
▁서양	-4406
에서만	-4407
▁황제	-4408
이든	-4409
▁댓	-4410
▁점프	-4411
너스	-4412
▁경계	-4413
▁샌	-4414
▁알려진	-4415
사항	-4416
▁세계를	-4417
왕이	-4418
▁상대의	-4419
▁걸로	-4420
▁동원	-4421
▁야마	-4422
▁붕괴	-4423
▁제도	-4424
▁적극적으로	-4425
▁선물	-4426
트롤	-4427
계획	-4428
과학	-4429
안이	-4430
▁오토	-4431
▁드디어	-4432
▁다행히	-4433
▁사격	-4434
실로	-4435
▁초반에	-4436
해주는	-4437
▁않아도	-4438
설을	-4439
차피	-4440
▁캡	-4441
▁서브	-4442
▁했다고	-4443
▁이슬	-4444
겠지	-4445
▁-1	-4446
▁넓은	-4447
▁보지	-4448
▁사람에게	-4449
정부	-4450
▁생각한다	-4451
▁수호	-4452
▁트레이	-4453
▁바뀌었다	-4454
회사	-4455
▁조금씩	-4456
▁목적으로	-4457
오가	-4458
▁족	-4459
방의	-4460
▁못하게	-4461
▁전술	-4462
▁대상이	-4463
섰다	-4464
역이	-4465
▁(	-4466
▁속도가	-4467
▁화려	-4468
▁약한	-4469
▁덧	-4470
▁부상	-4471
타임	-4472
씨가	-4473
▁브랜드	-4474
화와	-4475
▁결합	-4476
골을	-4477
▁선호	-4478
▁오직	-4479
으로도	-4480
▁없습니다	-4481
▁동맹	-4482
▁고향	-4483
▁깨달	-4484
▁형제	-4485
▁않아서	-4486
▁맞이	-4487
▁영업	-4488
▁통하여	-4489
▁옷을	-4490
▁지옥	-4491
▁댄	-4492
▁냄	-4493
▁소멸	-4494
리다	-4495
▁좀비	-4496
▁몹	-4497
▁많고	-4498
▁부족한	-4499
루를	-4500
▁죽이	-4501
▁타이밍	-4502
▁외부	-4503
되자	-4504
▁고속	-4505
▁물질	-4506
▁등등	-4507
▁말하면	-4508
ers	-4509
평가	-4510
▁아버지가	-4511
ia	-4512
▁고유	-4513
▁인구	-4514
▁캐릭터가	-4515
▁자는	-4516
▁노래를	-4517
▁오빠	-4518
▁태어	-4519
▁이후에는	-4520
민의	-4521
권은	-4522
가고	-4523
▁그다지	-4524
▁사쿠	-4525
▁규칙	-4526
▁it	-4527
▁텍	-4528
▁숨겨	-4529
▁동아	-4530
단은	-4531
▁대체로	-4532
▁무엇보다	-4533
▁중이다	-4534
거든	-4535
▁수출	-4536
보가	-4537
▁스카	-4538
동에	-4539
」,	-4540
▁분명히	-4541
▁옳	-4542
▁부분을	-4543
▁왼쪽	-4544
▁유래	-4545
▁관찰	-4546
시한	-4547
▁말하고	-4548
▁2003	-4549
만원	-4550
▁시나리오	-4551
가능	-4552
▁그렇지만	-4553
▁가수	-4554
ue	-4555
▁목숨을	-4556
▁필살	-4557
▁내지	-4558
▁오리지널	-4559
▁모습은	-4560
▁한마디	-4561
▁들여	-4562
▁데미지	-4563
▁중국의	-4564
▁충돌	-4565
속에	-4566
▁있을까	-4567
▁완료	-4568
▁무언	-4569
▁절반	-4570
▁들어간	-4571
으려고	-4572
던가	-4573
▁등과	-4574
▁스케	-4575
▁자식	-4576
당을	-4577
직을	-4578
▁온라인	-4579
▁오로	-4580
▁글로	-4581
▁발행	-4582
▁거라고	-4583
화로	-4584
▁동네	-4585
▁핸	-4586
▁벌어	-4587
▁단독	-4588
형은	-4589
예요	-4590
▁어느정도	-4591
▁마사	-4592
▁성립	-4593
프레	-4594
▁무기를	-4595
▁계획을	-4596
▁팩	-4597
▁운전	-4598
▁무엇을	-4599
▁지금도	-4600
ist	-4601
군에	-4602
▁광주	-4603
선으로	-4604
▁겉	-4605
▁그날	-4606
▁명확	-4607
▁그레이	-4608
▁자신들의	-4609
물에	-4610
tt	-4611
치와	-4612
▁논의	-4613
▁지나치게	-4614
▁기록했다	-4615
▁그들을	-4616
배를	-4617
색이	-4618
▁무렵	-4619
▁Re	-4620
▁페르	-4621
한국	-4622
리스트	-4623
▁한때	-4624
한의	-4625
▁스킬을	-4626
▁셈이다	-4627
소에	-4628
▁해당하는	-4629
▁삽	-4630
▁뚜	-4631
된다는	-4632
▁버티	-4633
▁죠	-4634
▁의미한다	-4635
▁치고	-4636
▁목록	-4637
▁부분은	-4638
▁인기를	-4639
차로	-4640
▁홈페이지	-4641
▁래	-4642
▁만일	-4643
▁대한민국의	-4644
스킬	-4645
토의	-4646
오의	-4647
아를	-4648
▁배신	-4649
▁원래는	-4650
▁기여	-4651
▁광역	-4652
으니까	-4653
▁노예	-4654
군요	-4655
▁거대	-4656
▁창작	-4657
기에서	-4658
▁펼쳐	-4659
담을	-4660
▁중요하다	-4661
되었는데	-4662
단으로	-4663
▁깜	-4664
▁신문	-4665
▁아이가	-4666
능력	-4667
▁사령	-4668
▁진영	-4669
~3	-4670
▁칭찬	-4671
:1	-4672
▁당신은	-4673
▁채용	-4674
▁방법으로	-4675
ore	-4676
격한	-4677
▁유전	-4678
▁돕	-4679
?'	-4680
타의	-4681
▁한참	-4682
스에게	-4683
▁만든다	-4684
크래	-4685
▁세계의	-4686
▁다니는	-4687
//	-4688
▁어차피	-4689
▁100%	-4690
▁속으로	-4691
란다	-4692
▁한계	-4693
ok	-4694
해보	-4695
티어	-4696
ant	-4697
▁45	-4698
▁뉴욕	-4699
▁팀을	-4700
▁me	-4701
그러	-4702
류가	-4703
▁뒤를	-4704
▁링크	-4705
▁원거리	-4706
▁명예	-4707
▁핑	-4708
마는	-4709
센터	-4710
것이	-4711
▁자체를	-4712
시와	-4713
소녀	-4714
ell	-4715
▁투표	-4716
▁KBS	-4717
▁아마도	-4718
▁할아버	-4719
▁하기도	-4720
48	-4721
▁무력	-4722
론은	-4723
▁하거나	-4724
▁은근	-4725
이었는데	-4726
▁사건을	-4727
거래	-4728
IN	-4729
▁대화를	-4730
▁없애	-4731
실에서	-4732
▁끊임	-4733
연이	-4734
▁멀티	-4735
▁않는다는	-4736
PC	-4737
▁시점에서	-4738
▁관심이	-4739
▁보여준	-4740
먹는	-4741
▁뜻을	-4742
ard	-4743
▁짝	-4744
▁근육	-4745
▁표준	-4746
▁협력	-4747
르기	-4748
악한	-4749
병이	-4750
▁아이를	-4751
▁이미지	-4752
▁일부러	-4753
사랑	-4754
▁됩니다	-4755
함과	-4756
▁예외	-4757
무원	-4758
▁플라	-4759
▁적도	-4760
▁게임의	-4761
▁하니	-4762
통을	-4763
직한	-4764
▁새벽	-4765
무라	-4766
고의	-4767
겠는가	-4768
▁뛰어나	-4769
기지	-4770
▁넘는	-4771
▁쓰레	-4772
▁낼	-4773
▁자원	-4774
▁그건	-4775
▁보며	-4776
위원회	-4777
시티	-4778
▁모른	-4779
교의	-4780
▁출판	-4781
▁선생님	-4782
▁개조	-4783
받아	-4784
▁돈이	-4785
오를	-4786
령을	-4787
▁들면	-4788
▁공을	-4789
리나	-4790
▁데이	-4791
▁게시	-4792
▁핀	-4793
▁is	-4794
ct	-4795
번에	-4796
▁수업	-4797
▁깃	-4798
▁이승	-4799
▁탑재	-4800
▁빚	-4801
▁노출	-4802
▁붙여	-4803
정과	-4804
하긴	-4805
없다	-4806
▁난이도	-4807
세는	-4808
▁집어	-4809
▁낸	-4810
▁체포	-4811
▁|	-4812
ew	-4813
령이	-4814
▁몰려	-4815
▁솔로	-4816
▁메시	-4817
▁개봉	-4818
▁곳으로	-4819
음은	-4820
▁스펙	-4821
거리가	-4822
▁걸쳐	-4823
▁얻는	-4824
▁버리고	-4825
▁후에는	-4826
▁채로	-4827
▁쥬	-4828
연을	-4829
▁당시에는	-4830
▁찾는	-4831
▁순식	-4832
▁생겼	-4833
▁화살	-4834
2,	-4835
▁2001	-4836
셨다	-4837
▁대장	-4838
▁옹	-4839
our	-4840
▁반응을	-4841
▁적응	-4842
▁코너	-4843
▁하락	-4844
▁않았던	-4845
▁이성	-4846
족의	-4847
▁더블	-4848
▁고급	-4849
▁적절한	-4850
▁투수	-4851
▁중간에	-4852
▁본편	-4853
아웃	-4854
▁대륙	-4855
......."	-4856
토리	-4857
마스	-4858
▁어째	-4859
AT	-4860
판의	-4861
프는	-4862
ith	-4863
▁게임이	-4864
▁HP	-4865
▁단체	-4866
소한	-4867
▁댓글	-4868
까지의	-4869
og	-4870
국은	-4871
▁가야	-4872
▁고용	-4873
▁관통	-4874
▁진지	-4875
▁나아	-4876
▁멈추	-4877
▁아웃	-4878
▁곧바로	-4879
▁보낸	-4880
든가	-4881
세에	-4882
.7	-4883
십시오	-4884
▁개인의	-4885
기인	-4886
▁독자	-4887
▁신규	-4888
있던	-4889
▁보도	-4890
▁혼자서	-4891
▁이중	-4892
▁인상	-4893
▁라디오	-4894
▁기분	-4895
▁브레이	-4896
▁믿고	-4897
▁넣어	-4898
▁조절	-4899
▁질문	-4900
▁연계	-4901
▁편이	-4902
▁이용하여	-4903
▁국가의	-4904
로소	-4905
▁경향이	-4906
▁...	-4907
▁재생	-4908
▁뽑아	-4909
인지라	-4910
▁빗	-4911
▁보았다	-4912
▁밸런	-4913
▁쓴다	-4914
▁반란	-4915
하에	-4916
▁집으로	-4917
▁지역의	-4918
였다고	-4919
▁고전	-4920
▁심한	-4921
운다	-4922
▁클럽	-4923
법에	-4924
▁r	-4925
▁가난	-4926
국에	-4927
▁지내	-4928
▁봉인	-4929
▁궤	-4930
이게	-4931
시키기	-4932
▁갓	-4933
▁낚	-4934
▁둥	-4935
▁같았다	-4936
▁대처	-4937
ding	-4938
▁시내	-4939
▁해군	-4940
▁달아	-4941
▁오른쪽	-4942
▁나름대로	-4943
▁언니	-4944
부와	-4945
하기는	-4946
▁임명	-4947
하려면	-4948
▁꺾	-4949
▁엔진	-4950
구려	-4951
▁첨	-4952
리적	-4953
▁사장	-4954
▁의해서	-4955
권에서	-4956
▁순식간에	-4957
▁훔	-4958
작을	-4959
▁자신과	-4960
▁압박	-4961
▁집에서	-4962
▁몰래	-4963
▁입학	-4964
▁컨트롤	-4965
▁쾌	-4966
▁어두	-4967
아는	-4968
▁타임	-4969
바닥	-4970
▁머물	-4971
▁삼국	-4972
▁이루어진	-4973
ity	-4974
쟁이	-4975
지며	-4976
▁식민	-4977
ast	-4978
줘야	-4979
하시	-4980
▁33	-4981
소리	-4982
--------	-4983
▁죽음을	-4984
▁신앙	-4985
▁안내	-4986
▁전형	-4987
과도	-4988
▁호텔	-4989
지자	-4990
이라며	-4991
색을	-4992
▁뼈	-4993
▁감염	-4994
▁얼굴이	-4995
90	-4996
▁돌파	-4997
▁당사	-4998
▁와중에	-4999
▁드라이	-5000
▁지속적으로	-5001
ない	-5002
▁취소	-5003
▁대규모	-5004
▁그렇다	-5005
▁없으면	-5006
▁권한	-5007
▁주력	-5008
▁마시	-5009
화되어	-5010
▁죽는	-5011
▁당해	-5012
▁수집	-5013
버리고	-5014
▁1980	-5015
▁구속	-5016
해지고	-5017
▁당한	-5018
▁확률이	-5019
▁파견	-5020
▁추가된	-5021
▁사유	-5022
▁원정	-5023
▁잠재	-5024
▁카오	-5025
▁체계	-5026
▁않도록	-5027
▁포인트	-5028
▁프로듀	-5029
인간	-5030
▁똑같이	-5031
물은	-5032
▁정도가	-5033
70	-5034
.4	-5035
▁본격적으로	-5036
▁착용	-5037
▁릴	-5038
▁No	-5039
▁보여주고	-5040
파의	-5041
짜리	-5042
▁크고	-5043
▁시기에	-5044
▁자리에서	-5045
▁때에	-5046
르지	-5047
▁이리	-5048
▁홍보	-5049
24	-5050
▁청년	-5051
▁고양	-5052
▁정신을	-5053
액을	-5054
▁태어나	-5055
▁때려	-5056
▁있었기	-5057
▁체험	-5058
▁된다고	-5059
▁풀어	-5060
▁어쨌든	-5061
연의	-5062
▁체육	-5063
▁물었다	-5064
심으로	-5065
▁느낄	-5066
▁형식	-5067
민이	-5068
▁커뮤니티	-5069
▁하위	-5070
▁세상에	-5071
느라	-5072
▁빠진	-5073
장한	-5074
▁구현	-5075
▁개편	-5076
if	-5077
로서는	-5078
받을	-5079
선에서	-5080
▁푸른	-5081
▁변화를	-5082
──	-5083
주의의	-5084
▁단일	-5085
네가	-5086
리트	-5087
▁스탠	-5088
당에	-5089
▁중의	-5090
▁보여주었다	-5091
▁주먹	-5092
▁레이저	-5093
▁무게	-5094
▁보게	-5095
하였으나	-5096
▁아니라는	-5097
▁외모	-5098
자고	-5099
▁포르	-5100
PS	-5101
▁던져	-5102
▁이뤄	-5103
▁캔	-5104
인들	-5105
국가	-5106
스트를	-5107
▁때문인지	-5108
-4	-5109
▁폭탄	-5110
://	-5111
▁아버지의	-5112
▁있는가	-5113
1,	-5114
▁라이트	-5115
▁돌아온	-5116
해졌	-5117
▁홍콩	-5118
ang	-5119
오고	-5120
▁생각할	-5121
▁유우	-5122
스트로	-5123
▁끔	-5124
▁페이	-5125
▁명중	-5126
드라	-5127
▁무엇인가	-5128
들에게는	-5129
▁되찾	-5130
▁나가는	-5131
▁보병	-5132
▁과거의	-5133
ove	-5134
▁어지	-5135
인인	-5136
급의	-5137
▁독특	-5138
▁모르고	-5139
법의	-5140
▁출현	-5141
▁세력	-5142
▁생겼다	-5143
▁대공	-5144
▁주택	-5145
▁재판	-5146
▁높이	-5147
▁마케팅	-5148
▁맡은	-5149
션을	-5150
루스	-5151
▁자신도	-5152
전에서는	-5153
▁형태의	-5154
터는	-5155
▁연애	-5156
종이	-5157
▁비하면	-5158
아니	-5159
ive	-5160
▁냄새	-5161
▁중에는	-5162
증이	-5163
▁무릎	-5164
▁Th	-5165
적의	-5166
▁덕에	-5167
▁개입	-5168
▁수준으로	-5169
▁사진을	-5170
▁혁명	-5171
▁정확한	-5172
▁괴롭	-5173
년도	-5174
▁절망	-5175
▁실제로는	-5176
▁가치를	-5177
▁버튼	-5178
▁넥	-5179
▁젖	-5180
▁대개	-5181
▁태어난	-5182
▁신고	-5183
▁텔레	-5184
▁처벌	-5185
▁코믹	-5186
ps	-5187
루의	-5188
▁눌	-5189
▁끈	-5190
?”	-5191
▁고백	-5192
소설	-5193
▁1000	-5194
▁적에게	-5195
▁도서	-5196
▁극단	-5197
형으로	-5198
ww	-5199
▁습격	-5200
었기	-5201
▁마나	-5202
▁떠오	-5203
림을	-5204
▁납치	-5205
▁패러디	-5206
주인	-5207
",	-5208
▁탑승	-5209
▁활약을	-5210
▁정부의	-5211
▁사랑하는	-5212
ee	-5213
▁계승	-5214
▁나타난다	-5215
▁느낌이	-5216
▁기업의	-5217
▁내세	-5218
▁차라리	-5219
▁무척	-5220
시하는	-5221
arg	-5222
▁지금의	-5223
▁성향	-5224
▁다를	-5225
▁테이	-5226
▁맘	-5227
▁어디까지	-5228
교를	-5229
경에	-5230
▁으로	-5231
▁스킨	-5232
주지	-5233
▁클리	-5234
▁수십	-5235
하라고	-5236
▁주인공이	-5237
▁무의	-5238
▁히트	-5239
▁손으로	-5240
했다가	-5241
▁춘	-5242
▁오오	-5243
▁순수	-5244
▁위치를	-5245
▁올리	-5246
▁검사	-5247
って	-5248
▁처치	-5249
세이	-5250
▁이득	-5251
▁정글	-5252
스포	-5253
▁듀얼	-5254
▁업그레이드	-5255
▁않았지만	-5256
연합	-5257
▁유행	-5258
▁가볍	-5259
▁통신	-5260
▁화가	-5261
▁전체적으로	-5262
▁나타나는	-5263
▁갖는	-5264
▁셰	-5265
▁듯이	-5266
▁으	-5267
제와	-5268
▁추정된다	-5269
▁의견이	-5270
재가	-5271
▁요시	-5272
▁보일	-5273
▁기본적인	-5274
▁레전	-5275
▁나오는데	-5276
▁들을	-5277
▁편의	-5278
▁본질	-5279
석은	-5280
22	-5281
내기	-5282
등을	-5283
까지만	-5284
▁커버	-5285
관으로	-5286
▁아우	-5287
자마자	-5288
▁박살	-5289
▁작동	-5290
렇게	-5291
▁남겨	-5292
▁컨텐츠	-5293
▁느낀	-5294
▁역전	-5295
▁기절	-5296
역시	-5297
▁back	-5298
▁닫	-5299
▁그러니까	-5300
▁이후의	-5301
▁도움	-5302
음에	-5303
▁좌우	-5304
▁찾을	-5305
▁회사의	-5306
▁싸우는	-5307
▁있었다고	-5308
영이	-5309
▁빵	-5310
▁드물	-5311
▁부동산	-5312
▁구별	-5313
ld	-5314
▁보컬	-5315
길을	-5316
▁36	-5317
▁살려	-5318
▁관객	-5319
▁젠	-5320
리안	-5321
▁절대로	-5322
▁두번째	-5323
▁무난	-5324
▁샘	-5325
군과	-5326
▁최악의	-5327
▁곰	-5328
▁용병	-5329
▁등에서	-5330
▁적합	-5331
▁방송을	-5332
방이	-5333
▁존재하지	-5334
▁수사	-5335
▁멍	-5336
▁플레이어가	-5337
▁한글	-5338
,#	-5339
▁넷	-5340
▁빨간	-5341
▁맞지	-5342
야만	-5343
▁쉽다	-5344
▁그런지	-5345
▁MBC	-5346
▁입장에서는	-5347
주의적	-5348
▁장점	-5349
▁거듭	-5350
▁일치	-5351
adi	-5352
▁1998	-5353
▁향상	-5354
▁수리	-5355
▁폼	-5356
ly	-5357
▁이들을	-5358
▁참석	-5359
▁자세히	-5360
카를	-5361
▁이름의	-5362
▁활성	-5363
▁사회의	-5364
ust	-5365
▁구해	-5366
▁의료	-5367
▁없었고	-5368
▁작전	-5369
▁190	-5370
▁해체	-5371
고속	-5372
어와	-5373
▁연상	-5374
▁전쟁을	-5375
▁클로	-5376
식에	-5377
▁하나인	-5378
했는지	-5379
마을	-5380
▁제법	-5381
▁며칠	-5382
▁불명	-5383
집을	-5384
▁성격이	-5385
▁뭘	-5386
▁시키	-5387
▁시간에	-5388
▁1999	-5389
▁스페인	-5390
▁좋을	-5391
▁안습	-5392
▁스탯	-5393
▁5.	-5394
▁이슬람	-5395
▁홀로	-5396
즈는	-5397
▁널리	-5398
자리	-5399
심한	-5400
▁책임을	-5401
치며	-5402
▁쿄	-5403
▁감정을	-5404
▁교회	-5405
▁만났	-5406
▁다수	-5407
▁그들	-5408
▁버프	-5409
▁서포	-5410
▁개별	-5411
내며	-5412
▁기체	-5413
보험	-5414
ort	-5415
▁EX	-5416
제한	-5417
▁누구나	-5418
평을	-5419
▁영상을	-5420
▁소득	-5421
시간이	-5422
ind	-5423
▁해설	-5424
경의	-5425
▁무역	-5426
▁강하게	-5427
▁그로	-5428
▁남북	-5429
마저도	-5430
스런	-5431
▁다리	-5432
▁불법	-5433
더라	-5434
머리	-5435
▁전후	-5436
▁걸린	-5437
▁끌고	-5438
▁or	-5439
▁가을	-5440
장인	-5441
당하고	-5442
▁나라의	-5443
▁실력	-5444
▁드러나	-5445
계약	-5446
▁의지	-5447
▁버려	-5448
▁거리가	-5449
▁차를	-5450
▁다음에	-5451
▁무대	-5452
▁내놓	-5453
▁대항	-5454
▁주기	-5455
▁매달	-5456
▁언젠	-5457
▁메가	-5458
판에서는	-5459
시피	-5460
소는	-5461
▁덴	-5462
주에	-5463
▁올림픽	-5464
▁기도	-5465
▁시야	-5466
▁너희	-5467
▁잘못된	-5468
▁폰	-5469
차는	-5470
▁신이	-5471
▁고생	-5472
도우	-5473
▁혹시	-5474
▁있다가	-5475
▁위대한	-5476
▁나면	-5477
▁드는	-5478
▁첫번째	-5479
▁죽여	-5480
▁경제적	-5481
▁커피	-5482
▁시대의	-5483
▁소화	-5484
▁말하자면	-5485
▁있긴	-5486
▁아이템을	-5487
▁되어서	-5488
▁있어도	-5489
▁이날	-5490
▁가만	-5491
▁정착	-5492
적은	-5493
성한	-5494
▁썩	-5495
▁넌	-5496
▁에어	-5497
▁안되는	-5498
se	-5499
IC	-5500
▁불을	-5501
의로	-5502
▁소울	-5503
▁잃어버	-5504
▁아니라고	-5505
▁확률로	-5506
세트	-5507
▁매출	-5508
▁섹	-5509
씨는	-5510
▁신용	-5511
▁인간은	-5512
카는	-5513
지않	-5514
▁무관	-5515
▁1997	-5516
▁사실이다	-5517
▁웅	-5518
되었을	-5519
▁갇	-5520
▁보이며	-5521
▁한동안	-5522
▁철도	-5523
전사	-5524
일까지	-5525
금의	-5526
▁구멍	-5527
▁당선	-5528
할때	-5529
▁템	-5530
▁데스	-5531
▁낮아	-5532
▁사용하면	-5533
▁역으로	-5534
코는	-5535
▁제로	-5536
▁경기도	-5537
▁접촉	-5538
▁공주	-5539
IA	-5540
▁인하여	-5541
▁룰	-5542
▁한쪽	-5543
▁마이크	-5544
▁괜찮은	-5545
▁험	-5546
▁미안	-5547
▁BG	-5548
▁것만	-5549
끄러	-5550
▁일으키	-5551
ub	-5552
라기	-5553
▁쓰면	-5554
▁htt	-5555
▁제주	-5556
▁아라	-5557
▁막을	-5558
▁연예	-5559
과정	-5560
▁내리	-5561
▁추가되었다	-5562
▁의견을	-5563
▁골드	-5564
▁따뜻	-5565
조리	-5566
▁목소리가	-5567
▁위원	-5568
▁부딪	-5569
▁던전	-5570
▁경비	-5571
▁부드	-5572
▁눈물을	-5573
▁비중이	-5574
▁바르	-5575
▁위험한	-5576
▁시켜	-5577
망이	-5578
▁50%	-5579
▁화를	-5580
▁위기에	-5581
ere	-5582
판은	-5583
▁끝나고	-5584
▁단점	-5585
▁생각했다	-5586
보단	-5587
▁모으	-5588
▁마녀	-5589
▁성격을	-5590
▁지역에	-5591
파를	-5592
▁전화를	-5593
미터	-5594
▁세트	-5595
▁넘겨	-5596
▁카즈	-5597
▁인공	-5598
▁엮	-5599
하기가	-5600
▁로켓	-5601
▁쉽지	-5602
▁해제	-5603
▁물고	-5604
▁신기	-5605
▁복수	-5606
▁이다	-5607
▁활발	-5608
▁라이벌	-5609
받았다	-5610
면으로	-5611
조직	-5612
▁감옥	-5613
된다고	-5614
▁버렸다	-5615
.,	-5616
▁지혜	-5617
▁집행	-5618
▁쓰러뜨	-5619
타이	-5620
▁딜러	-5621
▁연락	-5622
▁연관	-5623
▁유용	-5624
▁느꼈	-5625
▁외국인	-5626
▁강요	-5627
▁성인	-5628
▁재정	-5629
▁2021	-5630
one	-5631
ain	-5632
▁이유를	-5633
▁보인	-5634
▁나에게	-5635
▁제출	-5636
▁전문가	-5637
▁중인	-5638
▁아가	-5639
▁판타	-5640
▁작품의	-5641
▁얼음	-5642
▁객관	-5643
▁베르	-5644
▁사정	-5645
양을	-5646
▁하얀	-5647
▁인수	-5648
실의	-5649
▁공격이	-5650
▁채택	-5651
▁육군	-5652
▁술을	-5653
에서부터	-5654
▁대학교	-5655
▁드립	-5656
▁방패	-5657
▁부인	-5658
▁테마	-5659
▁현지	-5660
▁문제에	-5661
▁끊임없이	-5662
▁입장에서	-5663
▁아파트	-5664
▁이전의	-5665
▁You	-5666
버리	-5667
영의	-5668
▁물건을	-5669
▁부진	-5670
▁수학	-5671
▁랜덤	-5672
안에	-5673
지방	-5674
▁갖게	-5675
하기를	-5676
▁속의	-5677
건을	-5678
▁궁금	-5679
▁착각	-5680
스턴	-5681
냐며	-5682
▁불가능하다	-5683
▁없는데	-5684
서로	-5685
▁끌려	-5686
보기	-5687
▁남녀	-5688
▁맞게	-5689
▁한데	-5690
▁패시브	-5691
았다는	-5692
▁기억을	-5693
▁그러다	-5694
▁찾아가	-5695
디아	-5696
▁견제	-5697
▁써서	-5698
▁어릴	-5699
했었다	-5700
▁늑	-5701
▁추락	-5702
▁어쩌면	-5703
▁자연스럽게	-5704
▁크리	-5705
크래프트	-5706
▁목표를	-5707
▁무료	-5708
당히	-5709
▁일시	-5710
속도	-5711
▁쫓아	-5712
▁깊이	-5713
로스	-5714
▁동의	-5715
▁난이도가	-5716
▁달린	-5717
??	-5718
▁장식	-5719
▁평생	-5720
▁해금	-5721
해질	-5722
지컬	-5723
욕을	-5724
트남	-5725
▁가치가	-5726
▁대부분이	-5727
▁오리	-5728
▁잃은	-5729
▁일방	-5730
━━	-5731
보며	-5732
▁피아	-5733
▁단어	-5734
ry	-5735
▁카르	-5736
주었다	-5737
구와	-5738
▁38	-5739
▁열어	-5740
▁스승	-5741
▁마법사	-5742
▁지명	-5743
▁뉴스	-5744
어지지	-5745
▁비슷하게	-5746
부장	-5747
조차도	-5748
렸던	-5749
▁이른바	-5750
▁이번에는	-5751
작의	-5752
▁새롭게	-5753
▁잡는	-5754
소에서	-5755
▁때문이었다	-5756
▁두려워	-5757
▁분위기를	-5758
되었다고	-5759
▁내의	-5760
▁쓰이는	-5761
▁불꽃	-5762
▁여러가지	-5763
▁백성	-5764
▁조준	-5765
LC	-5766
▁사람들도	-5767
션이	-5768
격으로	-5769
▁위반	-5770
▁헛	-5771
▁팀은	-5772
▁디지털	-5773
▁롱	-5774
▁작품을	-5775
미널	-5776
스탄	-5777
OR	-5778
▁다루는	-5779
르를	-5780
▁이해할	-5781
▁10%	-5782
작이	-5783
▁개방	-5784
▁로드	-5785
조선	-5786
▁디스	-5787
▁조성	-5788
만으로도	-5789
야의	-5790
▁줄어	-5791
버려	-5792
것을	-5793
저히	-5794
▁마지막에	-5795
▁잃고	-5796
교통	-5797
▁나이가	-5798
▁오프닝	-5799
▁연방	-5800
▁여동생	-5801
▁다음날	-5802
▁좀더	-5803
▁원인	-5804
.6	-5805
▁검색	-5806
▁아메	-5807
리아의	-5808
▁1)	-5809
율은	-5810
로로	-5811
미와	-5812
▁기운	-5813
!'	-5814
▁경기가	-5815
▁오스	-5816
언이	-5817
▁어린이	-5818
▁사이가	-5819
당은	-5820
▁기회	-5821
▁죽어	-5822
단체	-5823
▁3,	-5824
▁여러분	-5825
▁이거	-5826
▁아들이	-5827
주의를	-5828
환이	-5829
▁박사	-5830
▁기능이	-5831
트워	-5832
▁지나지	-5833
드에서	-5834
ll	-5835
▁만날	-5836
▁맡고	-5837
▁폐지	-5838
▁벼	-5839
▁보편	-5840
▁확인할	-5841
▁변형	-5842
▁대략	-5843
▁스프	-5844
▁테크	-5845
▁시달	-5846
▁돌진	-5847
당하는	-5848
▁하여금	-5849
out	-5850
▁힘으로	-5851
▁얘기를	-5852
▁했다는	-5853
산은	-5854
▁있었으며	-5855
▁보라	-5856
▁제국의	-5857
비에	-5858
▁간주	-5859
▁태도를	-5860
세로	-5861
▁트레	-5862
▁대폭	-5863
▁전부터	-5864
상과	-5865
겠어	-5866
▁이후에도	-5867
▁전에는	-5868
▁추적	-5869
전한	-5870
해의	-5871
▁기어	-5872
ure	-5873
기능	-5874
▁정부는	-5875
유를	-5876
제도	-5877
키와	-5878
다니는	-5879
▁패치로	-5880
▁당연한	-5881
▁지어	-5882
▁카운터	-5883
▁특성을	-5884
▁최상	-5885
▁곳은	-5886
▁료	-5887
니의	-5888
▁듣는	-5889
▁기원	-5890
▁즈	-5891
▁하느	-5892
았으나	-5893
▁가졌	-5894
종을	-5895
차에	-5896
▁키워	-5897
▁쳐다	-5898
▁간접	-5899
▁의원	-5900
▁기록을	-5901
▁스마트	-5902
름을	-5903
▁뭉	-5904
컨대	-5905
▁곳을	-5906
▁암흑	-5907
▁모를	-5908
▁일제	-5909
▁신분	-5910
베르	-5911
▁갑옷	-5912
▁★	-5913
▁이후로는	-5914
AM	-5915
▁평가가	-5916
▁인근	-5917
안타	-5918
▁선수가	-5919
만큼은	-5920
되었으나	-5921
▁분위기	-5922
▁쪽이	-5923
▁일정한	-5924
약한	-5925
▁Sh	-5926
▁아버지는	-5927
▁세이	-5928
활동	-5929
▁적대	-5930
▁갈아	-5931
▁소위	-5932
▁어머니가	-5933
▁어떻게든	-5934
▁음식을	-5935
▁성능이	-5936
▁입장을	-5937
경찰	-5938
▁것보다	-5939
▁포인	-5940
▁이상으로	-5941
▁거리를	-5942
▁돌격	-5943
관계를	-5944
▁무덤	-5945
▁학살	-5946
23	-5947
사인	-5948
▁판결	-5949
주면	-5950
▁불가능한	-5951
ground	-5952
자나	-5953
▁회전	-5954
▁있었을	-5955
▁기술이	-5956
금은	-5957
▁맡았다	-5958
▁효과는	-5959
are	-5960
특별	-5961
렬한	-5962
▁넣고	-5963
▁폭풍	-5964
▁파트너	-5965
▁150	-5966
달러	-5967
▁이혼	-5968
▁법칙	-5969
▁떡밥	-5970
▁중학교	-5971
▁쓰기	-5972
▁의뢰	-5973
▁응원	-5974
▁상업	-5975
▁유치	-5976
▁소식을	-5977
▁마구	-5978
▁되지만	-5979
▁이상을	-5980
연한	-5981
500	-5982
▁가격이	-5983
▁데미지가	-5984
▁파란	-5985
▁왠	-5986
▁공항	-5987
▁에스	-5988
▁이웃	-5989
▁국민의	-5990
▁갈수록	-5991
▁친구가	-5992
▁주변에	-5993
환을	-5994
투를	-5995
품이	-5996
▁지향	-5997
▁이끌어	-5998
▁감각	-5999
▁차가	-6000
▁횡	-6001
▁영국의	-6002
명에	-6003
시절	-6004
▁괴물	-6005
▁들어갈	-6006
▁1995	-6007
공이	-6008
역에서	-6009
▁채워	-6010
공의	-6011
률을	-6012
▁결과가	-6013
▁잡을	-6014
▁본인도	-6015
▁유사한	-6016
▁불행	-6017
▁겐	-6018
▁가르쳐	-6019
▁내고	-6020
▁뮤직	-6021
▁가라	-6022
▁없다면	-6023
안의	-6024
▁빛을	-6025
▁있기에	-6026
▁퓨	-6027
일보	-6028
▁취득	-6029
▁정부가	-6030
▁도중에	-6031
효과	-6032
ect	-6033
▁사용하고	-6034
▁네이버	-6035
▁손가락	-6036
▁오픈	-6037
▁방에	-6038
▁검토	-6039
▁덧붙	-6040
com	-6041
▁여러모로	-6042
▁들어온	-6043
▁유키	-6044
크라	-6045
▁버린	-6046
II	-6047
사카	-6048
▁김성	-6049
▁경험을	-6050
▁새끼	-6051
▁다룬	-6052
미야	-6053
▁바깥	-6054
이었다고	-6055
▁그러니	-6056
▁하나도	-6057
라엘	-6058
본다	-6059
▁권력	-6060
iv	-6061
봐야	-6062
시스	-6063
▁거울	-6064
▁에이스	-6065
▁경상	-6066
마리	-6067
▁측정	-6068
▁즐거	-6069
류의	-6070
▁맞은	-6071
생의	-6072
▁귀여	-6073
▁금방	-6074
▁스폰	-6075
OS	-6076
역의	-6077
산에	-6078
▁전까지	-6079
▁크레	-6080
발이	-6081
▁나와서	-6082
널티	-6083
▁임시	-6084
파가	-6085
▁되었다고	-6086
▁아쉽	-6087
.8	-6088
현이	-6089
▁면에서	-6090
하라는	-6091
▁뻗	-6092
들과는	-6093
▁이익을	-6094
스팅	-6095
▁나눠	-6096
▁감독이	-6097
▁이념	-6098
모리	-6099
▁유통	-6100
▁지하철	-6101
영을	-6102
▁다스	-6103
▁작가의	-6104
▁대리	-6105
▁부서	-6106
부대	-6107
▁튀어나	-6108
95	-6109
▁돋	-6110
▁한국어	-6111
▁1/	-6112
▁구체적인	-6113
▁짤	-6114
▁우연히	-6115
▁아이들이	-6116
▁기습	-6117
▁이쪽은	-6118
est	-6119
전과	-6120
색으로	-6121
▁피를	-6122
고한	-6123
▁유저들이	-6124
둥이	-6125
▁소수	-6126
소로	-6127
▁거기서	-6128
다이	-6129
구조	-6130
▁명을	-6131
ize	-6132
▁합리	-6133
adding	-6134
역에	-6135
▁매니	-6136
▁거기다	-6137
▁종류의	-6138
린이	-6139
민족	-6140
▁어디까지나	-6141
▁컸	-6142
▁강의	-6143
▁꽂	-6144
학자	-6145
디언	-6146
▁능력은	-6147
▁없던	-6148
▁할지	-6149
▁부터	-6150
▁기회가	-6151
인들을	-6152
석에	-6153
당할	-6154
침을	-6155
▁2)	-6156
line	-6157
ess	-6158
▁유명하다	-6159
박을	-6160
▁학생들이	-6161
▁발생하는	-6162
▁아오	-6163
ip	-6164
일에는	-6165
▁전체를	-6166
▁코로나	-6167
▁저작	-6168
대장	-6169
대체	-6170
도에서	-6171
하더라도	-6172
이트를	-6173
▁일어나는	-6174
▁사이트	-6175
▁훗	-6176
았습니다	-6177
▁늙	-6178
▁등장했다	-6179
였을	-6180
였기	-6181
▁진보	-6182
TA	-6183
미니	-6184
▁했으며	-6185
▁정지	-6186
▁간혹	-6187
▁움직이는	-6188
▁갖춘	-6189
▁땐	-6190
오프	-6191
▁회원	-6192
▁잦	-6193
▁셋째	-6194
역은	-6195
▁요새	-6196
단과	-6197
비스	-6198
▁최후의	-6199
▁센터	-6200
▁짓을	-6201
▁출처	-6202
▁기반으로	-6203
▁이상이	-6204
▁닉	-6205
▁동양	-6206
▁아사	-6207
▁두드	-6208
▁머리가	-6209
되었지만	-6210
파이어	-6211
▁나뉘	-6212
▁수치	-6213
ea	-6214
▁햇	-6215
메이	-6216
▁좋게	-6217
▁어려워	-6218
▁바보	-6219
▁my	-6220
로워	-6221
▁결과는	-6222
▁특이한	-6223
▁있었다는	-6224
▁보관	-6225
▁없으니	-6226
니와	-6227
▁저장	-6228
하를	-6229
▁근처에	-6230
매를	-6231
▁셔	-6232
▁34	-6233
▁아닐까	-6234
▁분위기가	-6235
▁자꾸	-6236
▁스타일	-6237
▁아야	-6238
▁숭	-6239
▁랩	-6240
▁역사를	-6241
하이	-6242
▁다들	-6243
신으로	-6244
▁예수	-6245
▁이어지는	-6246
▁장수	-6247
▁이끌고	-6248
▁합쳐	-6249
▁AP	-6250
▁등판	-6251
정치	-6252
▁뜯	-6253
▁봐야	-6254
네요	-6255
▁겁니다	-6256
▁스트레	-6257
▁■	-6258
▁찢	-6259
호선	-6260
▁하필	-6261
령의	-6262
▁죽고	-6263
▁놓은	-6264
▁고양이	-6265
고로	-6266
에다	-6267
되었다는	-6268
▁발생한	-6269
▁예비	-6270
▁켜	-6271
데미	-6272
▁것인데	-6273
▁불교	-6274
지원	-6275
▁매년	-6276
영은	-6277
▁빠져나	-6278
▁교과	-6279
등급	-6280
사하는	-6281
▁가면라이더	-6282
▁만남	-6283
▁받아들여	-6284
▁합의	-6285
▁무효	-6286
▁의미로	-6287
▁소프트	-6288
▁가지는	-6289
VE	-6290
▁콤보	-6291
먼트	-6292
▁Sp	-6293
▁아저	-6294
▁공격력이	-6295
되게	-6296
▁지불	-6297
▁전투를	-6298
세한	-6299
무기	-6300
▁과거에	-6301
▁만들기	-6302
▁프로토	-6303
▁전시	-6304
▁정확하게	-6305
▁인간을	-6306
▁천천	-6307
▁고구려	-6308
▁카나	-6309
▁북미	-6310
▁캐릭터를	-6311
▁대충	-6312
면에서	-6313
▁드랍	-6314
▁권총	-6315
▁모바	-6316
▁안으로	-6317
▁외에는	-6318
▁흠	-6319
▁경우에도	-6320
▁약간의	-6321
▁독특한	-6322
▁어리	-6323
히지	-6324
▁역사적	-6325
▁비상	-6326
ong	-6327
▁관계로	-6328
▁트위터	-6329
▁난다	-6330
링을	-6331
▁성과	-6332
▁또다시	-6333
▁막기	-6334
▁똑같	-6335
▁존재를	-6336
화한	-6337
내지	-6338
했다면	-6339
▁padding	-6340
▁변화가	-6341
▁우승을	-6342
▁구출	-6343
▁대량	-6344
▁연극	-6345
▁확진	-6346
고자	-6347
▁층	-6348
▁전형적인	-6349
묘한	-6350
▁기쁨	-6351
:0	-6352
되지만	-6353
▁비로소	-6354
▁있었습니다	-6355
▁보면서	-6356
▁별다른	-6357
▁감시	-6358
▁나루	-6359
▁땅을	-6360
▁메이저	-6361
톨릭	-6362
▁프로젝트	-6363
▁만나게	-6364
하가	-6365
▁사람과	-6366
석의	-6367
▁많아서	-6368
play	-6369
▁격파	-6370
▁생각보다	-6371
▁오해	-6372
▁챙겨	-6373
▁미나	-6374
▁background	-6375
▁수련	-6376
▁통치	-6377
▁부각	-6378
▁느낌을	-6379
▁김영	-6380
▁좋고	-6381
▁메탈	-6382
▁팽	-6383
▁반응이	-6384
▁성공한	-6385
대회	-6386
▁실력을	-6387
으러	-6388
▁사전	-6389
▁정복	-6390
킨다	-6391
편의	-6392
▁캐릭터의	-6393
▁SP	-6394
디가	-6395
▁발을	-6396
▁장면을	-6397
▁액션	-6398
▁레인	-6399
현의	-6400
종은	-6401
▁언급한	-6402
▁넘어서	-6403
▁이집	-6404
▁단단	-6405
▁집착	-6406
방에서	-6407
EC	-6408
하하	-6409
▁벌써	-6410
▁호흡	-6411
▁MP	-6412
▁천천히	-6413
▁기분이	-6414
비와	-6415
켰다	-6416
▁까다	-6417
▁사건의	-6418
▁횟	-6419
졌을	-6420
▁낯	-6421
▁카드가	-6422
▁몰랐	-6423
▁정도다	-6424
▁합격	-6425
▁가깝다	-6426
▁멕	-6427
있게	-6428
▁가질	-6429
▁PS	-6430
니어	-6431
리도	-6432
▁마라	-6433
▁성능을	-6434
▁NPC	-6435
▁교사	-6436
색의	-6437
중의	-6438
age	-6439
▁부를	-6440
▁총을	-6441
▁크루	-6442
▁이루어져	-6443
자동	-6444
▁치는	-6445
▁여왕	-6446
▁미술	-6447
▁그러다가	-6448
호와	-6449
▁수수	-6450
였다는	-6451
▁비슷하다	-6452
▁해적	-6453
으론	-6454
있고	-6455
▁국방	-6456
▁오지	-6457
▁1996	-6458
▁학원	-6459
▁제정	-6460
이긴	-6461
argin	-6462
▁신인	-6463
▁생기는	-6464
▁색깔	-6465
▁느끼는	-6466
▁김정	-6467
▁박정	-6468
▁마음의	-6469
▁수립	-6470
FA	-6471
▁상황이다	-6472
▁찔	-6473
▁곤란	-6474
▁트로	-6475
▁이주	-6476
라에	-6477
시험	-6478
르며	-6479
▁안드로	-6480
▁않았을	-6481
▁붙은	-6482
례를	-6483
▁퀄	-6484
비로	-6485
-5	-6486
▁자기의	-6487
▁쟁	-6488
자치	-6489
▁노트	-6490
▁가이	-6491
▁꼼	-6492
▁발음	-6493
▁뒤에서	-6494
▁추격	-6495
▁시대에	-6496
막을	-6497
▁계약을	-6498
▁많은데	-6499
▁완벽한	-6500
▁올바	-6501
▁델	-6502
▁열쇠	-6503
▁전투에서	-6504
▁날이	-6505
▁가문	-6506
▁가볍게	-6507
end	-6508
▁이미지를	-6509
▁검찰	-6510
▁뜻이다	-6511
3,	-6512
이익	-6513
들과의	-6514
▁어그	-6515
▁37	-6516
▁앞의	-6517
▁그리하여	-6518
랭크	-6519
▁심하게	-6520
▁고등	-6521
▁전의	-6522
▁소송	-6523
희가	-6524
▁득점	-6525
인지는	-6526
▁통상	-6527
▁차이를	-6528
▁차단	-6529
▁천재	-6530
시코	-6531
▁보이지만	-6532
▁모양이다	-6533
▁초창	-6534
영화	-6535
▁장악	-6536
▁명령을	-6537
▁빔	-6538
▁체결	-6539
▁기자	-6540
▁임대	-6541
스트가	-6542
▁모래	-6543
▁주체	-6544
함은	-6545
ob	-6546
토는	-6547
▁입력	-6548
▁75	-6549
관과	-6550
드립	-6551
투자	-6552
포가	-6553
▁아시	-6554
▁추억	-6555
▁브라질	-6556
▁스트라이	-6557
▁헨	-6558
▁쉴	-6559
▁거지	-6560
▁압도적인	-6561
▁기뻐	-6562
~4	-6563
▁더더	-6564
▁이길	-6565
▁가만히	-6566
▁들어간다	-6567
▁작가가	-6568
▁케이스	-6569
관에서	-6570
계에서	-6571
▁흩	-6572
▁말하며	-6573
▁읽어	-6574
보스	-6575
▁경험이	-6576
▁지시	-6577
▁않는다고	-6578
▁사업을	-6579
▁너의	-6580
▁요구하는	-6581
▁전면	-6582
철도	-6583
▁잡은	-6584
▁유효	-6585
▁침묵	-6586
▁훗날	-6587
▁이스라엘	-6588
▁정도였다	-6589
▁캐나다	-6590
▁배우는	-6591
▁멋진	-6592
택을	-6593
곡을	-6594
▁미사일	-6595
AC	-6596
차의	-6597
▁전해	-6598
▁우리에게	-6599
▁강제로	-6600
상황	-6601
임은	-6602
▁리버	-6603
▁최소한	-6604
▁마인	-6605
▁수술	-6606
▁것일	-6607
▁격투	-6608
▁예로	-6609
▁청소년	-6610
조합	-6611
▁장군	-6612
▁내구	-6613
브리	-6614
▁48	-6615
▁레오	-6616
▁시티	-6617
▁어디서	-6618
기준	-6619
▁여성의	-6620
AS	-6621
▁질문을	-6622
▁세계에서	-6623
▁시간은	-6624
margin	-6625
기나	-6626
치면	-6627
▁지원을	-6628
▁엿	-6629
▁전공	-6630
토록	-6631
▁말라	-6632
린의	-6633
슬러	-6634
▁어머니는	-6635
▁자리잡	-6636
AL	-6637
방으로	-6638
▁가벼	-6639
속을	-6640
중인	-6641
▁숨어	-6642
▁쓰인다	-6643
피스	-6644
▁충족	-6645
▁율	-6646
▁올린	-6647
동으로	-6648
나요	-6649
▁편지를	-6650
▁조용히	-6651
▁빌려	-6652
▁찾기	-6653
▁의혹	-6654
▁사용하지	-6655
▁명백	-6656
▁〈	-6657
▁중화	-6658
서야	-6659
케이션	-6660
▁이겨	-6661
▁내면	-6662
▁수백	-6663
▁여자가	-6664
▁않습니다	-6665
▁싸움을	-6666
··	-6667
▁다녀	-6668
▁풍부	-6669
▁넉	-6670
▁플레이를	-6671
▁자이	-6672
▁인물이	-6673
▁달고	-6674
▁몰라	-6675
▁남자가	-6676
▁An	-6677
▁다수의	-6678
▁터뜨	-6679
▁생각은	-6680
▁재산	-6681
▁마디	-6682
▁울트라	-6683
▁재현	-6684
가며	-6685
▁노력을	-6686
▁1970	-6687
▁되었을	-6688
▁원인이	-6689
▁wh	-6690
▁개정	-6691
▁요약	-6692
isplay	-6693
▁식의	-6694
▁실망	-6695
▁보완	-6696
경은	-6697
지마	-6698
▁곡을	-6699
▁이라	-6700
..."	-6701
▁전원	-6702
어리	-6703
▁뺏	-6704
1.	-6705
▁대단히	-6706
▁수원	-6707
▁깨끗	-6708
▁트랙	-6709
아파	-6710
▁제이	-6711
order	-6712
▁세대	-6713
▁러브	-6714
▁스페셜	-6715
▁간에	-6716
▁더더욱	-6717
2.	-6718
▁적지	-6719
▁한자	-6720
▁쓰레기	-6721
▁그래픽	-6722
당해	-6723
스트라	-6724
▁일로	-6725
▁존재가	-6726
▁않을까	-6727
▁모순	-6728
▁화이트	-6729
▁KT	-6730
▁자체의	-6731
▁까지	-6732
▁영원히	-6733
▁방지	-6734
33	-6735
▁결과적으로	-6736
▁베트남	-6737
소득	-6738
▁휩	-6739
주와	-6740
▁사용해	-6741
▁국회의원	-6742
▁헤드	-6743
▁닭	-6744
▁유형	-6745
▁잡혀	-6746
▁자아	-6747
▁기재	-6748
바람	-6749
▁한국에서	-6750
웠던	-6751
▁네트워	-6752
▁프리미	-6753
▁배려	-6754
▁배를	-6755
▁부러	-6756
ne	-6757
▁팬들이	-6758
랑이	-6759
노가	-6760
▁구단	-6761
쪽의	-6762
슈타	-6763
▁마술	-6764
▁순위	-6765
▁우리를	-6766
▁가능성을	-6767
▁들어갔	-6768
명과	-6769
▁죽음의	-6770
조에	-6771
▁상실	-6772
▁한반	-6773
▁이외의	-6774
▁신비	-6775
▁운동을	-6776
유럽	-6777
▁비싸	-6778
▁닦	-6779
▁확실한	-6780
▁물이	-6781
▁싸울	-6782
▁사라진	-6783
28	-6784
약이	-6785
▁곳곳	-6786
인도	-6787
속으로	-6788
▁떠난	-6789
이한	-6790
▁선진	-6791
▁충전	-6792
▁습득	-6793
▁유희	-6794
▁위키	-6795
▁남긴	-6796
버렸	-6797
▁드리	-6798
▁몰라도	-6799
▁목적을	-6800
용의	-6801
▁초등학교	-6802
26	-6803
에겐	-6804
▁네덜	-6805
▁병원	-6806
▁해주는	-6807
▁승강	-6808
▁동기	-6809
▁올리는	-6810
▁락	-6811
▁상처를	-6812
▁되었는데	-6813
▁수송	-6814
통이	-6815
▁현상이	-6816
▁주장하는	-6817
▁font	-6818
▁조건을	-6819
▁물론이고	-6820
▁아이의	-6821
▁갈라	-6822
▁땅에	-6823
▁극장판	-6824
▁99	-6825
▁미래를	-6826
▁내보	-6827
▁이용하는	-6828
27	-6829
▁목을	-6830
생활을	-6831
▁위치에	-6832
▁오스트	-6833
편에서	-6834
이면서	-6835
▁은근히	-6836
▁파이터	-6837
▁강하다	-6838
size	-6839
▁이재	-6840
▁방식을	-6841
○○	-6842
▁특별히	-6843
▁죽인	-6844
▁서구	-6845
속이	-6846
▁왕이	-6847
▁되었으며	-6848
시리즈	-6849
▁너는	-6850
▁공부를	-6851
▁주전	-6852
▁팬들은	-6853
▁with	-6854
▁알파	-6855
ud	-6856
화하는	-6857
▁•	-6858
▁Bl	-6859
▁높고	-6860
테이	-6861
서도	-6862
▁무엇이	-6863
▁브랜	-6864
▁메카	-6865
▁스튜	-6866
▁경유	-6867
먹고	-6868
▁행위를	-6869
▁조지	-6870
▁충격을	-6871
▁포스트	-6872
▁형사	-6873
왔던	-6874
▁이자	-6875
▁비싼	-6876
림이	-6877
계는	-6878
▁작중에서	-6879
▁나갈	-6880
▁이외에도	-6881
감한	-6882
▁부정적인	-6883
▁그림을	-6884
▁1994	-6885
▁스킬이	-6886
▁읽는	-6887
▁공격에	-6888
▁20%	-6889
▁자의	-6890
▁알지	-6891
모델	-6892
니를	-6893
▁학문	-6894
에요	-6895
▁파이널	-6896
▁아니냐는	-6897
▁났	-6898
번의	-6899
▁있어요	-6900
▁나카	-6901
▁귀찮	-6902
▁체력을	-6903
▁타워	-6904
▁지역을	-6905
▁NC	-6906
▁x	-6907
▁느끼고	-6908
광역시	-6909
▁탱커	-6910
사키	-6911
▁멀쩡	-6912
▁아닙	-6913
▁동시	-6914
▁상태를	-6915
영상	-6916
▁비디오	-6917
▁자라	-6918
▁함정	-6919
▁상향	-6920
재로	-6921
국에서	-6922
생이	-6923
▁잡지	-6924
▁유발	-6925
▁he	-6926
▁긴장	-6927
▁직장	-6928
실은	-6929
스레	-6930
속성	-6931
차전	-6932
▁변경되었다	-6933
'.	-6934
▁왕의	-6935
▁불렀다	-6936
▁결론	-6937
▁자전	-6938
우며	-6939
▁위주로	-6940
▁더빙	-6941
▁번도	-6942
▁허락	-6943
▁갤럭	-6944
▁고통을	-6945
월부터	-6946
스키	-6947
▁아케	-6948
목이	-6949
▁간신	-6950
▁턱	-6951
▁작업을	-6952
▁글로벌	-6953
ake	-6954
고도	-6955
▁휴대	-6956
▁목격	-6957
▁아리	-6958
▁어머니의	-6959
▁물려	-6960
감독	-6961
▁지역에서	-6962
▁답변	-6963
절한	-6964
페이	-6965
▁블록	-6966
▁밝혀졌다	-6967
▁맞서	-6968
동은	-6969
▁Lv	-6970
▁딴	-6971
▁벗어	-6972
▁마이클	-6973
추어	-6974
▁맞다	-6975
▁사용하여	-6976
고에	-6977
▁에디	-6978
당했다	-6979
친구	-6980
▁빡	-6981
국으로	-6982
▁설정이	-6983
ood	-6984
▁복잡한	-6985
▁대원	-6986
▁부수	-6987
radi	-6988
▁성공했다	-6989
kg	-6990
▁했습니다	-6991
루는	-6992
▁용서	-6993
통신	-6994
▁금액	-6995
▁전력	-6996
노의	-6997
▁실력이	-6998
▁같지만	-6999
▁행성	-7000
재판	-7001
▁것이기	-7002
VP	-7003
하신	-7004
▁둘은	-7005
조로	-7006
▁마법을	-7007
▁나타났다	-7008
▁회수	-7009
적이며	-7010
스트의	-7011
음의	-7012
▁보안	-7013
▁누군가	-7014
▁나누어	-7015
▁대단한	-7016
▁부처	-7017
계로	-7018
▁하수	-7019
▁양산	-7020
▁메뉴	-7021
▁들어갔다	-7022
메이크	-7023
▁쌀	-7024
조사	-7025
니는	-7026
▁강남	-7027
▁어딘	-7028
▁런던	-7029
▁무서운	-7030
▁띠	-7031
▁존경	-7032
수준	-7033
▁보내는	-7034
▁받으며	-7035
▁부상을	-7036
▁다리를	-7037
▁대만	-7038
uc	-7039
PG	-7040
희는	-7041
▁리가	-7042
▁출입	-7043
▁시절의	-7044
▁사로	-7045
▁얻게	-7046
▁이젠	-7047
▁거예요	-7048
▁피할	-7049
▁논리	-7050
▁나라를	-7051
▁보존	-7052
▁비극	-7053
▁맑	-7054
마법	-7055
▁질문에	-7056
▁캐릭터로	-7057
거를	-7058
나고	-7059
남도	-7060
▁수영	-7061
▁가려	-7062
▁흥미	-7063
▁걸고	-7064
감에	-7065
웨이	-7066
▁늦게	-7067
먹을	-7068
▁inline	-7069
▁that	-7070
▁콜라	-7071
▁MC	-7072
▁것들이	-7073
공항	-7074
▁중에서는	-7075
되거나	-7076
▁경우를	-7077
▁커플	-7078
radius	-7079
▁사랑의	-7080
▁청구	-7081
▁근로	-7082
▁일본어	-7083
▁말아	-7084
▁가드	-7085
▁아끼	-7086
▁border	-7087
▁도저히	-7088
▁공작	-7089
▁눈물	-7090
▁존중	-7091
▁구원	-7092
두는	-7093
▁아니며	-7094
▁-2	-7095
▁성적을	-7096
▁프린	-7097
리언	-7098
display	-7099
▁출신의	-7100
▁말이야	-7101
츠의	-7102
하겠다고	-7103
▁모조리	-7104
▁정류	-7105
일본	-7106
▁남을	-7107
▁일어났	-7108
▁준비를	-7109
▁언덕	-7110
▁지능	-7111
▁De	-7112
▁잔뜩	-7113
▁있듯이	-7114
이기에	-7115
박한	-7116
보지	-7117
▁원본	-7118
▁아이디	-7119
스카	-7120
선과	-7121
▁서서히	-7122
av	-7123
▁마도	-7124
▁보유하고	-7125
▁필요로	-7126
▁Ar	-7127
▁적혀	-7128
▁SN	-7129
등의	-7130
전투	-7131
▁대사를	-7132
그라	-7133
▁제임	-7134
▁요괴	-7135
들보다	-7136
심의	-7137
받지	-7138
▁떨어뜨	-7139
▁이끄	-7140
▁계기로	-7141
▁SS	-7142
당한다	-7143
▁55	-7144
▁중독	-7145
▁윌리	-7146
▁기다리고	-7147
럽게	-7148
▁자금	-7149
▁모바일	-7150
주일	-7151
▁세계에	-7152
▁관련이	-7153
▁치유	-7154
▁자격	-7155
였습니다	-7156
▁목표로	-7157
▁가시	-7158
▁한화	-7159
로와	-7160
▁흙	-7161
크와	-7162
▁미야	-7163
▁에너지를	-7164
우기	-7165
▁오로지	-7166
졌다고	-7167
▁텐데	-7168
▁일본에서	-7169
사령	-7170
▁가톨릭	-7171
▁전쟁이	-7172
▁판정	-7173
▁간부	-7174
▁모르게	-7175
▁SBS	-7176
▁플레	-7177
▁데에	-7178
▁우수	-7179
▁앵	-7180
▁퀸	-7181
▁나은	-7182
ome	-7183
무가	-7184
▁측면에서	-7185
▁융합	-7186
▁무방	-7187
터리	-7188
식과	-7189
▁가능성도	-7190
▁부부	-7191
나라의	-7192
▁짐작	-7193
▁아이는	-7194
업이	-7195
스톤	-7196
▁남의	-7197
모의	-7198
▁AI	-7199
▁각각의	-7200
님께	-7201
▁가짜	-7202
▁아름다	-7203
▁눌러	-7204
▁마이너	-7205
병의	-7206
▁한두	-7207
▁죽일	-7208
▁폭주	-7209
▁차원	-7210
▁솔직	-7211
▁임무를	-7212
▁신화	-7213
▁잠수	-7214
▁반발	-7215
▁구성되어	-7216
하지도	-7217
▁국가대표	-7218
▁아쉬운	-7219
▁파일럿	-7220
▁시원	-7221
▁읽고	-7222
▁제자	-7223
▁교육을	-7224
▁리메이크	-7225
▁편성	-7226
100	-7227
▁충분한	-7228
▁고작	-7229
▁펠	-7230
▁달라고	-7231
▁전성	-7232
▁사라져	-7233
▁장교	-7234
▁표정을	-7235
▁캠페	-7236
▁시스템을	-7237
▁꿀	-7238
▁진정	-7239
▁주관	-7240
마한	-7241
▁씹	-7242
베이	-7243
▁하나씩	-7244
▁위기	-7245
▁나중	-7246
▁완전한	-7247
200	-7248
▁부른	-7249
▁끔찍	-7250
▁CD	-7251
▁감독의	-7252
행위	-7253
▁관하여	-7254
중학교	-7255
▁매력	-7256
데스	-7257
것은	-7258
절을	-7259
▁샷	-7260
란의	-7261
▁부분에	-7262
▁화려한	-7263
▁권리	-7264
▁생긴다	-7265
▁지은	-7266
았으며	-7267
▁MS	-7268
▁고마	-7269
▁농담	-7270
서와	-7271
▁현장	-7272
▁삐	-7273
▁파이어	-7274
▁대해서도	-7275
▁싶지	-7276
▁어마	-7277
▁돌아와	-7278
▁국립	-7279
▁스파이	-7280
신과	-7281
까요	-7282
▁깜짝	-7283
▁되기도	-7284
▁밴드	-7285
▁아머	-7286
▁튜	-7287
름이	-7288
▁타락	-7289
밀한	-7290
▁에드	-7291
▁거짓말	-7292
▁sh	-7293
▁이야기는	-7294
▁후배	-7295
▁요소가	-7296
▁침략	-7297
씨의	-7298
할수	-7299
▁인형	-7300
▁과도	-7301
▁기가	-7302
이었으며	-7303
▁시작하는	-7304
▁군대	-7305
층의	-7306
▁역사상	-7307
▁전직	-7308
▁지나가	-7309
▁곽	-7310
타입	-7311
▁배가	-7312
▁휘두	-7313
▁의문	-7314
▁누구도	-7315
▁젤	-7316
▁건국	-7317
▁원주	-7318
▁죽이고	-7319
▁있겠	-7320
버릴	-7321
▁일관	-7322
▁고수	-7323
▁무시하고	-7324
▁사용되는	-7325
데다	-7326
▁음반	-7327
라이언	-7328
어졌다	-7329
년대에	-7330
문제	-7331
▁120	-7332
파이	-7333
주기	-7334
팀이	-7335
▁손님	-7336
들고	-7337
▁손해	-7338
▁이민	-7339
점의	-7340
지인	-7341
해준다	-7342
ire	-7343
▁비유	-7344
▁정확히는	-7345
하였는데	-7346
▁무작	-7347
▁핫	-7348
▁날개	-7349
▁예고	-7350
원도	-7351
▁썼다	-7352
▁치열	-7353
▁교황	-7354
▁당하는	-7355
▁비례	-7356
▁된다면	-7357
▁벌어진	-7358
▁완벽하게	-7359
▁독일의	-7360
▁향한	-7361
▁자매	-7362
어지게	-7363
▁김종	-7364
양의	-7365
▁미츠	-7366
▁관점에서	-7367
▁정신이	-7368
▁무기로	-7369
▁팬덤	-7370
등장	-7371
번이	-7372
▁de	-7373
▁저그	-7374
▁처음에	-7375
ED	-7376
▁400	-7377
▁저런	-7378
감은	-7379
받는다	-7380
▁이끄는	-7381
려야	-7382
왕은	-7383
인한	-7384
▁싹	-7385
▁날카	-7386
▁당시에	-7387
▁필드	-7388
▁페이스	-7389
▁다음으로	-7390
▁파라	-7391
▁노란	-7392
야가	-7393
▁몫	-7394
▁스웨	-7395
▁레전드	-7396
▁저렴	-7397
퍼센	-7398
▁오래된	-7399
포의	-7400
▁불린다	-7401
설이	-7402
다보니	-7403
▁사거리	-7404
훈련	-7405
▁인용	-7406
▁방향을	-7407
▁DLC	-7408
▁어둠의	-7409
▁어째서	-7410
▁엑스	-7411
▁대통령이	-7412
버트	-7413
29	-7414
▁먹어	-7415
▁회장	-7416
▁몰락	-7417
▁아티	-7418
▁깔끔	-7419
▁녹음	-7420
란히	-7421
프리	-7422
즈키	-7423
건이	-7424
▁되어야	-7425
▁아일	-7426
▁찍어	-7427
▁토론	-7428
▁파는	-7429
▁참으로	-7430
▁무엇보다도	-7431
▁동굴	-7432
돌이	-7433
들만	-7434
으로만	-7435
▁작품이	-7436
습을	-7437
▁세운	-7438
▁육체	-7439
▁빠르	-7440
리우	-7441
EN	-7442
때는	-7443
아아	-7444
▁팔을	-7445
▁시작된	-7446
▁유의	-7447
▁마리아	-7448
▁개통	-7449
▁환상	-7450
▁공격하는	-7451
▁먹은	-7452
인이다	-7453
▁판타지	-7454
▁나간	-7455
우지	-7456
▁코드	-7457
웨어	-7458
▁있어서는	-7459
▁욕망	-7460
살을	-7461
있어	-7462
숙한	-7463
▁많지	-7464
▁우울	-7465
>,	-7466
▁용의	-7467
▁최강의	-7468
▁예능	-7469
탄이	-7470
▁버린다	-7471
타와	-7472
▁이정	-7473
▁간신히	-7474
▁윗	-7475
▁미치는	-7476
▁크로스	-7477
이었기	-7478
코를	-7479
▁바닥에	-7480
ies	-7481
▁콘서	-7482
재의	-7483
▁문제의	-7484
▁편입	-7485
▁이지	-7486
▁욕을	-7487
▁CP	-7488
▁만나는	-7489
▁어두운	-7490
▁현금	-7491
▁핸드	-7492
▁주장을	-7493
▁6.	-7494
주년	-7495
졌지만	-7496
▁소형	-7497
우와	-7498
되어서	-7499
▁싫어하는	-7500
다의	-7501
▁오전	-7502
▁미디어	-7503
▁컷	-7504
▁우수한	-7505
▁제공하는	-7506
▁좁은	-7507
▁다이아	-7508
▁팝	-7509
▁협박	-7510
▁스티	-7511
후의	-7512
▁투쟁	-7513
▁채권	-7514
▁토끼	-7515
▁일하는	-7516
▁들어와	-7517
▁깡	-7518
▁얻기	-7519
▁때로는	-7520
▁거다	-7521
▁상기	-7522
▁슬픔	-7523
▁너를	-7524
▁참전	-7525
▁데다가	-7526
▁떨어진다	-7527
▁포탑	-7528
▁전망	-7529
▁사로잡	-7530
▁끓	-7531
▁박근	-7532
▁폭력	-7533
▁편안	-7534
▁주변의	-7535
▁썰	-7536
▁영화를	-7537
▁못하면	-7538
▁구경	-7539
▁놓여	-7540
▁어지간	-7541
▁유혹	-7542
▁죄다	-7543
▁외계	-7544
거리를	-7545
▁닥터	-7546
▁몽골	-7547
▁강철	-7548
▁펴	-7549
▁미군	-7550
▁주인공의	-7551
▁막장	-7552
▁상관없이	-7553
살이	-7554
ment	-7555
▁주말	-7556
▁허나	-7557
▁팬들의	-7558
▁주제	-7559
▁밑에	-7560
▁성과를	-7561
▁경고	-7562
▁승부	-7563
▁감안하면	-7564
▁자유롭게	-7565
▁눈앞	-7566
▁전제	-7567
열을	-7568
스러워	-7569
▁비판을	-7570
브라	-7571
▁차원에서	-7572
▁마리오	-7573
▁줘	-7574
해야만	-7575
▁출장	-7576
▁긍정적인	-7577
▁차이는	-7578
▁BGM	-7579
3.	-7580
▁하늘을	-7581
▁헐	-7582
▁커맨	-7583
사도	-7584
▁간단한	-7585
▁인민	-7586
▁칼을	-7587
▁이어서	-7588
▁후에도	-7589
▁적당히	-7590
감과	-7591
단다	-7592
▁별개로	-7593
▁서비스를	-7594
▁인격	-7595
편에	-7596
▁마츠	-7597
공화	-7598
▁보여주며	-7599
OL	-7600
▁틀림	-7601
▁배제	-7602
▁고위	-7603
는데도	-7604
▁곱	-7605
▁메타	-7606
▁다닌	-7607
▁고문	-7608
▁제갈	-7609
▁쏠	-7610
▁숨을	-7611
▁나선	-7612
백을	-7613
▁머리에	-7614
사용	-7615
▁심장	-7616
▁바가	-7617
▁솟	-7618
희의	-7619
▁못했던	-7620
▁전진	-7621
▁신설	-7622
▁일이었다	-7623
능력을	-7624
na	-7625
▁수준이	-7626
▁임금	-7627
▁무적	-7628
노동	-7629
거야	-7630
▁시절에	-7631
▁싸워	-7632
▁사고를	-7633
▁선전	-7634
▁반격	-7635
▁이치	-7636
▁지식을	-7637
홈런	-7638
▁반면에	-7639
▁것일까	-7640
▁아기	-7641
▁내려가	-7642
▁얽	-7643
▁공장	-7644
▁도대체	-7645
▁한마디로	-7646
▁보냈	-7647
▁쏴	-7648
▁목소리를	-7649
▁상담	-7650
▁나쁘지	-7651
▁웹툰	-7652
▁가속	-7653
▁미스	-7654
주시	-7655
▁그러던	-7656
아와	-7657
이도	-7658
▁생각에	-7659
음으로	-7660
▁무지	-7661
▁가능하며	-7662
▁장르	-7663
▁씻	-7664
qu	-7665
▁확실하게	-7666
▁똥	-7667
▁프라	-7668
▁일으켜	-7669
▁여기에서	-7670
검을	-7671
출을	-7672
▁직접적인	-7673
▁털어	-7674
▁인생을	-7675
급을	-7676
▁다녔	-7677
방향	-7678
▁아바	-7679
리얼	-7680
▁뚜렷	-7681
권과	-7682
▁스트리	-7683
사한	-7684
▁라이더	-7685
네의	-7686
간을	-7687
▁대표적으로	-7688
파로	-7689
▁모리	-7690
▁여행을	-7691
▁연금	-7692
▁선고	-7693
▁위장	-7694
씨를	-7695
▁눈으로	-7696
▁가지게	-7697
마이	-7698
▁페이지	-7699
▁의미하는	-7700
▁상술	-7701
▁날아가	-7702
45	-7703
사무	-7704
▁양쪽	-7705
안은	-7706
▁왜곡	-7707
들인	-7708
▁삼아	-7709
▁선수들이	-7710
범위	-7711
▁뛰어넘	-7712
ge	-7713
▁음악을	-7714
▁39	-7715
보로	-7716
▁1960	-7717
▁개념을	-7718
HE	-7719
ide	-7720
▁플로	-7721
▁길게	-7722
▁나나	-7723
▁시골	-7724
번을	-7725
▁알아서	-7726
ime	-7727
항공	-7728
ass	-7729
▁아이들은	-7730
▁이용해서	-7731
졌던	-7732
▁문명	-7733
▁수를	-7734
▁올렸다	-7735
▁j	-7736
행이	-7737
▁목소리	-7738
레나	-7739
질의	-7740
▁MA	-7741
토와	-7742
더러	-7743
해요	-7744
mer	-7745
집이	-7746
▁않다는	-7747
등한	-7748
▁디버	-7749
▁한타	-7750
▁미국에서	-7751
▁나타내는	-7752
▁여섯	-7753
▁이것도	-7754
▁퀄리티	-7755
▁학교에	-7756
▁수준이다	-7757
▁단기	-7758
츠가	-7759
판에서	-7760
▁되도록	-7761
▁He	-7762
▁대미지를	-7763
▁·	-7764
▁반해	-7765
▁후쿠	-7766
▁화학	-7767
달을	-7768
급으로	-7769
방법	-7770
민은	-7771
▁챕	-7772
▁안된다	-7773
팅을	-7774
▁논쟁	-7775
▁사회주의	-7776
''	-7777
▁이미지가	-7778
▁맛이	-7779
▁어드	-7780
▁영광	-7781
▁CC	-7782
오리	-7783
▁이라는	-7784
▁하겠다	-7785
▁소중한	-7786
▁소요	-7787
▁정령	-7788
▁베스트	-7789
▁침입	-7790
▁보충	-7791
▁점수	-7792
치면서	-7793
▁놀라운	-7794
▁뜻하는	-7795
▁자료를	-7796
츠를	-7797
▁평이	-7798
▁정신적	-7799
▁까닭	-7800
▁육성	-7801
▁호소	-7802
▁그릇	-7803
▁결정적인	-7804
▁루시	-7805
▁정체를	-7806
전략	-7807
▁하야	-7808
▁취임	-7809
▁초래	-7810
▁컵	-7811
▁뿌리	-7812
이거나	-7813
▁여기는	-7814
워드	-7815
▁입증	-7816
되던	-7817
▁포함되어	-7818
▁저질	-7819
▁사마	-7820
▁전체적인	-7821
▁이슈	-7822
▁토지	-7823
▁쿠키	-7824
▁종이	-7825
린은	-7826
마루	-7827
▁사후	-7828
▁필요는	-7829
▁나오기	-7830
▁갖추고	-7831
▁특정한	-7832
▁진심으로	-7833
▁않는다면	-7834
▁앱	-7835
▁아동	-7836
▁마크	-7837
▁자신들이	-7838
▁구체적으로	-7839
든다	-7840
차례	-7841
▁예언	-7842
▁의식을	-7843
▁소총	-7844
▁해상	-7845
레가	-7846
구에서	-7847
▁속도로	-7848
▁프라이	-7849
▁말자	-7850
▁대미지	-7851
▁충실	-7852
▁위기를	-7853
하겠다는	-7854
▁보물	-7855
▁잊지	-7856
▁리얼	-7857
▁인사를	-7858
▁본능	-7859
▁종목	-7860
▁가끔씩	-7861
마와	-7862
▁FA	-7863
▁버프를	-7864
기기	-7865
▁쿠로	-7866
▁아버지를	-7867
▁신라	-7868
▁전체가	-7869
▁사람으로	-7870
▁공개된	-7871
▁그녀에게	-7872
▁도둑	-7873
▁그라	-7874
▁폐쇄	-7875
나가는	-7876
메가	-7877
▁심지어는	-7878
데이	-7879
▁스미	-7880
▁바꾼	-7881
▁인터뷰에서	-7882
▁억제	-7883
▁여지가	-7884
팀의	-7885
전문	-7886
▁토모	-7887
▁≪	-7888
▁합성	-7889
▁간단히	-7890
▁빨라	-7891
회말	-7892
함으로	-7893
주며	-7894
▁곳이다	-7895
▁점도	-7896
▁이르는	-7897
▁리듬	-7898
으면서도	-7899
▁씌	-7900
▁알렉산	-7901
임에	-7902
▁환영	-7903
코와	-7904
▁피가	-7905
률은	-7906
▁굽	-7907
▁두산	-7908
▁단편	-7909
▁사막	-7910
▁유로	-7911
▁상대방의	-7912
▁44	-7913
▁발생한다	-7914
▁돌아가는	-7915
▁창의	-7916
품의	-7917
▁연사	-7918
▁저주	-7919
▁스마트폰	-7920
러는	-7921
▁활성화	-7922
▁하나님의	-7923
▁오염	-7924
........	-7925
▁인종	-7926
▁잡기	-7927
▁갚	-7928
▁PD	-7929
했듯이	-7930
▁살아가는	-7931
즈와	-7932
시스템	-7933
자본	-7934
▁나오면	-7935
her	-7936
ance	-7937
▁운송	-7938
▁튼	-7939
란이	-7940
▁방사	-7941
ock	-7942
▁결심	-7943
▁후지	-7944
차별	-7945
▁믿을	-7946
보호	-7947
▁아랍	-7948
▁갑작	-7949
▁확산	-7950
거리며	-7951
▁동방	-7952
▁블러	-7953
▁전멸	-7954
▁그중	-7955
▁아니라면	-7956
태를	-7957
▁제어	-7958
개혁	-7959
▁울산	-7960
▁침공	-7961
▁수단	-7962
브를	-7963
▁비가	-7964
▁외의	-7965
▁30%	-7966
다나	-7967
▁가문의	-7968
역사	-7969
▁루트	-7970
▁대부분은	-7971
▁내린	-7972
▁your	-7973
▁Un	-7974
련의	-7975
▁알겠지만	-7976
▁죽는다	-7977
▁여기저	-7978
마에	-7979
▁대사가	-7980
간이	-7981
하고는	-7982
창을	-7983
▁랭크	-7984
왕을	-7985
음악	-7986
▁신성	-7987
▁얻고	-7988
리즘	-7989
질로	-7990
하는게	-7991
▁형태를	-7992
▁유기	-7993
▁유독	-7994
이치	-7995
▁후계	-7996
▁물에	-7997
▁윌리엄	-7998
▁안고	-7999
▁높게	-8000
▁안티	-8001
▁연구를	-8002
▁자치	-8003
북도	-8004
▁점수를	-8005
▁지키는	-8006
그리	-8007
▁하라	-8008
▁유리한	-8009
▁자동으로	-8010
레를	-8011
▁밝은	-8012
중을	-8013
▁버리는	-8014
▁불렀	-8015
스도	-8016
▁동작	-8017
▁속하는	-8018
35	-8019
아시아	-8020
▁성을	-8021
▁생각하지	-8022
▁김대	-8023
▁테스트	-8024
▁정기	-8025
▁알았	-8026
▁앞두고	-8027
▁타케	-8028
▁엄마가	-8029
ord	-8030
▁담배	-8031
▁주어진	-8032
▁베어	-8033
로써	-8034
▁자존	-8035
러의	-8036
▁마음으로	-8037
▁상태에	-8038
리한	-8039
커가	-8040
▁당하고	-8041
▁게이지	-8042
▁타는	-8043
▁클레	-8044
BO	-8045
▁왠지	-8046
▁처형	-8047
▁사라졌다	-8048
▁영양	-8049
둘러	-8050
▁남부	-8051
▁특수한	-8052
월에는	-8053
졌다는	-8054
▁일어날	-8055
▁조금만	-8056
▁빛의	-8057
▁경기는	-8058
주택	-8059
▁보너스	-8060
▁아래로	-8061
▁방어력	-8062
▁게임에서	-8063
결을	-8064
▁건지	-8065
▁결성	-8066
▁가져다	-8067
▁비즈	-8068
네는	-8069
국과	-8070
속의	-8071
▁데다	-8072
▁자랑한다	-8073
▁스카이	-8074
나서	-8075
▁써야	-8076
▁밝히	-8077
▁배출	-8078
ber	-8079
인들에게	-8080
위와	-8081
맨의	-8082
▁이용할	-8083
▁이룬	-8084
▁회사가	-8085
▁북한의	-8086
▁김태	-8087
▁생략	-8088
▁식물	-8089
▁대우	-8090
▁중립	-8091
▁태평	-8092
▁정통	-8093
▁주제에	-8094
▁사법	-8095
오지	-8096
▁공사	-8097
▁마땅	-8098
▁급격	-8099
▁시너	-8100
▁체크	-8101
▁현실을	-8102
▁관할	-8103
▁작품은	-8104
▁문자	-8105
집에	-8106
▁박근혜	-8107
▁이전에는	-8108
작용	-8109
-7	-8110
▁플랫	-8111
▁흥행	-8112
▁재무	-8113
▁찍은	-8114
▁생길	-8115
▁프로그램을	-8116
▁크기	-8117
▁비공	-8118
▁담긴	-8119
▁생각한	-8120
▁비교해	-8121
▁발언을	-8122
ark	-8123
▁언젠가	-8124
▁태도	-8125
▁방출	-8126
▁엎	-8127
주자	-8128
▁前	-8129
▁유저가	-8130
▁레벨이	-8131
▁최근에는	-8132
레이터	-8133
▁검을	-8134
IS	-8135
IT	-8136
▁법을	-8137
▁블로그	-8138
▁거친	-8139
▁새겨	-8140
환의	-8141
▁성취	-8142
▁도발	-8143
▁얼굴에	-8144
▁오랜만에	-8145
▁단점이	-8146
군으로	-8147
▁김동	-8148
▁쭉	-8149
▁주연	-8150
▁매수	-8151
▁죽이는	-8152
라노	-8153
▁올랐다	-8154
▁열고	-8155
▁정책을	-8156
▁구사	-8157
링이	-8158
▁후손	-8159
▁매니저	-8160
▁진실	-8161
▁실수	-8162
▁철저히	-8163
▁억지로	-8164
ave	-8165
▁여신	-8166
선생	-8167
▁와이	-8168
▁각자	-8169
▁진실을	-8170
▁동화	-8171
▁감독은	-8172
야구	-8173
▁관여	-8174
▁중계	-8175
아리	-8176
▁올라온	-8177
▁파리	-8178
▁헌터	-8179
린을	-8180
▁적어	-8181
▁늘어난	-8182
대상	-8183
37	-8184
천만	-8185
한이	-8186
▁켈	-8187
.」	-8188
▁든다	-8189
▁대변	-8190
월한	-8191
맨이	-8192
▁후술	-8193
▁신념	-8194
▁견해	-8195
▁사람이다	-8196
소와	-8197
▁민주주의	-8198
▁시간의	-8199
각이	-8200
▁확신	-8201
▁뱅	-8202
▁지형	-8203
▁들어오는	-8204
▁병력을	-8205
▁가사	-8206
▁기록한	-8207
▁양성	-8208
자면	-8209
▁생일	-8210
▁카타	-8211
▁하려고	-8212
▁있겠지만	-8213
유가	-8214
▁한국에	-8215
rom	-8216
을때	-8217
▁Le	-8218
면이	-8219
복이	-8220
대사	-8221
▁한가	-8222
▁후속작	-8223
자로서	-8224
▁아울	-8225
▁47	-8226
▁브리	-8227
▁서로의	-8228
▁콘텐츠	-8229
▁윙	-8230
▁구할	-8231
렸다고	-8232
하자마자	-8233
▁관념	-8234
▁의미에서	-8235
▁브루	-8236
RA	-8237
▁기록이	-8238
▁......	-8239
▁넣은	-8240
▁받기	-8241
환경	-8242
▁마치고	-8243
중앙	-8244
▁것들을	-8245
드레	-8246
분석	-8247
사기	-8248
림의	-8249
▁바퀴	-8250
▁상황은	-8251
것으로	-8252
인데도	-8253
~5	-8254
▁좌절	-8255
오카	-8256
▁해병	-8257
▁아들을	-8258
속에서	-8259
▁갤럭시	-8260
▁오류	-8261
▁말라고	-8262
▁형편	-8263
▁ST	-8264
노우	-8265
▁an	-8266
▁나지	-8267
▁카메라	-8268
▁사내	-8269
.9	-8270
▁킥	-8271
▁숨겨진	-8272
▁제외하고는	-8273
▁아이러	-8274
▁아닙니다	-8275
▁병력	-8276
모는	-8277
트릭	-8278
▁트럭	-8279
▁머릿	-8280
FC	-8281
▁지는	-8282
졌으며	-8283
ES	-8284
▁꿰	-8285
▁가스	-8286
족이	-8287
포로	-8288
▁같다고	-8289
▁답답	-8290
▁아이들을	-8291
pp	-8292
상한	-8293
행정	-8294
▁일명	-8295
문으로	-8296
▁대법	-8297
▁기억이	-8298
▁밝혀진	-8299
▁식민지	-8300
오와	-8301
급이	-8302
▁아까	-8303
▁증언	-8304
소리를	-8305
▁소닉	-8306
▁직전에	-8307
▁없으므로	-8308
▁Pro	-8309
기보다는	-8310
▁있으	-8311
로봇	-8312
▁낫다	-8313
▁양의	-8314
▁룬	-8315
▁넣는	-8316
비용	-8317
등이	-8318
소년	-8319
졌는데	-8320
무는	-8321
▁주저	-8322
▁Wh	-8323
▁한명	-8324
지구	-8325
▁정황	-8326
▁베이스	-8327
▁썬	-8328
▁걸맞	-8329
▁뜬금	-8330
▁이은	-8331
▁훈련을	-8332
진과	-8333
부르크	-8334
▁감정이	-8335
늦게	-8336
▁후회	-8337
▁없음	-8338
4,	-8339
▁어마어	-8340
▁인물로	-8341
▁신경을	-8342
▁비정	-8343
▁그들에게	-8344
▁오디	-8345
활동을	-8346
▁못했고	-8347
▁목소리로	-8348
▁들어가면	-8349
▁발굴	-8350
하곤	-8351
▁잘라	-8352
▁le	-8353
리던	-8354
▁분열	-8355
▁US	-8356
▁권리를	-8357
▁묻자	-8358
▁쪼	-8359
▁AT	-8360
▁증권	-8361
하듯	-8362
▁크라	-8363
층에	-8364
현은	-8365
인지를	-8366
▁직접적으로	-8367
▁문재	-8368
일드	-8369
▁4,	-8370
길이	-8371
▁관료	-8372
피를	-8373
▁건드	-8374
▁조건이	-8375
▁자율	-8376
▁지고	-8377
▁끝날	-8378
▁입단	-8379
▁공식적으로	-8380
▁냈	-8381
▁게임에	-8382
▁출생	-8383
▁피아노	-8384
▁때문이라고	-8385
▁속도를	-8386
▁튕	-8387
▁보냈다	-8388
일과	-8389
▁빛이	-8390
▁미국은	-8391
▁전반적으로	-8392
▁느린	-8393
▁유지하고	-8394
했어요	-8395
▁-3	-8396
▁최신	-8397
겠다며	-8398
▁선두	-8399
기록	-8400
탄의	-8401
이었습니다	-8402
▁이즈	-8403
▁쌓아	-8404
▁렉	-8405
▁한국인	-8406
▁보너	-8407
▁더구나	-8408
프와	-8409
ace	-8410
▁사실에	-8411
버그	-8412
▁서로를	-8413
▁필리	-8414
ice	-8415
▁2~3	-8416
▁극히	-8417
▁식사	-8418
소리가	-8419
▁인물이다	-8420
▁코미	-8421
▁사운드	-8422
▁순수한	-8423
▁혀	-8424
▁망가	-8425
듯한	-8426
사에게	-8427
▁불어	-8428
▁간호	-8429
들었다	-8430
▁협상	-8431
▁대상을	-8432
▁알리	-8433
로만	-8434
겁게	-8435
▁아테	-8436
마스터	-8437
▁나이에	-8438
▁헤어	-8439
▁바꿀	-8440
▁좋아한다	-8441
▁개막	-8442
도르	-8443
▁65	-8444
▁한정으로	-8445
▁운영하는	-8446
▁양도	-8447
▁자산	-8448
▁역을	-8449
▁설명을	-8450
▁밝힌	-8451
▁믿는	-8452
▁조직의	-8453
교회	-8454
파는	-8455
었는지	-8456
▁전략을	-8457
▁기사가	-8458
▁키가	-8459
▁예컨대	-8460
▁막상	-8461
▁억압	-8462
▁어렸을	-8463
▁비웃	-8464
▁나오며	-8465
장애	-8466
▁방식이	-8467
▁뿜	-8468
▁민주당	-8469
▁영구	-8470
바의	-8471
▁면이	-8472
진으로	-8473
▁범위가	-8474
온이	-8475
체와	-8476
▁내렸다	-8477
▁차지하는	-8478
▁짙	-8479
▁관계는	-8480
▁농민	-8481
▁도구	-8482
▁창업	-8483
리라는	-8484
▁섀	-8485
▁스피드	-8486
▁처럼	-8487
이었다는	-8488
▁VS	-8489
▁땀	-8490
▁선택할	-8491
는지는	-8492
▁죽지	-8493
▁스스로를	-8494
▁공기	-8495
▁농업	-8496
▁섭취	-8497
▁유령	-8498
학은	-8499
▁들어올	-8500
▁독점	-8501
▁캐스팅	-8502
▁사례가	-8503
▁정도를	-8504
▁그대	-8505
▁머리카	-8506
▁모션	-8507
▁남아있	-8508
ex	-8509
▁죄를	-8510
발로	-8511
▁지칭	-8512
▁옹호	-8513
▁사람들과	-8514
▁않았다는	-8515
▁되었다는	-8516
▁이행	-8517
▁행복한	-8518
▁좋다고	-8519
▁서부	-8520
무의	-8521
란을	-8522
act	-8523
▁심판	-8524
▁호주	-8525
▁신속	-8526
중이	-8527
▁즐겨	-8528
▁쓰여	-8529
▁전체의	-8530
▁하나이다	-8531
▁프랑스의	-8532
▁따르는	-8533
그렇	-8534
▁있거나	-8535
▁공군	-8536
▁찾아볼	-8537
전자	-8538
공사	-8539
▁헤이	-8540
▁준우	-8541
▁복합	-8542
으려는	-8543
▁1.5	-8544
▁3)	-8545
▁리더십	-8546
▁정보가	-8547
▁이로써	-8548
▁구성된	-8549
▁점에	-8550
▁그러면서	-8551
▁추구하는	-8552
▁이영	-8553
▁터져	-8554
▁사이버	-8555
▁정상적인	-8556
▁기업이	-8557
▁빼고	-8558
▁동반	-8559
▁계기가	-8560
▁시작으로	-8561
▁구하기	-8562
▁트럼	-8563
자유	-8564
▁함부로	-8565
▁여기서는	-8566
ame	-8567
ory	-8568
-8	-8569
▁둘의	-8570
▁뜻이	-8571
▁발매된	-8572
운의	-8573
▁끝이	-8574
동과	-8575
▁법정	-8576
▁초기에는	-8577
▁내리는	-8578
▁무사히	-8579
티아	-8580
▁사망한	-8581
▁미루	-8582
▁성공을	-8583
▁현재까지	-8584
▁이해가	-8585
▁키리	-8586
년은	-8587
▁누적	-8588
▁스태	-8589
▁미소를	-8590
▁식당	-8591
▁그림자	-8592
자키	-8593
▁시에	-8594
그런	-8595
▁생명을	-8596
예술	-8597
표가	-8598
▁일본은	-8599
▁사귀	-8600
와도	-8601
▁속한다	-8602
▁출마	-8603
▁프리큐	-8604
-6	-8605
▁항의	-8606
▁맞으면	-8607
▁비해서	-8608
▁태그	-8609
BA	-8610
다를	-8611
▁나갔	-8612
단에서	-8613
빨리	-8614
▁등장하지	-8615
▁질병	-8616
▁자유를	-8617
▁관련하여	-8618
▁46	-8619
▁손이	-8620
반의	-8621
▁업그레이	-8622
보드	-8623
배가	-8624
▁접속	-8625
법으로	-8626
이라고도	-8627
계열	-8628
▁무섭	-8629
▁캘	-8630
▁대기업	-8631
▁그곳에서	-8632
▁이시	-8633
▁성공한다	-8634
▁개설	-8635
▁없지	-8636
함의	-8637
테인	-8638
▁당신을	-8639
들처럼	-8640
▁괜히	-8641
미나	-8642
▁촌	-8643
▁멕시코	-8644
▁일으킨	-8645
▁대접	-8646
▁이르러	-8647
▁때문입니다	-8648
▁대대	-8649
▁감지	-8650
▁영상이	-8651
▁매번	-8652
▁00	-8653
▁같은데	-8654
▁마다	-8655
▁차지하고	-8656
!!!	-8657
▁사라지고	-8658
▁의미는	-8659
자라는	-8660
▁체제	-8661
어에	-8662
▁기록하며	-8663
▁임신	-8664
▁가기	-8665
▁도주	-8666
▁싶다면	-8667
야는	-8668
▁농구	-8669
▁1992	-8670
▁보다는	-8671
▁디아	-8672
리라고	-8673
▁바라는	-8674
▁반짝	-8675
▁주인공은	-8676
▁大	-8677
▁실버	-8678
▁올릴	-8679
바라	-8680
▁둘러싸	-8681
OP	-8682
▁정비	-8683
더스	-8684
▁취급을	-8685
▁스톰	-8686
▁아래에	-8687
▁포르투	-8688
시에는	-8689
▁SC	-8690
▁죽기	-8691
▁캐릭터는	-8692
되므로	-8693
▁그렇기	-8694
풀이	-8695
▁시즈	-8696
▁톰	-8697
▁했었다	-8698
지나	-8699
▁AK	-8700
▁기숙	-8701
리에게	-8702
▁남자는	-8703
▁사용이	-8704
▁제품을	-8705
▁안의	-8706
관련	-8707
목으로	-8708
▁전통적인	-8709
론에	-8710
own	-8711
▁공허	-8712
리거나	-8713
▁부품	-8714
▁않았다고	-8715
학이	-8716
▁세상의	-8717
▁늑대	-8718
▁대조	-8719
라이트	-8720
▁We	-8721
▁잉글	-8722
▁이곳에	-8723
건의	-8724
▁이하의	-8725
▁방송에서	-8726
▁도끼	-8727
▁신호	-8728
▁정도이다	-8729
국민	-8730
▁잠을	-8731
권으로	-8732
▁온다	-8733
커의	-8734
문에서	-8735
▁마약	-8736
▁뿔	-8737
▁첩	-8738
구역	-8739
▁소지	-8740
▁소중	-8741
▁불만을	-8742
▁시선을	-8743
▁1993	-8744
▁춤을	-8745
▁타자	-8746
커를	-8747
실점	-8748
▁살펴보면	-8749
▁자이언	-8750
▁가격은	-8751
년만에	-8752
▁사건에	-8753
▁부분에서	-8754
▁공개되었다	-8755
반이	-8756
ial	-8757
▁왕국	-8758
▁개념이	-8759
▁by	-8760
▁un	-8761
복지	-8762
▁테니	-8763
▁상급	-8764
관광	-8765
미한	-8766
▁패턴이	-8767
▁미래의	-8768
▁정찰	-8769
98	-8770
oy	-8771
▁경향	-8772
다리	-8773
▁별도의	-8774
▁기용	-8775
▁은하	-8776
▁회계	-8777
▁이식	-8778
▁주된	-8779
▁하시	-8780
▁자기를	-8781
▁램	-8782
▁신경쓰	-8783
▁해소	-8784
디의	-8785
ick	-8786
처리	-8787
여야	-8788
▁총알	-8789
▁재밌	-8790
▁권력을	-8791
▁유력	-8792
▁초반에는	-8793
▁인생의	-8794
▁끝났	-8795
▁승격	-8796
▁경기에	-8797
▁학교에서	-8798
▁말해서	-8799
▁장점이	-8800
▁확립	-8801
▁카라	-8802
▁어이	-8803
▁AR	-8804
거렸다	-8805
▁합병	-8806
▁현상을	-8807
▁세종	-8808
의의	-8809
▁그렇고	-8810
▁일어났다	-8811
▁아크	-8812
▁방법이다	-8813
▁메르	-8814
▁느끼게	-8815
▁보내고	-8816
▁노려	-8817
▁루이	-8818
▁진짜로	-8819
▁군주	-8820
▁역사가	-8821
▁들지	-8822
자들과	-8823
했기에	-8824
▁노부	-8825
▁포기하고	-8826
▁마르크	-8827
▁배운	-8828
▁업무를	-8829
▁공무원	-8830
▁바위	-8831
달라는	-8832
관계가	-8833
▁가능성은	-8834
▁가까워	-8835
▁동성	-8836
▁여자는	-8837
▁안타까	-8838
▁패션	-8839
발의	-8840
츠키	-8841
▁1988	-8842
▁시스템이	-8843
▁눈빛	-8844
▁밸런스	-8845
사나	-8846
▁감싸	-8847
▁사양	-8848
▁180	-8849
▁군단	-8850
▁승객	-8851
▁시그	-8852
▁관계에	-8853
▁마왕	-8854
▁사건은	-8855
して	-8856
▁휘말	-8857
▁추종	-8858
▁배경으로	-8859
▁기사를	-8860
자료	-8861
▁되므로	-8862
ear	-8863
▁군대를	-8864
▁왈	-8865
싱턴	-8866
▁사건으로	-8867
▁드라	-8868
▁주위	-8869
▁팬들	-8870
기게	-8871
▁충성	-8872
비트	-8873
구리	-8874
▁생각해보면	-8875
MA	-8876
너는	-8877
▁1~2	-8878
▁토벌	-8879
ike	-8880
▁챌	-8881
판으로	-8882
전대	-8883
▁선교	-8884
▁랭킹	-8885
▁특징을	-8886
슨은	-8887
▁실은	-8888
▁긴급	-8889
소송	-8890
▁걸리는	-8891
▁감추	-8892
▁형식으로	-8893
▁입수	-8894
▁얻었다	-8895
▁없으나	-8896
▁개척	-8897
산으로	-8898
▁주장했다	-8899
▁Tr	-8900
리지만	-8901
비전	-8902
▁터키	-8903
▁말과	-8904
▁인상을	-8905
▁심사	-8906
▁파생	-8907
▁초과	-8908
The	-8909
▁초록	-8910
▁품고	-8911
▁가령	-8912
▁혐오	-8913
▁뒤집어	-8914
이었을	-8915
’,	-8916
▁통화	-8917
▁되돌아	-8918
▁64	-8919
▁순서	-8920
▁이상은	-8921
▁일부를	-8922
▁앓	-8923
경영	-8924
까진	-8925
▁실질적인	-8926
제국	-8927
▁뜨거운	-8928
▁굵	-8929
▁오면	-8930
▁솜	-8931
▁대답했다	-8932
▁올바른	-8933
▁감수	-8934
그럼	-8935
▁바에	-8936
▁AC	-8937
속도가	-8938
▁배트	-8939
▁가벼운	-8940
님과	-8941
▁95	-8942
리는데	-8943
막이	-8944
▁스웨덴	-8945
▁클래스	-8946
▁최대의	-8947
▁화력	-8948
족을	-8949
▁피해가	-8950
▁쿨타임	-8951
▁1989	-8952
▁기병	-8953
▁나라가	-8954
러를	-8955
▁아닌데	-8956
▁보여줬다	-8957
▁틀어	-8958
▁주사	-8959
혁명	-8960
▁법적	-8961
▁【	-8962
▁개시	-8963
▁드러내	-8964
▁당했다	-8965
▁지나면	-8966
▁맡아	-8967
중이다	-8968
▁효과로	-8969
▁바이오	-8970
▁주차	-8971
로에	-8972
자리를	-8973
▁표정으로	-8974
▁메리	-8975
▁대신에	-8976
▁적당한	-8977
▁끝으로	-8978
▁구조를	-8979
▁거론	-8980
▁축하	-8981
▁몹시	-8982
물과	-8983
▁막내	-8984
▁용도로	-8985
반을	-8986
▁장면은	-8987
▁중소	-8988
▁크리티	-8989
▁웃음	-8990
▁Cl	-8991
▁두들	-8992
저런	-8993
▁신입	-8994
▁옆에서	-8995
▁공격할	-8996
▁몬스터를	-8997
▁FI	-8998
전차	-8999
▁뒤에는	-9000
▁중세	-9001
▁댄스	-9002
▁43	-9003
▁내용의	-9004
▁이루고	-9005
교가	-9006
▁대치	-9007
▁오고	-9008
▁피격	-9009
▁폭격	-9010
▁이나	-9011
하고도	-9012
▁왕자	-9013
세스	-9014
▁말투	-9015
▁해준다	-9016
▁사우	-9017
▁넘게	-9018
왔고	-9019
▁어디에	-9020
▁사형	-9021
연은	-9022
man	-9023
▁어려울	-9024
▁숙련	-9025
가서	-9026
▁이럴	-9027
▁위치해	-9028
▁씨는	-9029
▁동일하다	-9030
▁흥분	-9031
한을	-9032
▁덤으로	-9033
▁사토	-9034
▁브로	-9035
▁성능은	-9036
▁것이므로	-9037
디는	-9038
▁곁에	-9039
▁닮은	-9040
▁마음은	-9041
ost	-9042
▁대통령의	-9043
패로	-9044
▁개를	-9045
▁누군가가	-9046
▁먹으면	-9047
▁모니	-9048
하세요	-9049
▁자폭	-9050
▁Com	-9051
▁많지만	-9052
▁결혼을	-9053
▁피부	-9054
▁영화의	-9055
▁꽉	-9056
▁수류	-9057
▁건네	-9058
▁밤에	-9059
▁사용하기	-9060
▁굶	-9061
진에	-9062
▁아울러	-9063
▁카트	-9064
▁비교하면	-9065
▁원자	-9066
▁누워	-9067
▁상대에게	-9068
래의	-9069
▁이데	-9070
▁쓸데	-9071
사들이	-9072
▁되었습니다	-9073
▁여학생	-9074
▁시절부터	-9075
▁골든	-9076
▁후반에	-9077
▁시대를	-9078
▁이명	-9079
면의	-9080
▁파고	-9081
▁굿	-9082
▁합체	-9083
▁효율이	-9084
▁바와	-9085
▁세력이	-9086
▁연대	-9087
▁반박	-9088
▁사라진다	-9089
론적	-9090
▁흐르는	-9091
▁나폴	-9092
▁퀘스트를	-9093
작은	-9094
▁선출	-9095
▁일본에	-9096
번은	-9097
▁너머	-9098
▁게임은	-9099
▁꿈꾸	-9100
ID	-9101
▁동부	-9102
렸다는	-9103
▁붓	-9104
▁최근에	-9105
▁행동이	-9106
▁챕터	-9107
▁담아	-9108
능한	-9109
▁것이나	-9110
▁과정이	-9111
미네	-9112
▁남기고	-9113
EM	-9114
▁장비를	-9115
▁칼날	-9116
▁포위	-9117
▁대가	-9118
▁결정을	-9119
▁벽에	-9120
▁혈액	-9121
더를	-9122
거라	-9123
▁예전에	-9124
주차	-9125
▁영향으로	-9126
▁허리	-9127
▁후의	-9128
▁매입	-9129
▁태어났다	-9130
▁갤러리	-9131
▁트랜	-9132
▁아이들	-9133
▁낮다	-9134
-20	-9135
▁국가가	-9136
던지	-9137
▁가해	-9138
신에	-9139
▁모집	-9140
▁돌아왔다	-9141
기며	-9142
▁모습에	-9143
가에서	-9144
▁환승	-9145
▁찾고	-9146
▁취업	-9147
▁자본주의	-9148
더가	-9149
▁플랫폼	-9150
▁바라보는	-9151
▁맥락	-9152
▁홈런을	-9153
업체	-9154
▁매매	-9155
▁유닛을	-9156
▁권장	-9157
았기	-9158
▁알바	-9159
66	-9160
▁비율	-9161
▁원을	-9162
▁사태가	-9163
▁상태였다	-9164
년생	-9165
스피	-9166
후에	-9167
▁미스터	-9168
▁여성이	-9169
▁뿐이었다	-9170
▁공룡	-9171
▁히데	-9172
▁마음대로	-9173
▁페널티	-9174
▁놔	-9175
배우	-9176
하길	-9177
슨이	-9178
▁심심	-9179
▁군인	-9180
▁지극	-9181
orld	-9182
▁플레이어의	-9183
▁영토	-9184
▁안드로이드	-9185
▁답이	-9186
▁약속을	-9187
▁판정이	-9188
▁소식이	-9189
▁단축	-9190
▁이루는	-9191
per	-9192
▁이란	-9193
▁호위	-9194
▁미치	-9195
▁한계를	-9196
▁영문	-9197
▁목적은	-9198
▁ch	-9199
▁톱	-9200
롭고	-9201
▁대인	-9202
77	-9203
▁보석	-9204
▁규모가	-9205
청을	-9206
ook	-9207
심은	-9208
▁시작할	-9209
▁목적이	-9210
말이	-9211
▁방치	-9212
▁전날	-9213
▁적극적인	-9214
먹은	-9215
▁싶다고	-9216
▁데는	-9217
▁더군	-9218
▁한번에	-9219
▁전까지는	-9220
당하게	-9221
▁용이	-9222
국제	-9223
▁미카	-9224
▁7.	-9225
▁1991	-9226
▁과장	-9227
▁실수를	-9228
잖아요	-9229
▁편이라	-9230
임의	-9231
공업	-9232
▁표현을	-9233
우면	-9234
▁받아야	-9235
강을	-9236
▁고쳐	-9237
▁예정이다	-9238
▁SM	-9239
밀히	-9240
OM	-9241
범죄	-9242
▁적다	-9243
▁취향	-9244
▁언급이	-9245
▁나고	-9246
▁베네	-9247
▁와중	-9248
▁모습도	-9249
▁분쟁	-9250
/0	-9251
▁아니기	-9252
▁부적	-9253
▁탈퇴	-9254
▁▶	-9255
▁반사	-9256
▁세금	-9257
▁?	-9258
라고도	-9259
▁책은	-9260
▁공감	-9261
적으로도	-9262
▁타격을	-9263
▁불이	-9264
▁가슴이	-9265
▁신선	-9266
▁하나만	-9267
느니	-9268
차게	-9269
▁상자	-9270
▁평양	-9271
▁펄	-9272
▁유니폼	-9273
ov	-9274
▁주둔	-9275
▁영향력을	-9276
▁약점	-9277
▁사용된다	-9278
▁친한	-9279
본을	-9280
▁세계관	-9281
aw	-9282
분은	-9283
슨의	-9284
▁격려	-9285
▁로그	-9286
▁노르	-9287
▁번에	-9288
▁사고가	-9289
▁인증	-9290
▁김민	-9291
▁전락	-9292
▁힌	-9293
▁주시	-9294
▁멤버들이	-9295
었어	-9296
조와	-9297
▁아쿠	-9298
▁지경	-9299
협회	-9300
▁사도	-9301
하진	-9302
▁감동	-9303
▁한창	-9304
▁넘치는	-9305
▁MVP	-9306
▁일곱	-9307
▁처음엔	-9308
▁캡틴	-9309
▁이유도	-9310
미에	-9311
▁무기가	-9312
▁시작되었다	-9313
▁따뜻한	-9314
▁후퇴	-9315
천의	-9316
통합	-9317
클럽	-9318
해온	-9319
▁조롱	-9320
▁무거운	-9321
▁고기	-9322
▁한국에서는	-9323
▁모르지만	-9324
▁부상으로	-9325
▁유인	-9326
▁독재	-9327
▁예산	-9328
▁별명	-9329
▁나갔다	-9330
해줄	-9331
▁코어	-9332
▁아픈	-9333
▁알아야	-9334
▁공정	-9335
▁한숨	-9336
단지	-9337
움에	-9338
▁드레	-9339
보이는	-9340
보의	-9341
▁미국이	-9342
▁노인	-9343
▁1,000	-9344
▁세포	-9345
▁묘사가	-9346
▁유입	-9347
▁Be	-9348
▁공무	-9349
베이터	-9350
월의	-9351
층이	-9352
▁뚫고	-9353
ian	-9354
결정	-9355
▁선택한	-9356
▁스튜디오	-9357
▁어렵게	-9358
▁바란다	-9359
초등학교	-9360
▁들어가서	-9361
달아	-9362
~20	-9363
▁관해	-9364
▁시즌을	-9365
▁킨	-9366
▁비트	-9367
▁냈다	-9368
▁지워	-9369
▁정수	-9370
▁챌린	-9371
체육	-9372
▁피고	-9373
▁막대한	-9374
▁즐기는	-9375
▁유저들은	-9376
▁향후	-9377
▁지역은	-9378
▁막는	-9379
▁정해진	-9380
민을	-9381
▁마감	-9382
▁람	-9383
너가	-9384
무장	-9385
▁세력을	-9386
▁재미있는	-9387
▁귀여운	-9388
미로	-9389
강에	-9390
▁Pl	-9391
▁끝나는	-9392
▁퍼져	-9393
▁뜻한다	-9394
▁코코	-9395
▁단위	-9396
▁부르고	-9397
더의	-9398
▁상반	-9399
▁더욱이	-9400
ork	-9401
론과	-9402
치도	-9403
▁더군다나	-9404
▁아래의	-9405
▁상의	-9406
▁쪽은	-9407
▁집어넣	-9408
▁크리티컬	-9409
▁평을	-9410
렸지만	-9411
▁내야	-9412
독한	-9413
▁부자	-9414
겠어요	-9415
해하는	-9416
▁받아서	-9417
75	-9418
해준	-9419
▁부채	-9420
▁돌입	-9421
▁튼튼	-9422
요한	-9423
▁치명적인	-9424
▁화폐	-9425
▁조선의	-9426
▁남쪽	-9427
▁훼	-9428
▁뒤늦게	-9429
▁되살	-9430
▁아이러니	-9431
외의	-9432
▁시가	-9433
▁올랐	-9434
접한	-9435
▁주어	-9436
▁짐승	-9437
▁정식으로	-9438
통의	-9439
▁포트	-9440
▁기대를	-9441
▁제임스	-9442
량으로	-9443
원들은	-9444
hen	-9445
▁KO	-9446
▁지팡	-9447
▁초중	-9448
▁사냥꾼	-9449
▁가난한	-9450
pt	-9451
▁스프링	-9452
▁바람이	-9453
▁가동	-9454
저의	-9455
▁저지른	-9456
저가	-9457
▁샌드	-9458
▁규정에	-9459
▁싶을	-9460
능력이	-9461
▁수록곡	-9462
36	-9463
▁42	-9464
는다면	-9465
▁블레이	-9466
▁관측	-9467
▁전파	-9468
▁대거	-9469
▁밥을	-9470
▁로스	-9471
▁업체	-9472
▁연령	-9473
▁시절에는	-9474
▁아내가	-9475
▁너무나도	-9476
▁거라	-9477
▁삼국지	-9478
▁해가	-9479
▁무기는	-9480
________________	-9481
▁설정을	-9482
퍼스	-9483
▁어색	-9484
▁김재	-9485
▁독립운동	-9486
하였던	-9487
내어	-9488
▁쇼핑	-9489
▁배달	-9490
▁실수로	-9491
▁급속	-9492
▁필살기	-9493
강의	-9494
▁건물을	-9495
▁WW	-9496
▁일행이	-9497
▁호기	-9498
되었기	-9499
▁극대	-9500
▁가진다	-9501
혀서	-9502
▁불평	-9503
▁해안	-9504
▁선행	-9505
▁상대는	-9506
▁보여줬	-9507
인데다	-9508
▁고맙	-9509
▁600	-9510
▁좋아서	-9511
▁즉위	-9512
▁대다수	-9513
▁처참	-9514
▁DJ	-9515
▁부모가	-9516
▁많기	-9517
심에	-9518
▁창출	-9519
있었다	-9520
티나	-9521
▁신도	-9522
▁수능	-9523
▁아즈	-9524
ond	-9525
▁엘프	-9526
방울	-9527
보이	-9528
▁니코	-9529
편을	-9530
저리	-9531
▁98	-9532
▁건조	-9533
▁소용	-9534
▁시작된다	-9535
▁돌아다니	-9536
▁원딜	-9537
르와	-9538
▁웃음을	-9539
▁볼넷	-9540
▁스턴	-9541
▁아메리카	-9542
▁마냥	-9543
▁풀려	-9544
노는	-9545
저럭	-9546
▁구름	-9547
▁내밀	-9548
▁세이버	-9549
시키지	-9550
▁대지	-9551
▁자를	-9552
▁아니야	-9553
▁발라	-9554
열이	-9555
▁햄	-9556
▁수도권	-9557
▁간섭	-9558
제품	-9559
▁억울	-9560
▁무엇인지	-9561
지는데	-9562
▁엘리트	-9563
▁회상	-9564
불을	-9565
sh	-9566
▁http	-9567
▁첼	-9568
박이	-9569
▁표정	-9570
▁남자의	-9571
▁출연한	-9572
병원	-9573
레의	-9574
주의자	-9575
▁쫓겨	-9576
▁준수한	-9577
바가	-9578
▁일방적으로	-9579
▁멘탈	-9580
▁부르며	-9581
세와	-9582
올로	-9583
▁입에	-9584
게이	-9585
럭저럭	-9586
▁웬만한	-9587
▁담고	-9588
아도	-9589
▁이틀	-9590
두에	-9591
▁we	-9592
▁지키고	-9593
▁이펙	-9594
▁사회에	-9595
▁상속	-9596
▁났다	-9597
당과	-9598
▁49	-9599
▁내장	-9600
▁어서	-9601
▁회사를	-9602
▁비틀	-9603
시간에	-9604
어버린	-9605
▁마찬가지다	-9606
터테인	-9607
▁항복	-9608
형태	-9609
랍니다	-9610
▁남는	-9611
▁도착한	-9612
▁이수	-9613
▁죽었다	-9614
▁하루에	-9615
▁크리스마스	-9616
▁남편이	-9617
타운	-9618
▁밖에서	-9619
▁이해하고	-9620
▁최다	-9621
▁호칭	-9622
▁나머지는	-9623
▁소재로	-9624
▁지속적인	-9625
▁와타	-9626
▁사회에서	-9627
▁가능하게	-9628
▁부유	-9629
사고	-9630
▁※	-9631
방은	-9632
▁때에도	-9633
▁문서를	-9634
▁무시무	-9635
:2	-9636
▁별도로	-9637
▁펑	-9638
▁운명	-9639
▁찾아온	-9640
츠는	-9641
▁난입	-9642
▁바꾸는	-9643
▁충청	-9644
▁문장	-9645
▁가죽	-9646
▁본격적인	-9647
▁안나	-9648
▁됨	-9649
▁기믹	-9650
▁축소	-9651
▁흑인	-9652
▁한계가	-9653
▁up	-9654
▁캐리	-9655
▁포르투갈	-9656
▁네이	-9657
▁이득을	-9658
▁이루어지는	-9659
했어	-9660
▁올라가는	-9661
▁불쌍	-9662
▁1950	-9663
▁실존	-9664
▁kt	-9665
▁운이	-9666
▁귀환	-9667
▁당할	-9668
▁국회	-9669
추는	-9670
▁주면	-9671
▁이곳에서	-9672
▁노무	-9673
타수	-9674
▁사서	-9675
편이	-9676
▁안심	-9677
가요	-9678
▁때와	-9679
▁조언	-9680
▁안녕	-9681
▁시작했고	-9682
▁오스트리아	-9683
▁일원	-9684
▁할까	-9685
-10	-9686
▁세상이	-9687
▁고교	-9688
▁단행	-9689
▁올리고	-9690
▁편에	-9691
▁연료	-9692
뿐이다	-9693
머가	-9694
▁쪽에	-9695
▁Al	-9696
▁패스	-9697
사우	-9698
▁주장이	-9699
▁금속	-9700
▁만만	-9701
▁총기	-9702
▁끌어올	-9703
▁귀국	-9704
▁웃는	-9705
▁삽입	-9706
▁전투에	-9707
▁넣을	-9708
▁My	-9709
▁살아가	-9710
▁공간을	-9711
NA	-9712
▁교도	-9713
▁귀신	-9714
▁낸다	-9715
▁카미	-9716
▁Ex	-9717
▁온몸	-9718
▁출간	-9719
▁이윤	-9720
▁디지몬	-9721
▁노릇	-9722
▁소문이	-9723
▁네임	-9724
▁재활	-9725
▁세르	-9726
▁업데이트로	-9727
렸는데	-9728
▁예방	-9729
▁완결	-9730
▁조그	-9731
▁언더	-9732
▁것과는	-9733
▁IS	-9734
▁IM	-9735
▁커녕	-9736
▁전투가	-9737
▁북쪽	-9738
▁그럭저럭	-9739
▁주장한다	-9740
▁네덜란드	-9741
▁발로	-9742
▁구글	-9743
▁제작한	-9744
▁클라	-9745
▁과목	-9746
▁빛나는	-9747
▁마비	-9748
▁벽을	-9749
▁많을	-9750
▁읽을	-9751
▁수직	-9752
▁인정하고	-9753
▁망설	-9754
▁1987	-9755
손으로	-9756
시간을	-9757
▁일일	-9758
▁담겨	-9759
▁매도	-9760
▁투명	-9761
▁플레이어를	-9762
▁둘을	-9763
등록	-9764
▁특징이다	-9765
▁여자를	-9766
▁이가	-9767
5,	-9768
▁번의	-9769
▁적게	-9770
▁블라	-9771
▁영혼을	-9772
플렉	-9773
▁전함	-9774
▁시위	-9775
▁슈팅	-9776
▁생태	-9777
now	-9778
량과	-9779
▁인구가	-9780
▁과거에는	-9781
▁이르기까지	-9782
▁마그	-9783
금융	-9784
▁곡이	-9785
▁코믹스	-9786
▁면접	-9787
▁수면	-9788
▁애매한	-9789
재는	-9790
▁드러난다	-9791
EO	-9792
▁녹색	-9793
▁요소를	-9794
▁>	-9795
▁카를	-9796
ical	-9797
테이션	-9798
▁실종	-9799
여자	-9800
▁캐논	-9801
▁부가	-9802
▁또다른	-9803
호로	-9804
▁멜로	-9805
▁싶다는	-9806
▁연기를	-9807
벽을	-9808
신문	-9809
절이	-9810
▁규정하고	-9811
▁Me	-9812
▁나빠	-9813
▁않았기	-9814
매가	-9815
▁희귀	-9816
성능	-9817
장갑	-9818
▁생명의	-9819
후반	-9820
▁가리지	-9821
▁증가한다	-9822
술사	-9823
일즈	-9824
▁전철	-9825
▁담당하는	-9826
▁후원	-9827
▁의지를	-9828
▁서울특별	-9829
▁부임	-9830
▁New	-9831
▁두는	-9832
▁여론	-9833
거든요	-9834
▁지키기	-9835
음과	-9836
놓는	-9837
OT	-9838
ph	-9839
▁SKT	-9840
ite	-9841
▁인식이	-9842
히게	-9843
시키며	-9844
▁분이	-9845
▁현실의	-9846
ix	-9847
▁마신	-9848
▁포스	-9849
▁의견도	-9850
아파트	-9851
▁격추	-9852
포인트	-9853
▁오마	-9854
▁할인	-9855
▁En	-9856
▁뭐가	-9857
▁못해서	-9858
▁동남	-9859
너의	-9860
▁질투	-9861
▁문화적	-9862
▁되었지만	-9863
▁크기가	-9864
▁죽게	-9865
노스	-9866
▁pp	-9867
▁말인가	-9868
▁날짜	-9869
사이트	-9870
▁1:1	-9871
▁천사	-9872
▁면역	-9873
▁하트	-9874
▁어렵지	-9875
▁소드	-9876
▁영원한	-9877
▁담은	-9878
▁글이	-9879
▁하는지	-9880
▁자랑하는	-9881
▁도와주	-9882
▁하나하나	-9883
▁끼고	-9884
▁마키	-9885
▁공격은	-9886
▁싶었다	-9887
▁토대로	-9888
▁폴란드	-9889
▁늘었다	-9890
▁히로인	-9891
곡이	-9892
▁카카	-9893
▁김일	-9894
▁이라고	-9895
녀가	-9896
혹한	-9897
▁진압	-9898
▁편지	-9899
▁인스타	-9900
▁남겼다	-9901
▁묻는	-9902
▁카드의	-9903
▁대외	-9904
이동	-9905
▁결국은	-9906
초를	-9907
▁딸을	-9908
▁역임	-9909
▁얼마든지	-9910
▁내일	-9911
▁쉐	-9912
▁개량	-9913
▁지뢰	-9914
▁문화를	-9915
▁분산	-9916
▁유저들의	-9917
▁속한	-9918
▁평타	-9919
▁수의	-9920
▁나타났	-9921
▁이외에	-9922
▁때를	-9923
하느냐	-9924
▁잘하는	-9925
OW	-9926
▁존재로	-9927
▁마스크	-9928
▁카오스	-9929
니즘	-9930
원들의	-9931
▁식사를	-9932
6,	-9933
돼서	-9934
▁리뷰	-9935
▁줬	-9936
▁따온	-9937
▁모모	-9938
4.	-9939
▁음성	-9940
▁한나라	-9941
▁채팅	-9942
▁통계	-9943
▁시계	-9944
▁차고	-9945
야를	-9946
▁가졌다	-9947
줘서	-9948
から	-9949
▁지녔	-9950
▁초보	-9951
▁SNS	-9952
▁의미의	-9953
▁구슬	-9954
▁코치	-9955
째로	-9956
▁가상	-9957
▁진학	-9958
▁업로드	-9959
▁움직임을	-9960
▁숫자	-9961
▁현역	-9962
▁균형	-9963
▁필연	-9964
▁거는	-9965
▁연속으로	-9966
▁데이비	-9967
점과	-9968
▁약화	-9969
▁It	-9970
▁당일	-9971
생산	-9972
▁모양의	-9973
▁타이거	-9974
나간	-9975
▁장치	-9976
저는	-9977
디를	-9978
후가	-9979
▁아저씨	-9980
▁약탈	-9981
▁변호사	-9982
어머니	-9983
▁가슴에	-9984
▁기지	-9985
▁게이트	-9986
▁교류	-9987
▁배정	-9988
▁고난	-9989
▁바른	-9990
▁원천	-9991
▁무산	-9992
▁88	-9993
▁길에	-9994
들로부터	-9995
▁이런저런	-9996
▁북부	-9997
▁감상	-9998
▁이벤트를	-9999
▁장면에서	-10000
겠습니까	-10001
쾌한	-10002
▁THE	-10003
▁경우엔	-10004
▁슛	-10005
놓았다	-10006
처를	-10007
나도	-10008
▁너프	-10009
▁부과	-10010
▁스틸	-10011
▁스톤	-10012
블로	-10013
리기도	-10014
▁명시	-10015
감으로	-10016
▁막강	-10017
ress	-10018
▁아버지와	-10019
결과	-10020
▁유지하는	-10021
▁여담이지만	-10022
▁우린	-10023
▁김현	-10024
▁시체	-10025
▁주가	-10026
▁얼굴로	-10027
다시피	-10028
▁들여다	-10029
▁유동	-10030
▁관람	-10031
▁비율이	-10032
▁전쟁의	-10033
iss	-10034
▁플레이오프	-10035
▁소방	-10036
▁시의	-10037
▁거둔	-10038
▁꾀	-10039
하셨	-10040
▁학부	-10041
사관	-10042
▁잎	-10043
▁사쿠라	-10044
▁스토리를	-10045
▁세우고	-10046
애를	-10047
った	-10048
▁씨가	-10049
지라도	-10050
▁유학	-10051
▁개인적인	-10052
▁안정적인	-10053
▁변해	-10054
▁사이로	-10055
▁대미지가	-10056
▁최우	-10057
▁공성	-10058
▁이글	-10059
▁5,	-10060
▁배포	-10061
▁누르면	-10062
▁이종	-10063
EX	-10064
▁발견한	-10065
분으로	-10066
격의	-10067
▁되었던	-10068
일으	-10069
▁이루어지	-10070
공학	-10071
▁브레	-10072
▁다가가	-10073
▁슬롯	-10074
움과	-10075
▁아이콘	-10076
▁워싱턴	-10077
▁컬러	-10078
▁버튼을	-10079
▁사랑이	-10080
준이	-10081
▁세부	-10082
▁여자의	-10083
▁세이브	-10084
▁나치	-10085
▁말하지	-10086
▁발전을	-10087
▁놀랍	-10088
▁애플	-10089
▁골을	-10090
온의	-10091
들이나	-10092
▁노리는	-10093
믹스	-10094
운이	-10095
▁불펜	-10096
▁삼각	-10097
UN	-10098
▁받으면	-10099
유닛	-10100
▁희망을	-10101
▁혼돈	-10102
▁두드러	-10103
▁인류의	-10104
▁개성	-10105
▁학생들은	-10106
pe	-10107
훈이	-10108
▁트윈	-10109
▁─	-10110
▁노리고	-10111
▁이의	-10112
!”	-10113
~6	-10114
합을	-10115
▁폐기	-10116
▁등장하며	-10117
합이	-10118
▁데서	-10119
▁아무튼	-10120
▁인권	-10121
▁공격으로	-10122
▁타겟	-10123
▁빼면	-10124
▁칩	-10125
▁역사의	-10126
▁Se	-10127
▁개체	-10128
▁무리가	-10129
▁있겠다	-10130
▁시간과	-10131
▁확진자가	-10132
▁기존에	-10133
여행	-10134
▁악몽	-10135
▁연봉	-10136
▁치료를	-10137
▁야생	-10138
▁여기저기	-10139
▁집권	-10140
▁방을	-10141
▁만들어서	-10142
▁중시	-10143
▁드림	-10144
▁톤	-10145
▁바닷	-10146
▁주의해야	-10147
회초	-10148
▁약을	-10149
▁더이상	-10150
▁모두를	-10151
▁취약	-10152
▁구석	-10153
▁줄여	-10154
▁팔아	-10155
▁흡혈	-10156
ans	-10157
▁기둥	-10158
▁재건	-10159
▁히카	-10160
▁차기	-10161
▁인정하는	-10162
▁신중	-10163
▁지각	-10164
▁뱃	-10165
▁제한이	-10166
▁보이는데	-10167
▁뜯어	-10168
OC	-10169
▁Te	-10170
▁인간과	-10171
▁고집	-10172
▁것이니	-10173
▁힘들어	-10174
▁유럽의	-10175
▁참여한	-10176
▁응답	-10177
▁철저하게	-10178
스트는	-10179
ence	-10180
ich	-10181
오로	-10182
▁바뀐다	-10183
▁학교를	-10184
▁해골	-10185
▁한꺼	-10186
터로	-10187
시키면	-10188
우스의	-10189
▁클래식	-10190
▁그곳에	-10191
ib	-10192
▁세상에서	-10193
▁문재인	-10194
▁원시	-10195
▁쏜	-10196
▁진술	-10197
▁기름	-10198
리학	-10199
▁긁	-10200
▁교전	-10201
▁열차	-10202
▁본다면	-10203
▁일기	-10204
갔고	-10205
▁등도	-10206
▁고무	-10207
비디오	-10208
▁달리는	-10209
▁농촌	-10210
지능	-10211
▁요정	-10212
▁길드	-10213
▁청와	-10214
▁트라이	-10215
▁조약	-10216
▁것이지	-10217
▁성별	-10218
▁선임	-10219
▁돌아갈	-10220
▁사나	-10221
▁거라는	-10222
▁어머니를	-10223
▁철수	-10224
▁are	-10225
루와	-10226
▁보건	-10227
▁188	-10228
▁나중에는	-10229
▁인원	-10230
곡으로	-10231
▁흐름을	-10232
ft	-10233
▁상식	-10234
▁규모의	-10235
▁기술의	-10236
▁골라	-10237
▁만들어낸	-10238
으라고	-10239
▁오락	-10240
ile	-10241
정하고	-10242
▁선제	-10243
▁사용했다	-10244
▁동쪽	-10245
▁맞을	-10246
▁비용을	-10247
▁사살	-10248
▁악의	-10249
▁발생할	-10250
상품	-10251
▁치면	-10252
▁시키는	-10253
▁낡	-10254
해져서	-10255
▁헤비	-10256
▁헝	-10257
▁압도적으로	-10258
▁쿼	-10259
▁비평	-10260
▁해명	-10261
티를	-10262
모드	-10263
변을	-10264
▁설령	-10265
▁not	-10266
▁측에서	-10267
버를	-10268
▁티켓	-10269
▁대성	-10270
▁사자	-10271
▁주인이	-10272
대고	-10273
▁능력으로	-10274
▁일부는	-10275
▁팀에	-10276
▁자연의	-10277
절로	-10278
▁만나고	-10279
사이드	-10280
▁출시된	-10281
▁점검	-10282
▁한꺼번에	-10283
▁문이	-10284
▁수익을	-10285
▁규제	-10286
들에게도	-10287
적에	-10288
▁아이들의	-10289
▁가자	-10290
▁비용이	-10291
▁성적이	-10292
▁퀴	-10293
▁막고	-10294
▁악역	-10295
시대의	-10296
▁스토리가	-10297
유키	-10298
▁천연	-10299
▁언급된	-10300
▁不	-10301
▁비주	-10302
▁기점으로	-10303
▁허무	-10304
▁없었지만	-10305
▁공격한다	-10306
▁정반	-10307
▁권유	-10308
▁전무	-10309
▁탐험	-10310
시켜야	-10311
▁안겨	-10312
▁이순	-10313
사단	-10314
초의	-10315
사회의	-10316
▁챔피언스	-10317
▁본선	-10318
▁친척	-10319
▁×	-10320
좋은	-10321
위해	-10322
▁일행을	-10323
▁일본이	-10324
▁다이아몬	-10325
▁라틴	-10326
▁명칭은	-10327
▁LC	-10328
▁파멸	-10329
▁지나가는	-10330
▁황제의	-10331
▁부근	-10332
▁토마	-10333
▁위험이	-10334
▁배울	-10335
▁전승	-10336
자라고	-10337
수익	-10338
▁타당	-10339
ach	-10340
▁레어	-10341
▁가슴을	-10342
▁하차	-10343
어버리는	-10344
▁야스	-10345
▁주거	-10346
▁해당한다	-10347
변이	-10348
▁그레	-10349
▁아름답	-10350
▁메모	-10351
▁정답	-10352
▁암시	-10353
47	-10354
▁대표하는	-10355
▁쓰게	-10356
▁스킬은	-10357
백이	-10358
나라는	-10359
▁불러일으	-10360
▁보낼	-10361
▁유용한	-10362
▁미국과	-10363
체제	-10364
▁움직일	-10365
▁시작하였다	-10366
▁후보로	-10367
▁유망	-10368
▁혁신	-10369
▁창설	-10370
들에서	-10371
▁도시의	-10372
▁at	-10373
▁버그가	-10374
▁위와	-10375
▁수천	-10376
▁피로	-10377
▁편이지만	-10378
▁예쁘	-10379
주의는	-10380
▁can	-10381
▁위력을	-10382
▁이벤트가	-10383
담이	-10384
▁아미	-10385
▁최저	-10386
▁부패	-10387
▁호의	-10388
▁대표팀	-10389
▁샀	-10390
군에게	-10391
했으니	-10392
▁매직	-10393
▁점유	-10394
▁듣는다	-10395
내에	-10396
▁가져가	-10397
-19	-10398
▁남한	-10399
▁조금이라도	-10400
▁도움으로	-10401
크에	-10402
▁회사에	-10403
업에	-10404
▁이긴	-10405
▁적절히	-10406
▁빌드	-10407
▁의문을	-10408
▁불과하다	-10409
▁믿지	-10410
▁이렇듯	-10411
▁자세를	-10412
부인	-10413
입니까	-10414
▁하에	-10415
▁탄약	-10416
▁미라	-10417
▁이어져	-10418
▁GS	-10419
▁56	-10420
▁뜻으로	-10421
즈마	-10422
▁책이	-10423
▁포장	-10424
량에	-10425
▁않다고	-10426
▁히틀	-10427
▁엇	-10428
병으로	-10429
▁도박	-10430
▁전신	-10431
▁조리	-10432
▁박물	-10433
▁벙	-10434
고속도로	-10435
▁여부를	-10436
www	-10437
▁쌍둥이	-10438
▁다음의	-10439
공간	-10440
▁콜라보	-10441
님께서	-10442
▁유닛이	-10443
▁닌자	-10444
▁여럿	-10445
▁나오면서	-10446
▁빅토	-10447
▁입는	-10448
▁플레이어는	-10449
번호	-10450
환으로	-10451
▁커뮤니케이션	-10452
▁일으키는	-10453
▁그랜드	-10454
▁어울리는	-10455
것이다	-10456
▁초창기	-10457
▁엄격	-10458
▁트롤	-10459
▁오늘은	-10460
▁아일랜드	-10461
▁저택	-10462
oo	-10463
▁자유로운	-10464
▁분야에서	-10465
▁85	-10466
▁규범	-10467
▁평가는	-10468
▁끝나면	-10469
책으로	-10470
▁데드	-10471
▁프리큐어	-10472
프라	-10473
전기	-10474
▁오버워	-10475
▁단어를	-10476
▁카드는	-10477
▁활용할	-10478
▁최하	-10479
▁딸이	-10480
▁끝난다	-10481
▁쉬워	-10482
▁al	-10483
▁해피	-10484
▁악화	-10485
▁열리는	-10486
▁따르	-10487
▁마루	-10488
▁경매	-10489
ary	-10490
▁뛰어들	-10491
▁정하는	-10492
▁세계로	-10493
▁박스	-10494
▁적합한	-10495
용은	-10496
▁부지	-10497
두를	-10498
▁그리스도	-10499
하늘	-10500
▁부모의	-10501
▁길고	-10502
▁버릴	-10503
▁주간	-10504
▁서쪽	-10505
▁다시금	-10506
내려	-10507
▁껍	-10508
자이다	-10509
▁특히나	-10510
▁쏘는	-10511
▁촉진	-10512
▁포도	-10513
▁동경	-10514
▁돼지	-10515
▁화물	-10516
봤자	-10517
▁아니었	-10518
▁싼	-10519
▁잇는	-10520
시에서	-10521
보라	-10522
▁떨어졌다	-10523
▁분할	-10524
▁경험치	-10525
▁프리미엄	-10526
▁아침에	-10527
오면	-10528
▁대출	-10529
▁사회를	-10530
위권	-10531
▁제약	-10532
▁그래서인지	-10533
▁KIA	-10534
▁적고	-10535
old	-10536
▁엉덩	-10537
▁설명할	-10538
건설	-10539
운을	-10540
▁전세계	-10541
▁기술로	-10542
▁적으로	-10543
▁한편으로는	-10544
봐도	-10545
▁하려	-10546
상으로는	-10547
▁후기	-10548
안으로	-10549
▁하였고	-10550
▁나눈	-10551
▁곡이다	-10552
▁받았고	-10553
▁계획이	-10554
▁패턴을	-10555
▁아나운	-10556
▁정한	-10557
▁실질적으로	-10558
▁기관총	-10559
주의에	-10560
▁체인	-10561
▁선수를	-10562
▁가라앉	-10563
▁스타크래프트	-10564
커스	-10565
▁작전을	-10566
▁이어진	-10567
경기에서	-10568
니티	-10569
▁위험을	-10570
▁민중	-10571
▁나오게	-10572
들여	-10573
▁어느새	-10574
심과	-10575
리아가	-10576
▁얹	-10577
잡이	-10578
▁일대	-10579
▁미소	-10580
▁살던	-10581
▁증오	-10582
된다면	-10583
액이	-10584
▁있기는	-10585
▁통틀	-10586
▁라이프	-10587
▁작사	-10588
▁순간에	-10589
▁가공	-10590
:00	-10591
▁수요가	-10592
▁니콜	-10593
▁장전	-10594
영웅	-10595
줄을	-10596
▁듣지	-10597
▁시장의	-10598
▁대답을	-10599
▁과제	-10600
▁제안을	-10601
해주고	-10602
피가	-10603
적ᆞ	-10604
▁아이언	-10605
▁철거	-10606
▁자체에	-10607
▁기생	-10608
▁데몬	-10609
▁줄을	-10610
▁중복	-10611
▁무인	-10612
주교	-10613
▁공격력을	-10614
▁다짐	-10615
▁짜증	-10616
▁설명하는	-10617
▁귀를	-10618
▁김기	-10619
성에서	-10620
▁뮤지컬	-10621
▁예선	-10622
▁귀엽	-10623
▁프로듀서	-10624
▁플레이가	-10625
▁나왔던	-10626
락이	-10627
▁특징은	-10628
IP	-10629
견을	-10630
▁채무	-10631
▁축제	-10632
▁권위	-10633
▁반응은	-10634
키퍼	-10635
키지	-10636
▁알았다	-10637
▁자전거	-10638
▁수동	-10639
▁용어	-10640
▁중심의	-10641
금으로	-10642
▁얻어맞	-10643
▁진지하게	-10644
▁전작의	-10645
적이지	-10646
▁지방의	-10647
▁사제	-10648
▁재개	-10649
▁명문	-10650
▁싶으면	-10651
46	-10652
▁동일하게	-10653
▁비하	-10654
▁사전에	-10655
▁클랜	-10656
LL	-10657
법과	-10658
▁장관	-10659
▁주인공인	-10660
포는	-10661
▁노벨	-10662
저를	-10663
필드	-10664
▁감탄	-10665
▁250	-10666
▁기다리는	-10667
▁진행하는	-10668
▁매치	-10669
▁열었다	-10670
이요	-10671
▁삶에	-10672
▁함선	-10673
▁실패한	-10674
▁카와	-10675
▁무력화	-10676
▁공지	-10677
▁하향	-10678
▁준우승	-10679
▁신을	-10680
보병	-10681
▁정권	-10682
▁알기	-10683
구치	-10684
▁다시는	-10685
▁짓는	-10686
주의와	-10687
▁모른다는	-10688
▁밑에서	-10689
▁아이스	-10690
▁배워	-10691
▁의사를	-10692
▁짓고	-10693
▁세우	-10694
▁기다려	-10695
▁성향이	-10696
드래	-10697
집에서	-10698
▁손해를	-10699
▁복구	-10700
일자	-10701
▁밖의	-10702
▁추방	-10703
▁과거를	-10704
▁부착	-10705
▁소장	-10706
▁HD	-10707
▁돌연	-10708
▁직무	-10709
▁떠났다	-10710
▁극단적인	-10711
전설	-10712
▁주인공을	-10713
▁대선	-10714
태가	-10715
▁시를	-10716
▁주의를	-10717
▁웃으며	-10718
▁상대방이	-10719
MP	-10720
▁대동	-10721
▁편하게	-10722
가스	-10723
▁파르	-10724
▁기술은	-10725
▁수치가	-10726
▁원인을	-10727
▁감히	-10728
▁마친	-10729
▁잠입	-10730
▁형태가	-10731
FF	-10732
배로	-10733
옵니다	-10734
워하는	-10735
▁주식을	-10736
▁필요할	-10737
▁지지를	-10738
ish	-10739
▁소문	-10740
▁먹는다	-10741
▁적용된다	-10742
있는데	-10743
▁복제	-10744
▁넘어가는	-10745
정도로	-10746
투표	-10747
▁초반부터	-10748
▁짚	-10749
▁유출	-10750
▁했기	-10751
▁학생들의	-10752
▁불량	-10753
▁장례	-10754
▁네오	-10755
경쟁	-10756
무지	-10757
▁미네	-10758
▁나오기도	-10759
▁추세	-10760
▁클릭	-10761
▁발표했다	-10762
▁적중	-10763
▁각자의	-10764
-9	-10765
현을	-10766
▁애국	-10767
부터가	-10768
▁라운드	-10769
▁방식은	-10770
▁듣게	-10771
OD	-10772
▁대통령은	-10773
▁유격	-10774
▁뉘	-10775
더라면	-10776
▁같습니다	-10777
▁있었기에	-10778
오기	-10779
▁자고	-10780
▁세계가	-10781
액의	-10782
에의	-10783
▁그보다	-10784
▁설명이	-10785
▁양이	-10786
버가	-10787
▁스페이스	-10788
▁전설의	-10789
책이	-10790
▁형상	-10791
▁안타깝	-10792
▁침해	-10793
▁지휘관	-10794
▁높여	-10795
▁초점을	-10796
▁거북	-10797
▁전라	-10798
타자	-10799
▁길은	-10800
▁좋지만	-10801
▁이집트	-10802
▁견디	-10803
▁지연	-10804
▁해양	-10805
▁세븐	-10806
주의가	-10807
▁5%	-10808
▁리스	-10809
▁모은	-10810
▁인재	-10811
▁근원	-10812
롭다	-10813
▁검증	-10814
▁행동에	-10815
▁없었기	-10816
▁되어버렸다	-10817
군에서	-10818
▁국왕	-10819
중심	-10820
▁틈을	-10821
▁보증	-10822
▁스팀	-10823
▁아틀	-10824
▁기상	-10825
시켜서	-10826
▁부분이다	-10827
▁갖다	-10828
▁레알	-10829
▁실용	-10830
▁몸의	-10831
▁그후	-10832
▁66	-10833
▁경악	-10834
▁수염	-10835
▁상황이었다	-10836
▁유가	-10837
하다면	-10838
▁https	-10839
▁요코	-10840
그가	-10841
▁가져온	-10842
▁마시고	-10843
▁백인	-10844
▁활동이	-10845
▁갈등을	-10846
▁이대로	-10847
▁싸움이	-10848
▁할아버지	-10849
벌레	-10850
▁갇혀	-10851
▁투자를	-10852
있을	-10853
▁몰고	-10854
▁능력치	-10855
▁럭	-10856
▁공연을	-10857
▁크리스탈	-10858
▁삼고	-10859
받침	-10860
▁번개	-10861
▁시장에	-10862
▁깨닫고	-10863
드컵	-10864
돌아	-10865
평균	-10866
▁하므로	-10867
▁지나친	-10868
38	-10869
바나	-10870
▁주머니	-10871
▁시드	-10872
로이	-10873
----------------	-10874
카라	-10875
▁어필	-10876
▁김두	-10877
▁지목	-10878
▁인쇄	-10879
▁바라보	-10880
▁맡게	-10881
▁개발한	-10882
▁번씩	-10883
버전	-10884
▁재산을	-10885
▁강도	-10886
▁책의	-10887
▁사이드	-10888
▁식품	-10889
▁엄마는	-10890
▁시인	-10891
▁초등	-10892
▁드문	-10893
▁보아야	-10894
▁걸린다	-10895
건은	-10896
쉽게	-10897
▁거미	-10898
▁기를	-10899
▁끔찍한	-10900
라미	-10901
▁수월	-10902
▁97	-10903
▁피어	-10904
▁바람직	-10905
▁씨앗	-10906
▁성실	-10907
▁운명을	-10908
항을	-10909
ug	-10910
▁신부	-10911
▁같다는	-10912
▁아르헨	-10913
투스	-10914
▁두들겨	-10915
▁조상	-10916
▁국어	-10917
▁커서	-10918
▁먹었다	-10919
지금	-10920
▁OST	-10921
▁사용된	-10922
ah	-10923
화하고	-10924
▁테이블	-10925
▁인터뷰를	-10926
민주당	-10927
박스	-10928
▁입법	-10929
랜드의	-10930
▁염려	-10931
▁실시간	-10932
▁바꾸어	-10933
▁위치가	-10934
▁오를	-10935
▁위주의	-10936
▁도깨	-10937
▁몸으로	-10938
▁사카	-10939
▁AS	-10940
▁득표	-10941
줄이	-10942
▁남아있는	-10943
▁우리나라의	-10944
▁맷	-10945
▁트레이드	-10946
정신	-10947
▁Gr	-10948
▁선을	-10949
▁약점을	-10950
▁어제	-10951
▁살펴보	-10952
▁두루	-10953
▁아지	-10954
장도	-10955
▁스플	-10956
▁개가	-10957
▁이해하는	-10958
▁시대가	-10959
▁휠	-10960
▁그도	-10961
▁자체도	-10962
적이었다	-10963
▁상징하는	-10964
▁아트	-10965
▁상품을	-10966
▁무언가	-10967
▁작가는	-10968
▁국무	-10969
▁탕	-10970
▁사람에	-10971
▁as	-10972
▁있기도	-10973
리포	-10974
호에	-10975
▁순환	-10976
oll	-10977
▁론	-10978
▁아직까지	-10979
▁고스트	-10980
".	-10981
감도	-10982
▁팬텀	-10983
▁조사를	-10984
▁연간	-10985
▁공동체	-10986
령은	-10987
▁장거리	-10988
▁친구를	-10989
▁대가로	-10990
▁짱	-10991
신교	-10992
나카	-10993
쿠라	-10994
▁테란	-10995
역과	-10996
▁지루	-10997
▁Sc	-10998
▁키스	-10999
▁돌아다	-11000
▁외면	-11001
마크	-11002
▁선수는	-11003
▁오라	-11004
임으로	-11005
▁수습	-11006
▁아인	-11007
very	-11008
▁말로는	-11009
▁먹지	-11010
▁즐길	-11011
▁시장에서	-11012
▁단위로	-11013
▁76	-11014
▁스키	-11015
▁사랑에	-11016
ream	-11017
▁떨어지고	-11018
계와	-11019
판과	-11020
▁침투	-11021
작으로	-11022
▁호평을	-11023
차원	-11024
▁기원전	-11025
▁안보	-11026
▁얘기가	-11027
▁오기	-11028
하였지만	-11029
▁느려	-11030
▁일행은	-11031
▁초기에	-11032
▁흔한	-11033
▁소통	-11034
▁용인	-11035
▁法	-11036
▁오사카	-11037
▁내부의	-11038
▁넘쳐	-11039
▁1986	-11040
▁달하는	-11041
▁보유한	-11042
▁태어났	-11043
▁41	-11044
▁응용	-11045
▁눈물이	-11046
▁Br	-11047
▁맞춘	-11048
노를	-11049
풍이	-11050
서울	-11051
공원	-11052
▁주며	-11053
킹을	-11054
▁반도	-11055
▁늘려	-11056
▁58	-11057
방식	-11058
▁차지했다	-11059
▁잃어버린	-11060
▁조기	-11061
━━━━	-11062
▁발명	-11063
▁얻는다	-11064
▁양반	-11065
▁스텔	-11066
▁휴식	-11067
▁가족이	-11068
테크	-11069
일수록	-11070
▁지위를	-11071
▁기아	-11072
▁처분	-11073
▁근거로	-11074
US	-11075
▁카드로	-11076
▁기록은	-11077
▁CV	-11078
▁착한	-11079
▁이번엔	-11080
▁끄덕	-11081
▁시라	-11082
▁매각	-11083
▁이루어졌다	-11084
▁자국	-11085
▁은혜	-11086
▁걸친	-11087
▁이별	-11088
▁사진이	-11089
해보면	-11090
▁빠르고	-11091
▁전력을	-11092
▁포착	-11093
나이트	-11094
▁날리는	-11095
▁연구가	-11096
▁비서	-11097
▁특기	-11098
▁시장을	-11099
▁저렇게	-11100
orm	-11101
▁출범	-11102
중간	-11103
본부	-11104
▁특성이	-11105
▁묶어	-11106
▁자발	-11107
▁전주	-11108
▁불태	-11109
▁우위를	-11110
져야	-11111
▁길로	-11112
세기에	-11113
▁영향이	-11114
질은	-11115
▁선박	-11116
▁ex	-11117
▁복지	-11118
▁슬라이	-11119
▁늙은	-11120
▁후반부	-11121
▁펌	-11122
▁이어지	-11123
▁사정이	-11124
회차	-11125
▁세뇌	-11126
▁나츠	-11127
▁평소에	-11128
▁신하	-11129
아지	-11130
▁아픔	-11131
▁얇	-11132
▁8.	-11133
▁임팩	-11134
▁입주	-11135
▁상륙	-11136
공은	-11137
▁선택을	-11138
▁all	-11139
▁납득	-11140
▁정서	-11141
동에서	-11142
▁번째로	-11143
▁아니더라도	-11144
▁어려움을	-11145
▁주류	-11146
▁사소한	-11147
▁노선이	-11148
브의	-11149
▁바이러	-11150
▁가능할	-11151
▁쯤	-11152
항의	-11153
▁역시나	-11154
▁우호	-11155
창이	-11156
폰을	-11157
▁프란	-11158
▁여유가	-11159
운동을	-11160
연하게	-11161
▁이듬	-11162
▁해산	-11163
▁성공적으로	-11164
형과	-11165
들끼리	-11166
▁치명타	-11167
▁반성	-11168
▁시작해	-11169
▁현대의	-11170
티드	-11171
▁윤리	-11172
형에	-11173
▁봉사	-11174
▁점심	-11175
▁조치	-11176
▁연결되어	-11177
▁딜을	-11178
▁둠	-11179
번과	-11180
▁유엔	-11181
▁알아차	-11182
▁출연했다	-11183
▁무의식	-11184
▁다닐	-11185
개념	-11186
셔서	-11187
중국	-11188
프리카	-11189
▁펫	-11190
경우	-11191
▁원리	-11192
▁조치를	-11193
▁동행	-11194
▁출근	-11195
▁지극히	-11196
▁오르는	-11197
▁중얼	-11198
▁미국에	-11199
▁일본인	-11200
▁무언가를	-11201
▁떠났	-11202
풍을	-11203
▁메이플	-11204
▁발렌	-11205
▁훔쳐	-11206
▁만주	-11207
▁갖는다	-11208
책임	-11209
▁최선을	-11210
▁보이기도	-11211
/3	-11212
▁IT	-11213
▁하나다	-11214
▁않으	-11215
▁낭비	-11216
▁가격을	-11217
▁CPU	-11218
▁엘리자	-11219
그림	-11220
▁스킬로	-11221
▁문제점	-11222
▁친절	-11223
▁사야	-11224
▁예쁜	-11225
▁돌아왔	-11226
▁성장을	-11227
▁공헌	-11228
걸로	-11229
▁진행되는	-11230
▁주목을	-11231
였기에	-11232
▁복수를	-11233
▁중첩	-11234
▁않으므로	-11235
▁비즈니스	-11236
:-2	-11237
▁퍼포	-11238
▁떨어질	-11239
▁여의	-11240
▁인디	-11241
▁집이	-11242
사리	-11243
청이	-11244
▁끝났다	-11245
▁따라서는	-11246
▁병원에	-11247
▁앉아서	-11248
▁던지는	-11249
▁때만	-11250
oh	-11251
▁발견하고	-11252
▁데이터를	-11253
▁함으로써	-11254
몬의	-11255
▁히나	-11256
▁유아	-11257
▁조조	-11258
▁번이나	-11259
규칙	-11260
▁잡았다	-11261
▁행동은	-11262
▁자제	-11263
▁돼서	-11264
초가	-11265
▁마법소녀	-11266
오게	-11267
포르	-11268
▁피의	-11269
▁강경	-11270
▁재빨리	-11271
▁경직	-11272
▁것임을	-11273
▁수준을	-11274
▁일부가	-11275
▁부문	-11276
▁많으며	-11277
/20	-11278
시스트	-11279
▁자부	-11280
▁엘리베이터	-11281
▁배당	-11282
▁실로	-11283
▁텍스트	-11284
로마	-11285
세계의	-11286
▁곡은	-11287
▁사랑은	-11288
▁가담	-11289
▁내리고	-11290
▁지출	-11291
▁57	-11292
▁고립	-11293
▁너도	-11294
구요	-11295
▁가족을	-11296
동맹	-11297
▁올해	-11298
▁이해하기	-11299
움은	-11300
▁포괄	-11301
브가	-11302
▁인지도	-11303
▁달라진다	-11304
▁초콜	-11305
있으며	-11306
▁있느냐	-11307
▁적시	-11308
▁캠페인	-11309
답니다	-11310
▁차이로	-11311
두면	-11312
▁작품에	-11313
시민	-11314
▁곡의	-11315
란한	-11316
▁내며	-11317
▁방법도	-11318
▁팬들에게	-11319
▁떴	-11320
히면	-11321
▁go	-11322
가리	-11323
하자는	-11324
▁해보	-11325
네시아	-11326
▁그거	-11327
▁아랫	-11328
▁일련의	-11329
▁쪽에서	-11330
▁블레이드	-11331
▁아카데미	-11332
▁관중	-11333
▁사령관	-11334
격에	-11335
▁결말	-11336
셔널	-11337
▁이번에도	-11338
▁뮤직비디오	-11339
층을	-11340
▁대의	-11341
▁한국은	-11342
번으로	-11343
▁사이를	-11344
철이	-11345
▁정화	-11346
▁스코어	-11347
▁누나	-11348
▁커리어	-11349
케이	-11350
▁것이지만	-11351
찰을	-11352
채를	-11353
라라	-11354
▁조별	-11355
▁국경	-11356
▁분노를	-11357
▁하늘의	-11358
▁소규모	-11359
▁조건으로	-11360
▁겪은	-11361
스포츠	-11362
▁쓰인	-11363
▁정도면	-11364
마냥	-11365
》,	-11366
▁돌이	-11367
▁우스	-11368
▁유머	-11369
▁김상	-11370
▁시작하면	-11371
병은	-11372
▁전역	-11373
▁어택	-11374
▁입지	-11375
▁페이스북	-11376
론가	-11377
▁코난	-11378
▁재능을	-11379
중에서	-11380
장에게	-11381
▁말아야	-11382
▁않았으며	-11383
ows	-11384
▁지붕	-11385
▁보통은	-11386
▁변동	-11387
▁날카로운	-11388
▁전반적인	-11389
▁최종보스	-11390
▁젊은이	-11391
▁요원	-11392
▁쟈	-11393
코어	-11394
▁특징이	-11395
청구	-11396
스터를	-11397
▁do	-11398
▁야기	-11399
료가	-11400
구성	-11401
▁강등	-11402
▁힘입	-11403
▁실려	-11404
dd	-11405
오자	-11406
VD	-11407
▁실업	-11408
▁조언을	-11409
검사	-11410
▁시노	-11411
▁거칠	-11412
▁김경	-11413
▁페미니	-11414
▁정교	-11415
바를	-11416
▁UN	-11417
이에요	-11418
▁거짓말을	-11419
ank	-11420
▁독서	-11421
▁추정되는	-11422
▁힘의	-11423
▁표정이	-11424
▁와일드	-11425
순위	-11426
파에	-11427
히로	-11428
▁별명이	-11429
▁마련이다	-11430
ung	-11431
▁골프	-11432
▁살게	-11433
인듯	-11434
뚱한	-11435
▁모티브는	-11436
▁정차	-11437
▁상태이다	-11438
마귀	-11439
▁기부	-11440
▁성격은	-11441
▁다닌다	-11442
▁동아시아	-11443
io	-11444
기면	-11445
▁피터	-11446
▁준수	-11447
▁구역	-11448
▁봤을	-11449
당에서	-11450
▁10.	-11451
편으로	-11452
▁관계없이	-11453
커녕	-11454
▁화제가	-11455
▁주자	-11456
▁놀란	-11457
▁도시를	-11458
▁오카	-11459
▁많다는	-11460
▁풍부한	-11461
▁이듬해	-11462
▁드럼	-11463
▁부끄러	-11464
▁손쉽게	-11465
▁눈치채	-11466
AD	-11467
▁재벌	-11468
들에겐	-11469
질적인	-11470
▁민족의	-11471
소나	-11472
▁구독	-11473
녀의	-11474
▁매체	-11475
▁식량	-11476
▁중순	-11477
▁국정	-11478
▁도모	-11479
▁아냐	-11480
▁변화에	-11481
라에게	-11482
네를	-11483
술이	-11484
▁원인은	-11485
▁상세	-11486
▁무용	-11487
▁겹쳐	-11488
▁모습이다	-11489
▁전방	-11490
▁네트워크	-11491
▁대마	-11492
공으로	-11493
실점으로	-11494
▁And	-11495
▁권한을	-11496
▁만드	-11497
▁없었을	-11498
▁들어왔다	-11499
파와	-11500
ax	-11501
▁서류	-11502
▁작품이다	-11503
▁칼로	-11504
▁등장하는데	-11505
슬링	-11506
▁각기	-11507
▁분명한	-11508
▁피곤	-11509
5.	-11510
▁코르	-11511
▁최적	-11512
▁그토록	-11513
▁깨어나	-11514
▁레지	-11515
▁일시적으로	-11516
▁힘은	-11517
이랑	-11518
▁마코	-11519
상승	-11520
▁모습과	-11521
배의	-11522
밀하게	-11523
▁전쟁에	-11524
▁급격히	-11525
▁토너	-11526
▁쳐들어	-11527
준의	-11528
▁돌아오는	-11529
▁한층	-11530
▁없어도	-11531
▁일어난다	-11532
:3	-11533
▁허가	-11534
▁지구의	-11535
▁쳤	-11536
▁󰡔	-11537
코드	-11538
▁사신	-11539
▁마을을	-11540
ous	-11541
▁이상하게	-11542
▁앞을	-11543
▁바뀌는	-11544
▁비롯해	-11545
▁시리즈를	-11546
▁승진	-11547
▁벌어지	-11548
오면서	-11549
환은	-11550
▁내어	-11551
▁때문이	-11552
▁클린	-11553
▁中	-11554
▁상하	-11555
▁나섰다	-11556
▁해결할	-11557
▁사가	-11558
▁앞선	-11559
소총	-11560
▁실내	-11561
▁자원을	-11562
▁모로	-11563
▁유산	-11564
▁근본적인	-11565
히트	-11566
▁연인	-11567
▁블러드	-11568
사상	-11569
▁정체는	-11570
▁굴러	-11571
▁어긋	-11572
▁쏘아	-11573
▁학생이	-11574
▁메시지를	-11575
TS	-11576
▁밭	-11577
▁스테이	-11578
▁서번	-11579
sp	-11580
▁Or	-11581
▁탐색	-11582
레옹	-11583
▁떼어	-11584
하기만	-11585
▁한일	-11586
▁곳곳에	-11587
▁드러난	-11588
▁위력이	-11589
▁주최	-11590
▁눈동	-11591
▁원작의	-11592
▁소속의	-11593
▁간단하게	-11594
아무	-11595
▁죄책	-11596
▁호평	-11597
▁방으로	-11598
급한	-11599
▁지도자	-11600
▁이리저리	-11601
▁Pr	-11602
▁즐거운	-11603
▁사거리가	-11604
96	-11605
하겠다	-11606
▁차트	-11607
▁골키퍼	-11608
▁어깨를	-11609
▁출신으로	-11610
▁통산	-11611
ase	-11612
▁축적	-11613
▁800	-11614
▁96	-11615
법인	-11616
▁증폭	-11617
▁시리즈에	-11618
캐릭터	-11619
▁기록하고	-11620
▁모양이	-11621
따라	-11622
▁루카	-11623
▁싶어서	-11624
ath	-11625
▁불만	-11626
▁보상을	-11627
▁있을지	-11628
▁원숭	-11629
개는	-11630
공동	-11631
반에	-11632
▁광범위	-11633
▁환자	-11634
▁무시무시한	-11635
▁요리를	-11636
린다는	-11637
▁시사	-11638
▁-10	-11639
▁유물	-11640
▁나왔는데	-11641
그를	-11642
▁동북	-11643
실과	-11644
▁편에서	-11645
▁표면	-11646
▁따지면	-11647
▁공화국	-11648
▁주의할	-11649
▁▲	-11650
▁손오	-11651
▁전원이	-11652
▁앞으로도	-11653
▁퍼포먼	-11654
▁의학	-11655
하겠지만	-11656
▁같아서	-11657
리스는	-11658
▁왕국의	-11659
세서	-11660
▁수업을	-11661
▁이때는	-11662
모습	-11663
▁올라갈	-11664
▁아케이드	-11665
▁난이도는	-11666
▁고객의	-11667
▁CJ	-11668
일지도	-11669
▁문화의	-11670
▁주역	-11671
증권	-11672
▁나뭇	-11673
련을	-11674
강에서	-11675
▁하였으나	-11676
조정	-11677
▁호불	-11678
▁지점	-11679
▁대회에서	-11680
▁쿨타	-11681
▁공간이	-11682
▁분해	-11683
▁조회	-11684
▁백화	-11685
▁love	-11686
타이어	-11687
▁내용에	-11688
▁돌고	-11689
▁정도에	-11690
프에	-11691
인민	-11692
▁에르	-11693
▁this	-11694
▁세웠다	-11695
▁벌어지는	-11696
▁로얄	-11697
▁코우	-11698
병에	-11699
여객	-11700
▁불사	-11701
▁대학생	-11702
▁따라가	-11703
▁공업	-11704
▁두뇌	-11705
▁러시아의	-11706
▁그랑	-11707
▁주문을	-11708
▁디젤	-11709
▁올라왔다	-11710
ink	-11711
내면서	-11712
▁지냈	-11713
리코	-11714
▁않았는데	-11715
▁國	-11716
▁알레	-11717
▁이모	-11718
▁마을에	-11719
▁다투	-11720
▁점과	-11721
▁SD	-11722
어질	-11723
리아는	-11724
ade	-11725
▁슬퍼	-11726
▁평상	-11727
▁포항	-11728
▁침착	-11729
▁Go	-11730
▁유지할	-11731
▁하이퍼	-11732
▁사용하며	-11733
▁이렇다	-11734
▁비참	-11735
▁별의	-11736
당으로	-11737
▁드릴	-11738
품으로	-11739
44	-11740
▁52	-11741
▁갖춰	-11742
▁학과	-11743
▁모인	-11744
황을	-11745
▁의상	-11746
▁기간이	-11747
▁맛을	-11748
▁민첩	-11749
▁성남	-11750
▁우익	-11751
▁극도로	-11752
즈에	-11753
▁결정하는	-11754
▁양자	-11755
색은	-11756
▁손꼽	-11757
문과	-11758
▁선거에서	-11759
▁대면	-11760
▁표현이	-11761
▁쓸모	-11762
데다가	-11763
령으로	-11764
▁피해자	-11765
▁팀원	-11766
▁회사는	-11767
ens	-11768
빌리티	-11769
▁나란히	-11770
▁엑스트라	-11771
▁범위를	-11772
▁모티브로	-11773
olog	-11774
▁떠날	-11775
▁당한다	-11776
▁되니	-11777
~19	-11778
▁9.	-11779
▁담배를	-11780
▁시체를	-11781
리아를	-11782
▁나간다	-11783
아나	-11784
공격을	-11785
▁맺고	-11786
▁지원하는	-11787
▁오타	-11788
▁살아있는	-11789
▁그러고	-11790
▁상대방을	-11791
범이	-11792
하였다고	-11793
쓰고	-11794
축을	-11795
있지	-11796
▁찍는	-11797
▁어디로	-11798
▁Love	-11799
▁멈춰	-11800
▁나타나고	-11801
▁모두에게	-11802
▁뜬금없이	-11803
▁도덕적	-11804
▁비타	-11805
▁돌아올	-11806
▁발견할	-11807
▁이태	-11808
▁선수들의	-11809
▁쪽을	-11810
테르	-11811
▁수준에	-11812
▁우주의	-11813
축구	-11814
▁라이플	-11815
▁내용으로	-11816
▁핏	-11817
▁경주	-11818
▁이니	-11819
지기도	-11820
▁목이	-11821
▁여타	-11822
훈을	-11823
▁한결	-11824
▁모자라	-11825
▁종결	-11826
▁안타를	-11827
▁디즈	-11828
▁발표한	-11829
고기	-11830
▁터치	-11831
▁코토	-11832
▁섞여	-11833
▁입장에선	-11834
▁결론을	-11835
▁측은	-11836
▁붙인	-11837
▁무승	-11838
▁일어나지	-11839
돈을	-11840
▁작년	-11841
▁거꾸	-11842
▁말하자	-11843
▁신장	-11844
▁않았으나	-11845
RE	-11846
▁축복	-11847
iver	-11848
▁수행하는	-11849
▁지역이	-11850
▁세계대전	-11851
번이나	-11852
행위를	-11853
▁벗어난	-11854
▁상태의	-11855
▁도망치	-11856
엔딩	-11857
▁정예	-11858
▁제발	-11859
▁휩쓸	-11860
집니다	-11861
▁걸음	-11862
대기	-11863
▁다리가	-11864
▁좋다는	-11865
▁잊혀	-11866
종으로	-11867
▁불리한	-11868
▁숫자가	-11869
▁역설	-11870
▁풋	-11871
▁매장	-11872
▁툭	-11873
▁샐	-11874
▁남편의	-11875
▁지리	-11876
▁심각하게	-11877
▁모르겠다	-11878
십니까	-11879
▁모스크	-11880
▁안다	-11881
▁드러났다	-11882
▁부담이	-11883
▁이데올로	-11884
▁타쿠	-11885
교도	-11886
▁신발	-11887
▁교장	-11888
▁손상	-11889
▁행복을	-11890
리니	-11891
들까지	-11892
▁타인의	-11893
▁제도를	-11894
▁부친	-11895
새가	-11896
탄은	-11897
▁능력과	-11898
▁분야의	-11899
▁타마	-11900
▁뒷받침	-11901
▁보좌	-11902
▁패널	-11903
VA	-11904
▁결과로	-11905
▁에반	-11906
▁카구	-11907
▁트라우	-11908
▁미칠	-11909
▁사회가	-11910
▁맡겨	-11911
9.	-11912
▁엘리자베	-11913
▁하는가	-11914
▁변한	-11915
▁레이더	-11916
▁힙	-11917
▁연락을	-11918
▁에밀	-11919
▁은신	-11920
석에서	-11921
움의	-11922
▁짧게	-11923
▁一	-11924
▁돈으로	-11925
팀은	-11926
▁황제가	-11927
오늘	-11928
천을	-11929
▁등장할	-11930
타점	-11931
ons	-11932
▁내뱉	-11933
▁슬픈	-11934
권에서는	-11935
▁키우	-11936
▁지역으로	-11937
▁비난을	-11938
▁효과적으로	-11939
께끼	-11940
레는	-11941
▁적들을	-11942
기어	-11943
▁순으로	-11944
▁로빈	-11945
▁다음은	-11946
▁지방자치	-11947
▁벌인	-11948
▁잉여	-11949
위키	-11950
▁콜로	-11951
7,	-11952
▁스캔	-11953
▁결과에	-11954
림은	-11955
▁CG	-11956
▁생각도	-11957
▁아이템이	-11958
▁비중을	-11959
▁말의	-11960
▁봉쇄	-11961
▁찍고	-11962
▁세계적인	-11963
▁유튜버	-11964
▁관리를	-11965
▁서포터	-11966
▁일주일	-11967
분간	-11968
달라	-11969
▁재회	-11970
▁맞추어	-11971
▁않았다면	-11972
ower	-11973
브로	-11974
▁베를	-11975
▁교차	-11976
▁다루고	-11977
값을	-11978
▁마을의	-11979
▁사항은	-11980
티가	-11981
▁추상	-11982
IG	-11983
▁경남	-11984
▁표현하는	-11985
수인	-11986
▁예의	-11987
00000000	-11988
▁Oh	-11989
?!	-11990
▁전체에	-11991
▁선물을	-11992
▁고스	-11993
▁산출	-11994
희를	-11995
받게	-11996
▁환경을	-11997
▁없어요	-11998
▁적용되는	-11999
너를	-12000
▁서울특별시	-12001
운드를	-12002
▁야간	-12003
▁작고	-12004
▁WWE	-12005
▁생각하며	-12006
해볼	-12007
▁벗겨	-12008
네스	-12009
기관의	-12010
▁인게임	-12011
▁마법의	-12012
▁역할이	-12013
신도	-12014
▁것의	-12015
▁이전부터	-12016
▁평등	-12017
▁미래에	-12018
머스	-12019
▁태평양	-12020
▁잡아먹	-12021
동물	-12022
▁없다며	-12023
소서	-12024
감하게	-12025
▁지었다	-12026
▁구하는	-12027
닉스	-12028
▁언데	-12029
▁편리	-12030
▁버전이	-12031
▁시청자	-12032
▁프레이	-12033
온을	-12034
▁어렵고	-12035
▁そ	-12036
▁테라	-12037
▁가지로	-12038
되어있다	-12039
▁노선을	-12040
PM	-12041
▁대고	-12042
▁벌이는	-12043
웠고	-12044
커는	-12045
▁조우	-12046
▁김진	-12047
도서	-12048
▁다이어	-12049
▁신사	-12050
▁일본에서는	-12051
▁즉사	-12052
▁보이기	-12053
리스의	-12054
▁나폴레옹	-12055
▁당대	-12056
▁싸움에서	-12057
▁캄	-12058
▁쳤다	-12059
▁강조하는	-12060
▁삶이	-12061
▁모델이	-12062
구니	-12063
▁상을	-12064
▁저하	-12065
▁유희왕	-12066
▁인물은	-12067
▁동영	-12068
▁가능하고	-12069
▁시작하여	-12070
▁내용이다	-12071
▁트루	-12072
▁찾지	-12073
55	-12074
▁현실에	-12075
▁입원	-12076
▁노력이	-12077
질에	-12078
▁중형	-12079
▁성향을	-12080
▁스즈	-12081
▁시작하고	-12082
▁위엄	-12083
▁사고로	-12084
▁트리플	-12085
버스터	-12086
▁한번도	-12087
고와	-12088
바퀴	-12089
▁전쟁에서	-12090
층은	-12091
▁되게	-12092
티스	-12093
▁답을	-12094
▁스탈	-12095
▁서둘러	-12096
▁피에	-12097
▁아이디어	-12098
▁투사	-12099
▁펀드	-12100
▁복원	-12101
▁재배	-12102
우주	-12103
▁시카	-12104
────	-12105
▁밝혔	-12106
▁진주	-12107
▁빠지는	-12108
▁원망	-12109
▁묻는다	-12110
▁RPG	-12111
▁살피	-12112
▁탄핵	-12113
▁반대하는	-12114
▁부모님	-12115
▁십자	-12116
▁깎아	-12117
▁특허	-12118
▁구간이	-12119
▁혼합	-12120
▁솔직히	-12121
가시	-12122
래를	-12123
▁싱가	-12124
▁즉각	-12125
득점	-12126
▁탐구	-12127
▁밀고	-12128
▁나노	-12129
▁매주	-12130
▁가량	-12131
▁자칫	-12132
▁캔슬	-12133
연맹	-12134
▁있나	-12135
▁해준	-12136
▁몸은	-12137
▁연설	-12138
▁올라간다	-12139
분한	-12140
▁영화가	-12141
▁1920	-12142
▁특집	-12143
거리에서	-12144
▁필리핀	-12145
▁죽으면	-12146
▁살아남은	-12147
▁화력이	-12148
▁―	-12149
▁떠나는	-12150
▁후보가	-12151
▁변환	-12152
▁시험을	-12153
▁기기	-12154
례로	-12155
곡은	-12156
▁보살	-12157
손을	-12158
tle	-12159
▁잘못을	-12160
▁꽃을	-12161
▁AM	-12162
거의	-12163
는지를	-12164
▁뱀파이어	-12165
▁닉네	-12166
▁뺨	-12167
▁CEO	-12168
▁탱크	-12169
이야말로	-12170
▁병을	-12171
▁주변을	-12172
▁쓰러트	-12173
▁더해	-12174
▁겪고	-12175
▁종업	-12176
▁치열한	-12177
▁원조	-12178
▁신은	-12179
▁키우는	-12180
에게만	-12181
▁문제다	-12182
▁초청	-12183
▁뽀	-12184
~8	-12185
▁화력을	-12186
▁전송	-12187
▁중지	-12188
▁설명은	-12189
이제	-12190
▁가요	-12191
▁삶은	-12192
▁갈등이	-12193
▁호남	-12194
학원	-12195
▁브레이크	-12196
▁설정상	-12197
▁패배를	-12198
▁절대적인	-12199
▁프랜	-12200
▁영어로	-12201
하기까지	-12202
▁직면	-12203
▁급히	-12204
익을	-12205
▁안경	-12206
▁결정적으로	-12207
▁51	-12208
▁이어진다	-12209
닝을	-12210
▁나이는	-12211
▁기준이	-12212
▁차원의	-12213
▁기적	-12214
▁폭행	-12215
하에서	-12216
▁치러	-12217
▁정치인	-12218
▁살이	-12219
▁쉽고	-12220
▁정립	-12221
▁콘서트	-12222
▁에그	-12223
▁1930	-12224
▁인정하지	-12225
나기	-12226
▁상점	-12227
▁무라	-12228
ife	-12229
▁여태	-12230
▁낯선	-12231
▁우회	-12232
▁마력	-12233
▁외전	-12234
이나마	-12235
▁탔	-12236
열에	-12237
▁나눌	-12238
▁정성	-12239
▁하려는	-12240
▁튕겨	-12241
▁비행기	-12242
▁이루어진다	-12243
▁해리	-12244
▁그리고는	-12245
▁절차	-12246
▁40%	-12247
▁필요도	-12248
▁인연	-12249
▁이원	-12250
▁올스타	-12251
▁발매되었다	-12252
키아	-12253
▁의사가	-12254
▁활동하는	-12255
▁요한	-12256
되었습니다	-12257
민과	-12258
방어	-12259
각의	-12260
터에	-12261
하더니	-12262
▁폭탄을	-12263
▁성경	-12264
▁넥센	-12265
▁부실	-12266
▁초에	-12267
▁냄새가	-12268
▁웰	-12269
▁바뀌어	-12270
▁고지	-12271
▁탄압	-12272
▁남자를	-12273
▁활동하고	-12274
▁느꼈다	-12275
31	-12276
▁징역	-12277
▁놈이	-12278
▁이름도	-12279
az	-12280
▁이르렀다	-12281
▁유비	-12282
▁해줄	-12283
▁자막	-12284
이트가	-12285
▁둘러싼	-12286
▁공존	-12287
▁거꾸로	-12288
▁원소	-12289
만으로는	-12290
▁논문	-12291
▁꿇	-12292
묘하게	-12293
▁승인	-12294
▁우측	-12295
노와	-12296
▁from	-12297
▁미쳐	-12298
▁산다	-12299
▁선사	-12300
▁위안	-12301
▁무릎을	-12302
▁염두에	-12303
▁움직이지	-12304
▁뿌려	-12305
▁바람을	-12306
과대학	-12307
▁실험을	-12308
▁남게	-12309
크스	-12310
▁고장	-12311
▁문득	-12312
되지는	-12313
▁오늘의	-12314
▁SR	-12315
▁속을	-12316
▁폭파	-12317
▁없었다고	-12318
그리고	-12319
하듯이	-12320
▁못하다	-12321
▁성우가	-12322
락의	-12323
▁종사	-12324
했듯	-12325
회장	-12326
▁익스	-12327
▁아가씨	-12328
▁승리로	-12329
▁중국에서	-12330
▁진행된	-12331
▁여전	-12332
▁바라보고	-12333
블린	-12334
▁우유	-12335
리우스	-12336
▁효과적인	-12337
▁않으나	-12338
바는	-12339
▁시로	-12340
▁앞세	-12341
▁도적	-12342
▁초콜릿	-12343
▁껴	-12344
기구	-12345
▁깊게	-12346
곡의	-12347
▁스스로의	-12348
할지	-12349
▁그제	-12350
▁낚시	-12351
▁부탁을	-12352
▁소수의	-12353
▁툴	-12354
▁해킹	-12355
▁일하고	-12356
▁면모를	-12357
▁어마어마한	-12358
▁케이블	-12359
▁실린	-12360
▁다해	-12361
가락을	-12362
화되고	-12363
견이	-12364
▁주장은	-12365
▁판정을	-12366
했음에도	-12367
9,	-12368
▁위를	-12369
▁내부에	-12370
▁옆으로	-12371
백과	-12372
oug	-12373
어가고	-12374
▁라그	-12375
▁가로막	-12376
▁영화는	-12377
▁치킨	-12378
▁친구들이	-12379
]]	-12380
▁간간	-12381
하겠	-12382
▁크림	-12383
▁철저한	-12384
▁디자인이	-12385
ree	-12386
▁수색	-12387
▁사람이라면	-12388
현실	-12389
▁붐	-12390
▁54	-12391
▁위력	-12392
▁소설의	-12393
▁죽음에	-12394
▁사정을	-12395
▁틀린	-12396
▁노멀	-12397
오르는	-12398
▁지표	-12399
▁부드러운	-12400
귀를	-12401
▁놓았다	-12402
▁써먹	-12403
eah	-12404
▁68	-12405
▁수수께끼	-12406
▁니시	-12407
▁있음에도	-12408
▁실전	-12409
▁전북	-12410
▁뷰	-12411
▁도는	-12412
▁부작	-12413
▁던진	-12414
▁사촌	-12415
▁호수	-12416
▁집필	-12417
ult	-12418
▁냉장	-12419
감의	-12420
됨에	-12421
▁재앙	-12422
하니까	-12423
▁높이는	-12424
▁챔피언십	-12425
체인	-12426
int	-12427
▁불안한	-12428
▁성격의	-12429
▁유적	-12430
▁흥미를	-12431
▁따져	-12432
▁원활	-12433
▁호환	-12434
▁듣기	-12435
▁인내	-12436
▁로버트	-12437
▁선포	-12438
▁행위는	-12439
ox	-12440
▁병행	-12441
▁태워	-12442
▁이라크	-12443
▁시즌에	-12444
▁오죽	-12445
▁LA	-12446
▁때면	-12447
오스	-12448
▁어음	-12449
▁계열의	-12450
aby	-12451
▁협조	-12452
▁장사	-12453
▁파악하고	-12454
▁에릭	-12455
적일	-12456
▁함락	-12457
▁화해	-12458
에이	-12459
시기	-12460
석으로	-12461
▁77	-12462
LE	-12463
▁입사	-12464
▁상대할	-12465
건지	-12466
▁유교	-12467
▁지내는	-12468
오니	-12469
▁처녀	-12470
졌기	-12471
▁1985	-12472
포트	-12473
▁내릴	-12474
▁즈음	-12475
▁소극	-12476
▁개개	-12477
내서	-12478
▁요구를	-12479
▁자리가	-12480
▁고소	-12481
▁국가를	-12482
▁사단	-12483
▁한방에	-12484
독립	-12485
▁범용	-12486
카르	-12487
▁조직을	-12488
▁가능하지만	-12489
▁외환	-12490
클레	-12491
irl	-12492
▁찬성	-12493
▁가능성	-12494
▁엽	-12495
발전	-12496
훈의	-12497
취를	-12498
▁영주	-12499
▁싸우고	-12500
▁페이즈	-12501
▁미치지	-12502
▁버전은	-12503
급은	-12504
▁과정에	-12505
▁디자이	-12506
▁무대를	-12507
▁시장이	-12508
▁표출	-12509
관계에	-12510
▁성숙	-12511
▁않으니	-12512
어버리고	-12513
▁맞는다	-12514
▁출력	-12515
근이	-12516
▁쿠데	-12517
▁포함된	-12518
▁콧	-12519
▁+1	-12520
▁우르	-12521
▁복무	-12522
▁엄연히	-12523
▁끼워	-12524
▁커스	-12525
▁의아	-12526
▁비밀을	-12527
준은	-12528
▁얻지	-12529
▁석유	-12530
▁25%	-12531
▁퇴장	-12532
코스트	-12533
대원	-12534
▁오페	-12535
▁뒤의	-12536
▁고속도로	-12537
ction	-12538
▁노래가	-12539
▁페르시아	-12540
▁박지	-12541
▁초상	-12542
▁나서는	-12543
▁세월이	-12544
▁이기는	-12545
▁소집	-12546
▁퇴직	-12547
▁적립	-12548
훈은	-12549
▁흉내	-12550
▁아서	-12551
▁사이에서는	-12552
▁만나서	-12553
▁모델로	-12554
▁것에서	-12555
▁그것에	-12556
▁스킬의	-12557
▁시작해서	-12558
▁생각합니다	-12559
▁드롭	-12560
렸습니다	-12561
진한	-12562
릅니다	-12563
▁목표는	-12564
▁계절	-12565
까봐	-12566
▁포함해	-12567
인치	-12568
▁닌텐	-12569
▁투어	-12570
▁프렌	-12571
▁몰랐다	-12572
▁속해	-12573
▁구성원	-12574
▁ne	-12575
▁시리즈에서	-12576
나지	-12577
류는	-12578
▁가리키는	-12579
▁빈번	-12580
▁바이올	-12581
치아	-12582
카운	-12583
ise	-12584
▁수시로	-12585
▁합동	-12586
내에서	-12587
▁용기를	-12588
▁들어가지	-12589
일리	-12590
▁JR	-12591
▁제공한다	-12592
▁비스	-12593
▁레이드	-12594
▁록맨	-12595
▁마시는	-12596
▁심리적	-12597
학에	-12598
▁한방	-12599
▁정상적으로	-12600
▁피난	-12601
▁화성	-12602
▁기본으로	-12603
▁경호	-12604
▁친구들과	-12605
벌을	-12606
▁만나면	-12607
▁슬로	-12608
▁출산	-12609
▁토요	-12610
▁일일이	-12611
무역	-12612
▁봇	-12613
▁본작	-12614
거가	-12615
▁가족의	-12616
▁내버려	-12617
종합	-12618
지사	-12619
▁정해	-12620
안전	-12621
▁가지가	-12622
▁수록된	-12623
▁능력치가	-12624
청의	-12625
▁잉글랜드	-12626
.25	-12627
텐데	-12628
▁Ph	-12629
▁힐러	-12630
▁헤르	-12631
달이	-12632
스럽고	-12633
▁비전	-12634
▁조명	-12635
▁테니까	-12636
97	-12637
▁전동	-12638
▁불확	-12639
크리	-12640
▁들어왔	-12641
릭스	-12642
테랑	-12643
▁걸까	-12644
목에	-12645
▁있음	-12646
▁모르겠지만	-12647
▁엔지	-12648
▁방에서	-12649
▁현실적으로	-12650
▁되어있다	-12651
▁백제	-12652
▁편이고	-12653
월까지	-12654
퍼가	-12655
▁관광객	-12656
▁투척	-12657
▁푼	-12658
새를	-12659
▁성의	-12660
▁사이코	-12661
▁_	-12662
▁쌓여	-12663
▁War	-12664
국인	-12665
▁체감	-12666
▁하도록	-12667
▁해요	-12668
▁노는	-12669
개씩	-12670
▁높을	-12671
▁에픽	-12672
▁전적으로	-12673
▁취재	-12674
▁녀석이	-12675
가루	-12676
성장	-12677
자동차	-12678
▁아이들에게	-12679
테일	-12680
▁은폐	-12681
▁만화가	-12682
▁개인이	-12683
▁EP	-12684
▁압축	-12685
▁달러를	-12686
▁구상	-12687
가게	-12688
▁힘에	-12689
▁액티브	-12690
▁이해를	-12691
▁음모	-12692
▁피하기	-12693
기자	-12694
팀을	-12695
▁슬라	-12696
▁제트	-12697
▁포켓몬스터	-12698
▁요즘은	-12699
▁힘입어	-12700
▁기후	-12701
▁요인	-12702
▁차에	-12703
▁천안	-12704
▁의식이	-12705
**	-12706
▁놓아	-12707
▁놀이	-12708
공에	-12709
▁유카	-12710
통에	-12711
▁no	-12712
▁주가가	-12713
시타	-12714
▁노가	-12715
-15	-12716
▁이른다	-12717
▁아들인	-12718
▁저작권	-12719
▁비판이	-12720
▁하반	-12721
▁회사에서	-12722
▁용사	-12723
▁문제도	-12724
▁거두었다	-12725
량도	-12726
▁기껏	-12727
▁랑	-12728
다며	-12729
누리	-12730
▁버섯	-12731
▁스크린	-12732
▁강렬한	-12733
▁아니라서	-12734
▁빌런	-12735
내야	-12736
▁전과	-12737
▁사라지는	-12738
▁あ	-12739
례가	-12740
▁건물이	-12741
▁FIFA	-12742
라니	-12743
룡의	-12744
▁교수는	-12745
▁기대할	-12746
っと	-12747
▁낙하	-12748
▁맞붙	-12749
는다는	-12750
▁연습을	-12751
하기에는	-12752
금지	-12753
▁부끄	-12754
▁학교의	-12755
▁일어나고	-12756
▁활용하는	-12757
▁아내의	-12758
두로	-12759
▁단어가	-12760
▁의사소	-12761
마로	-12762
볼을	-12763
▁늦은	-12764
르면서	-12765
터와	-12766
▁회색	-12767
▁몬스터가	-12768
▁벌어졌다	-12769
▁마드리	-12770
▁과언이	-12771
▁그리는	-12772
티의	-12773
▁발견된	-12774
▁사이클	-12775
▁활동에	-12776
▁어떨	-12777
uck	-12778
▁공격해	-12779
▁AD	-12780
▁공수	-12781
▁갔다가	-12782
영과	-12783
츠와	-12784
▁모르겠	-12785
▁그렇기에	-12786
▁자금을	-12787
▁김유	-12788
▁애를	-12789
▁각본	-12790
▁나누는	-12791
▁인해서	-12792
▁KBO	-12793
장전	-12794
▁밀리	-12795
▁수만	-12796
▁배우고	-12797
종일	-12798
포인	-12799
▁이병	-12800
▁여기고	-12801
▁편으로	-12802
▁사망했다	-12803
▁사물	-12804
▁소리로	-12805
▁확인하고	-12806
▁최종적으로	-12807
서에서	-12808
회사의	-12809
▁역할은	-12810
▁통째로	-12811
기다	-12812
▁쓰던	-12813
▁균형을	-12814
더는	-12815
▁오키	-12816
▁중장	-12817
▁느낀다	-12818
▁명은	-12819
▁할수	-12820
▁음원	-12821
▁획득할	-12822
싸움	-12823
▁드러나는	-12824
▁멍청	-12825
▁변하지	-12826
▁똑똑	-12827
타카	-12828
▁투구	-12829
▁마블	-12830
▁미즈	-12831
▁음료	-12832
▁간간히	-12833
대문	-12834
▁방식의	-12835
▁어빌리티	-12836
퍼를	-12837
▁인스타그램	-12838
▁카자	-12839
▁서머	-12840
▁멋대로	-12841
▁헷	-12842
▁3~4	-12843
고리	-12844
있다는	-12845
32	-12846
▁깔아	-12847
▁방어력이	-12848
▁○.	-12849
▁대사는	-12850
양함	-12851
▁어뢰	-12852
▁6,	-12853
▁걷어	-12854
▁얼른	-12855
▁제독	-12856
▁광고를	-12857
.’	-12858
나로	-12859
▁녹아	-12860
▁자네	-12861
▁승부를	-12862
▁엔젤	-12863
▁☆	-12864
▁유래는	-12865
▁Wind	-12866
▁김용	-12867
▁서식	-12868
▁자신만의	-12869
▁베이징	-12870
▁등극	-12871
▁속성을	-12872
▁쓸만한	-12873
▁구미	-12874
6.	-12875
▁하인	-12876
▁살기	-12877
▁tr	-12878
▁단백	-12879
▁불만이	-12880
▁수확	-12881
화할	-12882
▁장을	-12883
▁반전	-12884
▁구제	-12885
▁소금	-12886
수에게	-12887
▁종교적	-12888
철의	-12889
▁수필	-12890
▁스나이	-12891
타리	-12892
▁결의	-12893
▁습관	-12894
▁현장에서	-12895
▁1984	-12896
퍼센트	-12897
▁넉넉	-12898
▁말씀을	-12899
저스	-12900
번째로	-12901
▁개념은	-12902
▁유재	-12903
▁인피	-12904
▁바랍니다	-12905
결에	-12906
▁노조	-12907
▁이내에	-12908
SP	-12909
▁금강	-12910
▁받았던	-12911
▁전인	-12912
술의	-12913
▁아내는	-12914
▁덕분	-12915
te	-12916
▁바쁘	-12917
▁국내에서	-12918
▁나뉜	-12919
라면서	-12920
▁강하고	-12921
▁얼굴은	-12922
▁즐겁게	-12923
▁스트리머	-12924
▁경찰이	-12925
▁보여줄	-12926
쓰는	-12927
▁동영상	-12928
▁수술을	-12929
▁오게	-12930
▁나오지만	-12931
히기	-12932
▁모노	-12933
▁실정	-12934
▁왔던	-12935
▁지시를	-12936
▁참모	-12937
▁막강한	-12938
▁세계는	-12939
▁모델은	-12940
▁폭로	-12941
▁모색	-12942
▁얼어	-12943
생명	-12944
▁법인	-12945
▁느끼지	-12946
▁좋았다	-12947
맨은	-12948
병과	-12949
▁미드필	-12950
▁야쿠	-12951
▁예시	-12952
었어요	-12953
데레	-12954
▁차량이	-12955
▁대다수의	-12956
▁않던	-12957
▁문제점을	-12958
▁버텨	-12959
어져서	-12960
▁정체가	-12961
▁주제로	-12962
▁지켜보	-12963
판매	-12964
▁사립	-12965
▁합법	-12966
▁가지를	-12967
▁한반도	-12968
▁흡사	-12969
way	-12970
▁나무를	-12971
▁1945	-12972
cc	-12973
빛이	-12974
▁인과	-12975
▁중후반	-12976
▁관리하는	-12977
▁터트	-12978
▁선호하는	-12979
▁않나	-12980
▁정면	-12981
▁깨닫게	-12982
▁치즈	-12983
▁조연	-12984
▁찾아와	-12985
▁전제로	-12986
▁알려졌다	-12987
느냐고	-12988
▁두꺼	-12989
▁기업은	-12990
▁외로	-12991
산에서	-12992
▁사망한다	-12993
▁공이	-12994
쪽에서	-12995
▁떠난다	-12996
▁끊어	-12997
▁BL	-12998
▁부재	-12999
oun	-13000
▁보러	-13001
맨을	-13002
▁통하지	-13003
▁수급	-13004
▁3000	-13005
▁최소한의	-13006
▁모드를	-13007
▁아르바	-13008
▁작곡가	-13009
자연	-13010
▁파울	-13011
▁못했지만	-13012
▁악당	-13013
노트	-13014
▁투기	-13015
우스는	-13016
▁리드	-13017
▁읍	-13018
▁묻고	-13019
해지기	-13020
▁파밍	-13021
차고	-13022
▁능력에	-13023
▁사천	-13024
▁보정	-13025
▁스파이더	-13026
조각	-13027
▁낳은	-13028
▁버스터	-13029
▁거느	-13030
부족	-13031
▁공인	-13032
▁취한	-13033
▁배경이	-13034
▁나라는	-13035
페르	-13036
디에	-13037
증에	-13038
해라	-13039
▁강원도	-13040
▁포격	-13041
▁시기가	-13042
▁전투기	-13043
▁기준을	-13044
▁돌아간다	-13045
▁제네	-13046
▁혼인	-13047
맥을	-13048
▁받기도	-13049
▁분기	-13050
▁정발	-13051
▁곡으로	-13052
▁저렴한	-13053
몬이	-13054
신다	-13055
▁연습생	-13056
지대	-13057
▁쥐고	-13058
▁과도한	-13059
▁십자가	-13060
▁이놈	-13061
▁자신에	-13062
댔다	-13063
지수	-13064
회복	-13065
▁문화가	-13066
88	-13067
▁가능하다는	-13068
MS	-13069
▁친일	-13070
으려면	-13071
▁뿐더러	-13072
사실	-13073
▁싸운	-13074
▁어휘	-13075
▁스티브	-13076
었다가	-13077
▁언어를	-13078
▁뻔한	-13079
▁잡으면	-13080
▁부담을	-13081
▁꿈이	-13082
비행	-13083
▁달래	-13084
자리에	-13085
▁작품에서	-13086
업으로	-13087
▁대목	-13088
▁벌레	-13089
작가	-13090
▁전남	-13091
▁연쇄	-13092
▁중대	-13093
스럽다	-13094
스테이지	-13095
▁여기까지	-13096
ash	-13097
▁지낸	-13098
▁12.	-13099
▁소련의	-13100
▁수단으로	-13101
▁프로필	-13102
▁맞았다	-13103
▁흰색	-13104
▁할지라도	-13105
▁com	-13106
▁110	-13107
▁날뛰	-13108
▁않겠	-13109
▁않자	-13110
들한테	-13111
▁별개의	-13112
▁쑥	-13113
7.	-13114
레인저	-13115
▁클라우	-13116
▁못한다는	-13117
▁둘다	-13118
미에게	-13119
▁능가	-13120
▁버릇	-13121
▁이해하지	-13122
▁1,2	-13123
▁불가피	-13124
치료	-13125
▁에로	-13126
▁엔진을	-13127
협의	-13128
호환	-13129
▁데이트	-13130
측의	-13131
▁비단	-13132
▁사용자	-13133
▁외곽	-13134
거지	-13135
▁감옥에	-13136
▁사례를	-13137
▁입대	-13138
주면서	-13139
▁확장팩	-13140
▁존재하고	-13141
▁진행된다	-13142
▁푹	-13143
산과	-13144
▁GT	-13145
▁해치	-13146
▁의도적으로	-13147
▁있다며	-13148
▁독자적인	-13149
▁EU	-13150
▁III	-13151
▁자각	-13152
▁터널	-13153
▁올드	-13154
34	-13155
▁제시한	-13156
▁존재할	-13157
업의	-13158
▁자란	-13159
▁아래와	-13160
▁왕은	-13161
▁제노	-13162
▁현실적인	-13163
▁임진	-13164
미사	-13165
▁하급	-13166
니아의	-13167
▁공산주의	-13168
▁진단	-13169
▁프레임	-13170
▁법무	-13171
터미널	-13172
보에	-13173
▁인간에게	-13174
과정에서	-13175
우스가	-13176
▁이들에게	-13177
▁밤을	-13178
▁소외	-13179
▁머무	-13180
▁어드벤	-13181
▁고등학생	-13182
▁너무도	-13183
▁라이온	-13184
▁목욕	-13185
▁4)	-13186
▁이누	-13187
▁고찰	-13188
▁협의	-13189
▁얀	-13190
▁이기고	-13191
▁발생했다	-13192
뉴얼	-13193
아라	-13194
▁건강한	-13195
포스	-13196
▁선수로	-13197
▁역사는	-13198
▁선생님이	-13199
▁自	-13200
▁티어	-13201
▁똑같다	-13202
▁80%	-13203
▁유료	-13204
이에게	-13205
▁밝히고	-13206
▁생김	-13207
▁이방	-13208
▁비롯하여	-13209
▁토우	-13210
▁없어진	-13211
39	-13212
▁이번에	-13213
▁이마	-13214
▁거리에	-13215
▁위해선	-13216
▁넷째	-13217
▁귀가	-13218
▁동서	-13219
▁일찍이	-13220
▁거기다가	-13221
▁15%	-13222
▁말입니다	-13223
▁비판하는	-13224
풍의	-13225
적이라고	-13226
▁바둑	-13227
▁디자인을	-13228
초로	-13229
▁02	-13230
▁중동	-13231
▁노동자	-13232
▁없이는	-13233
▁어지간한	-13234
▁시상	-13235
▁감독을	-13236
년과	-13237
▁700	-13238
~10	-13239
▁불의	-13240
▁개신교	-13241
▁재등장	-13242
▁차가운	-13243
▁방식이다	-13244
▁서사	-13245
수수	-13246
▁약혼	-13247
▁찾아서	-13248
▁갖지	-13249
▁울고	-13250
▁능력도	-13251
▁딜레이	-13252
▁무자	-13253
해보자	-13254
▁입문	-13255
▁이걸로	-13256
we	-13257
화되었다	-13258
▁까다로운	-13259
▁굉장한	-13260
▁생각으로	-13261
해에	-13262
▁관습	-13263
▁저도	-13264
▁난이도를	-13265
쿠스	-13266
▁슈퍼로봇	-13267
▁절친	-13268
▁호불호가	-13269
▁원더	-13270
▁그만두	-13271
▁올라와	-13272
▁환경에	-13273
▁퍽	-13274
수용	-13275
약의	-13276
▁내지는	-13277
▁pl	-13278
▁중고	-13279
▁퍼즐	-13280
▁후일	-13281
라딘	-13282
▁돈은	-13283
▁슬레이	-13284
▁일단은	-13285
▁되려	-13286
▁번호	-13287
하루	-13288
▁선수의	-13289
이었기에	-13290
▁성적은	-13291
▁상영	-13292
인데다가	-13293
장치	-13294
ics	-13295
▁주무	-13296
▁이어졌다	-13297
라이브	-13298
▁접어들	-13299
▁나타날	-13300
▁사용해서	-13301
▁가다	-13302
▁열매	-13303
비한	-13304
초간	-13305
▁편곡	-13306
▁정당한	-13307
▁문제와	-13308
▁편이며	-13309
연속	-13310
▁아들의	-13311
션의	-13312
▁마지	-13313
▁제작진	-13314
▁이야기도	-13315
vel	-13316
▁진지한	-13317
▁편하다	-13318
▁-5	-13319
▁칼리	-13320
▁우두	-13321
허가	-13322
직에	-13323
▁않는데	-13324
▁산을	-13325
게요	-13326
터널	-13327
인칭	-13328
택이	-13329
ET	-13330
런트	-13331
린과	-13332
▁훼손	-13333
키스탄	-13334
▁현존	-13335
▁공방	-13336
▁작화	-13337
▁세팅	-13338
▁우월	-13339
▁전세	-13340
▁카더라	-13341
les	-13342
회와	-13343
▁주주	-13344
▁간접적으로	-13345
▁저희	-13346
층으로	-13347
▁웨스트	-13348
없어	-13349
기면서	-13350
▁후반부에	-13351
▁이루어지지	-13352
월드	-13353
▁남지	-13354
▁그런데도	-13355
ey	-13356
▁찔러	-13357
▁운영하고	-13358
▁걸릴	-13359
▁싣	-13360
▁조화	-13361
▁일컫	-13362
졌으나	-13363
▁낡은	-13364
▁법이	-13365
▁차량을	-13366
▁동인	-13367
▁본명은	-13368
▁성공할	-13369
▁달콤	-13370
▁상태다	-13371
▁내다	-13372
▁아담	-13373
▁한국과	-13374
ION	-13375
하마	-13376
▁아군이	-13377
석과	-13378
▁2.0	-13379
▁뭐라고	-13380
▁통하는	-13381
▁7,	-13382
과정을	-13383
▁디스크	-13384
▁분양	-13385
▁어설	-13386
누스	-13387
▁영혼이	-13388
▁추천한다	-13389
▁프롤	-13390
▁못지않	-13391
▁뚝	-13392
▁장미	-13393
▁영역을	-13394
천이	-13395
▁이윽	-13396
그레	-13397
▁포인트를	-13398
▁웃고	-13399
▁조차	-13400
토니	-13401
▁창원	-13402
▁유연	-13403
▁무서워	-13404
길에	-13405
유는	-13406
▁모양으로	-13407
▁열정	-13408
▁병이	-13409
▁받았다고	-13410
▁바텀	-13411
▁문헌	-13412
장이다	-13413
▁설명한	-13414
▁항목을	-13415
▁수신	-13416
▁다르지	-13417
자원	-13418
▁꼬마	-13419
▁사상을	-13420
▁알리는	-13421
▁오크	-13422
▁콘솔	-13423
▁함대	-13424
거라고	-13425
▁All	-13426
▁정보는	-13427
▁대부분이다	-13428
▁부합	-13429
▁거래를	-13430
▁자유의	-13431
자금	-13432
▁속이	-13433
▁이겼	-13434
거는	-13435
▁빠르다	-13436
▁과정은	-13437
▁소설을	-13438
▁버틸	-13439
▁주위에	-13440
나에게	-13441
▁가득한	-13442
그래도	-13443
편에서는	-13444
▁절벽	-13445
▁패밀	-13446
운영	-13447
해지면	-13448
▁시집	-13449
▁고르	-13450
▁안전한	-13451
▁조합을	-13452
적도	-13453
▁같고	-13454
▁보낸다	-13455
▁게이머	-13456
▁네티	-13457
▁원주민	-13458
▁알려지지	-13459
▁깔려	-13460
▁짐을	-13461
▁고발	-13462
▁안개	-13463
▁천황	-13464
족은	-13465
▁78	-13466
▁준비가	-13467
미디어	-13468
▁해당되는	-13469
▁계단	-13470
테니	-13471
▁방탄	-13472
▁찬양	-13473
▁헨리	-13474
▁오버워치	-13475
ose	-13476
▁憲	-13477
▁딜링	-13478
▁못했을	-13479
▁결제	-13480
▁생기고	-13481
▁구성하는	-13482
▁인력	-13483
▁정원	-13484
▁느껴지는	-13485
플러	-13486
▁노골	-13487
▁협동	-13488
▁주위를	-13489
때로	-13490
버리면	-13491
▁막혀	-13492
▁지킬	-13493
▁조카	-13494
▁탓인지	-13495
▁특이하게도	-13496
타에	-13497
▁플라스	-13498
▁선택하는	-13499
행에	-13500
▁벗어나지	-13501
▁로이	-13502
▁나왔을	-13503
▁학생들을	-13504
▁미쿠	-13505
잡을	-13506
▁무기의	-13507
▁반란을	-13508
▁분야에	-13509
▁노무현	-13510
▁등장하고	-13511
▁PR	-13512
▁사원	-13513
▁캐릭	-13514
▁혜택을	-13515
▁뜨는	-13516
▁걸그룹	-13517
정하게	-13518
히며	-13519
▁무난하게	-13520
▁오늘날의	-13521
▁히든	-13522
총을	-13523
▁know	-13524
▁시리즈가	-13525
▁연구에	-13526
▁so	-13527
▁올라간	-13528
▁뚱	-13529
하느라	-13530
▁인지도가	-13531
▁타츠	-13532
▁이룰	-13533
,"	-13534
▁아츠	-13535
▁앉은	-13536
▁바라보며	-13537
바르	-13538
어버린다	-13539
▁will	-13540
▁오스만	-13541
▁판단을	-13542
두가	-13543
▁엄격한	-13544
슬라	-13545
▁강대	-13546
▁편은	-13547
토스	-13548
하되	-13549
처가	-13550
▁것들	-13551
▁160	-13552
▁스티븐	-13553
▁악마의	-13554
시즈	-13555
▁경북	-13556
▁반쯤	-13557
▁SH	-13558
▁캐릭터들이	-13559
▁트위치	-13560
▁130	-13561
ition	-13562
▁옐	-13563
▁터미널	-13564
▁수령	-13565
▁컸다	-13566
CC	-13567
▁문제이다	-13568
▁비추	-13569
▁도서관	-13570
▁중요하게	-13571
바다	-13572
▁성직	-13573
▁뜬다	-13574
▁일체	-13575
▁도망가	-13576
▁오늘도	-13577
▁봐서	-13578
▁눈앞에	-13579
▁이윽고	-13580
▁현상은	-13581
▁신나게	-13582
▁아군의	-13583
▁우려가	-13584
▁강원	-13585
나라를	-13586
▁아내를	-13587
가능한	-13588
지지만	-13589
▁인도네시아	-13590
▁색이	-13591
▁하긴	-13592
▁데려가	-13593
▁고려하면	-13594
▁않았습니다	-13595
▁유언	-13596
업은	-13597
▁끝을	-13598
▁고아	-13599
롭지	-13600
▁글쓰	-13601
▁하도	-13602
원칙	-13603
▁아니냐	-13604
▁이때부터	-13605
▁필사	-13606
▁11.	-13607
▁유난	-13608
행의	-13609
▁마카	-13610
▁헷갈	-13611
DS	-13612
▁분배	-13613
▁대부분을	-13614
아버지	-13615
▁향하는	-13616
▁전염	-13617
▁동정	-13618
▁옴	-13619
록을	-13620
실험	-13621
체계	-13622
경과	-13623
▁기호	-13624
▁히토	-13625
▁팔레	-13626
▁이쯤	-13627
▁여기에는	-13628
릴라	-13629
▁원래의	-13630
▁모의	-13631
▁통칭	-13632
했음을	-13633
▁기반을	-13634
▁존재하며	-13635
▁무지막	-13636
▁드러내는	-13637
▁아줌	-13638
▁역사에	-13639
▁풍요	-13640
▁카리스	-13641
▁너와	-13642
▁단종	-13643
시장의	-13644
▁내에서는	-13645
▁인공지능	-13646
▁아이디어를	-13647
▁지을	-13648
▁이론을	-13649
▁시점에서는	-13650
▁CS	-13651
버렸고	-13652
▁만하다	-13653
▁보드	-13654
▁Con	-13655
▁원칙을	-13656
버튼	-13657
▁카스	-13658
▁SF	-13659
▁결투	-13660
▁꿰뚫	-13661
▁사다	-13662
▁내기	-13663
▁주축	-13664
▁과시	-13665
▁동해	-13666
야와	-13667
AP	-13668
76	-13669
TE	-13670
으신	-13671
▁롤드컵	-13672
▁발각	-13673
▁생생	-13674
▁장남	-13675
▁변화는	-13676
▁리처	-13677
열의	-13678
온은	-13679
▁손바닥	-13680
버의	-13681
▁측의	-13682
▁모토	-13683
▁룸	-13684
▁수단이	-13685
▁밀리는	-13686
▁아내와	-13687
▁지배하는	-13688
▁묻혀	-13689
▁오브젝	-13690
▁넣었다	-13691
▁밀어붙	-13692
▁대하는	-13693
▁01	-13694
께서는	-13695
▁방위	-13696
▁베타	-13697
▁공식적인	-13698
▁시에는	-13699
하르	-13700
▁소비자	-13701
▁글자	-13702
▁볼트	-13703
▁군데	-13704
▁괜찮아	-13705
▁기묘한	-13706
▁주입	-13707
▁방송에	-13708
▁호르	-13709
▁어렵다는	-13710
머리를	-13711
▁뻥	-13712
▁실드	-13713
▁왕조	-13714
삼국	-13715
anc	-13716
ᄏᄏ	-13717
벌이	-13718
▁처한	-13719
채로	-13720
모와	-13721
▁내포	-13722
▁Fl	-13723
▁뽑는	-13724
▁호응	-13725
있어서	-13726
▁변하는	-13727
▁나라에	-13728
▁아시안	-13729
▁안전하게	-13730
하였습니다	-13731
▁행위가	-13732
▁지식이	-13733
▁텅	-13734
▁간파	-13735
그는	-13736
▁다큐	-13737
▁안정적으로	-13738
▁포스트시즌	-13739
만화	-13740
▁서민	-13741
▁취미	-13742
이건	-13743
효과를	-13744
▁대학에	-13745
▁날은	-13746
었으니	-13747
▁101	-13748
▁생방송	-13749
지다	-13750
▁무지막지	-13751
▁하나님	-13752
▁종류가	-13753
▁상황에서도	-13754
▁장점을	-13755
▁움직임이	-13756
▁강간	-13757
▁미성	-13758
▁실패했다	-13759
▁외형	-13760
▁일과	-13761
▁하러	-13762
▁여긴	-13763
▁탁월한	-13764
▁공격적인	-13765
위인	-13766
▁이빨	-13767
▁마피아	-13768
▁제작된	-13769
▁웨이브	-13770
탕을	-13771
범을	-13772
▁도우	-13773
매치	-13774
▁부스터	-13775
▁총독	-13776
▁베테랑	-13777
▁면을	-13778
▁소음	-13779
▁돌을	-13780
▁아직은	-13781
▁인식을	-13782
+1	-13783
▁곳도	-13784
▁버스를	-13785
▁그것이다	-13786
▁낮고	-13787
/2	-13788
▁앰	-13789
▁로맨	-13790
도도	-13791
숙이	-13792
▁수감	-13793
▁데미지는	-13794
▁전담	-13795
▁릭	-13796
▁일렉	-13797
▁작품으로	-13798
▁늘어나고	-13799
たい	-13800
잡고	-13801
▁입장이	-13802
이런	-13803
요시	-13804
상가	-13805
▁사태를	-13806
망의	-13807
▁벤치	-13808
▁생애	-13809
표는	-13810
차이즈	-13811
▁창립	-13812
걸이	-13813
▁창을	-13814
▁편인데	-13815
▁써도	-13816
▁멀리서	-13817
▁이대	-13818
▁실제로도	-13819
▁나서서	-13820
▁두어	-13821
▁캐스터	-13822
▁하려면	-13823
▁실패하고	-13824
94	-13825
▁박탈	-13826
▁덧붙여	-13827
비도	-13828
▁밤이	-13829
교는	-13830
불이	-13831
▁모임	-13832
▁맞추는	-13833
▁참여하는	-13834
▁시뮬	-13835
▁전향	-13836
▁않더라도	-13837
▁스트라이크	-13838
▁확정되었다	-13839
▁On	-13840
▁셔틀	-13841
▁좋아하고	-13842
디스	-13843
▁배드	-13844
▁복사	-13845
▁빌딩	-13846
▁인물의	-13847
▁하나같이	-13848
오던	-13849
▁잃게	-13850
진다는	-13851
미노	-13852
▁여부	-13853
▁수류탄	-13854
▁없기에	-13855
▁토르	-13856
▁우는	-13857
▁추측이	-13858
▁삼촌	-13859
▁추리	-13860
서비스	-13861
▁받아들일	-13862
경기를	-13863
▁부숴	-13864
▁가면서	-13865
▁커스텀	-13866
▁오이	-13867
▁블래	-13868
생물	-13869
▁때나	-13870
▁창단	-13871
▁sp	-13872
드에게	-13873
▁것들은	-13874
▁얄	-13875
전도	-13876
▁모두의	-13877
▁소프트웨어	-13878
▁않거나	-13879
▁거인	-13880
▁코멘	-13881
쳤고	-13882
ier	-13883
▁수평	-13884
▁플레이어에게	-13885
▁라며	-13886
▁벗어날	-13887
▁묘사된다	-13888
▁청산	-13889
▁스트레스를	-13890
▁이도	-13891
▁무너뜨	-13892
질과	-13893
거리고	-13894
▁본래의	-13895
▁봅	-13896
센트	-13897
▁출시되었다	-13898
▁수준은	-13899
▁동급	-13900
▁못하며	-13901
▁많다고	-13902
▁시기를	-13903
▁72	-13904
▁사용시	-13905
▁츠바	-13906
▁유성	-13907
▁140	-13908
▁세금을	-13909
▁어머니와	-13910
▁입구	-13911
▁정도만	-13912
▁여인	-13913
▁부르기도	-13914
ail	-13915
▁리스크	-13916
▁0.5	-13917
▁비공식	-13918
▁샬	-13919
▁늘어났다	-13920
▁휴대폰	-13921
▁중요성을	-13922
▁네티즌	-13923
▁못지	-13924
▁침대	-13925
▁밝혀진다	-13926
▁세인트	-13927
녀를	-13928
:5	-13929
▁성사	-13930
킬로	-13931
강이	-13932
▁크래	-13933
▁만났다	-13934
▁무시할	-13935
▁기사단	-13936
▁응시	-13937
이지요	-13938
▁밑으로	-13939
▁작아	-13940
▁리타이어	-13941
수리	-13942
▁불타	-13943
▁중대한	-13944
▁공손	-13945
등으로	-13946
▁패배한	-13947
amp	-13948
ational	-13949
회로	-13950
▁적힌	-13951
▁평행	-13952
▁목표가	-13953
▁성격으로	-13954
IM	-13955
▁볼수	-13956
▁보상으로	-13957
▁보이게	-13958
카페	-13959
학습	-13960
정부의	-13961
▁원작에서는	-13962
란은	-13963
▁줌	-13964
하였을	-13965
▁나가서	-13966
딜을	-13967
▁발발	-13968
urn	-13969
로이드	-13970
▁쓰러진	-13971
▁바꿨	-13972
▁무작정	-13973
▁시즌이	-13974
▁영혼의	-13975
▁like	-13976
당초	-13977
식에서	-13978
▁점수가	-13979
▁포로	-13980
▁불필	-13981
▁싸우게	-13982
▁경력이	-13983
▁생각된다	-13984
▁포함하여	-13985
렸으며	-13986
▁충격적인	-13987
▁아니게	-13988
적이라는	-13989
▁こ	-13990
화되는	-13991
했으면	-13992
▁증대	-13993
▁경력	-13994
▁방금	-13995
▁고객이	-13996
▁잠이	-13997
▁설명하고	-13998
▁신뢰를	-13999
▁다는	-14000
▁비주얼	-14001
폭력	-14002
▁벼슬	-14003
버드	-14004
보인다	-14005
진흥	-14006
▁바나	-14007
▁시작하면서	-14008
▁pro	-14009
▁이루어지고	-14010
커니즘	-14011
▁얌	-14012
▁계정	-14013
▁그외	-14014
▁다룰	-14015
▁대표적	-14016
▁움직임	-14017
▁잡힌	-14018
포와	-14019
▁랜드	-14020
산화	-14021
▁App	-14022
▁죽이려	-14023
워즈	-14024
▁오렌	-14025
만큼이나	-14026
▁1982	-14027
설은	-14028
▁중국은	-14029
파괴	-14030
▁해를	-14031
카드를	-14032
▁언급된다	-14033
▁섞인	-14034
▁있겠는가	-14035
공화국	-14036
▁대학의	-14037
▁군의	-14038
지거나	-14039
▁병력이	-14040
내의	-14041
▁신세	-14042
▁보아도	-14043
▁산탄	-14044
▁서울대	-14045
잔을	-14046
자다	-14047
▁넘버	-14048
▁교수가	-14049
▁내에서도	-14050
격은	-14051
결이	-14052
▁존재의	-14053
냈고	-14054
이다가	-14055
▁스쿨	-14056
▁Ne	-14057
시킴	-14058
▁Dr	-14059
▁꼬리	-14060
▁항해	-14061
ould	-14062
▁익숙한	-14063
집의	-14064
▁08	-14065
▁과학적	-14066
▁시점에	-14067
▁미국으로	-14068
▁키를	-14069
후를	-14070
▁쏟아져	-14071
▁엄밀히	-14072
▁검정	-14073
▁땡	-14074
▁섞어	-14075
▁이후로도	-14076
▁처리하는	-14077
▁한가운데	-14078
전선	-14079
▁모방	-14080
▁그려진	-14081
▁돕는	-14082
▁스텝	-14083
▁브라운	-14084
▁공원	-14085
▁방법에	-14086
▁히어로즈	-14087
▁주신	-14088
목적	-14089
▁에리	-14090
▁근거가	-14091
▁당신에게	-14092
기업의	-14093
▁세라	-14094
▁김준	-14095
▁레스토	-14096
길로	-14097
▁라스	-14098
▁괴로워	-14099
▁놀랍게도	-14100
▁하필이면	-14101
▁판매하는	-14102
올라	-14103
▁뜨고	-14104
▁씨의	-14105
조한	-14106
▁DVD	-14107
▁지구를	-14108
▁다르지만	-14109
▁앗	-14110
해방	-14111
▁헌신	-14112
▁장소를	-14113
▁로즈	-14114
▁잦은	-14115
연구소	-14116
▁have	-14117
▁여객	-14118
▁반지	-14119
300	-14120
▁노리	-14121
▁부장	-14122
▁드래프트	-14123
프라이	-14124
▁날씨	-14125
▁빠지게	-14126
▁길러	-14127
▁근본적으로	-14128
▁출혈	-14129
▁힘들게	-14130
▁영웅이	-14131
▁코스트	-14132
▁쓸만	-14133
▁케빈	-14134
▁위험에	-14135
▁고기를	-14136
하시는	-14137
스나	-14138
★★	-14139
▁중재	-14140
▁개인적	-14141
▁왕복	-14142
이라고는	-14143
크라이나	-14144
CG	-14145
▁밈	-14146
▁대안	-14147
▁가르치는	-14148
이사	-14149
있지만	-14150
▁초인	-14151
▁사과를	-14152
▁아리스	-14153
루수	-14154
▁떠오르는	-14155
▁실무	-14156
▁힘들고	-14157
▁무소	-14158
▁비정상	-14159
폭탄	-14160
▁직업을	-14161
▁해결하기	-14162
퍼의	-14163
▁OP	-14164
▁내용과	-14165
▁골목	-14166
▁모델을	-14167
파워	-14168
▁혐의로	-14169
수입	-14170
▁같아요	-14171
▁쳐서	-14172
▁호랑	-14173
봉을	-14174
요소	-14175
▁바다를	-14176
값이	-14177
▁신형	-14178
▁이경	-14179
▁바꾸고	-14180
▁변한다	-14181
▁여성은	-14182
▁저승	-14183
▁교회의	-14184
ign	-14185
▁집합	-14186
▁그녀와	-14187
▁단독으로	-14188
▁면도	-14189
▁골렘	-14190
▁뜻은	-14191
▁믿음	-14192
▁제목은	-14193
▁1983	-14194
▁보자면	-14195
65	-14196
▁최악	-14197
▁플러	-14198
▁가히	-14199
▁물의	-14200
▁플라이	-14201
▁규정을	-14202
포에	-14203
▁분홍	-14204
▁요구한다	-14205
▁59	-14206
▁시공	-14207
▁필요하다고	-14208
아닌	-14209
▁맞춰서	-14210
▁모른다고	-14211
리에이션	-14212
▁타협	-14213
▁리버풀	-14214
▁뮌	-14215
▁수여	-14216
▁쓰러져	-14217
개나	-14218
▁남편은	-14219
▁무료로	-14220
▁드라이브	-14221
현대	-14222
▁것으로서	-14223
▁자칭	-14224
▁순서대로	-14225
▁쿨타임이	-14226
령에	-14227
▁가깝게	-14228
▁운영을	-14229
▁디시	-14230
▁스펠	-14231
▁높아서	-14232
▁Man	-14233
▁터라	-14234
▁흘러나	-14235
차량	-14236
▁운반	-14237
치고는	-14238
OU	-14239
▁재미를	-14240
▁그간	-14241
▁미루어	-14242
랄한	-14243
표의	-14244
▁감이	-14245
▁시합	-14246
리그에서	-14247
그의	-14248
▁당초	-14249
▁Mar	-14250
▁생체	-14251
▁명확히	-14252
▁좀처럼	-14253
▁담당하고	-14254
페이스	-14255
▁하늘에	-14256
▁의지가	-14257
▁깔끔하게	-14258
▁눈은	-14259
뉴스	-14260
네이	-14261
▁구간은	-14262
▁어려움	-14263
▁대책	-14264
▁들어가게	-14265
▁시리아	-14266
편은	-14267
▁여가	-14268
▁출격	-14269
▁인식하고	-14270
▁책임이	-14271
▁내재	-14272
원에게	-14273
atch	-14274
모든	-14275
▁일요일	-14276
▁심어	-14277
AA	-14278
▁할때	-14279
▁설이	-14280
able	-14281
▁사용되고	-14282
▁전수	-14283
/4	-14284
▁멤버들의	-14285
▁애쉬	-14286
▁표지	-14287
▁커리	-14288
게이머	-14289
▁마오	-14290
증으로	-14291
▁리오	-14292
▁웃었다	-14293
▁톨	-14294
▁거죠	-14295
▁사랑과	-14296
년대의	-14297
▁재사용	-14298
▁마린	-14299
▁파란색	-14300
▁건가	-14301
▁닮았다	-14302
▁동안의	-14303
▁가디언	-14304
▁일삼	-14305
▁태클	-14306
▁세번째	-14307
교육을	-14308
렐라	-14309
▁이오	-14310
▁추출	-14311
▁에피소드에서	-14312
▁발레	-14313
랑은	-14314
▁솟아	-14315
글을	-14316
▁높지	-14317
▁멤버들	-14318
▁영상에서	-14319
▁엄마의	-14320
▁이름에	-14321
▁UE	-14322
▁토오	-14323
▁동안에	-14324
▁스카우	-14325
만도	-14326
▁뽑을	-14327
▁하나에	-14328
출판	-14329
▁발급	-14330
▁차려	-14331
▁섬의	-14332
▁크레이	-14333
▁아티스트	-14334
▁이전까지	-14335
▁불편한	-14336
▁하늘이	-14337
▁예전에는	-14338
타니	-14339
▁용기	-14340
▁무대에	-14341
▁빙의	-14342
▁남학생	-14343
▁어그로를	-14344
침에	-14345
▁기운이	-14346
▁뱉	-14347
▁수석	-14348
▁해주고	-14349
놓을	-14350
니코	-14351
병기	-14352
use	-14353
▁몰살	-14354
▁핑크	-14355
▁증가하고	-14356
▁서는	-14357
▁광경을	-14358
▁집단의	-14359
▁시내버스	-14360
▁우리들의	-14361
▁모욕	-14362
▁민주화	-14363
액은	-14364
었기에	-14365
▁나라에서	-14366
▁무술	-14367
▁세상은	-14368
▁사용을	-14369
▁취하고	-14370
▁선보였다	-14371
XX	-14372
혼의	-14373
되도록	-14374
▁동점	-14375
▁연출이	-14376
▁예약	-14377
▁중심이	-14378
▁경쟁을	-14379
▁샤를	-14380
▁유니크	-14381
▁IMF	-14382
▁씩	-14383
▁수행할	-14384
▁입각	-14385
▁코리아	-14386
ae	-14387
▁실패로	-14388
ert	-14389
놀이	-14390
▁올라갔다	-14391
▁다양하게	-14392
▁레벨을	-14393
도리	-14394
▁달이	-14395
▁이광	-14396
▁포획	-14397
▁정리한	-14398
▁것만으로도	-14399
▁겪는	-14400
▁상냥	-14401
▁늪	-14402
▁For	-14403
▁ID	-14404
▁책상	-14405
▁기능은	-14406
▁번갈	-14407
물이다	-14408
▁코스튬	-14409
▁주제를	-14410
▁신생	-14411
▁기쁘	-14412
▁위성	-14413
▁분노한	-14414
▁뿐이지	-14415
▁트레일러	-14416
▁다이아몬드	-14417
베리	-14418
.12	-14419
▁속성이	-14420
▁출루	-14421
▁사항을	-14422
▁설명한다	-14423
▁애완	-14424
위대	-14425
▁먹기	-14426
▁지났	-14427
▁깐	-14428
▁보여주지	-14429
▁World	-14430
▁나왔고	-14431
▁쫒	-14432
▁피카	-14433
▁바뀌고	-14434
화에선	-14435
▁이룩	-14436
▁일의	-14437
▁친구의	-14438
장비	-14439
▁지도를	-14440
▁통틀어	-14441
▁딘	-14442
▁그림이	-14443
▁버전으로	-14444
▁띄는	-14445
▁유용하다	-14446
어라	-14447
▁말레이	-14448
▁리치	-14449
만큼의	-14450
▁살았다	-14451
▁안에는	-14452
▁추서	-14453
▁가치는	-14454
▁받으면서	-14455
▁드물게	-14456
▁퇴근	-14457
냐면	-14458
▁맞물	-14459
▁저를	-14460
▁청춘	-14461
짓을	-14462
▁유이	-14463
▁살아야	-14464
▁양보	-14465
▁잊고	-14466
▁소식	-14467
▁블로	-14468
▁바이러스	-14469
▁본작의	-14470
▁군수	-14471
▁카지	-14472
▁추측된다	-14473
▁하라고	-14474
▁계시	-14475
▁유난히	-14476
▁자신들을	-14477
▁나한테	-14478
렸으나	-14479
클래	-14480
▁시간도	-14481
▁울음	-14482
▁無	-14483
구멍	-14484
전부터	-14485
▁평화를	-14486
▁원로	-14487
▁변태	-14488
항에	-14489
▁휩싸	-14490
▁진행할	-14491
▁DC	-14492
▁고사	-14493
▁남매	-14494
▁따위	-14495
▁서방	-14496
▁교육의	-14497
▁의무를	-14498
▁강릉	-14499
▁장성	-14500
▁돌리는	-14501
▁포기하지	-14502
▁왼손	-14503
▁하마	-14504
▁모아서	-14505
▁편을	-14506
▁53	-14507
▁풀이	-14508
▁태도가	-14509
▁공짜	-14510
▁속도는	-14511
▁호감을	-14512
▁연구는	-14513
▁아이에게	-14514
▁베풀	-14515
▁서기	-14516
▁피지컬	-14517
▁속에서도	-14518
재료	-14519
▁패턴은	-14520
우에게	-14521
▁제품의	-14522
▁돌아갔다	-14523
▁헤매	-14524
▁학술	-14525
▁지냈다	-14526
▁타이밍을	-14527
자이자	-14528
▁엘레	-14529
▁현행	-14530
▁무난한	-14531
▁Fr	-14532
▁상인	-14533
▁장본	-14534
▁발이	-14535
▁포스터	-14536
▁승려	-14537
▁앞뒤	-14538
▁해고	-14539
스토리	-14540
▁도리어	-14541
▁택시	-14542
받기	-14543
이크를	-14544
▁일본을	-14545
▁기갑	-14546
기획	-14547
▁검은색	-14548
▁만났을	-14549
채널	-14550
파크	-14551
▁니가	-14552
▁표현한	-14553
▁병기	-14554
▁에게	-14555
▁고의	-14556
▁물건이	-14557
bl	-14558
링크	-14559
현과	-14560
▁바다에	-14561
▁에서는	-14562
▁치며	-14563
▁미션을	-14564
▁그렇듯	-14565
▁저절로	-14566
작전	-14567
▁여론이	-14568
▁형이	-14569
▁본토	-14570
▁저기	-14571
▁ED	-14572
▁사투	-14573
되었다가	-14574
▁무엇일까	-14575
▁패널티	-14576
보게	-14577
▁대전차	-14578
▁바르셀	-14579
혁이	-14580
▁스트레스	-14581
▁카네	-14582
▁해독	-14583
▁재발	-14584
블리	-14585
▁전장	-14586
▁벨기에	-14587
애가	-14588
▁직선	-14589
▁캘리포	-14590
▁수상한	-14591
대륙	-14592
탐정	-14593
▁데에는	-14594
▁묘하게	-14595
▁마리가	-14596
▁모드로	-14597
▁벅	-14598
▁크지	-14599
▁환자의	-14600
있다고	-14601
▁존재는	-14602
▁저축	-14603
▁컨디	-14604
우리는	-14605
▁2.5	-14606
▁라인을	-14607
92	-14608
▁쫄	-14609
▁천하	-14610
▁데모	-14611
▁에너지가	-14612
▁발키	-14613
▁하셨	-14614
▁아래에서	-14615
엘이	-14616
명이다	-14617
▁날개를	-14618
▁내린다	-14619
▁단행본	-14620
▁나가고	-14621
작에	-14622
▁걸었다	-14623
불가	-14624
▁곤충	-14625
ern	-14626
▁이동하는	-14627
들이었다	-14628
봤다	-14629
▁金	-14630
▁오퍼	-14631
▁건데	-14632
▁이세	-14633
▁줍	-14634
▁5000	-14635
▁조직이	-14636
▁일들을	-14637
▁불쾌	-14638
▁원형	-14639
▁경과	-14640
▁타이밍에	-14641
▁우라	-14642
▁바닥을	-14643
よう	-14644
▁우크라이나	-14645
▁메모리	-14646
▁짠	-14647
▁어벤	-14648
▁깨어	-14649
▁국가는	-14650
port	-14651
▁서울시	-14652
대신	-14653
▁몰입	-14654
▁건강을	-14655
▁저주를	-14656
▁검열	-14657
▁모듈	-14658
▁군사를	-14659
사장	-14660
▁맑은	-14661
▁위함	-14662
▁접수	-14663
▁못하였다	-14664
▁신학	-14665
▁근거리	-14666
▁오우	-14667
피해	-14668
▁반가	-14669
드라마	-14670
점이다	-14671
▁명성을	-14672
▁기동전사	-14673
전에는	-14674
층에서	-14675
▁들어서는	-14676
▁상한	-14677
▁치우	-14678
▁피하는	-14679
▁Ad	-14680
초부터	-14681
▁개념으로	-14682
좋게	-14683
▁아홉	-14684
▁주워	-14685
▁꿈은	-14686
▁명칭이	-14687
▁조립	-14688
▁말라는	-14689
▁보고는	-14690
▁마을에서	-14691
▁루나	-14692
▁게스트	-14693
칭을	-14694
▁밀접한	-14695
▁없도록	-14696
▁구조가	-14697
▁비교할	-14698
▁오디션	-14699
▁온통	-14700
▁재수	-14701
▁들어가기	-14702
▁양손	-14703
▁먹여	-14704
▁태극	-14705
엘의	-14706
▁빨아	-14707
▁소원을	-14708
ii	-14709
즈로	-14710
▁아비	-14711
▁나뉜다	-14712
▁많았던	-14713
▁옵션이	-14714
▁미드필더	-14715
▁이용하면	-14716
메달	-14717
▁물품	-14718
▁화살을	-14719
계산	-14720
▁낭만	-14721
▁세계적으로	-14722
집단	-14723
▁좌측	-14724
▁찾은	-14725
▁빠뜨	-14726
▁숭배	-14727
▁카츠	-14728
▁심의	-14729
▁쉬는	-14730
프스	-14731
▁신데	-14732
▁국가에	-14733
가족	-14734
투쟁	-14735
▁디펜	-14736
▁딱딱	-14737
▁대결을	-14738
림으로	-14739
정책을	-14740
바야	-14741
▁프랭	-14742
▁무시하는	-14743
▁완화	-14744
정당	-14745
▁부자가	-14746
피의	-14747
▁얼티	-14748
▁was	-14749
▁여성을	-14750
훈장	-14751
▁해당된다	-14752
▁Windows	-14753
~7	-14754
법상	-14755
는지도	-14756
▁크라이	-14757
시키면서	-14758
자였던	-14759
▁승점	-14760
▁놀러	-14761
▁커맨드	-14762
▁이야기의	-14763
▁킬러	-14764
▁모종의	-14765
효율	-14766
▁타고난	-14767
▁친다	-14768
▁콘스탄	-14769
▁말만	-14770
▁때때로	-14771
▁부추	-14772
▁가성	-14773
▁김수	-14774
▁에피소드가	-14775
▁이름과	-14776
해야한다	-14777
▁풀고	-14778
▁트릭	-14779
시까지	-14780
▁선수들을	-14781
▁선조	-14782
▁좌익	-14783
▁가지의	-14784
▁병과	-14785
작인	-14786
▁LP	-14787
노스케	-14788
▁최상위	-14789
▁공중에서	-14790
▁남편을	-14791
▁나이를	-14792
▁같지	-14793
롭게도	-14794
▁인물을	-14795
▁맴	-14796
▁일으켰	-14797
두의	-14798
▁실력은	-14799
▁있어서도	-14800
올림픽	-14801
▁명으로	-14802
류에	-14803
작품	-14804
▁플랜	-14805
▁없었습니다	-14806
▁방울	-14807
증은	-14808
▁oh	-14809
▁미처	-14810
▁후유	-14811
▁화장실	-14812
▁나섰	-14813
▁무선	-14814
탈을	-14815
▁여우	-14816
▁인적	-14817
코올	-14818
▁몰아넣	-14819
▁잃지	-14820
▁분명하다	-14821
▁초등학생	-14822
밥을	-14823
▁멤버가	-14824
▁중국에	-14825
못해	-14826
▁2:	-14827
▁침몰	-14828
▁장소에	-14829
랑을	-14830
천은	-14831
▁일반적	-14832
▁불멸	-14833
▁트윗	-14834
▁해에	-14835
드래곤	-14836
▁자기도	-14837
통일	-14838
▁일반인	-14839
▁치고는	-14840
마도	-14841
▁한국이	-14842
▁몰두	-14843
▁카테	-14844
태는	-14845
▁아베	-14846
무슨	-14847
레타	-14848
▁사용되었다	-14849
▁어울리지	-14850
▁씬	-14851
명하게	-14852
▁통찰	-14853
68	-14854
우스를	-14855
▁유전자	-14856
▁입에서	-14857
▁카카오	-14858
▁드라이버	-14859
▁진행되었다	-14860
▁내려다	-14861
▁–	-14862
▁67	-14863
▁했는지	-14864
대도	-14865
▁마틴	-14866
red	-14867
▁평가하는	-14868
가면서	-14869
▁보라색	-14870
▁부분의	-14871
▁게임으로	-14872
▁李	-14873
▁후방	-14874
권도	-14875
▁한숨을	-14876
▁오메가	-14877
▁창고	-14878
▁퇴각	-14879
년으로	-14880
▁의원이	-14881
▁총선	-14882
▁적절하게	-14883
쿠가	-14884
▁선동	-14885
후보	-14886
▁이브	-14887
버려서	-14888
구간	-14889
▁바쁜	-14890
▁걷는	-14891
림에	-14892
▁더러운	-14893
?」	-14894
▁땅이	-14895
▁우연	-14896
▁원수	-14897
▁위임	-14898
▁아슬	-14899
▁대해선	-14900
▁SE	-14901
말의	-14902
▁내부에서	-14903
▁고로	-14904
▁스트리트	-14905
co	-14906
▁아수	-14907
▁경찰에	-14908
피는	-14909
▁잡몹	-14910
▁장인	-14911
▁la	-14912
▁한국을	-14913
▁원의	-14914
▁죄송	-14915
▁코미디	-14916
ven	-14917
나르	-14918
▁타이틀을	-14919
IVE	-14920
▁토큰	-14921
▁뒤에도	-14922
▁1979	-14923
▁이상적인	-14924
▁머신	-14925
ep	-14926
▁대수	-14927
▁필립	-14928
▁SU	-14929
▁제치고	-14930
▁울려	-14931
▁생각했던	-14932
▁달의	-14933
▁적들이	-14934
▁표현할	-14935
▁이외에는	-14936
▁계획은	-14937
▁읽은	-14938
▁역의	-14939
국어	-14940
▁뭐야	-14941
▁부분도	-14942
▁몬스터의	-14943
reat	-14944
무늬	-14945
▁맥주	-14946
어서는	-14947
▁꿈의	-14948
▁장의	-14949
철은	-14950
▁1%	-14951
▁돌아간	-14952
▁없거나	-14953
▁유사하다	-14954
▁감독으로	-14955
이후	-14956
▁탈취	-14957
▁결승전	-14958
▁명칭을	-14959
ism	-14960
▁잘생	-14961
▁이보다	-14962
▁소홀	-14963
▁극대화	-14964
▁동물의	-14965
▁생활에	-14966
んだ	-14967
▁히비	-14968
▁끌어들	-14969
백만	-14970
▁사이에는	-14971
▁웬만	-14972
세기의	-14973
▁원이	-14974
양은	-14975
▁부속	-14976
▁박정희	-14977
▁황태	-14978
42	-14979
링은	-14980
▁특화	-14981
▁끄는	-14982
▁위헌	-14983
테면	-14984
▁마른	-14985
▁삼는	-14986
▁피니	-14987
▁파악할	-14988
▁모터	-14989
내면	-14990
▁둘이서	-14991
▁피해량	-14992
복은	-14993
▁사퇴	-14994
▁소리는	-14995
▁절차를	-14996
▁되어버린	-14997
▁중에도	-14998
었지	-14999
▁야만	-15000
▁동아리	-15001
▁이후부터	-15002
에서나	-15003
▁1978	-15004
부지	-15005
▁명심	-15006
▁왔을	-15007
▁출석	-15008
▁알려준다	-15009
▁메달	-15010
▁재료를	-15011
▁1981	-15012
메라	-15013
▁전략적	-15014
▁부정적	-15015
▁멤버로	-15016
▁나타나지	-15017
▁발자	-15018
▁아무렇	-15019
▁지켜야	-15020
▁호시	-15021
쪽이	-15022
▁환경이	-15023
▁비비	-15024
▁바라보았다	-15025
▁포함된다	-15026
▁번째는	-15027
와이	-15028
계약을	-15029
스와의	-15030
▁키라	-15031
▁나비	-15032
▁망명	-15033
▁성이	-15034
▁했다가	-15035
도라	-15036
▁선수들	-15037
▁엉망	-15038
마일	-15039
▁볼을	-15040
▁이벤트로	-15041
▁두지	-15042
▁선수들은	-15043
오버	-15044
▁공직	-15045
▁주인공과	-15046
천시	-15047
▁Sch	-15048
보우	-15049
▁날에	-15050
▁여러번	-15051
▁저술	-15052
▁만들어졌다	-15053
▁발목을	-15054
▁통솔	-15055
ING	-15056
▁앞장	-15057
▁설치된	-15058
▁평소에는	-15059
▁차는	-15060
▁피드	-15061
래가	-15062
▁당뇨	-15063
▁트렌	-15064
▁퍼부	-15065
▁비어	-15066
▁탄창	-15067
바지	-15068
광이	-15069
▁쪽의	-15070
▁집은	-15071
▁모양을	-15072
관념	-15073
면은	-15074
▁터지는	-15075
▁조달	-15076
▁힙합	-15077
해버렸다	-15078
▁터진	-15079
▁중국어	-15080
▁호랑이	-15081
제도를	-15082
▁쵸	-15083
▁뮌헨	-15084
교사	-15085
▁짙은	-15086
▁증가하는	-15087
▁간과	-15088
▁능동	-15089
▁아빠가	-15090
왔다고	-15091
성적인	-15092
결한	-15093
▁받아들이는	-15094
▁넘어갈	-15095
요를	-15096
▁뛰는	-15097
▁질서	-15098
▁않은가	-15099
▁언제든지	-15100
▁대학원	-15101
▁플래시	-15102
▁합리적인	-15103
▁해머	-15104
어버렸다	-15105
▁올라오는	-15106
▁프랜차이즈	-15107
▁열려	-15108
▁경기에서는	-15109
▁양을	-15110
▁만만치	-15111
▁엉뚱한	-15112
▁성장한	-15113
▁룩	-15114
▁노스	-15115
▁명백한	-15116
실히	-15117
▁fe	-15118
▁가루	-15119
▁총리	-15120
▁연타	-15121
▁조합이	-15122
▁힘과	-15123
▁관련한	-15124
▁장신	-15125
▁혼란을	-15126
▁그해	-15127
▁고고	-15128
▁현실은	-15129
▁학생들에게	-15130
▁국토	-15131
▁응급	-15132
▁첫날	-15133
▁극한	-15134
▁늘어나는	-15135
▁잠수함	-15136
▁나타낸다	-15137
▁하단	-15138
▁보스가	-15139
▁유대인	-15140
▁갸	-15141
호한	-15142
▁서정	-15143
▁현재도	-15144
때도	-15145
▁별명을	-15146
▁여파로	-15147
클리	-15148
▁데빌	-15149
▁버리	-15150
▁효율적으로	-15151
거니와	-15152
▁행동으로	-15153
원인	-15154
▁애정	-15155
▁무방하다	-15156
▁맛있는	-15157
▁할로	-15158
▁토요일	-15159
▁경우와	-15160
거다	-15161
▁출동	-15162
▁성공적인	-15163
▁재능이	-15164
▁시기는	-15165
▁One	-15166
▁메카닉	-15167
▁쓰기도	-15168
▁설명했다	-15169
son	-15170
▁고유의	-15171
▁제목으로	-15172
▁산하	-15173
▁주기도	-15174
▁티베	-15175
▁유닛의	-15176
▁반동	-15177
▁가이드	-15178
▁Co	-15179
할수록	-15180
▁○○	-15181
▁완공	-15182
▁발음이	-15183
▁메디	-15184
▁걱정이	-15185
▁안양	-15186
론으로	-15187
▁없었다는	-15188
베르크	-15189
▁사장이	-15190
▁스코틀	-15191
검은	-15192
▁살아갈	-15193
▁일꾼	-15194
▁규정이	-15195
박물	-15196
하든	-15197
tern	-15198
▁크레딧	-15199
▁회의를	-15200
ky	-15201
▁덤벼	-15202
시간은	-15203
▁모두들	-15204
▁동성애	-15205
매매	-15206
▁모에	-15207
생은	-15208
▁여겼	-15209
▁증여	-15210
▁꽃이	-15211
자이	-15212
▁낮게	-15213
▁단정	-15214
app	-15215
▁달려가	-15216
했지	-15217
▁메구	-15218
▁불려	-15219
▁말고도	-15220
▁조금도	-15221
디와	-15222
▁진에	-15223
▁70%	-15224
▁생기면	-15225
▁윈도우	-15226
した	-15227
딜이	-15228
▁배차	-15229
▁수없이	-15230
▁자격이	-15231
▁데이비드	-15232
▁압권	-15233
여성	-15234
▁브래	-15235
▁김해	-15236
1)	-15237
▁품질	-15238
▁뭔가를	-15239
▁이름만	-15240
시장에서	-15241
▁게임이다	-15242
▁값을	-15243
▁뚜렷한	-15244
▁나을	-15245
▁달에	-15246
▁편찬	-15247
▁보스턴	-15248
いて	-15249
개에	-15250
눈에	-15251
▁무늬	-15252
▁사사	-15253
▁out	-15254
iew	-15255
▁열등	-15256
▁될까	-15257
▁반항	-15258
▁만난다	-15259
▁불타는	-15260
개와	-15261
▁디즈니	-15262
▁설치되어	-15263
▁해변	-15264
▁있으면서	-15265
▁깨고	-15266
▁다카	-15267
▁중견	-15268
▁인물들이	-15269
▁예상된다	-15270
▁처리할	-15271
▁수치를	-15272
▁메이드	-15273
▁들리는	-15274
느냐에	-15275
▁착륙	-15276
▁다행히도	-15277
경으로	-15278
▁여주인	-15279
▁차지한	-15280
▁이현	-15281
한은	-15282
▁싶었던	-15283
▁자세로	-15284
▁모자를	-15285
▁언젠가는	-15286
▁낀	-15287
▁톡	-15288
▁빈틈	-15289
▁화재	-15290
▁이토	-15291
▁상관없	-15292
▁연고	-15293
▁직전까지	-15294
▁단점을	-15295
▁용도	-15296
▁누르고	-15297
▁Fate	-15298
▁어그로	-15299
▁와중에도	-15300
강화	-15301
▁유한	-15302
▁정면으로	-15303
▁줄곧	-15304
린다고	-15305
▁등이다	-15306
▁체제를	-15307
쉬를	-15308
▁며느	-15309
기념	-15310
히메	-15311
▁보였고	-15312
▁오류가	-15313
▁랄	-15314
▁기꺼	-15315
▁연말	-15316
▁걸어서	-15317
▁눕	-15318
▁장난감	-15319
▁감행	-15320
▁상자를	-15321
▁영화에	-15322
▁??	-15323
▁쓰다	-15324
▁노력하는	-15325
▁만들어야	-15326
▁GM	-15327
▁유형의	-15328
▁여덟	-15329
▁조금은	-15330
▁글은	-15331
였다면	-15332
경험	-15333
▁대피	-15334
차전에서	-15335
혼을	-15336
▁붙는	-15337
▁엔딩을	-15338
회전	-15339
▁키타	-15340
▁블리자	-15341
▁뜰	-15342
▁시킨	-15343
자들도	-15344
한지	-15345
▁상하이	-15346
▁간절	-15347
레인지	-15348
▁선발로	-15349
▁끔살	-15350
▁옳은	-15351
문제를	-15352
▁주장하고	-15353
▁내외	-15354
▁쥐어	-15355
▁가도	-15356
▁헬멧	-15357
▁그려져	-15358
▁트래	-15359
▁나름의	-15360
하자고	-15361
운동의	-15362
체스터	-15363
▁녀석은	-15364
▁리그에서	-15365
▁프리미어	-15366
▁급하게	-15367
졌습니다	-15368
명인	-15369
▁갈색	-15370
▁용암	-15371
▁날을	-15372
▁주어야	-15373
▁앤드	-15374
▁숨기고	-15375
▁하우스	-15376
▁문제점이	-15377
▁무슬	-15378
▁활용한	-15379
▁위치하고	-15380
▁일본군	-15381
범의	-15382
▁one	-15383
▁빼앗아	-15384
che	-15385
▁나기	-15386
▁불문	-15387
▁트라	-15388
▁86	-15389
▁스핀	-15390
▁나누고	-15391
▁남성의	-15392
▁만능	-15393
▁발간	-15394
▁AKB	-15395
▁보여주면서	-15396
극을	-15397
티는	-15398
▁우에	-15399
▁0.7	-15400
▁들으면	-15401
증의	-15402
▁갔을	-15403
▁남동생	-15404
ai	-15405
▁이따	-15406
▁94	-15407
▁찍을	-15408
▁다름없	-15409
▁소리에	-15410
▁의회	-15411
▁기숙사	-15412
AY	-15413
▁말미	-15414
▁뒤이어	-15415
▁시기의	-15416
▁근처에서	-15417
골이	-15418
▁설마	-15419
▁주술	-15420
▁것이라면	-15421
▁다운로드	-15422
오르	-15423
▁임차	-15424
▁명확한	-15425
▁유나이	-15426
가인	-15427
▁03	-15428
▁가급	-15429
▁가던	-15430
▁채찍	-15431
▁비롯된	-15432
▁일행과	-15433
패가	-15434
▁상대로는	-15435
태의	-15436
▁코노	-15437
▁강의를	-15438
▁기억하고	-15439
▁꽁	-15440
▁놓인	-15441
▁다니며	-15442
▁악명	-15443
▁부인이	-15444
직이	-15445
▁비춰	-15446
▁큐브	-15447
▁최연	-15448
▁등장해	-15449
▁의거	-15450
▁그로부터	-15451
▁되풀이	-15452
▁걸어가	-15453
▁때문인	-15454
▁듯했다	-15455
▁말대로	-15456
▁넓게	-15457
▁띄워	-15458
▁까는	-15459
▁정해져	-15460
▁중도	-15461
할까	-15462
패스	-15463
▁명확하게	-15464
벽이	-15465
▁주소	-15466
▁미끄러	-15467
우라	-15468
▁맡는	-15469
▁하기에	-15470
▁UEFA	-15471
▁고독	-15472
▁JT	-15473
▁박성	-15474
▁괴수	-15475
▁김지	-15476
▁생각해서	-15477
▁땅볼	-15478
▁물러나	-15479
▁살았던	-15480
▁단발	-15481
▁두었다	-15482
▁헌법재판	-15483
▁문학의	-15484
▁차로	-15485
트랙	-15486
me	-15487
▁놓는	-15488
▁청주	-15489
▁전도	-15490
▁히메	-15491
▁철권	-15492
▁물고기	-15493
▁갯	-15494
플라	-15495
▁빚을	-15496
이트의	-15497
▁줄일	-15498
▁실체	-15499
났고	-15500
▁돌아온다	-15501
orn	-15502
▁물어보	-15503
▁행복하게	-15504
▁기차	-15505
▁섬에	-15506
▁싸웠	-15507
▁군대가	-15508
▁끝내고	-15509
저것	-15510
▁영어를	-15511
▁팀에서	-15512
▁하였	-15513
▁공용	-15514
▁명명	-15515
▁있으니까	-15516
추를	-15517
▁레일	-15518
▁진행되고	-15519
▁따위는	-15520
▁시작부터	-15521
▁가챠	-15522
▁눈의	-15523
▁육상	-15524
▁대학을	-15525
!?	-15526
▁사악한	-15527
욕이	-15528
▁수장	-15529
▁때보다	-15530
んな	-15531
마나	-15532
▁나날	-15533
▁서클	-15534
건으로	-15535
▁위협을	-15536
▁김승	-15537
시대에	-15538
▁상술한	-15539
▁늘어난다	-15540
규가	-15541
▁새누리	-15542
궁의	-15543
ject	-15544
▁네임드	-15545
/1	-15546
▁일으킬	-15547
▁텔레비전	-15548
▁말하지만	-15549
▁예가	-15550
ale	-15551
▁기종	-15552
적이라	-15553
가미	-15554
사냥	-15555
▁유권	-15556
▁면제	-15557
▁술에	-15558
킬을	-15559
▁견해를	-15560
▁쇄	-15561
해지면서	-15562
▁어나	-15563
리스가	-15564
더군요	-15565
▁공교	-15566
▁아쉽게도	-15567
▁타율	-15568
블을	-15569
▁위탁	-15570
▁DPS	-15571
▁살아온	-15572
▁그들과	-15573
▁간략	-15574
▁체중	-15575
▁납부	-15576
▁보았	-15577
▁시청률	-15578
루에	-15579
▁중국과	-15580
분야	-15581
▁하스	-15582
▁이를테면	-15583
▁확인되었다	-15584
빈이	-15585
▁싱크로	-15586
▁연예인	-15587
▁누구에게	-15588
피안타	-15589
▁이곳을	-15590
▁출신인	-15591
▁엔터테인	-15592
▁뺀	-15593
.11	-15594
▁말려	-15595
▁DNA	-15596
...."	-15597
▁복종	-15598
▁불과한	-15599
형인	-15600
▁눈치를	-15601
▁중학생	-15602
▁애써	-15603
▁유저들	-15604
GB	-15605
▁리틀	-15606
들어가	-15607
▁플라스틱	-15608
어지면	-15609
▁사업에	-15610
금에	-15611
▁아스날	-15612
▁애용	-15613
메리카	-15614
침이	-15615
세력	-15616
▁돌아서	-15617
▁등장은	-15618
공과	-15619
▁만들지	-15620
럽고	-15621
▁알코올	-15622
▁정부에	-15623
▁직원이	-15624
▁뚜껑	-15625
▁컴퓨터를	-15626
▁자식을	-15627
안과	-15628
▁이만	-15629
▁머리카락	-15630
▁이루어질	-15631
▁부대를	-15632
▁서울대학교	-15633
▁눈부	-15634
트도	-15635
▁쓰이고	-15636
루에서	-15637
소드	-15638
.....	-15639
▁사치	-15640
왕과	-15641
▁썬더	-15642
▁도깨비	-15643
▁고마워	-15644
▁믹	-15645
▁시절을	-15646
▁왕을	-15647
▁8,	-15648
▁다다	-15649
▁남았다	-15650
▁보호를	-15651
▁항공기	-15652
▁캐치	-15653
▁아스트	-15654
▁친구인	-15655
▁Cr	-15656
▁무죄	-15657
▁그러는	-15658
▁달라진	-15659
▁빈곤	-15660
▁앨리스	-15661
▁하니까	-15662
▁분신	-15663
▁기운을	-15664
▁박혀	-15665
▁극중	-15666
▁대상의	-15667
▁마음껏	-15668
▁장치를	-15669
패턴	-15670
▁소원	-15671
궁을	-15672
▁기인	-15673
ble	-15674
▁미국을	-15675
▁특화된	-15676
▁환경에서	-15677
서비	-15678
연대	-15679
▁포수	-15680
▁순간이	-15681
림과	-15682
▁탄탄	-15683
▁대두	-15684
▁오해를	-15685
아주	-15686
맞은	-15687
▁알려주	-15688
▁주인공으로	-15689
▁진급	-15690
▁놓치지	-15691
▁있을지도	-15692
▁포지션을	-15693
▁PP	-15694
▁속삭	-15695
▁재직	-15696
▁유틸	-15697
▁토니	-15698
▁가격에	-15699
행은	-15700
▁효과도	-15701
▁So	-15702
▁주를	-15703
be	-15704
수사	-15705
▁미노	-15706
▁장탄	-15707
리다가	-15708
상이다	-15709
▁중국이	-15710
목의	-15711
▁토트	-15712
▁방사능	-15713
▁이타	-15714
▁잔인	-15715
조약	-15716
▁독보	-15717
▁저글	-15718
▁IN	-15719
▁좋겠다	-15720
순이	-15721
▁교실	-15722
▁뒤덮	-15723
▁인연이	-15724
▁언급을	-15725
나갔다	-15726
▁관리가	-15727
▁음악이	-15728
▁생산하는	-15729
▁고대의	-15730
▁63	-15731
▁동참	-15732
저래	-15733
화도	-15734
▁팔고	-15735
시즘	-15736
▁문의	-15737
▁인문	-15738
▁주인공에게	-15739
▁갱신	-15740
공주	-15741
▁쌓인	-15742
▁강을	-15743
▁가족과	-15744
▁못하도록	-15745
ody	-15746
▁남아있다	-15747
▁인정할	-15748
▁의심을	-15749
▁Ed	-15750
▁계몽	-15751
▁대상은	-15752
▁1500	-15753
▁닐	-15754
▁지내고	-15755
▁하쿠	-15756
▁해답	-15757
▁견딜	-15758
▁꼼짝	-15759
▁인간으로	-15760
▁입으로	-15761
▁Kore	-15762
▁이노	-15763
ason	-15764
▁우루	-15765
▁동조	-15766
▁맥스	-15767
▁살면서	-15768
▁부위	-15769
▁주세요	-15770
▁집안의	-15771
▁친구들	-15772
▁목에	-15773
라운드에서	-15774
브레이	-15775
▁진정으로	-15776
▁고령	-15777
▁발표된	-15778
봉사	-15779
테의	-15780
▁메이지	-15781
왔는데	-15782
커로	-15783
▁끼어	-15784
요가	-15785
▁KOF	-15786
▁자신감을	-15787
▁보호막	-15788
▁목사	-15789
▁금액을	-15790
▁가면을	-15791
▁원작과	-15792
▁이동할	-15793
귀가	-15794
▁따른다	-15795
▁사회는	-15796
▁연관이	-15797
▁일상생활	-15798
▁기록하였다	-15799
▁계층	-15800
▁급기	-15801
▁서로가	-15802
▁배에	-15803
▁상무	-15804
▁남에게	-15805
▁페미니즘	-15806
하와	-15807
▁전대	-15808
다니며	-15809
▁가구	-15810
▁비추어	-15811
▁김윤	-15812
▁보스를	-15813
▁들러	-15814
▁편견	-15815
▁팀으로	-15816
▁스쿼	-15817
▁다음에는	-15818
액션	-15819
-12	-15820
▁계획에	-15821
▁새로이	-15822
▁꼼꼼	-15823
▁지만	-15824
▁불길	-15825
▁여는	-15826
▁너에게	-15827
▁오만	-15828
▁모범	-15829
▁삶과	-15830
근을	-15831
▁수단을	-15832
질러	-15833
▁오니	-15834
▁정류장	-15835
우러	-15836
▁무신	-15837
▁い	-15838
▁노란색	-15839
▁현장에	-15840
치다	-15841
때마다	-15842
▁이야기로	-15843
▁슈퍼로봇대전	-15844
▁To	-15845
▁기간에	-15846
▁립	-15847
▁밤의	-15848
▁인벤	-15849
▁일람	-15850
▁화산	-15851
▁달라붙	-15852
▁말고는	-15853
▁생각하기	-15854
▁싫은	-15855
▁저서	-15856
▁90%	-15857
모스	-15858
▁약점이	-15859
▁2,000	-15860
STER	-15861
▁기꺼이	-15862
▁의문이	-15863
▁계략	-15864
오며	-15865
▁열쇠를	-15866
▁총체	-15867
나라에	-15868
▁공통적으로	-15869
상태가	-15870
▁주제가	-15871
▁효율적인	-15872
▁하여야	-15873
▁사망자도	-15874
업자	-15875
짐을	-15876
▁시도를	-15877
▁필자는	-15878
▁날린다	-15879
▁고도	-15880
▁청와대	-15881
▁김대중	-15882
▁교섭	-15883
▁속에는	-15884
▁백작	-15885
▁전생	-15886
▁참가한	-15887
▁영향력이	-15888
▁불완	-15889
▁현실에서	-15890
▁발탁	-15891
▁중소기업	-15892
▁GP	-15893
▁전성기	-15894
▁거주하는	-15895
▁줄어든	-15896
▁짐작할	-15897
▁이익이	-15898
적한	-15899
▁게르	-15900
▁암컷	-15901
▁간지	-15902
▁무너져	-15903
공산	-15904
▁후술할	-15905
ys	-15906
레일	-15907
주식	-15908
▁이그	-15909
▁근처의	-15910
2)	-15911
▁펭	-15912
▁고블린	-15913
▁잡는다	-15914
이용	-15915
▁계통	-15916
▁그루	-15917
▁수반	-15918
▁헤아	-15919
▁빠지고	-15920
▁원리를	-15921
▁결여	-15922
갑을	-15923
▁87	-15924
▁벡	-15925
골로	-15926
▁고스란히	-15927
▁떨어져서	-15928
▁드워	-15929
▁노래는	-15930
▁사랑하고	-15931
▁오시	-15932
▁실사	-15933
▁대량으로	-15934
니에	-15935
▁간직	-15936
▁단절	-15937
▁아니므로	-15938
▁빠져나가	-15939
러브	-15940
▁연맹	-15941
▁하면서도	-15942
▁죽이지	-15943
▁연산	-15944
▁파츠	-15945
▁60%	-15946
▁대화가	-15947
▁일으켰다	-15948
▁마저	-15949
▁표를	-15950
처분	-15951
▁적용되지	-15952
▁단계에서	-15953
▁▷	-15954
▁서울의	-15955
▁높다는	-15956
▁작업이	-15957
청은	-15958
▁준비하는	-15959
▁구간을	-15960
▁되었으나	-15961
▁닛	-15962
▁과일	-15963
▁자격을	-15964
▁긍정적으로	-15965
▁경향을	-15966
▁짝이	-15967
▁영화에서	-15968
▁어째서인지	-15969
▁고려하여	-15970
버스가	-15971
세포	-15972
▁강호	-15973
▁내각	-15974
▁공격의	-15975
▁보고서	-15976
▁상주	-15977
▁상대하는	-15978
▁없이도	-15979
▁취하는	-15980
!!"	-15981
▁조그만	-15982
▁매드	-15983
토에게	-15984
▁지원한다	-15985
▁프로게이머	-15986
▁귀에	-15987
▁라면	-15988
▁야수	-15989
▁없음을	-15990
▁분명하게	-15991
▁스노우	-15992
▁제공하고	-15993
▁짬	-15994
▁퀵	-15995
백의	-15996
▁스윙	-15997
▁회차	-15998
반응	-15999
▁카이사	-16000
하우스	-16001
해왔다	-16002
▁체인지	-16003
▁관해서는	-16004
레오	-16005
장난	-16006
▁대여	-16007
▁베를린	-16008
▁말하면서	-16009
▁소유하고	-16010
▁도와주는	-16011
▁아폴	-16012
▁퉁	-16013
▁프론	-16014
▁단련	-16015
▁맹세	-16016
▁손수	-16017
▁경제학	-16018
▁형성된	-16019
담당	-16020
▁표절	-16021
실점을	-16022
맨과	-16023
▁정신과	-16024
▁사용해야	-16025
▁싶어하는	-16026
▁캘리포니아	-16027
▁인류가	-16028
▁주먹을	-16029
▁학생회	-16030
▁국한	-16031
▁싸운다	-16032
▁사무라이	-16033
뿐인	-16034
▁부여하는	-16035
▁코스프레	-16036
▁바람의	-16037
▁움직여	-16038
렉션	-16039
찬을	-16040
▁나열	-16041
▁샘플	-16042
▁제의	-16043
▁지우	-16044
▁가사를	-16045
▁태도는	-16046
위원회의	-16047
▁분당	-16048
▁스컬	-16049
루미	-16050
▁상관이	-16051
코에게	-16052
▁복용	-16053
▁1973	-16054
▁세력의	-16055
▁약하다	-16056
▁조건은	-16057
▁상당수	-16058
통제	-16059
들이는	-16060
▁헥	-16061
▁정보의	-16062
재산	-16063
▁기소	-16064
▁페스티	-16065
▁있었는지	-16066
즈에서	-16067
▁시리즈는	-16068
▁구한	-16069
▁친구는	-16070
▁쇠퇴	-16071
관계의	-16072
▁BS	-16073
▁초중반	-16074
▁못했다는	-16075
▁있는지를	-16076
▁과잉	-16077
▁아버지인	-16078
▁君	-16079
추가	-16080
▁제라	-16081
등에	-16082
▁노후	-16083
▁회귀	-16084
엘은	-16085
▁활동은	-16086
했을때	-16087
▁봉건	-16088
▁날아가는	-16089
시도	-16090
▁관점	-16091
▁컨설	-16092
▁↓	-16093
▁92	-16094
▁경기력을	-16095
▁수컷	-16096
▁유태	-16097
▁안경을	-16098
▁뛰어나다	-16099
▁장로	-16100
▁좋아하지	-16101
▁분포	-16102
호에게	-16103
염을	-16104
▁가져야	-16105
▁타이탄	-16106
▁들어보면	-16107
▁유리하다	-16108
▁출신이다	-16109
▁자체적으로	-16110
▁실점	-16111
▁언급했다	-16112
▁무거	-16113
▁재학	-16114
▁스위스	-16115
GE	-16116
▁김선	-16117
▁피규	-16118
▁부엌	-16119
▁진격	-16120
▁이쪽도	-16121
터에서	-16122
▁있었다면	-16123
▁플레이할	-16124
▁이명박	-16125
▁결국에는	-16126
았어	-16127
▁지원이	-16128
▁김병	-16129
▁스피릿	-16130
화하여	-16131
글라	-16132
마치	-16133
▁바람직한	-16134
▁볶	-16135
▁한달	-16136
▁소속으로	-16137
▁유지하기	-16138
▁팁	-16139
▁않으면서	-16140
칭은	-16141
▁바를	-16142
▁정직	-16143
▁나무위키	-16144
▁들어가고	-16145
▁무쌍	-16146
▁시크	-16147
▁머물러	-16148
▁천주교	-16149
▁씁	-16150
▁공모	-16151
▁담보	-16152
▁확인한	-16153
▁짝사랑	-16154
▁선도	-16155
사들은	-16156
▁진행한다	-16157
▁트레이닝	-16158
8,	-16159
▁TVA	-16160
카에게	-16161
▁교과서	-16162
▁욕망을	-16163
▁멤버들은	-16164
▁대명	-16165
▁취해	-16166
족과	-16167
▁와카	-16168
▁공중에	-16169
▁없어졌다	-16170
64	-16171
국적	-16172
▁건의	-16173
▁이단	-16174
▁쓸쓸	-16175
▁스타리그	-16176
월이	-16177
que	-16178
▁유능한	-16179
▁입는다	-16180
삼아	-16181
▁참을	-16182
▁요청을	-16183
▁찾으러	-16184
▁안을	-16185
▁CF	-16186
▁OVA	-16187
▁그리핀	-16188
▁자기는	-16189
▁아닌지	-16190
▁재장전	-16191
▁점멸	-16192
▁한양	-16193
▁차량은	-16194
차와	-16195
▁느껴진다	-16196
느냐는	-16197
네마	-16198
▁내뿜	-16199
▁정치가	-16200
▁DD	-16201
▁모으는	-16202
▁약물	-16203
▁유메	-16204
▁지날	-16205
▁제도가	-16206
종교	-16207
년부터는	-16208
▁불리며	-16209
▁주행	-16210
▁z	-16211
▁탭	-16212
▁IC	-16213
▁기피	-16214
▁소매	-16215
▁왔다고	-16216
▁배웠	-16217
▁라스트	-16218
목록	-16219
마리를	-16220
▁끝나지	-16221
▁혼혈	-16222
▁낮추	-16223
▁부풀	-16224
▁스매	-16225
▁전두	-16226
▁설정은	-16227
▁감당	-16228
▁주민들이	-16229
▁묘한	-16230
▁아마존	-16231
▁게이지가	-16232
▁엔드	-16233
시키려	-16234
제작	-16235
▁발휘할	-16236
▁휴식을	-16237
▁교역	-16238
복의	-16239
▁이야기다	-16240
▁한강	-16241
▁빨간색	-16242
▁5,000	-16243
찮은	-16244
▁남자와	-16245
▁지식과	-16246
▁관절	-16247
리칸	-16248
▁그릴	-16249
▁더듬	-16250
▁까마귀	-16251
위험	-16252
▁고조	-16253
▁일쑤	-16254
▁Sup	-16255
▁만들어내는	-16256
TR	-16257
▁개발을	-16258
테스	-16259
▁첨단	-16260
▁나이로	-16261
▁이것저것	-16262
▁시작되는	-16263
▁오죽하면	-16264
▁손실	-16265
▁환자가	-16266
▁경성	-16267
▁것보다는	-16268
▁우정	-16269
▁교수의	-16270
▁프로그램의	-16271
▁완벽히	-16272
▁끈질	-16273
투수	-16274
▁1.0	-16275
타고	-16276
▁중력	-16277
▁주도권을	-16278
▁당사자	-16279
▁세탁	-16280
▁닌텐도	-16281
▁보았을	-16282
▁□	-16283
▁무색	-16284
▁아자	-16285
▁적에	-16286
▁이때의	-16287
▁찾아야	-16288
▁함은	-16289
뿐이었다	-16290
▁중시하는	-16291
▁놀고	-16292
▁구체적	-16293
바이벌	-16294
▁트럼프	-16295
▁흔적이	-16296
▁미워	-16297
▁어둡	-16298
▁프로그래	-16299
▁천지	-16300
▁등장하여	-16301
▁그놈	-16302
▁방송이	-16303
▁초기의	-16304
▁관장	-16305
▁넘은	-16306
▁오자	-16307
▁폴리	-16308
▁일본과	-16309
▁강림	-16310
▁안젤	-16311
▁져	-16312
67	-16313
학년도	-16314
▁받았지만	-16315
▁그늘	-16316
▁더러	-16317
딩을	-16318
자산	-16319
▁스칼	-16320
▁목소리는	-16321
▁반환	-16322
▁레이스	-16323
▁주위의	-16324
쿠의	-16325
▁사각	-16326
▁본래는	-16327
▁아마추어	-16328
▁퍼스트	-16329
▁굴복	-16330
창에	-16331
▁아이스크	-16332
~1	-16333
마침	-16334
▁도약	-16335
▁서포트	-16336
▁슬슬	-16337
▁다듬	-16338
▁시마	-16339
▁좌석	-16340
▁검사를	-16341
▁기도를	-16342
ivers	-16343
▁정체성을	-16344
▁별이	-16345
▁저의	-16346
▁달랐다	-16347
▁양식	-16348
▁지지하는	-16349
▁스타일의	-16350
시나	-16351
▁진행했다	-16352
▁디자이너	-16353
▁이었다	-16354
이다보니	-16355
생으로	-16356
▁다름없는	-16357
룡이	-16358
▁오른손	-16359
▁정치적인	-16360
600	-16361
▁꺾고	-16362
▁드래곤볼	-16363
▁향한다	-16364
ild	-16365
베리아	-16366
어지기	-16367
▁미국인	-16368
▁이래저래	-16369
가드	-16370
▁신지	-16371
금과	-16372
대며	-16373
방식을	-16374
▁덱을	-16375
▁미끼	-16376
▁상처가	-16377
▁시설을	-16378
▁격리	-16379
▁배로	-16380
할만한	-16381
정말	-16382
▁변명	-16383
▁우세	-16384
▁잠실	-16385
코스	-16386
▁해결하는	-16387
▁테크닉	-16388
▁BJ	-16389
400	-16390
▁냥	-16391
▁민폐	-16392
기간이	-16393
▁미묘한	-16394
유지	-16395
랑의	-16396
청년	-16397
▁교양	-16398
▁정황상	-16399
▁아버지에게	-16400
▁성인이	-16401
▁믿어	-16402
▁했으니	-16403
▁지체	-16404
광을	-16405
▁오다	-16406
▁뛰쳐	-16407
▁상위권	-16408
선다	-16409
▁원래대로	-16410
▁공익	-16411
▁종일	-16412
▁MAX	-16413
▁었다	-16414
▁차이나	-16415
▁주어지는	-16416
▁단점은	-16417
▁증거를	-16418
경기에	-16419
▁알을	-16420
▁박영	-16421
서스	-16422
프로그램	-16423
천사	-16424
▁프로그램이	-16425
볼넷	-16426
순환	-16427
▁그룹의	-16428
OO	-16429
▁MG	-16430
▁일종	-16431
▁거세	-16432
▁중앙에	-16433
군사	-16434
예를	-16435
▁가리키	-16436
▁연결된	-16437
ng	-16438
백으로	-16439
▁자손	-16440
▁김광	-16441
▁나르	-16442
▁준비해	-16443
▁루이스	-16444
▁손실을	-16445
▁완성된	-16446
▁방황	-16447
▁온전히	-16448
선택	-16449
▁탐정	-16450
▁비타민	-16451
▁일들이	-16452
▁빌리	-16453
▁요인이	-16454
▁입었다	-16455
▁활용하여	-16456
▁증거가	-16457
▁자체로	-16458
▁노린	-16459
후는	-16460
▁$	-16461
사진	-16462
▁GD	-16463
▁방영된	-16464
▁백업	-16465
▁쓰이지	-16466
▁소속된	-16467
▁고민을	-16468
▁진출을	-16469
▁NE	-16470
▁고유한	-16471
▁규칙을	-16472
▁어리석은	-16473
▁존속	-16474
91	-16475
▁쿵	-16476
하였다는	-16477
▁삼성전	-16478
▁중거리	-16479
▁전쟁은	-16480
▁개인적으로	-16481
▁en	-16482
숨에	-16483
▁아들은	-16484
▁사람에게는	-16485
▁감금	-16486
▁신흥	-16487
▁북한이	-16488
미아	-16489
▁BR	-16490
▁군림	-16491
나라가	-16492
▁딸의	-16493
▁고성능	-16494
▁연구의	-16495
▁짧아	-16496
▁구축함	-16497
▁노선은	-16498
류로	-16499
▁미만	-16500
술은	-16501
▁교토	-16502
▁심화	-16503
▁언어의	-16504
▁조화를	-16505
▁이하로	-16506
▁1940	-16507
▁전지	-16508
▁배터리	-16509
▁장착한	-16510
▁time	-16511
▁주변에서	-16512
스틴	-16513
▁길다	-16514
▁안습한	-16515
▁흘리며	-16516
▁정권을	-16517
▁실패를	-16518
▁불릴	-16519
▁자책	-16520
▁욕구를	-16521
하네	-16522
▁궁극기	-16523
▁이성을	-16524
▁담임	-16525
▁달성했다	-16526
▁필요하다는	-16527
▁PV	-16528
▁가나	-16529
▁드립을	-16530
▁이야기하는	-16531
청에	-16532
▁곧장	-16533
▁몰아붙	-16534
▁이진	-16535
▁그때는	-16536
▁섀도우	-16537
▁내려오는	-16538
▁설사	-16539
▁DR	-16540
▁재단	-16541
▁소비에	-16542
▁돌아오지	-16543
▁들어온다	-16544
to	-16545
떻게	-16546
▁질서를	-16547
▁활발한	-16548
▁따돌	-16549
▁매그	-16550
▁	-16551
이	-16552
다	-16553
.	-16554
는	-16555
에	-16556
의	-16557
하	-16558
을	-16559
가	-16560
로	-16561
지	-16562
고	-16563
한	-16564
,	-16565
서	-16566
기	-16567
도	-16568
은	-16569
를	-16570
리	-16571
어	-16572
사	-16573
나	-16574
인	-16575
아	-16576
으	-16577
그	-16578
시	-16579
자	-16580
라	-16581
있	-16582
대	-16583
수	-16584
스	-16585
게	-16586
들	-16587
해	-16588
만	-16589
1	-16590
정	-16591
전	-16592
보	-16593
면	-16594
상	-16595
0	-16596
일	-16597
과	-16598
것	-16599
적	-16600
부	-16601
주	-16602
2	-16603
제	-16604
장	-16605
었	-16606
니	-16607
마	-16608
되	-16609
성	-16610
우	-16611
여	-16612
신	-16613
했	-16614
와	-16615
문	-16616
구	-16617
드	-16618
모	-16619
오	-16620
동	-16621
무	-16622
위	-16623
소	-16624
트	-16625
비	-16626
공	-16627
경	-16628
데	-16629
유	-16630
미	-16631
중	-16632
e	-16633
국	-16634
거	-16635
원	-16636
때	-16637
'	-16638
러	-16639
치	-16640
화	-16641
진	-16642
조	-16643
내	-16644
며	-16645
할	-16646
"	-16647
생	-16648
선	-16649
용	-16650
없	-16651
간	-16652
야	-16653
세	-16654
3	-16655
히	-16656
년	-16657
당	-16658
실	-16659
터	-16660
된	-16661
계	-16662
려	-16663
타	-16664
요	-16665
명	-16666
연	-16667
a	-16668
않	-16669
안	-16670
관	-16671
말	-16672
후	-16673
방	-16674
바	-16675
작	-16676
등	-16677
단	-16678
개	-16679
o	-16680
르	-16681
i	-16682
물	-16683
레	-16684
9	-16685
분	-16686
력	-16687
영	-16688
5	-16689
던	-16690
발	-16691
-	-16692
체	-16693
재	-16694
n	-16695
회	-16696
반	-16697
음	-16698
버	-16699
학	-16700
t	-16701
까	-16702
차	-16703
4	-16704
운	-16705
교	-16706
역	-16707
r	-16708
행	-16709
더	-16710
카	-16711
식	-16712
격	-16713
각	-16714
점	-16715
본	-16716
크	-16717
두	-16718
속	-16719
래	-16720
통	-16721
:	-16722
프	-16723
결	-16724
저	-16725
건	-16726
파	-16727
노	-16728
였	-16729
입	-16730
s	-16731
람	-16732
6	-16733
8	-16734
임	-16735
불	-16736
키	-16737
포	-16738
강	-16739
호	-16740
처	-16741
심	-16742
능	-16743
산	-16744
같	-16745
월	-16746
현	-16747
7	-16748
금	-16749
직	-16750
피	-16751
습	-16752
았	-16753
매	-16754
루	-16755
른	-16756
업	-16757
군	-16758
l	-16759
배	-16760
감	-16761
법	-16762
출	-16763
함	-16764
남	-16765
받	-16766
설	-16767
종	-16768
토	-16769
번	-16770
형	-16771
양	-16772
많	-16773
코	-16774
달	-16775
준	-16776
태	-16777
난	-16778
예	-16779
알	-16780
초	-16781
민	-16782
런	-16783
S	-16784
편	-16785
디	-16786
표	-16787
살	-16788
못	-16789
린	-16790
외	-16791
최	-16792
추	-16793
든	-16794
판	-16795
약	-16796
특	-16797
h	-16798
급	-16799
A	-16800
따	-16801
d	-16802
권	-16803
록	-16804
승	-16805
m	-16806
투	-16807
합	-16808
집	-16809
목	-16810
온	-16811
언	-16812
또	-16813
?	-16814
C	-16815
질	-16816
!	-16817
즈	-16818
메	-16819
너	-16820
복	-16821
u	-16822
티	-16823
날	-16824
변	-16825
론	-16826
절	-16827
c	-16828
브	-16829
네	-16830
돌	-16831
좋	-16832
독	-16833
평	-16834
테	-16835
근	-16836
/	-16837
란	-16838
술	-16839
걸	-16840
천	-16841
활	-16842
황	-16843
패	-16844
올	-16845
T	-16846
워	-16847
머	-16848
존	-16849
느	-16850
병	-16851
청	-16852
향	-16853
확	-16854
P	-16855
름	-16856
필	-16857
M	-16858
환	-16859
참	-16860
박	-16861
막	-16862
울	-16863
순	-16864
열	-16865
p	-16866
석	-16867
져	-16868
애	-16869
망	-16870
별	-16871
잘	-16872
증	-16873
족	-16874
플	-16875
I	-16876
럼	-16877
g	-16878
랑	-16879
항	-16880
품	-16881
죽	-16882
E	-16883
B	-16884
렇	-16885
친	-16886
왕	-16887
D	-16888
y	-16889
손	-16890
악	-16891
담	-16892
녀	-16893
쓰	-16894
김	-16895
새	-16896
맞	-16897
잡	-16898
겠	-16899
료	-16900
류	-16901
듯	-16902
길	-16903
베	-16904
께	-16905
누	-16906
련	-16907
뒤	-16908
볼	-16909
험	-16910
책	-16911
R	-16912
먹	-16913
백	-16914
얼	-16915
극	-16916
L	-16917
접	-16918
커	-16919
창	-16920
령	-16921
O	-16922
광	-16923
졌	-16924
G	-16925
채	-16926
페	-16927
쪽	-16928
갈	-16929
움	-16930
량	-16931
탄	-16932
캐	-16933
총	-16934
션	-16935
범	-16936
긴	-16937
높	-16938
송	-16939
혼	-16940
줄	-16941
겨	-16942
츠	-16943
N	-16944
완	-16945
쿠	-16946
눈	-16947
충	-16948
글	-16949
k	-16950
될	-16951
왔	-16952
효	-16953
벌	-16954
힘	-16955
색	-16956
육	-16957
f	-16958
팀	-16959
F	-16960
립	-16961
엔	-16962
앞	-16963
케	-16964
렸	-16965
늘	-16966
철	-16967
곳	-16968
빠	-16969
규	-16970
블	-16971
클	-16972
폭	-16973
락	-16974
견	-16975
탈	-16976
검	-16977
밀	-16978
림	-16979
퍼	-16980
취	-16981
곡	-16982
끝	-16983
쳐	-16984
릭	-16985
귀	-16986
w	-16987
K	-16988
쟁	-16989
놓	-16990
삼	-16991
b	-16992
북	-16993
%	-16994
닌	-16995
님	-16996
~	-16997
찾	-16998
침	-16999
희	-17000
택	-17001
V	-17002
엄	-17003
축	-17004
킬	-17005
째	-17006
득	-17007
넘	-17008
혀	-17009
큰	-17010
허	-17011
골	-17012
냐	-17013
뿐	-17014
v	-17015
슬	-17016
착	-17017
싸	-17018
므	-17019
H	-17020
괴	-17021
및	-17022
응	-17023
찬	-17024
덕	-17025
ᆞ	-17026
떠	-17027
써	-17028
끼	-17029
억	-17030
익	-17031
측	-17032
즉	-17033
싶	-17034
답	-17035
랜	-17036
틀	-17037
릴	-17038
몰	-17039
굴	-17040
잠	-17041
협	-17042
떨	-17043
둘	-17044
즌	-17045
먼	-17046
밖	-17047
몸	-17048
+	-17049
얻	-17050
냥	-17051
갔	-17052
붙	-17053
W	-17054
봉	-17055
몇	-17056
#	-17057
슈	-17058
논	-17059
율	-17060
벨	-17061
씨	-17062
갖	-17063
켜	-17064
찰	-17065
몬	-17066
징	-17067
럽	-17068
획	-17069
큼	-17070
’	-17071
났	-17072
혹	-17073
돈	-17074
갑	-17075
떤	-17076
첫	-17077
례	-17078
엘	-17079
U	-17080
풀	-17081
‘	-17082
률	-17083
암	-17084
템	-17085
풍	-17086
맨	-17087
턴	-17088
링	-17089
<	-17090
팔	-17091
압	-17092
널	-17093
깨	-17094
X	-17095
곤	-17096
념	-17097
좀	-17098
숙	-17099
쉬	-17100
궁	-17101
헤	-17102
짜	-17103
킨	-17104
팬	-17105
웃	-17106
칭	-17107
욕	-17108
)	-17109
꾸	-17110
밝	-17111
벽	-17112
왜	-17113
쉽	-17114
액	-17115
훈	-17116
염	-17117
놀	-17118
슨	-17119
낸	-17120
x	-17121
휘	-17122
_	-17123
죄	-17124
끌	-17125
홍	-17126
센	-17127
층	-17128
객	-17129
벤	-17130
략	-17131
뜻	-17132
떻	-17133
욱	-17134
퇴	-17135
농	-17136
뛰	-17137
묘	-17138
앙	-17139
넣	-17140
숨	-17141
낮	-17142
폐	-17143
빈	-17144
봐	-17145
빌	-17146
헌	-17147
>	-17148
짓	-17149
」	-17150
「	-17151
잔	-17152
엇	-17153
맡	-17154
윤	-17155
컨	-17156
뉴	-17157
옥	-17158
칼	-17159
찍	-17160
혁	-17161
슷	-17162
쓸	-17163
십	-17164
빛	-17165
씩	-17166
J	-17167
좌	-17168
빨	-17169
“	-17170
”	-17171
뜨	-17172
듣	-17173
딜	-17174
칠	-17175
됐	-17176
척	-17177
멸	-17178
냈	-17179
·	-17180
팅	-17181
』	-17182
『	-17183
탁	-17184
롭	-17185
흥	-17186
탑	-17187
렌	-17188
델	-17189
콘	-17190
멀	-17191
흔	-17192
땅	-17193
샤	-17194
웅	-17195
롯	-17196
낙	-17197
겼	-17198
칙	-17199
균	-17200
웨	-17201
Y	-17202
{	-17203
혈	-17204
꿈	-17205
맥	-17206
렵	-17207
믿	-17208
솔	-17209
닥	-17210
힌	-17211
맹	-17212
혜	-17213
흐	-17214
밤	-17215
웠	-17216
텐	-17217
덤	-17218
딩	-17219
삶	-17220
휴	-17221
죠	-17222
킹	-17223
콜	-17224
읽	-17225
컬	-17226
롤	-17227
홈	-17228
푸	-17229
쳤	-17230
쇼	-17231
섬	-17232
찌	-17233
닛	-17234
곧	-17235
싱	-17236
넷	-17237
램	-17238
빼	-17239
흑	-17240
;	-17241
즐	-17242
멤	-17243
끔	-17244
짝	-17245
핵	-17246
꽃	-17247
닝	-17248
꽤	-17249
맛	-17250
잃	-17251
=	-17252
칸	-17253
탕	-17254
랐	-17255
뭐	-17256
폰	-17257
씬	-17258
돼	-17259
픽	-17260
딸	-17261
○	-17262
텔	-17263
튼	-17264
둔	-17265
뮤	-17266
폴	-17267
짐	-17268
옷	-17269
→	-17270
벗	-17271
꺼	-17272
앉	-17273
춘	-17274
컴	-17275
い	-17276
졸	-17277
깊	-17278
&	-17279
얘	-17280
켓	-17281
묻	-17282
몽	-17283
탐	-17284
뢰	-17285
홀	-17286
섭	-17287
털	-17288
렉	-17289
밥	-17290
켰	-17291
뀌	-17292
쓴	-17293
젠	-17294
둥	-17295
흡	-17296
녹	-17297
딱	-17298
뇌	-17299
の	-17300
뽑	-17301
셔	-17302
놈	-17303
납	-17304
똑	-17305
꼬	-17306
z	-17307
앨	-17308
옆	-17309
닉	-17310
낼	-17311
흘	-17312
룡	-17313
빙	-17314
즘	-17315
렀	-17316
럭	-17317
혔	-17318
훨	-17319
찮	-17320
《	-17321
》	-17322
튜	-17323
끄	-17324
랙	-17325
겁	-17326
끊	-17327
낌	-17328
럴	-17329
큐	-17330
랭	-17331
힐	-17332
촉	-17333
듀	-17334
융	-17335
멘	-17336
굉	-17337
슴	-17338
깔	-17339
톤	-17340
뷰	-17341
싫	-17342
맵	-17343
닐	-17344
셨	-17345
룹	-17346
쌍	-17347
릿	-17348
촌	-17349
밍	-17350
넓	-17351
헬	-17352
셀	-17353
콤	-17354
な	-17355
줘	-17356
Z	-17357
갤	-17358
셈	-17359
컵	-17360
줬	-17361
삭	-17362
겐	-17363
꼭	-17364
핑	-17365
퓨	-17366
춰	-17367
굳	-17368
괜	-17369
봤	-17370
て	-17371
덜	-17372
펜	-17373
짧	-17374
틴	-17375
펴	-17376
옵	-17377
(	-17378
*	-17379
젊	-17380
묵	-17381
늦	-17382
탓	-17383
쿨	-17384
랄	-17385
쌓	-17386
냉	-17387
쯤	-17388
꾼	-17389
챔	-17390
윈	-17391
잉	-17392
셋	-17393
덱	-17394
랍	-17395
뒷	-17396
롱	-17397
값	-17398
걱	-17399
쇄	-17400
붕	-17401
뿌	-17402
퀘	-17403
핀	-17404
옮	-17405
젤	-17406
밑	-17407
탱	-17408
앗	-17409
옛	-17410
팩	-17411
봇	-17412
밴	-17413
콩	-17414
덩	-17415
쁘	-17416
믹	-17417
렬	-17418
뷔	-17419
쇠	-17420
덴	-17421
섯	-17422
펼	-17423
た	-17424
껴	-17425
겪	-17426
륙	-17427
룬	-17428
쥐	-17429
잊	-17430
잖	-17431
겸	-17432
랫	-17433
캠	-17434
쿄	-17435
쁜	-17436
쫓	-17437
앤	-17438
엑	-17439
뭔	-17440
튀	-17441
픈	-17442
떡	-17443
켄	-17444
둠	-17445
に	-17446
멋	-17447
멍	-17448
빅	-17449
멜	-17450
닫	-17451
쾌	-17452
딘	-17453
し	-17454
틱	-17455
춤	-17456
Q	-17457
る	-17458
맺	-17459
깝	-17460
왼	-17461
첩	-17462
듬	-17463
っ	-17464
폼	-17465
셉	-17466
옹	-17467
흉	-17468
훌	-17469
벼	-17470
빵	-17471
멈	-17472
붉	-17473
쏘	-17474
펀	-17475
젝	-17476
잇	-17477
펙	-17478
텍	-17479
띄	-17480
깐	-17481
긍	-17482
뚫	-17483
썼	-17484
뻔	-17485
틈	-17486
엉	-17487
퀴	-17488
ー	-17489
숲	-17490
엽	-17491
섰	-17492
끈	-17493
쩌	-17494
쥬	-17495
떼	-17496
봄	-17497
촬	-17498
낭	-17499
씀	-17500
か	-17501
릇	-17502
꼽	-17503
컷	-17504
펠	-17505
人	-17506
★	-17507
륭	-17508
섞	-17509
と	-17510
j	-17511
븐	-17512
녕	-17513
룰	-17514
챙	-17515
숫	-17516
겹	-17517
웹	-17518
됨	-17519
틸	-17520
─	-17521
法	-17522
랬	-17523
낳	-17524
됩	-17525
첨	-17526
숭	-17527
댄	-17528
톨	-17529
싼	-17530
낫	-17531
혐	-17532
셜	-17533
얀	-17534
で	-17535
も	-17536
룩	-17537
헨	-17538
は	-17539
う	-17540
ら	-17541
웬	-17542
쩔	-17543
꼴	-17544
쏟	-17545
좁	-17546
녁	-17547
랩	-17548
샷	-17549
걷	-17550
렛	-17551
셰	-17552
덮	-17553
묶	-17554
깃	-17555
렁	-17556
캔	-17557
눌	-17558
몹	-17559
톱	-17560
갱	-17561
넌	-17562
뜬	-17563
밸	-17564
닮	-17565
●	-17566
잭	-17567
ん	-17568
꿔	-17569
껏	-17570
を	-17571
뤄	-17572
렴	-17573
빗	-17574
れ	-17575
닭	-17576
윌	-17577
댓	-17578
뱀	-17579
냄	-17580
밟	-17581
엠	-17582
뚜	-17583
럿	-17584
之	-17585
곱	-17586
꿀	-17587
が	-17588
곰	-17589
텀	-17590
팽	-17591
캡	-17592
|	-17593
☆	-17594
く	-17595
ン	-17596
닿	-17597
읍	-17598
둑	-17599
흰	-17600
넥	-17601
톰	-17602
킥	-17603
궤	-17604
갓	-17605
핸	-17606
ま	-17607
낀	-17608
녔	-17609
깎	-17610
×	-17611
뼈	-17612
렘	-17613
뱅	-17614
だ	-17615
팡	-17616
大	-17617
덧	-17618
、	-17619
륜	-17620
렐	-17621
윙	-17622
쨌	-17623
띠	-17624
곽	-17625
샌	-17626
곁	-17627
・	-17628
짱	-17629
り	-17630
짤	-17631
뉘	-17632
뚱	-17633
q	-17634
こ	-17635
쩍	-17636
낄	-17637
不	-17638
뀐	-17639
밭	-17640
긋	-17641
듭	-17642
윗	-17643
괄	-17644
샘	-17645
삽	-17646
權	-17647
릉	-17648
롬	-17649
툰	-17650
者	-17651
깜	-17652
잎	-17653
켈	-17654
맘	-17655
썩	-17656
옳	-17657
픔	-17658
國	-17659
뜩	-17660
룸	-17661
땐	-17662
섹	-17663
]	-17664
뚝	-17665
的	-17666
빡	-17667
겉	-17668
줌	-17669
一	-17670
돕	-17671
뻐	-17672
넉	-17673
탠	-17674
벅	-17675
よ	-17676
턱	-17677
뭉	-17678
き	-17679
빚	-17680
낚	-17681
핏	-17682
꼼	-17683
젖	-17684
횡	-17685
닷	-17686
삐	-17687
쿼	-17688
탯	-17689
딴	-17690
行	-17691
훔	-17692
넬	-17693
日	-17694
꺾	-17695
빔	-17696
돋	-17697
렙	-17698
꼈	-17699
릎	-17700
톡	-17701
늑	-17702
퀄	-17703
あ	-17704
뜯	-17705
싹	-17706
け	-17707
■	-17708
뭘	-17709
찔	-17710
쌀	-17711
す	-17712
횟	-17713
흠	-17714
볍	-17715
。	-17716
中	-17717
흙	-17718
붓	-17719
쭉	-17720
앵	-17721
―	-17722
딪	-17723
츄	-17724
イ	-17725
끗	-17726
事	-17727
똥	-17728
━	-17729
子	-17730
헛	-17731
꽂	-17732
갇	-17733
솟	-17734
엿	-17735
첼	-17736
뭇	-17737
〉	-17738
엮	-17739
훗	-17740
퀸	-17741
쩡	-17742
햇	-17743
〈	-17744
몫	-17745
툴	-17746
팝	-17747
겟	-17748
ス	-17749
멕	-17750
웰	-17751
•	-17752
さ	-17753
뱃	-17754
뿔	-17755
쉴	-17756
얄	-17757
늙	-17758
왠	-17759
쁨	-17760
깥	-17761
훼	-17762
깡	-17763
푼	-17764
햄	-17765
뿜	-17766
뻗	-17767
썰	-17768
눠	-17769
쏠	-17770
닙	-17771
前	-17772
굽	-17773
찢	-17774
엎	-17775
え	-17776
킴	-17777
ル	-17778
컸	-17779
낯	-17780
そ	-17781
잦	-17782
왈	-17783
【	-17784
】	-17785
챠	-17786
핫	-17787
펑	-17788
헐	-17789
∼	-17790
펄	-17791
會	-17792
겔	-17793
퉁	-17794
닦	-17795
맑	-17796
슛	-17797
앱	-17798
킷	-17799
о	-17800
ラ	-17801
理	-17802
쟈	-17803
끓	-17804
놔	-17805
씹	-17806
썬	-17807
本	-17808
엣	-17809
흩	-17810
렷	-17811
無	-17812
뺏	-17813
ち	-17814
씌	-17815
슐	-17816
넨	-17817
爲	-17818
휩	-17819
칩	-17820
文	-17821
つ	-17822
펫	-17823
땀	-17824
둬	-17825
쉐	-17826
껍	-17827
上	-17828
딕	-17829
챕	-17830
굿	-17831
有	-17832
칫	-17833
生	-17834
뇨	-17835
뱉	-17836
義	-17837
갚	-17838
놨	-17839
맙	-17840
主	-17841
솜	-17842
ト	-17843
쪼	-17844
챈	-17845
콧	-17846
풋	-17847
얽	-17848
自	-17849
쏴	-17850
學	-17851
씻	-17852
뒀	-17853
а	-17854
≫	-17855
벙	-17856
챌	-17857
뮬	-17858
民	-17859
金	-17860
@	-17861
늬	-17862
≪	-17863
맷	-17864
짖	-17865
め	-17866
툭	-17867
궐	-17868
캄	-17869
쑤	-17870
쑥	-17871
툼	-17872
밋	-17873
リ	-17874
е	-17875
而	-17876
옴	-17877
릅	-17878
わ	-17879
以	-17880
짚	-17881
멧	-17882
ッ	-17883
댔	-17884
섀	-17885
天	-17886
君	-17887
и	-17888
랴	-17889
性	-17890
꿰	-17891
딧	-17892
줍	-17893
書	-17894
캘	-17895
뽀	-17896
튕	-17897
時	-17898
意	-17899
み	-17900
꽉	-17901
地	-17902
社	-17903
▶	-17904
앓	-17905
짙	-17906
ど	-17907
탭	-17908
道	-17909
홉	-17910
윽	-17911
ア	-17912
뎀	-17913
定	-17914
얹	-17915
ᄏ	-17916
냅	-17917
팍	-17918
※	-17919
밌	-17920
펌	-17921
굵	-17922
갯	-17923
見	-17924
췄	-17925
所	-17926
쵸	-17927
돔	-17928
出	-17929
헝	-17930
也	-17931
公	-17932
굶	-17933
心	-17934
잣	-17935
お	-17936
힙	-17937
家	-17938
王	-17939
팟	-17940
ク	-17941
年	-17942
붐	-17943
務	-17944
н	-17945
벳	-17946
論	-17947
同	-17948
說	-17949
뜰	-17950
텝	-17951
ゃ	-17952
벡	-17953
其	-17954
山	-17955
政	-17956
꾀	-17957
쿤	-17958
휠	-17959
뤼	-17960
制	-17961
땡	-17962
言	-17963
↓	-17964
判	-17965
代	-17966
キ	-17967
늄	-17968
じ	-17969
젓	-17970
쏜	-17971
せ	-17972
三	-17973
憲	-17974
쿵	-17975
핍	-17976
긁	-17977
낡	-17978
明	-17979
商	-17980
物	-17981
캣	-17982
分	-17983
콥	-17984
□	-17985
볶	-17986
シ	-17987
曰	-17988
듈	-17989
탔	-17990
봅	-17991
知	-17992
}	-17993
李	-17994
保	-17995
ド	-17996
ね	-17997
샀	-17998
눕	-17999
꽁	-18000
с	-18001
뻥	-18002
텅	-18003
世	-18004
▲	-18005
푹	-18006
떴	-18007
相	-18008
샬	-18009
륨	-18010
今	-18011
샵	-18012
첸	-18013
낱	-18014
合	-18015
正	-18016
т	-18017
퍽	-18018
р	-18019
レ	-18020
샐	-18021
立	-18022
東	-18023
댁	-18024
뜸	-18025
方	-18026
얇	-18027
神	-18028
♪	-18029
タ	-18030
귄	-18031
쎄	-18032
力	-18033
月	-18034
텟	-18035
󰡔	-18036
󰡕	-18037
–	-18038
꿨	-18039
二	-18040
꿇	-18041
下	-18042
成	-18043
思	-18044
間	-18045
é	-18046
ロ	-18047
콕	-18048
껄	-18049
新	-18050
킵	-18051
利	-18052
앰	-18053
뺨	-18054
°	-18055
高	-18056
뻘	-18057
셸	-18058
動	-18059
젯	-18060
や	-18061
밈	-18062
カ	-18063
댈	-18064
헷	-18065
朝	-18066
쯔	-18067
於	-18068
$	-18069
用	-18070
륵	-18071
튬	-18072
約	-18073
껑	-18074
댐	-18075
팁	-18076
룻	-18077
史	-18078
귤	-18079
任	-18080
マ	-18081
私	-18082
議	-18083
덟	-18084
十	-18085
則	-18086
뮌	-18087
얌	-18088
쫄	-18089
ᄂ	-18090
ᄃ	-18091
텨	-18092
ば	-18093
手	-18094
뽕	-18095
小	-18096
삿	-18097
何	-18098
옐	-18099
콰	-18100
큘	-18101
썸	-18102
뉜	-18103
韓	-18104
숴	-18105
名	-18106
記	-18107
第	-18108
ᄋ	-18109
債	-18110
쫒	-18111
全	-18112
짠	-18113
깽	-18114
作	-18115
팜	-18116
←	-18117
넛	-18118
ᄒ	-18119
싣	-18120
컫	-18121
フ	-18122
갸	-18123
後	-18124
ジ	-18125
똘	-18126
長	-18127
샹	-18128
늪	-18129
캉	-18130
펭	-18131
랏	-18132
탬	-18133
ᄀ	-18134
в	-18135
員	-18136
體	-18137
^	-18138
л	-18139
겜	-18140
↘	-18141
～	-18142
經	-18143
맴	-18144
퀵	-18145
왓	-18146
잼	-18147
外	-18148
쉰	-18149
숍	-18150
밧	-18151
集	-18152
テ	-18153
젼	-18154
命	-18155
使	-18156
쭈	-18157
ろ	-18158
짬	-18159
實	-18160
캇	-18161
젬	-18162
化	-18163
츤	-18164
뎌	-18165
깁	-18166
可	-18167
在	-18168
옌	-18169
헥	-18170
뤘	-18171
原	-18172
能	-18173
女	-18174
팰	-18175
是	-18176
к	-18177
둡	-18178
コ	-18179
界	-18180
關	-18181
選	-18182
퐁	-18183
水	-18184
度	-18185
꽝	-18186
웜	-18187
궈	-18188
部	-18189
裁	-18190
愛	-18191
덥	-18192
田	-18193
훤	-18194
늠	-18195
ず	-18196
海	-18197
目	-18198
뺀	-18199
気	-18200
未	-18201
댕	-18202
バ	-18203
チ	-18204
슌	-18205
쩐	-18206
걀	-18207
│	-18208
業	-18209
엌	-18210
랗	-18211
要	-18212
ᅳ	-18213
츰	-18214
現	-18215
썹	-18216
決	-18217
싯	-18218
◆	-18219
敎	-18220
株	-18221
홋	-18222
씁	-18223
촛	-18224
空	-18225
▷	-18226
꿉	-18227
美	-18228
찐	-18229
찜	-18230
通	-18231
슘	-18232
빽	-18233
解	-18234
딛	-18235
求	-18236
쥔	-18237
對	-18238
ミ	-18239
治	-18240
뀔	-18241
先	-18242
쨩	-18243
院	-18244
オ	-18245
得	-18246
安	-18247
깍	-18248
信	-18249
平	-18250
內	-18251
サ	-18252
改	-18253
얕	-18254
光	-18255
四	-18256
↔	-18257
夢	-18258
南	-18259
욘	-18260
期	-18261
얗	-18262
벚	-18263
ィ	-18264
受	-18265
ナ	-18266
ᄅ	-18267
メ	-18268
찼	-18269
뾰	-18270
鮮	-18271
괘	-18272
我	-18273
太	-18274
プ	-18275
₩	-18276
僕	-18277
볕	-18278
솥	-18279
官	-18280
ウ	-18281
然	-18282
읊	-18283
風	-18284
띤	-18285
뛴	-18286
五	-18287
由	-18288
췌	-18289
擧	-18290
뽐	-18291
産	-18292
發	-18293
木	-18294
當	-18295
ハ	-18296
入	-18297
꾹	-18298
ュ	-18299
멩	-18300
白	-18301
튠	-18302
デ	-18303
想	-18304
軍	-18305
딥	-18306
윕	-18307
契	-18308
—	-18309
ャ	-18310
故	-18311
西	-18312
與	-18313
效	-18314
規	-18315
條	-18316
눅	-18317
式	-18318
룽	-18319
△	-18320
北	-18321
깬	-18322
過	-18323
챘	-18324
如	-18325
限	-18326
찻	-18327
夫	-18328
쐐	-18329
請	-18330
士	-18331
ᄉ	-18332
へ	-18333
ム	-18334
д	-18335
表	-18336
元	-18337
빤	-18338
м	-18339
情	-18340
氣	-18341
컥	-18342
뻑	-18343
쌈	-18344
和	-18345
来	-18346
ニ	-18347
證	-18348
律	-18349
꺽	-18350
덫	-18351
`	-18352
폈	-18353
쌔	-18354
非	-18355
맏	-18356
즙	-18357
開	-18358
†	-18359
⋅	-18360
死	-18361
짊	-18362
ょ	-18363
귓	-18364
運	-18365
샨	-18366
身	-18367
傳	-18368
샴	-18369
ダ	-18370
뛸	-18371
例	-18372
責	-18373
칵	-18374
빴	-18375
鄭	-18376
팠	-18377
花	-18378
色	-18379
탤	-18380
宗	-18381
城	-18382
機	-18383
パ	-18384
꿋	-18385
돗	-18386
폿	-18387
基	-18388
넋	-18389
善	-18390
州	-18391
止	-18392
語	-18393
報	-18394
重	-18395
훅	-18396
德	-18397
訴	-18398
此	-18399
썽	-18400
件	-18401
支	-18402
뚤	-18403
陽	-18404
쉘	-18405
エ	-18406
好	-18407
굼	-18408
숀	-18409
맣	-18410
問	-18411
共	-18412
告	-18413
땜	-18414
グ	-18415
古	-18416
び	-18417
資	-18418
ブ	-18419
왑	-18420
取	-18421
ノ	-18422
켠	-18423
濟	-18424
벵	-18425
げ	-18426
깰	-18427
섣	-18428
音	-18429
甲	-18430
띈	-18431
쥰	-18432
뭣	-18433
來	-18434
臣	-18435
ほ	-18436
궂	-18437
꿍	-18438
왁	-18439
ふ	-18440
害	-18441
府	-18442
夜	-18443
뭄	-18444
九	-18445
統	-18446
쁠	-18447
ᄆ	-18448
次	-18449
禮	-18450
門	-18451
숱	-18452
特	-18453
節	-18454
笑	-18455
險	-18456
星	-18457
팥	-18458
↙	-18459
잿	-18460
‧	-18461
モ	-18462
反	-18463
罪	-18464
눔	-18465
續	-18466
떳	-18467
뫼	-18468
失	-18469
少	-18470
詩	-18471
歌	-18472
持	-18473
ิ	-18474
α	-18475
엥	-18476
令	-18477
聞	-18478
갭	-18479
멱	-18480
у	-18481
形	-18482
ひ	-18483
좇	-18484
春	-18485
別	-18486
究	-18487
ガ	-18488
消	-18489
場	-18490
훑	-18491
п	-18492
팎	-18493
뎅	-18494
윅	-18495
팻	-18496
쌩	-18497
多	-18498
數	-18499
處	-18500
百	-18501
委	-18502
む	-18503
녘	-18504
最	-18505
寺	-18506
숏	-18507
껌	-18508
必	-18509
웍	-18510
京	-18511
찡	-18512
錄	-18513
感	-18514
핌	-18515
造	-18516
촘	-18517
係	-18518
й	-18519
觀	-18520
ᅲ	-18521
〔	-18522
∙	-18523
뺑	-18524
랠	-18525
兵	-18526
去	-18527
☞	-18528
ü	-18529
ョ	-18530
面	-18531
춥	-18532
뒹	-18533
進	-18534
火	-18535
向	-18536
財	-18537
漢	-18538
잽	-18539
닳	-18540
川	-18541
뮈	-18542
聖	-18543
仁	-18544
武	-18545
ズ	-18546
◎	-18547
族	-18548
♡	-18549
쓱	-18550
캬	-18551
〕	-18552
流	-18553
土	-18554
잤	-18555
石	-18556
쏙	-18557
給	-18558
遠	-18559
떄	-18560
果	-18561
숟	-18562
я	-18563
萬	-18564
폄	-18565
헉	-18566
千	-18567
캅	-18568
字	-18569
뵙	-18570
至	-18571
ᄌ	-18572
示	-18573
뵈	-18574
司	-18575
얏	-18576
쿡	-18577
괭	-18578
ワ	-18579
깠	-18580
等	-18581
쾅	-18582
쉼	-18583
淸	-18584
張	-18585
帝	-18586
ご	-18587
益	-18588
野	-18589
ゆ	-18590
違	-18591
役	-18592
찝	-18593
퀀	-18594
引	-18595
끽	-18596
總	-18597
硏	-18598
깅	-18599
좆	-18600
獨	-18601
팸	-18602
ᄇ	-18603
華	-18604
回	-18605
戰	-18606
都	-18607
六	-18608
乙	-18609
걔	-18610
땠	-18611
꼰	-18612
ぐ	-18613
会	-18614
位	-18615
쌌	-18616
딤	-18617
結	-18618
튿	-18619
始	-18620
ぎ	-18621
ы	-18622
쳇	-18623
誰	-18624
馬	-18625
샛	-18626
永	-18627
格	-18628
欲	-18629
씽	-18630
八	-18631
횃	-18632
옅	-18633
넵	-18634
直	-18635
補	-18636
終	-18637
뻣	-18638
⁄	-18639
周	-18640
ビ	-18641
願	-18642
七	-18643
指	-18644
냇	-18645
ツ	-18646
핥	-18647
計	-18648
セ	-18649
[	-18650
初	-18651
矣	-18652
類	-18653
質	-18654
林	-18655
師	-18656
г	-18657
↑	-18658
切	-18659
常	-18660
쉔	-18661
話	-18662
將	-18663
◇	-18664
市	-18665
起	-18666
背	-18667
텃	-18668
恋	-18669
志	-18670
♥	-18671
管	-18672
口	-18673
諸	-18674
셧	-18675
足	-18676
氏	-18677
交	-18678
샅	-18679
守	-18680
像	-18681
뻤	-18682
짭	-18683
己	-18684
龍	-18685
祖	-18686
存	-18687
뇽	-18688
近	-18689
里	-18690
べ	-18691
申	-18692
食	-18693
슭	-18694
犯	-18695
變	-18696
樂	-18697
띵	-18698
ь	-18699
加	-18700
ぶ	-18701
갉	-18702
若	-18703
ピ	-18704
휙	-18705
因	-18706
章	-18707
親	-18708
圖	-18709
江	-18710
良	-18711
뮐	-18712
償	-18713
ボ	-18714
題	-18715
朴	-18716
끙	-18717
쟤	-18718
춧	-18719
갛	-18720
容	-18721
麗	-18722
被	-18723
宮	-18724
렝	-18725
얍	-18726
ェ	-18727
渡	-18728
쑨	-18729
堂	-18730
眞	-18731
異	-18732
켐	-18733
謂	-18734
夏	-18735
쥴	-18736
黨	-18737
待	-18738
路	-18739
念	-18740
孫	-18741
設	-18742
퀑	-18743
護	-18744
곶	-18745
ネ	-18746
밉	-18747
絶	-18748
돛	-18749
老	-18750
達	-18751
셴	-18752
믈	-18753
配	-18754
父	-18755
居	-18756
콴	-18757
魔	-18758
及	-18759
刑	-18760
б	-18761
望	-18762
皆	-18763
船	-18764
텁	-18765
雲	-18766
ァ	-18767
認	-18768
母	-18769
送	-18770
顔	-18771
團	-18772
考	-18773
μ	-18774
付	-18775
葉	-18776
맬	-18777
ä	-18778
從	-18779
領	-18780
뿍	-18781
뷸	-18782
숯	-18783
典	-18784
審	-18785
뼛	-18786
調	-18787
変	-18788
펩	-18789
真	-18790
離	-18791
佛	-18792
톳	-18793
퀼	-18794
쟝	-18795
旨	-18796
乎	-18797
舊	-18798
味	-18799
놋	-18800
잰	-18801
遺	-18802
趙	-18803
亦	-18804
職	-18805
福	-18806
컹	-18807
極	-18808
ö	-18809
修	-18810
島	-18811
勝	-18812
號	-18813
з	-18814
復	-18815
羅	-18816
楽	-18817
投	-18818
┃	-18819
녜	-18820
눴	-18821
国	-18822
提	-18823
█	-18824
價	-18825
村	-18826
뎃	-18827
訟	-18828
넸	-18829
組	-18830
쬐	-18831
承	-18832
땄	-18833
超	-18834
損	-18835
飛	-18836
츳	-18837
項	-18838
뎁	-18839
ケ	-18840
늉	-18841
쿰	-18842
웁	-18843
吉	-18844
햐	-18845
登	-18846
々	-18847
秋	-18848
힛	-18849
營	-18850
吾	-18851
活	-18852
許	-18853
넴	-18854
監	-18855
英	-18856
⊙	-18857
易	-18858
깼	-18859
戦	-18860
構	-18861
줏	-18862
男	-18863
솝	-18864
券	-18865
著	-18866
씰	-18867
촐	-18868
他	-18869
河	-18870
連	-18871
뿅	-18872
校	-18873
强	-18874
ポ	-18875
案	-18876
票	-18877
쾨	-18878
갠	-18879
素	-18880
ヤ	-18881
秦	-18882
崔	-18883
香	-18884
査	-18885
텼	-18886
識	-18887
精	-18888
附	-18889
뺐	-18890
윳	-18891
置	-18892
殺	-18893
齊	-18894
ᅮ	-18895
뗄	-18896
象	-18897
뱌	-18898
編	-18899
興	-18900
序	-18901
放	-18902
禁	-18903
乃	-18904
車	-18905
핼	-18906
落	-18907
惡	-18908
科	-18909
숄	-18910
育	-18911
景	-18912
洞	-18913
除	-18914
쥘	-18915
術	-18916
松	-18917
茶	-18918
꼿	-18919
黃	-18920
丁	-18921
헴	-18922
á	-18923
靑	-18924
휼	-18925
忠	-18926
品	-18927
츈	-18928
ᆡ	-18929
範	-18930
貴	-18931
듦	-18932
玉	-18933
準	-18934
앎	-18935
ч	-18936
優	-18937
宣	-18938
ぁ	-18939
멎	-18940
ゴ	-18941
뺄	-18942
雨	-18943
各	-18944
區	-18945
工	-18946
幸	-18947
頭	-18948
井	-18949
ベ	-18950
声	-18951
藤	-18952
ᆯ	-18953
強	-18954
曲	-18955
致	-18956
ا	-18957
服	-18958
앳	-18959
찹	-18960
ヒ	-18961
ソ	-18962
種	-18963
톈	-18964
追	-18965
難	-18966
퓌	-18967
郡	-18968
再	-18969
쫙	-18970
還	-18971
à	-18972
程	-18973
又	-18974
ギ	-18975
宋	-18976
х	-18977
察	-18978
擔	-18979
ο	-18980
彼	-18981
忘	-18982
客	-18983
亂	-18984
↗	-18985
駅	-18986
仲	-18987
쌤	-18988
備	-18989
參	-18990
볐	-18991
ᅵ	-18992
器	-18993
留	-18994
엾	-18995
딨	-18996
ぬ	-18997
散	-18998
轉	-18999
卷	-19000
線	-19001
쭐	-19002
于	-19003
皇	-19004
買	-19005
紀	-19006
走	-19007
功	-19008
版	-19009
負	-19010
谷	-19011
슥	-19012
越	-19013
印	-19014
傷	-19015
祭	-19016
養	-19017
儒	-19018
兩	-19019
歸	-19020
確	-19021
料	-19022
朱	-19023
뗀	-19024
쪄	-19025
〜	-19026
應	-19027
튤	-19028
舞	-19029
긔	-19030
接	-19031
▼	-19032
넝	-19033
系	-19034
쇳	-19035
体	-19036
갬	-19037
賢	-19038
根	-19039
쯧	-19040
ぜ	-19041
館	-19042
建	-19043
已	-19044
賣	-19045
執	-19046
쐈	-19047
ᅡ	-19048
꿩	-19049
縣	-19050
ぼ	-19051
深	-19052
孝	-19053
策	-19054
낑	-19055
勞	-19056
額	-19057
友	-19058
抗	-19059
唐	-19060
釋	-19061
移	-19062
삑	-19063
爭	-19064
齋	-19065
讓	-19066
誠	-19067
몄	-19068
局	-19069
滅	-19070
짰	-19071
破	-19072
걍	-19073
놉	-19074
更	-19075
캥	-19076
聲	-19077
完	-19078
ᆫ	-19079
智	-19080
้	-19081
탉	-19082
遂	-19083
狀	-19084
呼	-19085
󰠝	-19086
丙	-19087
源	-19088
施	-19089
켤	-19090
草	-19091
省	-19092
С	-19093
쑹	-19094
尊	-19095
奇	-19096
敵	-19097
借	-19098
抱	-19099
実	-19100
熱	-19101
틋	-19102
퓰	-19103
꿎	-19104
屬	-19105
雪	-19106
卽	-19107
遊	-19108
ホ	-19109
農	-19110
è	-19111
順	-19112
型	-19113
個	-19114
엡	-19115
ぱ	-19116
様	-19117
輝	-19118
否	-19119
衆	-19120
敬	-19121
ぇ	-19122
続	-19123
‐	-19124
찧	-19125
滿	-19126
鄕	-19127
ā	-19128
衣	-19129
習	-19130
適	-19131
伝	-19132
派	-19133
亡	-19134
履	-19135
§	-19136
協	-19137
陰	-19138
左	-19139
当	-19140
電	-19141
虛	-19142
答	-19143
쎈	-19144
洪	-19145
맸	-19146
β	-19147
廣	-19148
御	-19149
注	-19150
般	-19151
態	-19152
웡	-19153
助	-19154
慶	-19155
視	-19156
影	-19157
着	-19158
ざ	-19159
室	-19160
ゅ	-19161
歩	-19162
返	-19163
⋯	-19164
急	-19165
衛	-19166
튄	-19167
首	-19168
ᄎ	-19169
댑	-19170
換	-19171
胸	-19172
際	-19173
波	-19174
歷	-19175
믄	-19176
苦	-19177
슝	-19178
徐	-19179
末	-19180
了	-19181
收	-19182
款	-19183
ゲ	-19184
柳	-19185
紙	-19186
겅	-19187
奈	-19188
斷	-19189
엷	-19190
束	-19191
込	-19192
쾰	-19193
青	-19194
園	-19195
免	-19196
쫑	-19197
比	-19198
헹	-19199
귈	-19200
嚴	-19201
防	-19202
域	-19203
尙	-19204
尹	-19205
救	-19206
욤	-19207
닻	-19208
勇	-19209
半	-19210
꺄	-19211
推	-19212
梁	-19213
悲	-19214
챗	-19215
흄	-19216
땔	-19217
즛	-19218
쭤	-19219
久	-19220
ν	-19221
づ	-19222
赤	-19223
警	-19224
펍	-19225
ヴ	-19226
照	-19227
富	-19228
꽈	-19229
큭	-19230
儀	-19231
博	-19232
昌	-19233
境	-19234
힉	-19235
楚	-19236
勢	-19237
듐	-19238
辨	-19239
삥	-19240
費	-19241
住	-19242
学	-19243
윔	-19244
具	-19245
辭	-19246
病	-19247
退	-19248
革	-19249
餘	-19250
供	-19251
危	-19252
阿	-19253
뻬	-19254
쫀	-19255
郞	-19256
홧	-19257
列	-19258
希	-19259
或	-19260
銀	-19261
算	-19262
屋	-19263
略	-19264
앴	-19265
빳	-19266
◈	-19267
쟌	-19268
驛	-19269
뵤	-19270
届	-19271
右	-19272
ᅠ	-19273
密	-19274
洋	-19275
í	-19276
焉	-19277
量	-19278
뇰	-19279
♣	-19280
紅	-19281
Φ	-19282
짢	-19283
魏	-19284
探	-19285
훙	-19286
辯	-19287
布	-19288
息	-19289
辰	-19290
妻	-19291
載	-19292
씸	-19293
云	-19294
껐	-19295
俗	-19296
鳥	-19297
靈	-19298
婚	-19299
泣	-19300
藝	-19301
積	-19302
悪	-19303
륀	-19304
ж	-19305
펨	-19306
τ	-19307
ぞ	-19308
喜	-19309
戶	-19310
陳	-19311
雖	-19312
血	-19313
干	-19314
隊	-19315
點	-19316
ザ	-19317
貸	-19318
쩜	-19319
涙	-19320
ヨ	-19321
ل	-19322
候	-19323
ц	-19324
旅	-19325
番	-19326
뗏	-19327
託	-19328
겋	-19329
降	-19330
端	-19331
ペ	-19332
롄	-19333
酒	-19334
純	-19335
멥	-19336
伊	-19337
賃	-19338
ε	-19339
틔	-19340
才	-19341
咲	-19342
振	-19343
緒	-19344
織	-19345
聯	-19346
坐	-19347
宇	-19348
秘	-19349
差	-19350
雄	-19351
迷	-19352
占	-19353
賠	-19354
微	-19355
辛	-19356
陸	-19357
打	-19358
奴	-19359
莊	-19360
午	-19361
÷	-19362
盡	-19363
罰	-19364
냠	-19365
單	-19366
눗	-19367
植	-19368
寧	-19369
婦	-19370
긱	-19371
靜	-19372
侯	-19373
槪	-19374
耳	-19375
셩	-19376
侵	-19377
ó	-19378
普	-19379
演	-19380
句	-19381
割	-19382
攻	-19383
邊	-19384
쨍	-19385
街	-19386
覚	-19387
̊	-19388
仕	-19389
禪	-19390
劉	-19391
殿	-19392
玄	-19393
藏	-19394
哲	-19395
쨋	-19396
ю	-19397
鳴	-19398
옇	-19399
沙	-19400
넙	-19401
孔	-19402
츨	-19403
豫	-19404
ォ	-19405
閣	-19406
奉	-19407
냔	-19408
障	-19409
빕	-19410
壬	-19411
談	-19412
樹	-19413
橋	-19414
땋	-19415
ᄐ	-19416
졍	-19417
鬼	-19418
듄	-19419
뭍	-19420
낵	-19421
甘	-19422
授	-19423
雜	-19424
괌	-19425
臺	-19426
覺	-19427
닢	-19428
ı	-19429
ш	-19430
К	-19431
段	-19432
昭	-19433
둣	-19434
튈	-19435
佐	-19436
弟	-19437
企	-19438
稅	-19439
旣	-19440
乘	-19441
吳	-19442
便	-19443
試	-19444
촨	-19445
梅	-19446
壽	-19447
痛	-19448
σ	-19449
갗	-19450
됬	-19451
逆	-19452
往	-19453
泰	-19454
贈	-19455
쏭	-19456
邪	-19457
П	-19458
욜	-19459
兄	-19460
威	-19461
早	-19462
볏	-19463
吏	-19464
魯	-19465
創	-19466
∞	-19467
徒	-19468
督	-19469
暗	-19470
柱	-19471
依	-19472
ᄑ	-19473
跡	-19474
킁	-19475
뎠	-19476
莫	-19477
響	-19478
固	-19479
教	-19480
┬	-19481
導	-19482
房	-19483
힝	-19484
뿡	-19485
到	-19486
′	-19487
姓	-19488
ω	-19489
넜	-19490
寄	-19491
沈	-19492
魂	-19493
評	-19494
俺	-19495
묠	-19496
舍	-19497
ρ	-19498
펐	-19499
延	-19500
踊	-19501
封	-19502
邦	-19503
泉	-19504
羽	-19505
講	-19506
季	-19507
깟	-19508
鎭	-19509
就	-19510
ι	-19511
뵐	-19512
繼	-19513
⇒	-19514
뼉	-19515
似	-19516
僧	-19517
介	-19518
内	-19519
后	-19520
技	-19521
텡	-19522
孟	-19523
喪	-19524
黒	-19525
️	-19526
稱	-19527
仙	-19528
誤	-19529
띌	-19530
먀	-19531
셌	-19532
깻	-19533
孤	-19534
戒	-19535
那	-19536
澤	-19537
逃	-19538
夷	-19539
註	-19540
恐	-19541
你	-19542
溪	-19543
뀜	-19544
弱	-19545
陵	-19546
燕	-19547
畵	-19548
突	-19549
[...]
