<p>	0
<unk>	0
<s>	0
</s>	0
▁'	-0
했다	-1
▁1	-2
▁이	-3
으로	-4
▁있	-5
에서	-6
▁대	-7
▁2	-8
▁지	-9
..	-10
▁수	-11
▁전	-12
▁기	-13
▁사	-14
▁등	-15
▁시	-16
▁것	-17
▁가	-18
▁있다	-19
00	-20
이다	-21
▁한	-22
하는	-23
▁3	-24
▁중	-25
▁보	-26
▁공	-27
▁제	-28
하고	-29
▁위	-30
▁경	-31
▁주	-32
▁오	-33
▁상	-34
▁자	-35
▁관	-36
▁인	-37
▁정	-38
▁아	-39
▁부	-40
▁선	-41
▁다	-42
한다	-43
▁국	-44
▁의	-45
▁모	-46
▁예	-47
▁소	-48
▁연	-49
▁나	-50
▁통	-51
▁말	-52
▁밝	-53
이라	-54
▁유	-55
▁일	-56
▁4	-57
▁5	-58
▁방	-59
▁신	-60
▁고	-61
▁내	-62
▁발	-63
▁개	-64
▁하	-65
▁마	-66
혔다	-67
▁서	-68
▁20	-69
▁조	-70
▁밝혔다	-71
▁확	-72
▁최	-73
▁그	-74
▁진	-75
▁지난	-76
▁미	-77
까지	-78
▁비	-79
▁해	-80
▁구	-81
됐다	-82
▁강	-83
▁있는	-84
▁만	-85
▁여	-86
부터	-87
▁영	-88
▁따	-89
▁6	-90
된다	-91
▁실	-92
▁동	-93
▁받	-94
▁않	-95
▁도	-96
▁감	-97
▁출	-98
▁추	-99
▁현	-100
▁안	-101
에게	-102
▁말했다	-103
▁것으로	-104
▁통해	-105
▁스	-106
▁분	-107
▁매	-108
▁계	-109
▁바	-110
▁우	-111
▁성	-112
었다	-113
▁장	-114
면서	-115
▁결	-116
▁거	-117
▁없	-118
▁위해	-119
▁후	-120
▁어	-121
▁7	-122
▁교	-123
▁무	-124
▁‘	-125
▁올	-126
▁재	-127
이라고	-128
▁10	-129
자는	-130
지만	-131
▁세	-132
▁차	-133
▁생	-134
에는	-135
▁및	-136
▁대한	-137
▁201	-138
▁“	-139
▁원	-140
▁8	-141
▁당	-142
들이	-143
▁설	-144
적인	-145
겠다	-146
▁9	-147
▁입	-148
▁함	-149
▁더	-150
▁배	-151
▁참	-152
았다	-153
▁불	-154
▁문	-155
적으로	-156
▁노	-157
▁진행	-158
▁열	-159
장은	-160
▁증	-161
▁함께	-162
▁적	-163
▁회	-164
▁활	-165
▁반	-166
▁총	-167
▁코	-168
▁했다	-169
▁남	-170
▁투	-171
▁때	-172
하기	-173
하게	-174
▁운	-175
▁행	-176
000	-177
▁대해	-178
▁프	-179
▁관계	-180
▁서울	-181
▁과	-182
억원	-183
▁예정	-184
▁포	-185
▁특	-186
들의	-187
▁역	-188
20	-189
▁한국	-190
▁판	-191
▁금	-192
▁알	-193
한편	-194
▁=	-195
▁건	-196
▁청	-197
▁이날	-198
만원	-199
▁직	-200
였다	-201
하다	-202
▁지원	-203
▁단	-204
▁평	-205
▁많	-206
라고	-207
▁달	-208
▁11	-209
위원	-210
▁한다	-211
▁화	-212
졌다	-213
▁높	-214
▁관련	-215
▁지역	-216
▁오후	-217
▁대표	-218
▁앞	-219
▁a	-220
사를	-221
▁s	-222
▁등을	-223
▁사업	-224
▁검	-225
.1	-226
에서는	-227
▁같	-228
▁집	-229
들은	-230
▁새	-231
기를	-232
하며	-233
▁할	-234
도록	-235
▁각	-236
▁12	-237
르면	-238
▁위한	-239
장을	-240
▁맞	-241
▁피	-242
▁외	-243
▁협	-244
▁따르면	-245
▁학	-246
으며	-247
▁작	-248
▁가능	-249
▁파	-250
에도	-251
▁임	-252
▁기록	-253
보다	-254
▁두	-255
▁체	-256
▁관계자는	-257
▁물	-258
▁은	-259
▁계획	-260
되는	-261
이번	-262
▁점	-263
▁업	-264
비스	-265
▁이어	-266
▁k	-267
▁본	-268
▁예정이다	-269
▁산	-270
▁양	-271
원은	-272
▁요	-273
▁경기	-274
▁미국	-275
통령	-276
▁초	-277
19	-278
▁뉴	-279
로나	-280
리는	-281
▁드	-282
▁필	-283
▁프로	-284
▁환	-285
▁방송	-286
▁타	-287
사업	-288
▁광	-289
▁종	-290
▁들	-291
이어	-292
.2	-293
▁취	-294
명이	-295
했다고	-296
▁대통령	-297
▁게	-298
▁또	-299
▁김	-300
▁이번	-301
▁법	-302
▁19	-303
▁민	-304
▁경우	-305
▁좋	-306
시스	-307
▁운영	-308
회의	-309
▁0	-310
▁대상	-311
▁충	-312
▁변	-313
스트	-314
▁약	-315
▁데	-316
그램	-317
▁저	-318
▁간	-319
▁▲	-320
▁목	-321
▁못	-322
▁따라	-323
▁아니	-324
하지	-325
▁15	-326
▁규	-327
▁오는	-328
▁채	-329
▁호	-330
▁순	-331
▁다양	-332
▁담	-333
정을	-334
▁뒤	-335
▁지난해	-336
▁오전	-337
▁30	-338
▁심	-339
▁접	-340
력을	-341
▁중국	-342
들을	-343
▁처	-344
▁이후	-345
▁설명	-346
▁치	-347
이날	-348
▁명	-349
센터	-350
리를	-351
▁제공	-352
▁합	-353
▁기업	-354
▁공개	-355
▁농	-356
기업	-357
사는	-358
▁리	-359
▁자신	-360
▁에	-361
▁완	-362
▁코로나	-363
▁시작	-364
▁m	-365
▁발생	-366
▁승	-367
이라며	-368
▁되	-369
▁다양한	-370
▁삼	-371
부는	-372
언론	-373
▁준	-374
▁t	-375
일까지	-376
▁속	-377
▁트	-378
▁국내	-379
▁브	-380
▁사람	-381
자가	-382
▁시장	-383
▁참여	-384
▁올해	-385
▁기대	-386
대로	-387
지난	-388
▁13	-389
상을	-390
이는	-391
▁음	-392
▁국민	-393
▁c	-394
라는	-395
▁교육	-396
교육	-397
시장	-398
▁상황	-399
페이	-400
▁카	-401
지를	-402
▁필요	-403
▁증가	-404
위원회	-405
▁모두	-406
▁하는	-407
▁모습	-408
▁메	-409
성을	-410
하겠다	-411
레이	-412
▁크	-413
▁확인	-414
이에	-415
한다고	-416
▁14	-417
▁현재	-418
일부터	-419
▁창	-420
▁없다	-421
▁된다	-422
▁확진	-423
.'	-424
▁홈	-425
30	-426
▁상승	-427
서는	-428
▁늘	-429
▁돌	-430
.5	-431
▁추진	-432
▁서비스	-433
▁발표	-434
혐의	-435
▁투자	-436
▁것이	-437
▁사용	-438
▁있도록	-439
냈다	-440
해야	-441
하면	-442
▁실시	-443
▁후보	-444
▁결과	-445
랜드	-446
▁정부	-447
지는	-448
▁누	-449
은행	-450
▁살	-451
들에게	-452
▁같은	-453
▁북	-454
▁편	-455
씨는	-456
▁대비	-457
▁혐의	-458
▁l	-459
▁때문	-460
▁줄	-461
▁군	-462
▁16	-463
▁박	-464
▁표	-465
▁글	-466
시는	-467
▁18	-468
▁넘	-469
학교	-470
▁아이	-471
▁문제	-472
▁의원	-473
▁라	-474
▁디	-475
▁첫	-476
렸다	-477
▁복	-478
수는	-479
▁향	-480
▁찾	-481
▁전했다	-482
▁고객	-483
▁전망	-484
▁확대	-485
▁뉴시스	-486
▁판매	-487
▁전국	-488
▁추가	-489
공감	-490
▁논	-491
경찰	-492
화를	-493
▁이상	-494
▁기준	-495
▁활동	-496
▁근	-497
▁우리	-498
지역	-499
▁손	-500
▁걸	-501
▁생각	-502
▁가장	-503
공감언론	-504
▁패	-505
▁i	-506
성이	-507
는다	-508
▁최고	-509
▁측	-510
기에	-511
장이	-512
.◎	-513
▁제품	-514
▁25	-515
▁배우	-516
▁출연	-517
▁잘	-518
니다	-519
▁만들	-520
▁계획이다	-521
▁17	-522
▁거래	-523
▁이용	-524
▁등의	-525
▁토	-526
스타	-527
▁설명했다	-528
▁번	-529
▁조사	-530
▁예상	-531
▁많은	-532
▁사회	-533
명을	-534
되고	-535
▁될	-536
왔다	-537
▁연구	-538
▁들어	-539
라마	-540
▁등이	-541
라며	-542
.3	-543
▁나타	-544
▁백	-545
하면서	-546
그는	-547
▁b	-548
▁안전	-549
▁열린	-550
이트	-551
▁눈	-552
bs	-553
▁폭	-554
▁개발	-555
▁최근	-556
회를	-557
▁는	-558
▁있어	-559
시아	-560
▁큰	-561
▁로	-562
▁됐다	-563
로운	-564
▁경제	-565
이고	-566
▁세계	-567
▁마련	-568
▁지속	-569
▁기술	-570
시간	-571
201	-572
▁△	-573
들과	-574
▁경찰	-575
▁알려	-576
인다	-577
리고	-578
▁프로그램	-579
위를	-580
▁24	-581
▁200	-582
▁전문	-583
▁방문	-584
달러	-585
특히	-586
▁독	-587
사가	-588
▁하락	-589
▁금융	-590
▁100	-591
났다	-592
▁선정	-593
10	-594
▁강조	-595
▁항	-596
▁사진	-597
▁면	-598
자를	-599
대표	-600
▁결정	-601
▁시간	-602
자의	-603
운데	-604
.4	-605
▁형	-606
▁개최	-607
▁것은	-608
▁국가	-609
▁평가	-610
했고	-611
▁태	-612
관리	-613
▁선보	-614
병원	-615
▁일본	-616
▁힘	-617
:00	-618
▁영화	-619
▁홍	-620
▁가운데	-621
▁갖	-622
치를	-623
▁애	-624
▁것을	-625
선을	-626
▁21	-627
▁피해	-628
▁삼성	-629
지원	-630
▁날	-631
그러	-632
▁22	-633
는데	-634
▁대상으로	-635
이나	-636
▁규모	-637
▁강화	-638
▁효	-639
기관	-640
▁식	-641
▁허	-642
▁감독	-643
가는	-644
▁절	-645
러스	-646
▁다른	-647
▁하고	-648
▁자신의	-649
하지만	-650
▁커	-651
에서도	-652
▁축	-653
▁받았다	-654
▁친	-655
▁덧	-656
기가	-657
▁벌	-658
▁23	-659
▁활용	-660
▁질	-661
▁내용	-662
도로	-663
▁중이다	-664
한국	-665
▁최대	-666
▁플	-667
▁덧붙	-668
이라는	-669
▁응	-670
▁포함	-671
▁27	-672
식을	-673
점을	-674
산업	-675
세를	-676
0%	-677
▁정책	-678
시설	-679
▁참석	-680
리아	-681
장에서	-682
▁낮	-683
▁베	-684
▁수준	-685
▁것이다	-686
▁급	-687
.6	-688
▁보고	-689
▁28	-690
▁부산	-691
▁준비	-692
▁26	-693
▁받고	-694
▁감염	-695
▁구성	-696
▁선수	-697
증권	-698
▁각각	-699
▁덧붙였다	-700
트를	-701
명의	-702
그룹	-703
▁없는	-704
.7	-705
▁사실	-706
▁e	-707
마트	-708
스는	-709
리가	-710
▁광주	-711
▁싶	-712
▁해외	-713
▁네	-714
서울	-715
바이	-716
▁사랑	-717
▁끝	-718
개월	-719
▁p	-720
투자	-721
bc	-722
▁개선	-723
▁블	-724
지고	-725
.8	-726
▁다시	-727
이며	-728
▁가격	-729
감을	-730
▁강조했다	-731
로벌	-732
원을	-733
금융	-734
▁스타	-735
▁기록했다	-736
▁있을	-737
했던	-738
▁공동	-739
▁동안	-740
문화	-741
▁월	-742
▁출시	-743
▁직접	-744
▁야	-745
▁권	-746
▁등에	-747
▁매출	-748
관은	-749
분기	-750
대를	-751
▁책	-752
▁때문에	-753
.9	-754
안을	-755
▁성장	-756
주당	-757
인은	-758
기도	-759
▁관심	-760
▁29	-761
▁용	-762
▁주요	-763
▁기간	-764
▁콘	-765
다는	-766
사의	-767
▁어려	-768
거나	-769
▁높은	-770
▁팬	-771
▁모든	-772
연구	-773
▁아니라	-774
▁f	-775
▁브랜드	-776
▁버	-777
▁국제	-778
▁범	-779
인을	-780
▁영업	-781
▁영향	-782
▁문화	-783
음을	-784
▁산업	-785
▁시민	-786
다고	-787
인트	-788
▁빠	-789
▁맡	-790
▁분야	-791
▁상품	-792
▁시즌	-793
스를	-794
▁비롯	-795
▁주민	-796
▁신청	-797
도를	-798
약을	-799
▁지적	-800
▁특별	-801
의를	-802
▁철	-803
▁휴	-804
▁학생	-805
전을	-806
▁정보	-807
금을	-808
원에	-809
▁적극	-810
기로	-811
▁업무	-812
▁노력	-813
사회	-814
▁다음	-815
▁분석	-816
시에	-817
으나	-818
▁홈페이	-819
▁팀	-820
▁새로운	-821
▁펼	-822
▁받아	-823
▁해당	-824
▁국회	-825
▁극	-826
환경	-827
▁보인다	-828
▁온	-829
정부	-830
▁언	-831
펀드	-832
▁골	-833
▁상태	-834
▁적용	-835
▁감소	-836
쳤다	-837
▁여성	-838
▁잡	-839
▁생산	-840
▁유지	-841
▁방송된	-842
자로	-843
▁볼	-844
▁경쟁	-845
▁느	-846
▁않았다	-847
▁의원은	-848
▁사건	-849
▁레	-850
인이	-851
거래	-852
▁곳	-853
▁n	-854
▁제작	-855
▁좋은	-856
롯데	-857
▁와	-858
▁인천	-859
▁소비	-860
▁하나	-861
으면	-862
제로	-863
▁중심	-864
▁50	-865
▁전체	-866
기술	-867
케이	-868
▁보여	-869
기는	-870
▁캐	-871
▁관리	-872
▁공식	-873
▁소속	-874
▁확보	-875
▁많이	-876
부를	-877
▁현대	-878
수를	-879
▁환경	-880
▁성공	-881
움을	-882
▁전날	-883
▁더욱	-884
▁건강	-885
▁글로벌	-886
▁가족	-887
▁대표는	-888
앞서	-889
이터	-890
혁신	-891
▁만큼	-892
▁테	-893
▁만나	-894
▁클	-895
50	-896
장의	-897
▁받은	-898
이를	-899
▁지난달	-900
▁역시	-901
▁기존	-902
▁막	-903
.0	-904
스크	-905
원이	-906
▁d	-907
▁주장	-908
현재	-909
업체	-910
▁떨	-911
▁오른	-912
▁행사	-913
씨가	-914
▁드라마	-915
▁시청	-916
▁o	-917
▁키	-918
tv	-919
▁있다고	-920
▁희	-921
▁등으로	-922
인의	-923
▁이뤄	-924
원의	-925
▁처음	-926
▁알려졌다	-927
▁있다는	-928
도는	-929
제를	-930
▁31	-931
안전	-932
조사	-933
본부	-934
▁설치	-935
▁울	-936
활동	-937
▁이야	-938
▁사고	-939
▁따른	-940
학생	-941
▁혐의로	-942
▁않은	-943
▁지급	-944
▁검찰	-945
라이	-946
회는	-947
▁긴	-948
료를	-949
▁계속	-950
▁중요	-951
▁찾아	-952
▁이벤	-953
이었다	-954
▁"	-955
했지만	-956
▁위원	-957
▁집중	-958
도가	-959
▁미래	-960
경기	-961
▁과정	-962
처럼	-963
치는	-964
주는	-965
촬영	-966
▁선발	-967
명으로	-968
er	-969
정보	-970
▁없이	-971
이익	-972
장에	-973
▁즐	-974
개발	-975
멤버	-976
수가	-977
▁요구	-978
▁신규	-979
▁대응	-980
▁전년	-981
▁이를	-982
▁착	-983
▁내년	-984
▁g	-985
▁개인	-986
소년	-987
▁당시	-988
▁않고	-989
또한	-990
청은	-991
▁구매	-992
▁기자	-993
동차	-994
▁인터	-995
▁선거	-996
▁전달	-997
▁우려	-998
복지	-999
▁북한	-1000
▁귀	-1001
▁일부	-1002
럼프	-1003
▁협력	-1004
프로	-1005
▁시행	-1006
▁생활	-1007
▁목표	-1008
▁실적	-1009
▁폐	-1010
▁늘어	-1011
▁제주	-1012
▁신고	-1013
▁차지	-1014
▁공급	-1015
▁sk	-1016
▁의견	-1017
▁육	-1018
▁중인	-1019
▁lg	-1020
▁가능하다	-1021
▁탄	-1022
올해	-1023
장과	-1024
▁여러	-1025
▁만에	-1026
▁역할	-1027
▁떨어	-1028
▁천	-1029
했으며	-1030
▁우수	-1031
on	-1032
▁잠	-1033
▁홈페이지	-1034
하기로	-1035
주의	-1036
▁연속	-1037
과를	-1038
▁웃	-1039
반기	-1040
▁있으며	-1041
가를	-1042
▁학교	-1043
▁보였다	-1044
▁사이	-1045
위에	-1046
앨범	-1047
in	-1048
서비스	-1049
단체	-1050
▁있었다	-1051
사와	-1052
▁드러	-1053
▁답	-1054
▁-	-1055
▁별	-1056
▁차량	-1057
과의	-1058
▁경영	-1059
▁논의	-1060
▁40	-1061
▁수출	-1062
▁판단	-1063
리스	-1064
으로도	-1065
오는	-1066
카드	-1067
▁방침	-1068
▁구축	-1069
▁지방	-1070
소를	-1071
리에	-1072
▁끌	-1073
운드	-1074
21	-1075
▁격	-1076
전자	-1077
▁촬영	-1078
▁송	-1079
업을	-1080
▁머	-1081
▁된	-1082
▁멤버	-1083
정책	-1084
▁그룹	-1085
▁작품	-1086
경제	-1087
▁몰	-1088
억원을	-1089
▁수상	-1090
나는	-1091
임을	-1092
▁수도	-1093
사에	-1094
▁너	-1095
▁얼	-1096
자인	-1097
군은	-1098
서를	-1099
불어	-1100
대비	-1101
리그	-1102
만원을	-1103
▁돌아	-1104
11	-1105
▁정치	-1106
▁최종	-1107
▁같다	-1108
▁평균	-1109
▁확산	-1110
▁사망	-1111
랐다	-1112
▁tv	-1113
▁모습을	-1114
▁도시	-1115
▁또는	-1116
기간	-1117
▁행정	-1118
년간	-1119
▁.	-1120
▁갈	-1121
▁공연	-1122
계를	-1123
겼다	-1124
▁핵	-1125
지막	-1126
▁측은	-1127
▁관련해	-1128
▁밀	-1129
사로	-1130
너지	-1131
되지	-1132
▁업체	-1133
전에	-1134
▁얻	-1135
동안	-1136
▁참가	-1137
▁전남	-1138
▁고려	-1139
▁어린	-1140
포인트	-1141
와의	-1142
▁2017	-1143
▁스마트	-1144
▁앞서	-1145
▁예방	-1146
권을	-1147
국민	-1148
▁롯데	-1149
▁기념	-1150
다만	-1151
▁만들어	-1152
▁일반	-1153
▁2018	-1154
▁바이	-1155
회가	-1156
었던	-1157
▁중소	-1158
▁관광	-1159
란다	-1160
▁티	-1161
우리	-1162
▁솔	-1163
년부터	-1164
▁2015	-1165
▁수익	-1166
가가	-1167
▁2016	-1168
진다	-1169
▁원내	-1170
▁인정	-1171
▁엄	-1172
그러나	-1173
▁쓰	-1174
▁부분	-1175
▁현장	-1176
▁숨	-1177
물을	-1178
▁직원	-1179
▁을	-1180
력이	-1181
▁감사	-1182
주시	-1183
▁예산	-1184
▁먹	-1185
▁외국	-1186
▁길	-1187
▁할인	-1188
▁터	-1189
스터	-1190
씨를	-1191
▁떠	-1192
▁꾸	-1193
도의	-1194
대에	-1195
▁모델	-1196
▁강원	-1197
▁러	-1198
re	-1199
▁풀	-1200
별로	-1201
▁컬	-1202
▁탈	-1203
도시	-1204
▁악	-1205
스가	-1206
디오	-1207
▁최초	-1208
하여	-1209
▁kbs	-1210
▁의미	-1211
▁대전	-1212
해서	-1213
';	-1214
▁검토	-1215
he	-1216
상이	-1217
통신	-1218
▁품	-1219
▁공공	-1220
▁바란다	-1221
위는	-1222
최근	-1223
▁징	-1224
▁도입	-1225
단은	-1226
▁가수	-1227
밖에	-1228
▁컨	-1229
▁체결	-1230
국은	-1231
▁중앙	-1232
습니다	-1233
▁활성	-1234
바일	-1235
▁의료	-1236
▁압	-1237
린다	-1238
드라마	-1239
공개	-1240
▁부담	-1241
텐츠	-1242
가격	-1243
갔다	-1244
▁대통령은	-1245
▁나타났다	-1246
▁수요	-1247
지난해	-1248
한다는	-1249
이후	-1250
▁2014	-1251
▁물론	-1252
두고	-1253
▁선택	-1254
보고	-1255
▁캠	-1256
주택	-1257
▁mbc	-1258
▁침	-1259
월부터	-1260
파트	-1261
▁공모	-1262
▁병원	-1263
▁보도	-1264
대회	-1265
▁전북	-1266
선거	-1267
▁기반	-1268
가지	-1269
▁분위	-1270
항공	-1271
원에서	-1272
14	-1273
15	-1274
▁대학	-1275
자리	-1276
시키	-1277
▁장관	-1278
▁병	-1279
▁자유	-1280
▁w	-1281
▁존	-1282
▁서비스를	-1283
금은	-1284
림픽	-1285
▁시스	-1286
▁발견	-1287
▁그는	-1288
▁받을	-1289
▁밤	-1290
▁반영	-1291
회사	-1292
대상	-1293
▁소재	-1294
민주당	-1295
부가	-1296
▁보유	-1297
자와	-1298
▁아닌	-1299
▁시설	-1300
섰다	-1301
▁인해	-1302
▁자리	-1303
지방	-1304
명은	-1305
▁제출	-1306
▁기관	-1307
▁부문	-1308
▁혜	-1309
사고	-1310
라도	-1311
▁비롯해	-1312
▁확정	-1313
▁혁신	-1314
▁공개했다	-1315
▁필요한	-1316
원으로	-1317
▁연기	-1318
▁충북	-1319
▁결혼	-1320
▁있고	-1321
▁크게	-1322
▁음악	-1323
지가	-1324
25	-1325
율은	-1326
▁돼	-1327
구는	-1328
▁수사	-1329
▁체험	-1330
먼트	-1331
로부터	-1332
아이	-1333
▁전략	-1334
▁엔	-1335
▁방식	-1336
대학교	-1337
▁혼	-1338
구를	-1339
훈련	-1340
▁거쳐	-1341
행을	-1342
▁번째	-1343
▁해결	-1344
▁위치	-1345
▁하루	-1346
▁경험	-1347
▁풍	-1348
▁인사	-1349
▁진출	-1350
▁트럼프	-1351
ns	-1352
▁봉	-1353
되며	-1354
▁코스	-1355
▁촉	-1356
▁시스템	-1357
km	-1358
울러	-1359
▁기획	-1360
▁난	-1361
씨의	-1362
시했다	-1363
▁앨범	-1364
생활	-1365
차를	-1366
▁구조	-1367
▁요청	-1368
▁';	-1369
▁자체	-1370
▁점검	-1371
회에	-1372
액은	-1373
▁달러	-1374
▁의혹	-1375
머니	-1376
스의	-1377
▁인근	-1378
렇게	-1379
디어	-1380
품을	-1381
▁방침이다	-1382
▁통합	-1383
스러	-1384
성과	-1385
드는	-1386
▁마음	-1387
자들의	-1388
▁데뷔	-1389
▁전망이다	-1390
▁통한	-1391
▁향후	-1392
지에	-1393
대가	-1394
▁주식	-1395
세계	-1396
12	-1397
▁몸	-1398
장으로	-1399
▁희망	-1400
▁가입	-1401
▁상당	-1402
▁뛰	-1403
보험	-1404
▁sbs	-1405
▁제외	-1406
▁대해서는	-1407
▁j	-1408
▁홍보	-1409
▁연출	-1410
▁아직	-1411
이자	-1412
자들이	-1413
▁종합	-1414
▁모습이	-1415
▁기능	-1416
▁예상된다	-1417
▁교통	-1418
▁발전	-1419
▁앞두고	-1420
프라	-1421
▁지적했다	-1422
계획	-1423
▁국민의	-1424
40	-1425
▁활동을	-1426
▁전문가	-1427
▁이벤트	-1428
▁보호	-1429
회에서	-1430
▁가능성이	-1431
▁게임	-1432
무리	-1433
▁무료	-1434
▁본격	-1435
▁소개	-1436
▁반응	-1437
▁주택	-1438
▁윤	-1439
▁더불어	-1440
량을	-1441
▁지정	-1442
▁정상	-1443
▁제기	-1444
▁건설	-1445
▁뜻	-1446
▁넘어	-1447
바이러스	-1448
▁유럽	-1449
▁나온	-1450
▁조성	-1451
▁필요하다	-1452
▁모바일	-1453
▁않을	-1454
.5%	-1455
▁영상	-1456
▁구속	-1457
▁서울시	-1458
동산	-1459
▁뿐	-1460
or	-1461
▁재판	-1462
같은	-1463
▁어떤	-1464
▁마지막	-1465
▁위반	-1466
▁h	-1467
문을	-1468
움이	-1469
▁1000	-1470
▁쇼	-1471
비를	-1472
▁예능	-1473
건설	-1474
5%	-1475
누리	-1476
▁kb	-1477
▁중심으로	-1478
▁페이	-1479
길을	-1480
대책	-1481
해졌다	-1482
▁안정	-1483
▁출신	-1484
포츠	-1485
▁파악	-1486
▁이름	-1487
미국	-1488
:30	-1489
▁앞으로	-1490
▁마감	-1491
업계	-1492
▁사진을	-1493
▁있게	-1494
르는	-1495
과학	-1496
▁효과	-1497
스타그램	-1498
▁울산	-1499
스로	-1500
▁곡	-1501
▁역할을	-1502
▁사무	-1503
이와	-1504
an	-1505
▁라이	-1506
▁맛	-1507
▁너무	-1508
▁원내대표	-1509
▁보다	-1510
▁kt	-1511
제가	-1512
▁진행된다	-1513
▁맞아	-1514
at	-1515
션을	-1516
▁합의	-1517
▁치료	-1518
없이	-1519
▁겪	-1520
▁신종	-1521
번째	-1522
무원	-1523
삼성	-1524
▁청년	-1525
대학	-1526
▁않는다	-1527
▁경기도	-1528
기상	-1529
▁종목	-1530
▁방역	-1531
st	-1532
▁방법	-1533
중앙	-1534
▁당부	-1535
세한	-1536
ar	-1537
사진	-1538
▁인스타그램	-1539
▁올랐다	-1540
▁2019	-1541
규모	-1542
▁쉽	-1543
▁되는	-1544
▁대구	-1545
▁올라	-1546
워크	-1547
▁60	-1548
▁공격	-1549
동을	-1550
연합	-1551
▁각종	-1552
▁이에	-1553
체육	-1554
의회	-1555
▁혜택	-1556
▁않는	-1557
▁지금	-1558
▁영향을	-1559
▁화보	-1560
▁놀	-1561
와대	-1562
18	-1563
▁여자	-1564
▁뮤	-1565
▁행복	-1566
▁전환	-1567
했다는	-1568
▁최저	-1569
랫폼	-1570
▁어린이	-1571
들도	-1572
▁책임	-1573
▁감염증	-1574
▁'201	-1575
▁조치	-1576
당은	-1577
.1%	-1578
▁주목	-1579
▁항공	-1580
억원으로	-1581
▁석	-1582
▁지지	-1583
▁갖고	-1584
부에	-1585
▁사례	-1586
▁사회적	-1587
▁아니다	-1588
▁콘텐츠	-1589
▁사업을	-1590
.2%	-1591
케팅	-1592
하도록	-1593
관계	-1594
일을	-1595
▁계약	-1596
▁퇴	-1597
이크	-1598
▁슈	-1599
▁놓	-1600
테인	-1601
▁고용	-1602
직원	-1603
시가	-1604
▁투입	-1605
▁v	-1606
▁자동차	-1607
화에	-1608
▁이유	-1609
부분	-1610
▁개정	-1611
▁헤	-1612
평가	-1613
▁사전	-1614
이스	-1615
▁코로나바이러스	-1616
22	-1617
▁영업이익	-1618
▁소방	-1619
▁과정에서	-1620
▁중단	-1621
16	-1622
▁접수	-1623
▁를	-1624
▁검사	-1625
▁이달	-1626
▁불법	-1627
전히	-1628
▁보건	-1629
▁진행한다	-1630
교통	-1631
▁마무리	-1632
▁내려	-1633
지털	-1634
▁장애	-1635
자산	-1636
▁공유	-1637
대의	-1638
▁처리	-1639
단계	-1640
▁등록	-1641
▁창업	-1642
방송	-1643
▁누구	-1644
▁선고	-1645
▁투표	-1646
▁지속적으로	-1647
온은	-1648
드를	-1649
▁먼	-1650
▁판정을	-1651
국제	-1652
.3%	-1653
▁집계	-1654
▁회의	-1655
▁언급	-1656
개를	-1657
롭게	-1658
서도	-1659
▁u	-1660
코로나	-1661
명이다	-1662
▁혐의를	-1663
▁아시아	-1664
▁중소기업	-1665
▁보험	-1666
▁높아	-1667
사랑	-1668
되면	-1669
중국	-1670
하기도	-1671
24	-1672
있는	-1673
▁모집	-1674
▁2020	-1675
등학교	-1676
▁백신	-1677
60	-1678
▁하지	-1679
▁제조	-1680
하려	-1681
증을	-1682
▁회복	-1683
▁연구원은	-1684
▁입장	-1685
▁경남	-1686
▁일정	-1687
13	-1688
▁기여	-1689
-0	-1690
금이	-1691
.4%	-1692
▁눈길을	-1693
▁제한	-1694
▁페	-1695
터테인	-1696
세먼	-1697
지수는	-1698
▁또한	-1699
실을	-1700
점으로	-1701
▁담당	-1702
▁인도	-1703
▁위험	-1704
▁했	-1705
▁단체	-1706
▁나선	-1707
17	-1708
하거나	-1709
하이	-1710
▁관한	-1711
▁현지	-1712
관광	-1713
시스템	-1714
▁근무	-1715
▁녹	-1716
상품	-1717
시부터	-1718
▁핵심	-1719
▁이끌	-1720
▁설립	-1721
치고	-1722
▁등이다	-1723
▁노동	-1724
▁열리는	-1725
▁프리	-1726
▁나가	-1727
▁팔	-1728
거리	-1729
▁대변	-1730
▁있지만	-1731
▁민주당	-1732
▁비판	-1733
수의	-1734
▁주장했다	-1735
it	-1736
▁싱	-1737
떻게	-1738
▁소통	-1739
▁영국	-1740
▁변호	-1741
▁황	-1742
▁제안	-1743
스코	-1744
▁정도	-1745
년을	-1746
▁대통령이	-1747
▁조직	-1748
경찰은	-1749
타를	-1750
▁쿠	-1751
▁여행	-1752
▁이미	-1753
▁퍼	-1754
세가	-1755
▁납	-1756
▁아파트	-1757
▁것이라고	-1758
소득	-1759
▁확인할	-1760
었고	-1761
▁상대	-1762
제품	-1763
▁전일	-1764
터테인먼트	-1765
▁컴	-1766
▁헌	-1767
전문	-1768
▁이사	-1769
▁선물	-1770
▁두고	-1771
▁민간	-1772
▁특히	-1773
검찰	-1774
▁홈런	-1775
▁감독은	-1776
▁sns	-1777
그러면서	-1778
▁전시	-1779
▁이해	-1780
요일	-1781
아울러	-1782
.201	-1783
ic	-1784
▁돈	-1785
▁좌	-1786
▁매우	-1787
▁인한	-1788
다른	-1789
▁에게	-1790
부산	-1791
▁인상	-1792
인과	-1793
협회	-1794
▁채용	-1795
자에게	-1796
프트	-1797
▁개봉	-1798
ed	-1799
▁논란	-1800
▁우승	-1801
▁주변	-1802
▁자연	-1803
제는	-1804
.6%	-1805
al	-1806
봤다	-1807
▁r	-1808
▁딸	-1809
대전	-1810
영화	-1811
▁러시아	-1812
스러운	-1813
구가	-1814
같이	-1815
▁않았	-1816
▁<	-1817
건을	-1818
단을	-1819
▁연결	-1820
되면서	-1821
▁승리	-1822
식품	-1823
▁대형	-1824
▁전기	-1825
▁싶다	-1826
▁가능한	-1827
▁제공한다	-1828
▁못했다	-1829
▁견	-1830
▁둘	-1831
▁타이	-1832
▁게재	-1833
▁비용	-1834
이가	-1835
위로	-1836
개의	-1837
▁플랫폼	-1838
▁남자	-1839
▁최선을	-1840
▁기본	-1841
.7%	-1842
▁표현	-1843
가족	-1844
▁거주	-1845
▁정확	-1846
정한	-1847
▁완료	-1848
▁은행	-1849
▁비해	-1850
▁겨	-1851
지도	-1852
▁접촉	-1853
mm	-1854
▁규모의	-1855
률을	-1856
리즈	-1857
▁찍	-1858
고를	-1859
▁나오	-1860
대는	-1861
분을	-1862
▁블랙	-1863
.8%	-1864
▁35	-1865
화가	-1866
▁지켜	-1867
에선	-1868
공사	-1869
▁입장을	-1870
▁바로	-1871
▁오늘	-1872
수로	-1873
▁나서	-1874
▁500	-1875
▁붙	-1876
▁공간	-1877
▁청소년	-1878
▁것도	-1879
하던	-1880
▁어려운	-1881
▁회사	-1882
▁스타일	-1883
23	-1884
▁국정	-1885
부의	-1886
스와	-1887
▁바탕	-1888
▁상대로	-1889
▁자아	-1890
.9%	-1891
▁어렵	-1892
월까지	-1893
자에	-1894
▁이하	-1895
운동	-1896
▁대출	-1897
▁긴급	-1898
인으로	-1899
▁장기	-1900
▁않아	-1901
만에	-1902
들에	-1903
▁의견을	-1904
지로	-1905
보는	-1906
▁흐	-1907
▁제시	-1908
ou	-1909
실에서	-1910
▁the	-1911
▁같이	-1912
▁등은	-1913
▁출전	-1914
▁당부했다	-1915
▁보이	-1916
▁프로젝	-1917
▁전해졌다	-1918
스에	-1919
▁발생한	-1920
▁이런	-1921
▁한편	-1922
▁보내	-1923
르게	-1924
▁대책	-1925
앞으로도	-1926
어나	-1927
▁지원을	-1928
▁나갈	-1929
▁출발	-1930
▁동시에	-1931
트로	-1932
▁내린	-1933
▁장관은	-1934
부와	-1935
게임	-1936
▁겸	-1937
카오	-1938
▁컬러	-1939
분께	-1940
5000	-1941
▁슬	-1942
▁뉴욕	-1943
▁노래	-1944
▁발표했다	-1945
주가	-1946
율이	-1947
▁예비	-1948
▁생각한다	-1949
▁달성	-1950
▁탑	-1951
▁유통	-1952
▁씨	-1953
▁완성	-1954
▁2013	-1955
▁어떻게	-1956
나라	-1957
▁좋아	-1958
▁국회의	-1959
심을	-1960
▁등장	-1961
▁/	-1962
정치	-1963
트리	-1964
▁즉	-1965
▁목소	-1966
부문	-1967
함을	-1968
소에서	-1969
▁부동산	-1970
이드	-1971
▁질문	-1972
시즌	-1973
만의	-1974
▁착용	-1975
▁해야	-1976
스럽	-1977
▁마스크	-1978
세대	-1979
사항	-1980
국내	-1981
▁확진자	-1982
▁관객	-1983
▁시작으로	-1984
▁청와대	-1985
en	-1986
정에	-1987
▁도로	-1988
▁바탕으로	-1989
대한	-1990
화된	-1991
마다	-1992
종합	-1993
장관	-1994
하자	-1995
▁상담	-1996
은행은	-1997
80	-1998
▁부족	-1999
▁열고	-2000
▁기소	-2001
▁대회	-2002
재단	-2003
▁디지털	-2004
▁화재	-2005
▁빅	-2006
▁언론	-2007
예술	-2008
▁꿈	-2009
▁다음달	-2010
켰다	-2011
▁누적	-2012
▁깊	-2013
▁대부분	-2014
이로	-2015
소는	-2016
▁소식	-2017
▁70	-2018
▁199	-2019
▁마케팅	-2020
▁우선	-2021
세먼지	-2022
▁수행	-2023
자들은	-2024
량이	-2025
진흥	-2026
▁올렸다	-2027
률은	-2028
▁충남	-2029
▁능	-2030
▁관심을	-2031
▁삶	-2032
▁이야기를	-2033
▁발굴	-2034
▁발생했다	-2035
투자증권	-2036
▁변경	-2037
마을	-2038
▁통과	-2039
▁방안	-2040
됐다고	-2041
차례	-2042
가구	-2043
보호	-2044
▁기초	-2045
70	-2046
▁그러	-2047
이버	-2048
▁증가했다	-2049
현대	-2050
▁대통령의	-2051
▁하겠다	-2052
월호	-2053
▁방향	-2054
▁패션	-2055
▁숙	-2056
▁지도	-2057
누리당	-2058
▁워	-2059
▁있던	-2060
▁근로	-2061
정이	-2062
▁과거	-2063
▁전통	-2064
상에	-2065
▁도움이	-2066
오늘	-2067
▁주제로	-2068
▁300	-2069
서관	-2070
▁정부의	-2071
▁활성화	-2072
▁상황에서	-2073
▁마쳤다	-2074
~2	-2075
▁가능성	-2076
릭터	-2077
프로그램	-2078
진을	-2079
반면	-2080
▁추천	-2081
발전	-2082
공개된	-2083
▁오픈	-2084
▁찬	-2085
▁사태	-2086
▁33	-2087
▁기부	-2088
줬다	-2089
▁늘었다	-2090
기준	-2091
▁일자리	-2092
플레이	-2093
이기	-2094
▁2000	-2095
▁전자	-2096
면서도	-2097
▁흥	-2098
억원이	-2099
▁신뢰	-2100
년까지	-2101
▁더불어민주당	-2102
다가	-2103
일은	-2104
500	-2105
▁사실을	-2106
▁사항	-2107
▁관심이	-2108
▁이전	-2109
코리아	-2110
▁회장은	-2111
▁색	-2112
상의	-2113
▁고민	-2114
▁채널	-2115
▁주말	-2116
▁때문이다	-2117
▁연계	-2118
공항	-2119
▁협의	-2120
▁달라	-2121
▁그려	-2122
▁암	-2123
▁대체	-2124
니스	-2125
원과	-2126
▁인터넷	-2127
▁2012	-2128
▁증가한	-2129
지지	-2130
시험	-2131
▁불구	-2132
▁정부가	-2133
▁비교	-2134
▁충분	-2135
▁앱	-2136
▁죽	-2137
▁졸	-2138
리지	-2139
이션	-2140
협력	-2141
▁대신	-2142
▁에너지	-2143
▁수입	-2144
▁전반	-2145
자치	-2146
▁국무	-2147
위가	-2148
가능	-2149
▁펀드	-2150
구조	-2151
트는	-2152
▁상승한	-2153
▁보이고	-2154
▁점을	-2155
▁수원	-2156
▁국립	-2157
▁단계	-2158
▁업계	-2159
▁문제가	-2160
년도	-2161
es	-2162
▁여름	-2163
▁나왔다	-2164
감이	-2165
▁작업	-2166
.-	-2167
▁꾸준	-2168
▁인증	-2169
▁하락한	-2170
▁훈련	-2171
경영	-2172
▁위치한	-2173
율을	-2174
▁왕	-2175
▁제도	-2176
▁사람은	-2177
▁기대한다	-2178
▁남성	-2179
▁디자인	-2180
▁반응을	-2181
▁한다는	-2182
▁비롯한	-2183
▁촉구	-2184
▁캐릭터	-2185
▁기회를	-2186
▁줄어	-2187
페인	-2188
▁외국인	-2189
느냐	-2190
로는	-2191
▁케이	-2192
명에	-2193
▁인수	-2194
사에서	-2195
시민	-2196
하우	-2197
▁잔	-2198
▁못한	-2199
▁발언	-2200
▁선보였다	-2201
lg	-2202
▁복지	-2203
▁강남	-2204
▁없었다	-2205
▁매년	-2206
▁왔다	-2207
▁사람이	-2208
앞으로	-2209
▁시험	-2210
▁대선	-2211
▁차지했다	-2212
▁않다	-2213
▁가까	-2214
▁한화	-2215
▁창출	-2216
▁아동	-2217
▁마음을	-2218
입니다	-2219
관에서	-2220
▁예고	-2221
▁데이터	-2222
자체	-2223
▁하면	-2224
▁펼쳐	-2225
스북	-2226
▁보면	-2227
무를	-2228
량은	-2229
▁마감했다	-2230
일에는	-2231
▁낙	-2232
▁두산	-2233
▁프랑	-2234
▁접종	-2235
▁의원이	-2236
▁비중	-2237
주를	-2238
▁지하	-2239
▁듯	-2240
정의	-2241
세다	-2242
▁방안을	-2243
당이	-2244
▁웃음을	-2245
▁만든	-2246
리의	-2247
▁구체	-2248
▁그런	-2249
▁소비자	-2250
▁미국의	-2251
▁결과를	-2252
?'	-2253
▁힘을	-2254
▁그리고	-2255
엔터테인먼트	-2256
▁받는	-2257
▁양성	-2258
다운	-2259
▁인터뷰	-2260
되어	-2261
활동을	-2262
이들은	-2263
▁루	-2264
소에	-2265
▁얘	-2266
▁제품을	-2267
▁이야기	-2268
sk	-2269
파크	-2270
산물	-2271
▁바람	-2272
▁32	-2273
점이	-2274
▁받는다	-2275
국의	-2276
번호	-2277
▁입고	-2278
긍정	-2279
수도	-2280
일간	-2281
▁36	-2282
▁도전	-2283
▁''	-2284
▁토론	-2285
점에서	-2286
▁보도했다	-2287
▁먼저	-2288
▁확진자가	-2289
▁전화	-2290
시까지	-2291
▁콜	-2292
▁마을	-2293
구의	-2294
▁회원	-2295
▁확진자는	-2296
▁시상	-2297
▁시간을	-2298
▁조금	-2299
▁걸쳐	-2300
..'	-2301
노동	-2302
▁서로	-2303
▁무역	-2304
라운드	-2305
▁스마트폰	-2306
보건	-2307
▁옥	-2308
▁중요한	-2309
ct	-2310
▁꼽	-2311
르고	-2312
▁안내	-2313
데이	-2314
▁빌	-2315
▁독일	-2316
▁있었	-2317
▁맺	-2318
기온은	-2319
▁임시	-2320
▁정기	-2321
▁집행	-2322
명과	-2323
▁액	-2324
피해	-2325
메라	-2326
특별	-2327
▁얼굴	-2328
▁없어	-2329
▁나섰다	-2330
▁강력	-2331
선수	-2332
진은	-2333
▁수석	-2334
▁교수는	-2335
▁통신	-2336
관을	-2337
▁택	-2338
분야	-2339
▁취업	-2340
▁가진	-2341
로서	-2342
▁뛰어	-2343
▁묻	-2344
▁최초로	-2345
▁범죄	-2346
지금	-2347
인지	-2348
▁농업	-2349
▁던	-2350
억원의	-2351
▁공정	-2352
▁내용을	-2353
겠다는	-2354
▁주관	-2355
학과	-2356
▁빈	-2357
광주	-2358
▁것에	-2359
하는데	-2360
▁미니	-2361
▁맞춰	-2362
▁징역	-2363
리며	-2364
▁국방	-2365
▁반대	-2366
▁알고	-2367
▁궁	-2368
분쯤	-2369
회담	-2370
▁추정	-2371
상공	-2372
▁이동	-2373
프리	-2374
받은	-2375
▁소속사	-2376
률이	-2377
▁이같이	-2378
▁교체	-2379
▁약속	-2380
▁정보를	-2381
▁외교	-2382
내고	-2383
▁긍정	-2384
술을	-2385
▁유치	-2386
있다	-2387
▁방문해	-2388
전에서	-2389
▁차례	-2390
▁행사를	-2391
▁매력을	-2392
교육청	-2393
법인	-2394
▁34	-2395
아가	-2396
▁신속	-2397
▁히	-2398
▁포함한	-2399
▁좀	-2400
바다	-2401
으로는	-2402
여명이	-2403
▁빨	-2404
▁자산	-2405
스토	-2406
▁편의	-2407
▁비상	-2408
트남	-2409
▁담은	-2410
ot	-2411
▁듣	-2412
▁호텔	-2413
안타	-2414
.‘	-2415
미래	-2416
웠다	-2417
▁경기를	-2418
▁진단	-2419
공원	-2420
▁당첨	-2421
▁둔	-2422
▁믿	-2423
▁페이스북	-2424
▁◇	-2425
▁수는	-2426
▁상반기	-2427
▁내부	-2428
▁거리	-2429
▁결국	-2430
구에	-2431
28	-2432
테크	-2433
ia	-2434
▁그린	-2435
더라도	-2436
그래	-2437
▁증정	-2438
▁밝혀	-2439
▁등에서	-2440
시를	-2441
보를	-2442
▁푸	-2443
일에	-2444
.19	-2445
▁한다고	-2446
미를	-2447
▁규제	-2448
조선	-2449
▁상장	-2450
했으나	-2451
웨이	-2452
격을	-2453
▁광고	-2454
~3	-2455
신을	-2456
▁추가로	-2457
▁새누리당	-2458
▁당선	-2459
▁돌파	-2460
▁기대된다	-2461
▁부회	-2462
성장	-2463
▁it	-2464
▁하반기	-2465
▁민주	-2466
▁이벤트를	-2467
치가	-2468
조합	-2469
▁발매	-2470
▁건물	-2471
진이	-2472
▁회장	-2473
▁교수	-2474
계약	-2475
▁세종	-2476
▁뽐	-2477
상황	-2478
▁답했다	-2479
민주	-2480
▁스포츠	-2481
▁실제	-2482
▁문제를	-2483
라우	-2484
년에	-2485
피스	-2486
▁프리미	-2487
자동차	-2488
▁벌어	-2489
올림픽	-2490
당시	-2491
ing	-2492
▁의심	-2493
뱅크	-2494
인데	-2495
▁말을	-2496
상으로	-2497
니까	-2498
27	-2499
플러스	-2500
트워크	-2501
연을	-2502
▁처음으로	-2503
▁월드	-2504
▁연장	-2505
▁열린다	-2506
29	-2507
▁성과	-2508
▁맞춤	-2509
▁매각	-2510
소방	-2511
▁포함해	-2512
도체	-2513
▁대변인은	-2514
수수	-2515
▁취소	-2516
▁누구나	-2517
스티	-2518
▁인스타그램에	-2519
▁아침	-2520
적을	-2521
가의	-2522
▁자랑	-2523
화와	-2524
기와	-2525
▁분양	-2526
▁운동	-2527
▁게재했다	-2528
단지	-2529
▁불편	-2530
▁진행된	-2531
▁돕	-2532
▁친구	-2533
리와	-2534
과정	-2535
▁좋다	-2536
▁장을	-2537
▁방식으로	-2538
장애	-2539
웨어	-2540
케어	-2541
▁제대로	-2542
▁득	-2543
▁글과	-2544
위원장	-2545
26	-2546
▁옮	-2547
주민	-2548
▁5000	-2549
감독	-2550
지면서	-2551
▁경찰에	-2552
자원	-2553
▁해소	-2554
▁셀	-2555
▁넣	-2556
에게는	-2557
위원회는	-2558
▁여전히	-2559
▁신한	-2560
도에	-2561
시켜	-2562
▁정부는	-2563
▁작성	-2564
▁깨	-2565
▁프로그램을	-2566
▁니	-2567
상은	-2568
인공	-2569
▁선임	-2570
▁즐길	-2571
주고	-2572
해당	-2573
▁분위기를	-2574
부모	-2575
▁익	-2576
만원의	-2577
단이	-2578
▁나라	-2579
▁졸업	-2580
et	-2581
▁벗	-2582
▁부정	-2583
▁만족	-2584
▁비슷	-2585
회견	-2586
▁달리	-2587
▁제공하는	-2588
행정	-2589
▁상황을	-2590
▁이내	-2591
건강	-2592
▁발표한	-2593
▁후보는	-2594
약품	-2595
신청	-2596
▁집계됐다	-2597
기의	-2598
▁대표이	-2599
▁정규	-2600
▁상태다	-2601
차는	-2602
의료	-2603
ion	-2604
▁혜택을	-2605
▁시작했다	-2606
서트	-2607
▁잇	-2608
▁전용	-2609
▁자아냈다	-2610
▁활약	-2611
▁시장은	-2612
사무	-2613
▁받았	-2614
▁차별	-2615
씨와	-2616
▁공무원	-2617
▁유명	-2618
바이오	-2619
▁80	-2620
이지	-2621
▁기타	-2622
▁덕	-2623
▁레이	-2624
▁되고	-2625
▁법무	-2626
수사	-2627
▁메시	-2628
▁기준으로	-2629
▁웹	-2630
메달	-2631
▁ai	-2632
▁획	-2633
됐고	-2634
안이	-2635
▁구입	-2636
▁소감을	-2637
▁밝히	-2638
내가	-2639
사업을	-2640
▁해양	-2641
▁관람	-2642
분이	-2643
▁내용은	-2644
판매	-2645
비는	-2646
회말	-2647
▁y	-2648
▁자동	-2649
▁시도	-2650
세로	-2651
▁역사	-2652
▁금지	-2653
대출	-2654
▁발행	-2655
달라	-2656
안에	-2657
▁프로젝트	-2658
벤처	-2659
▁법률	-2660
.10	-2661
이즈	-2662
▁자리를	-2663
▁39	-2664
역을	-2665
점검	-2666
▁대중	-2667
▁부과	-2668
대에서	-2669
등록	-2670
성에	-2671
▁사랑을	-2672
▁흔	-2673
▁조사를	-2674
▁재난	-2675
▁검사를	-2676
▁식품	-2677
시장에서	-2678
▁심사	-2679
국이	-2680
▁국토	-2681
조정	-2682
▁화장	-2683
▁허용	-2684
그런	-2685
으로부터	-2686
▁올림픽	-2687
▁정말	-2688
▁그동안	-2689
▁지나	-2690
▁참석했다	-2691
▁38	-2692
▁채권	-2693
자금	-2694
차가	-2695
로를	-2696
▁브라	-2697
▁등도	-2698
▁애플	-2699
▁싸	-2700
▁맞는	-2701
리기	-2702
▁과학	-2703
▁통화	-2704
.20	-2705
▁37	-2706
▁응원	-2707
▁나온다	-2708
▁초청	-2709
▁사장은	-2710
nd	-2711
일본	-2712
▁조정	-2713
▁재산	-2714
▁엘	-2715
▁형태	-2716
▁철저	-2717
ol	-2718
겠다고	-2719
▁살아	-2720
▁전주	-2721
가고	-2722
지의	-2723
▁하지만	-2724
▁일이	-2725
▁가지고	-2726
튜브	-2727
년생	-2728
범죄	-2729
▁금리	-2730
▁기자회견	-2731
제주	-2732
▁선언	-2733
▁맥	-2734
▁움	-2735
▁사로	-2736
▁정확한	-2737
▁원하는	-2738
결과	-2739
해양	-2740
▁어려움을	-2741
▁전날보다	-2742
▁밝힌	-2743
▁주거	-2744
이너	-2745
▁낮은	-2746
▁건축	-2747
▁자금	-2748
리스트	-2749
식이	-2750
검사	-2751
▁지자체	-2752
화점	-2753
▁kbo	-2754
▁45	-2755
행사	-2756
전략	-2757
우는	-2758
▁느낌	-2759
당의	-2760
200	-2761
▁부탁	-2762
▁상승했다	-2763
월에	-2764
▁이름을	-2765
▁남북	-2766
▁장애인	-2767
해왔다	-2768
▁봉사	-2769
▁위원장은	-2770
▁최소	-2771
상에서	-2772
▁인기	-2773
▁노력하겠다	-2774
▁왜	-2775
표를	-2776
▁어느	-2777
▁피해를	-2778
▁활용해	-2779
더라	-2780
지와	-2781
▁잃	-2782
니아	-2783
▁친환경	-2784
▁누리	-2785
내는	-2786
준다	-2787
▁기억	-2788
시의	-2789
법을	-2790
▁여부를	-2791
드시	-2792
▁그의	-2793
받았다	-2794
운영	-2795
▁염	-2796
▁소화	-2797
▁취약	-2798
쇼핑	-2799
▁솔로	-2800
▁지키	-2801
만큼	-2802
관이	-2803
▁가져	-2804
제도	-2805
▁것이라는	-2806
체험	-2807
2%	-2808
분에	-2809
단의	-2810
▁기다	-2811
is	-2812
▁사로잡	-2813
어요	-2814
▁호흡	-2815
▁극복	-2816
▁신용	-2817
▁주는	-2818
▁배치	-2819
일이	-2820
▁스트	-2821
▁하락했다	-2822
▁거래일	-2823
즈를	-2824
거운	-2825
▁2011	-2826
▁카메라	-2827
...	-2828
▁힘들	-2829
▁나타냈다	-2830
국가	-2831
▁무대를	-2832
▁끌었다	-2833
om	-2834
▁갑	-2835
하겠다는	-2836
▁형사	-2837
▁내놓	-2838
▁노력을	-2839
일과	-2840
▁보는	-2841
승을	-2842
▁그대로	-2843
봉사	-2844
▁tvn	-2845
▁후원	-2846
▁홍콩	-2847
텔레	-2848
▁베트남	-2849
▁특수	-2850
▁예술	-2851
이닝	-2852
▁이렇게	-2853
▁소송	-2854
▁쉽게	-2855
▁제외한	-2856
▁수립	-2857
▁주도	-2858
▁임대	-2859
청에	-2860
▁뜨	-2861
▁진행할	-2862
▁늦	-2863
▁대해서도	-2864
▁특징	-2865
▁카드	-2866
재를	-2867
▁포인트	-2868
서에	-2869
▁돋	-2870
▁뽑	-2871
데이터	-2872
▁이용해	-2873
▁주문	-2874
▁10%	-2875
31	-2876
3%	-2877
▁복귀	-2878
▁쇼핑	-2879
▁스스로	-2880
점에	-2881
핑크	-2882
만원으로	-2883
소가	-2884
▁재정	-2885
▁증권	-2886
하나	-2887
모델	-2888
▁효율	-2889
했을	-2890
▁소득	-2891
▁움직	-2892
▁임직원	-2893
▁이틀	-2894
4%	-2895
레스	-2896
▁카카오	-2897
금리	-2898
▁대기	-2899
▁걱	-2900
▁스토	-2901
회초	-2902
▁미세먼지	-2903
유의	-2904
주로	-2905
▁출마	-2906
▁직후	-2907
▁음식	-2908
▁봄	-2909
받아	-2910
지사	-2911
1%	-2912
▁프랑스	-2913
▁육성	-2914
뿐만	-2915
통합	-2916
공업	-2917
위의	-2918
▁수도권	-2919
▁자세한	-2920
니어	-2921
▁시간이	-2922
▁꾸준히	-2923
면을	-2924
▁:	-2925
당국은	-2926
력과	-2927
▁적극적으로	-2928
인천	-2929
▁in	-2930
▁최고의	-2931
▁겨울	-2932
▁'20	-2933
▁간담	-2934
▁평화	-2935
으로써	-2936
▁불러	-2937
7%	-2938
▁기술을	-2939
▁트렌	-2940
▁조치를	-2941
▁단독	-2942
전자는	-2943
▁참석한	-2944
▁지분	-2945
▁이루	-2946
기획	-2947
▁꽃	-2948
계층	-2949
▁자격	-2950
▁정비	-2951
적이	-2952
자들에게	-2953
됐으며	-2954
▁종료	-2955
▁확인됐다	-2956
▁필요가	-2957
▁진행하고	-2958
▁이용할	-2959
▁전망했다	-2960
▁있는데	-2961
▁경북	-2962
▁응답	-2963
▁to	-2964
연금	-2965
▁등과	-2966
▁부여	-2967
▁의무	-2968
▁밖	-2969
▁3000	-2970
▁청구	-2971
▁끼	-2972
▁50%	-2973
고객	-2974
▁기록한	-2975
▁자료	-2976
▁시장에서	-2977
▁중요하다	-2978
▁연간	-2979
춘천	-2980
▁전월	-2981
만달러	-2982
어를	-2983
공동	-2984
▁품질	-2985
▁자신이	-2986
사인	-2987
체를	-2988
지법	-2989
세요	-2990
▁싶은	-2991
였던	-2992
▁남편	-2993
▁털	-2994
▁동기	-2995
당을	-2996
▁메이	-2997
건으로	-2998
▁신임	-2999
▁이익	-3000
▁출연해	-3001
▁실천	-3002
▁늘어난	-3003
▁계약을	-3004
6%	-3005
▁새롭게	-3006
▁접근	-3007
받고	-3008
▁결제	-3009
-1	-3010
▁동원	-3011
등급	-3012
▁거래를	-3013
경찰서는	-3014
▁빼	-3015
▁청주	-3016
▁음성	-3017
▁우리나라	-3018
통상	-3019
농협	-3020
▁시범	-3021
▁변화	-3022
갤럭	-3023
▁프리미엄	-3024
보가	-3025
의원	-3026
결을	-3027
▁가정	-3028
▁현실	-3029
tbc	-3030
▁끊	-3031
▁주차	-3032
▁타이틀	-3033
일로	-3034
으니	-3035
▁냉	-3036
▁높다	-3037
▁활용한	-3038
▁비가	-3039
▁가지	-3040
시켰다	-3041
▁순간	-3042
▁아름	-3043
▁특정	-3044
8%	-3045
▁대표가	-3046
셔츠	-3047
▁부모	-3048
ve	-3049
코스	-3050
▁안타	-3051
▁무엇	-3052
비가	-3053
개혁	-3054
센터에서	-3055
▁디자	-3056
▁목표로	-3057
▁챙	-3058
형을	-3059
공단	-3060
cm	-3061
▁끌어	-3062
자들을	-3063
▁계열	-3064
▁쌓	-3065
보다는	-3066
▁구성된	-3067
.0%	-3068
▁보수	-3069
▁위해서는	-3070
▁하이	-3071
▁곧	-3072
▁시청률	-3073
▁하며	-3074
▁조선	-3075
갤럭시	-3076
▁반드시	-3077
▁사이트	-3078
합니다	-3079
▁드러냈다	-3080
▁취임	-3081
▁맞춤형	-3082
▁임명	-3083
▁커피	-3084
재판	-3085
▁네이버	-3086
▁본회의	-3087
▁많다	-3088
▁사과	-3089
영업	-3090
▁트위	-3091
으로서	-3092
▁도움을	-3093
▁못하고	-3094
어로	-3095
▁다하겠다	-3096
가로	-3097
안은	-3098
▁선사	-3099
▁진입	-3100
▁더해	-3101
▁상황이다	-3102
티브	-3103
▁따뜻	-3104
▁진행했다	-3105
▁선보인다	-3106
▁강한	-3107
90	-3108
▁넓	-3109
▁성과를	-3110
적이고	-3111
88	-3112
▁바른	-3113
개선	-3114
▁컴백	-3115
▁속에서	-3116
▁열어	-3117
려고	-3118
드린다	-3119
▁거래되고	-3120
리한	-3121
▁파트	-3122
▁삼성전자	-3123
▁정도로	-3124
▁홀	-3125
▁완벽	-3126
▁존재	-3127
▁진행됐다	-3128
생을	-3129
지검	-3130
대구	-3131
운용	-3132
▁넥	-3133
▁지역의	-3134
생명	-3135
▁여론	-3136
▁연말	-3137
▁대규모	-3138
▁출연했다	-3139
▁강원도	-3140
kg	-3141
▁감소했다	-3142
▁자녀	-3143
▁설계	-3144
군이	-3145
▁라인	-3146
▁인기를	-3147
이런	-3148
▁빛	-3149
상담	-3150
▁반면	-3151
▁사상	-3152
▁재개	-3153
센터는	-3154
지구	-3155
▁완화	-3156
아시아	-3157
▁부진	-3158
공간	-3159
▁않도록	-3160
▁돋보	-3161
▁구간	-3162
▁역대	-3163
ac	-3164
▁시절	-3165
▁이탈	-3166
2000	-3167
▁실시간	-3168
▁결정했다	-3169
▁유튜브	-3170
▁배경	-3171
인터	-3172
개국	-3173
▁흑	-3174
▁얼마	-3175
명에게	-3176
2'	-3177
▁뮤직	-3178
▁지원한다	-3179
▁외부	-3180
하겠다고	-3181
▁총선	-3182
평균	-3183
▁휘	-3184
▁자기	-3185
▁거듭	-3186
동에	-3187
▁제공할	-3188
구청	-3189
▁안에	-3190
피언	-3191
▁감안	-3192
▁인물	-3193
▁입은	-3194
버스	-3195
액을	-3196
하라	-3197
▁mc	-3198
시티	-3199
▁보장	-3200
▁평가를	-3201
아는	-3202
심히	-3203
▁업무협	-3204
▁내가	-3205
비용	-3206
▁협약	-3207
▁외에도	-3208
▁축하	-3209
▁공직	-3210
▁2021	-3211
▁잘못	-3212
▁시선을	-3213
▁향해	-3214
▁사용할	-3215
▁문의	-3216
러한	-3217
▁떨어진	-3218
▁헬	-3219
▁상무	-3220
▁개막	-3221
놨다	-3222
배우	-3223
▁탐	-3224
▁순유	-3225
▁(	-3226
▁자율	-3227
▁신곡	-3228
35	-3229
▁상임	-3230
류를	-3231
▁바이오	-3232
▁일을	-3233
챔피언	-3234
▁영향으로	-3235
▁나눔	-3236
▁뉴스	-3237
▁실패	-3238
모를	-3239
ec	-3240
▁원내대표는	-3241
▁궁금	-3242
는지	-3243
45	-3244
▁아버	-3245
▁있기	-3246
▁공사	-3247
▁cj	-3248
▁몇	-3249
▁질문에	-3250
목을	-3251
▁폭발	-3252
▁운영하는	-3253
법원	-3254
▁가맹	-3255
사이트	-3256
었지만	-3257
▁가졌다	-3258
주년	-3259
▁정신	-3260
▁처벌	-3261
▁낸	-3262
▁운전	-3263
▁갈등	-3264
▁재무	-3265
▁우려가	-3266
▁바이러스	-3267
▁가치	-3268
▁작은	-3269
이번에	-3270
▁관내	-3271
▁기업의	-3272
▁공감	-3273
대와	-3274
▁도내	-3275
투표	-3276
이란	-3277
▁독립	-3278
▁가치를	-3279
감사	-3280
기고	-3281
여기에	-3282
▁홈페이지를	-3283
▁상호	-3284
▁협조	-3285
▁시리즈	-3286
▁그려졌다	-3287
설팅	-3288
젊은	-3289
▁취득	-3290
▁다소	-3291
▁상위	-3292
▁끈	-3293
▁땅	-3294
▁이는	-3295
▁실현	-3296
하다는	-3297
▁부사	-3298
상과	-3299
▁불과	-3300
▁90	-3301
▁조합	-3302
별로는	-3303
만을	-3304
▁국내외	-3305
▁합격	-3306
▁한번	-3307
▁뮤지	-3308
▁출범	-3309
억달러	-3310
▁곳이	-3311
북한	-3312
▁보안	-3313
▁jtbc	-3314
▁꼭	-3315
치료	-3316
▁고려해	-3317
리오	-3318
▁현장에서	-3319
10:00	-3320
as	-3321
▁끝에	-3322
팀은	-3323
▁지원하는	-3324
▁피부	-3325
▁책임을	-3326
▁명의	-3327
▁의해	-3328
▁트위터	-3329
협의	-3330
▁선도	-3331
▁반도체	-3332
▁효과를	-3333
업무	-3334
▁베이	-3335
▁고양	-3336
▁좋겠다	-3337
렀다	-3338
▁후반	-3339
스에서	-3340
▁경찰은	-3341
머지	-3342
▁소유	-3343
▁나와	-3344
▁유일	-3345
▁이란	-3346
▁분석했다	-3347
▁초반	-3348
▁것과	-3349
▁주가	-3350
▁조사됐다	-3351
▁모아	-3352
▁이행	-3353
▁예약	-3354
베이	-3355
▁수치	-3356
▁뇌	-3357
▁망	-3358
많은	-3359
▁20%	-3360
군의	-3361
따라	-3362
9%	-3363
▁명예	-3364
포를	-3365
▁개혁	-3366
▁#	-3367
▁동반	-3368
▁비대	-3369
에서의	-3370
▁활발	-3371
▁실질	-3372
해를	-3373
▁단속	-3374
후보	-3375
▁혈	-3376
▁관광객	-3377
점은	-3378
▁만난	-3379
▁생태	-3380
▁주최	-3381
▁걸그룹	-3382
액이	-3383
▁위협	-3384
▁정의	-3385
▁전면	-3386
한국당	-3387
▁인력	-3388
▁뜻을	-3389
▁하기	-3390
▁격리	-3391
▁섬	-3392
동의	-3393
건의	-3394
연맹	-3395
사실	-3396
▁관련한	-3397
39	-3398
하고자	-3399
▁부인	-3400
▁매치	-3401
▁상품을	-3402
▁관련된	-3403
▁전일대비	-3404
▁에이	-3405
▁2010	-3406
▁조기	-3407
▁메뉴	-3408
루션	-3409
▁고위	-3410
구역	-3411
▁형성	-3412
트럼프	-3413
▁합류	-3414
화학	-3415
▁집단	-3416
▁nh	-3417
▁특허	-3418
▁참여한	-3419
▁내다	-3420
▁총리는	-3421
▁체계	-3422
예산	-3423
▁뒷	-3424
▁빠른	-3425
100	-3426
▁추석	-3427
없는	-3428
속도로	-3429
씨에게	-3430
▁급등	-3431
▁사실이	-3432
▁48	-3433
전남	-3434
▁추첨	-3435
▁담긴	-3436
▁치료를	-3437
▁최고위원	-3438
해주	-3439
받을	-3440
▁감독이	-3441
▁의사	-3442
▁무료로	-3443
▁증거	-3444
조사를	-3445
투수	-3446
▁참여할	-3447
정부는	-3448
관련	-3449
▁합동	-3450
니터	-3451
▁환자	-3452
생산	-3453
제한	-3454
▁되어	-3455
▁코스피	-3456
▁150	-3457
▁30%	-3458
▁마련됐다	-3459
반도	-3460
참여	-3461
▁털어	-3462
▁코스닥	-3463
선은	-3464
▁동일	-3465
▁지원할	-3466
▁of	-3467
여성	-3468
▁봐	-3469
선의	-3470
▁만들기	-3471
리티	-3472
▁전에	-3473
▁저녁	-3474
▁영상을	-3475
▁심각	-3476
▁장학	-3477
▁소상공	-3478
▁상당의	-3479
시한	-3480
연구원	-3481
▁수사를	-3482
야구	-3483
▁개별	-3484
8000	-3485
il	-3486
▁확장	-3487
▁인하	-3488
▁마친	-3489
다음	-3490
▁신설	-3491
▁개최한다	-3492
▁만들었다	-3493
전이	-3494
했는데	-3495
지수	-3496
에너지	-3497
른다	-3498
▁골프	-3499
▁넘는	-3500
▁획득	-3501
중한	-3502
▁하다	-3503
▁특별한	-3504
▁억	-3505
▁짓	-3506
▁타고	-3507
▁가격은	-3508
▁유니	-3509
▁이와	-3510
▁관측	-3511
▁기울	-3512
스럽게	-3513
▁아무	-3514
키로	-3515
▁노인	-3516
주식	-3517
시청	-3518
▁100%	-3519
▁횡	-3520
▁레드	-3521
▁균	-3522
▁내렸다	-3523
▁평창	-3524
▁학습	-3525
▁높였다	-3526
▁엑	-3527
▁관계자	-3528
협의회	-3529
eo	-3530
▁나선다	-3531
▁에어	-3532
공사는	-3533
천원	-3534
심사	-3535
▁됐	-3536
▁공시했다	-3537
▁자원	-3538
▁엄마	-3539
▁현재까지	-3540
▁유입	-3541
▁거부	-3542
아직	-3543
▁앞에서	-3544
텔레콤	-3545
▁임상	-3546
년에는	-3547
▁매력	-3548
▁수수	-3549
의도	-3550
▁55	-3551
▁인식	-3552
▁연휴	-3553
▁말해	-3554
▁빠르게	-3555
▁가능성을	-3556
▁파트너	-3557
글로벌	-3558
▁아내	-3559
▁샤	-3560
▁멋	-3561
▁대학생	-3562
3000	-3563
총리	-3564
으면서	-3565
▁적극적인	-3566
분간	-3567
▁크리스	-3568
▁선박	-3569
▁운행	-3570
▁수여	-3571
화로	-3572
▁규정	-3573
▁지속적인	-3574
소비	-3575
▁상황이	-3576
▁실시한다	-3577
▁풀이	-3578
▁동해	-3579
▁배출	-3580
제공	-3581
▁글을	-3582
▁결승	-3583
전은	-3584
▁46	-3585
▁갖춘	-3586
제약	-3587
해외	-3588
나가	-3589
▁축구	-3590
영상	-3591
▁인권	-3592
화는	-3593
물이	-3594
▁투수	-3595
▁인프라	-3596
▁플레이	-3597
리어	-3598
▁불안	-3599
▁싱글	-3600
▁이웃	-3601
▁아이템	-3602
▁네트워크	-3603
▁행사는	-3604
▁폴	-3605
▁과정을	-3606
▁방송에서	-3607
예방	-3608
▁괴	-3609
히려	-3610
▁여야	-3611
9000	-3612
선이	-3613
기존	-3614
▁인공	-3615
▁언제	-3616
▁입주	-3617
▁멀	-3618
ig	-3619
36	-3620
시키는	-3621
▁운용	-3622
▁쏟	-3623
즈는	-3624
호를	-3625
▁없다는	-3626
▁줄었다	-3627
▁주인공	-3628
리로	-3629
▁65	-3630
당한	-3631
뷰티	-3632
거래일	-3633
':	-3634
시킨	-3635
▁얘기	-3636
▁실무	-3637
▁많아	-3638
황을	-3639
축제	-3640
티즌	-3641
▁만드는	-3642
▁원칙	-3643
▁도착	-3644
▁현금	-3645
▁체포	-3646
▁근거	-3647
▁류	-3648
호텔	-3649
▁호소	-3650
▁계획을	-3651
▁설정	-3652
99	-3653
자기	-3654
37	-3655
▁둘러	-3656
▁전개	-3657
cc	-3658
▁말씀	-3659
▁흘	-3660
본부는	-3661
검찰은	-3662
am	-3663
▁유도	-3664
센터를	-3665
▁승리를	-3666
▁미만	-3667
▁슈퍼	-3668
▁0.5	-3669
84	-3670
▁맞이	-3671
▁세월호	-3672
▁농협	-3673
뮤니	-3674
▁일일	-3675
▁시상식	-3676
재는	-3677
심의	-3678
▁어디	-3679
▁44	-3680
월드	-3681
▁47	-3682
▁차단	-3683
▁개편	-3684
지에서	-3685
▁사업은	-3686
전날	-3687
신한	-3688
여행	-3689
니는	-3690
▁불구하고	-3691
▁참여해	-3692
주간	-3693
사한	-3694
▁평가했다	-3695
▁산림	-3696
▁전장	-3697
▁경고	-3698
▁보유한	-3699
▁선두	-3700
6000	-3701
▁수밖에	-3702
▁제공하고	-3703
그동안	-3704
종을	-3705
▁예측	-3706
명한	-3707
▁콘서트	-3708
스포츠	-3709
▁바라	-3710
도와	-3711
▁전혀	-3712
▁비판했다	-3713
▁돈을	-3714
▁이제	-3715
▁욕	-3716
시킬	-3717
▁교육을	-3718
▁본다	-3719
들로	-3720
수록	-3721
▁매수	-3722
▁이끌어	-3723
홀에서	-3724
▁성남	-3725
▁충분히	-3726
▁400	-3727
▁융	-3728
향후	-3729
공연	-3730
▁지역에서	-3731
▁해서	-3732
▁흐름	-3733
분의	-3734
▁쉬	-3735
댓글	-3736
▁중국의	-3737
▁가을	-3738
▁나누	-3739
출을	-3740
▁적이	-3741
▁수주	-3742
▁불가	-3743
▁군수	-3744
소속	-3745
▁없다고	-3746
▁공항	-3747
고용	-3748
▁수준으로	-3749
▁프로모	-3750
▁기반으로	-3751
▁연락	-3752
나무	-3753
▁알아	-3754
▁열심히	-3755
▁선정됐다	-3756
▁시장의	-3757
▁is	-3758
▁고발	-3759
4000	-3760
라우드	-3761
▁맡아	-3762
▁지역에	-3763
투어	-3764
▁and	-3765
▁첨	-3766
▁새벽	-3767
형펀드	-3768
▁사장	-3769
하면서도	-3770
건축	-3771
▁건립	-3772
▁분류	-3773
▁시장에	-3774
▁매주	-3775
se	-3776
▁유의	-3777
▁본격적인	-3778
▁홈페이지에서	-3779
▁시각	-3780
▁49	-3781
▁걱정	-3782
▁살펴	-3783
▁동참	-3784
▁승인	-3785
▁되지	-3786
▁의결	-3787
▁칼	-3788
중공업	-3789
▁그녀	-3790
▁담아	-3791
▁수용	-3792
브리	-3793
▁남아	-3794
▁주주	-3795
▁노조	-3796
신고	-3797
▁역을	-3798
권의	-3799
▁젊은	-3800
▁국회의원	-3801
▁없을	-3802
받는	-3803
치지	-3804
처리	-3805
▁보이는	-3806
결국	-3807
▁쪽	-3808
▁적발	-3809
수익	-3810
▁나눠	-3811
▁직장	-3812
경을	-3813
▁공공기관	-3814
▁순매	-3815
축구	-3816
14:00	-3817
▁일으	-3818
▁냈다	-3819
▁폐쇄	-3820
▁케	-3821
어린	-3822
▁편성	-3823
▁국회에서	-3824
한다면	-3825
▁시장을	-3826
▁모니터	-3827
▁매입	-3828
국에	-3829
▁크다	-3830
▁기회가	-3831
개가	-3832
교육청은	-3833
▁)	-3834
▁어렵다	-3835
▁효과가	-3836
▁위기	-3837
▁연예	-3838
폭력	-3839
단에	-3840
시와	-3841
le	-3842
체계	-3843
▁장면	-3844
▁주고	-3845
뒀다	-3846
▁운영하고	-3847
▁축제	-3848
간다	-3849
▁화이트	-3850
▁다가	-3851
▁기능을	-3852
▁게시	-3853
▁이같은	-3854
당에서	-3855
▁오랜	-3856
았고	-3857
▁소녀	-3858
▁경기에서	-3859
▁본부	-3860
▁사실상	-3861
▁느끼	-3862
▁실시한다고	-3863
권에	-3864
▁챔피언	-3865
▁차원에서	-3866
주년을	-3867
소로	-3868
임금	-3869
▁가는	-3870
▁주의	-3871
▁대화	-3872
▁0.0	-3873
그리고	-3874
▁가동	-3875
▁이들	-3876
▁오르	-3877
준비	-3878
▁수가	-3879
▁'1	-3880
법에	-3881
▁일어	-3882
▁흡	-3883
▁붙잡	-3884
기기	-3885
보증	-3886
▁향상	-3887
바로	-3888
'.	-3889
신이	-3890
7000	-3891
▁아이디어	-3892
▁술	-3893
석을	-3894
▁행동	-3895
라인	-3896
▁경험을	-3897
▁앞으로도	-3898
았던	-3899
▁음원	-3900
▁아래	-3901
▁카페	-3902
차로	-3903
▁방지	-3904
▁경쟁력	-3905
가스	-3906
▁점에서	-3907
▁든	-3908
▁다이	-3909
▁선보일	-3910
▁위해서	-3911
▁나설	-3912
▁되면	-3913
▁상생	-3914
지며	-3915
▁조언	-3916
▁소폭	-3917
군에	-3918
▁계기로	-3919
하다고	-3920
음악	-3921
▁개설	-3922
▁뽐냈다	-3923
▁겪고	-3924
▁대해선	-3925
겠지만	-3926
▁이어질	-3927
▁측면	-3928
▁만남	-3929
▁아쉬	-3930
▁감소한	-3931
이지만	-3932
▁리더	-3933
터리	-3934
▁동의	-3935
▁폭행	-3936
▁정책을	-3937
▁셈	-3938
▁머물	-3939
▁사람들이	-3940
▁순으로	-3941
▁여부	-3942
▁찾는	-3943
▁잡아	-3944
권이	-3945
▁기회	-3946
파이	-3947
▁비즈	-3948
▁업종	-3949
▁후속	-3950
지난달	-3951
▁보조	-3952
▁중에	-3953
▁댓글	-3954
▁헤어	-3955
▁원유	-3956
▁우수한	-3957
나고	-3958
선에	-3959
▁북미	-3960
티스트	-3961
▁빠져	-3962
▁입국	-3963
▁캠페인	-3964
▁힐	-3965
려는	-3966
스플레이	-3967
▁지역사회	-3968
▁체육	-3969
원이다	-3970
▁인재	-3971
▁구청	-3972
~4	-3973
▁주력	-3974
들께	-3975
▁사건을	-3976
▁자치	-3977
과는	-3978
공헌	-3979
기록	-3980
▁기사	-3981
마켓	-3982
▁수요가	-3983
서가	-3984
▁밖에	-3985
▁차트	-3986
▁설명이다	-3987
권은	-3988
일부	-3989
▁어머니	-3990
te	-3991
미나	-3992
▁43	-3993
체인	-3994
▁직무	-3995
주얼	-3996
▁개최한다고	-3997
보통	-3998
▁리그	-3999
성은	-4000
▁짧	-4001
농업	-4002
47	-4003
▁활성화를	-4004
▁춘천	-4005
▁역량을	-4006
전거	-4007
화폐	-4008
로드	-4009
종목	-4010
지능	-4011
▁시작한	-4012
▁만나볼	-4013
▁센	-4014
▁매일	-4015
▁출동	-4016
연구소	-4017
스틱	-4018
▁깜	-4019
▁작용	-4020
우선	-4021
kt	-4022
▁등판	-4023
훼손	-4024
▁패키	-4025
▁고소	-4026
▁분야에서	-4027
경쟁	-4028
09	-4029
회의를	-4030
▁논란이	-4031
id	-4032
이로써	-4033
북도	-4034
▁아니냐	-4035
패를	-4036
절한	-4037
밴드	-4038
▁업무를	-4039
▁출입	-4040
함으로써	-4041
감염	-4042
우리는	-4043
▁비난	-4044
▁받지	-4045
▁장비	-4046
▁희생	-4047
▁판결	-4048
▁내다봤다	-4049
언더	-4050
▁자주	-4051
▁했다고	-4052
▁드러났다	-4053
트가	-4054
▁내에	-4055
인가	-4056
▁2009	-4057
▁변동	-4058
▁런	-4059
제에	-4060
▁상황에	-4061
정으로	-4062
어야	-4063
이제	-4064
ro	-4065
▁추진할	-4066
▁공개됐다	-4067
▁법인	-4068
▁자리에서	-4069
▁수준의	-4070
창업	-4071
▁구체적인	-4072
▁죄	-4073
기구	-4074
▁돌입	-4075
개로	-4076
비디오	-4077
▁태풍	-4078
▁맑	-4079
됐던	-4080
▁마련했다	-4081
▁자본	-4082
직을	-4083
정은	-4084
월에는	-4085
▁이들의	-4086
▁작가	-4087
추진	-4088
▁경쟁력을	-4089
▁네티즌	-4090
▁흔들	-4091
▁사람의	-4092
▁학부모	-4093
▁진행되는	-4094
▁놓고	-4095
▁테러	-4096
식으로	-4097
수산	-4098
▁클래	-4099
해도	-4100
▁강력한	-4101
▁후보가	-4102
국회	-4103
트와	-4104
▁있었던	-4105
▁사업에	-4106
▁수준을	-4107
▁거리두	-4108
▁많았다	-4109
재생	-4110
건이	-4111
▁진행한	-4112
탄소년	-4113
▁고백	-4114
▁촉구했다	-4115
위원회를	-4116
식은	-4117
▁그래	-4118
▁내고	-4119
시장은	-4120
▁맡았다	-4121
장기	-4122
▁빚	-4123
대문	-4124
대행	-4125
▁모았다	-4126
▁절차를	-4127
착순	-4128
▁답변	-4129
▁수목	-4130
▁블루	-4131
▁연방	-4132
명했다	-4133
55	-4134
▁지상	-4135
▁일환	-4136
▁더했다	-4137
려한	-4138
간의	-4139
▁당일	-4140
▁합리	-4141
▁바다	-4142
서비스를	-4143
면적	-4144
▁120	-4145
▁동료	-4146
담을	-4147
링을	-4148
▁코리아	-4149
만명	-4150
▁규모로	-4151
사이	-4152
▁이슈	-4153
▁진술	-4154
채권	-4155
▁멜	-4156
▁탑재	-4157
이던	-4158
▁했지만	-4159
포르	-4160
더불어	-4161
▁부상	-4162
▁놀라	-4163
▁병원으로	-4164
▁따뜻한	-4165
▁동부	-4166
바른	-4167
▁나올	-4168
▁가구	-4169
▁속에	-4170
방을	-4171
▁군사	-4172
▁때는	-4173
내며	-4174
문의	-4175
신의	-4176
프라인	-4177
▁사항은	-4178
▁아들	-4179
1000	-4180
▁선정된	-4181
▁절차	-4182
▁있어서	-4183
널드	-4184
▁매장	-4185
▁주가가	-4186
▁재미	-4187
▁들어가	-4188
뮤직	-4189
개인	-4190
라면	-4191
▁대만	-4192
▁참석해	-4193
▁참여하는	-4194
채널	-4195
호는	-4196
▁태양	-4197
87	-4198
▁발급	-4199
▁풀이된다	-4200
▁평소	-4201
▁밑	-4202
▁넘치는	-4203
.11	-4204
▁목소리를	-4205
▁객	-4206
89	-4207
방역	-4208
▁총괄	-4209
▁pc	-4210
▁국민의당	-4211
▁검색	-4212
='	-4213
▁안정적인	-4214
이용	-4215
도에서	-4216
▁입원	-4217
▁해제	-4218
클럽	-4219
-2	-4220
▁웨	-4221
33	-4222
▁환율은	-4223
▁언급했다	-4224
▁창원	-4225
씨에	-4226
향을	-4227
.◇	-4228
네시아	-4229
▁콘셉	-4230
▁연습	-4231
▁0.2	-4232
▁59	-4233
▁가량	-4234
▁명이	-4235
▁열었다	-4236
▁사는	-4237
▁진행한다고	-4238
▁빨리	-4239
에만	-4240
▁새로	-4241
▁의원의	-4242
▁혹	-4243
▁확대해	-4244
▁담겨	-4245
▁해도	-4246
▁메이크	-4247
▁소식을	-4248
백화점	-4249
수석	-4250
▁복합	-4251
ip	-4252
돼야	-4253
▁52	-4254
▁응시	-4255
▁협업	-4256
▁뿐만	-4257
질환	-4258
▁점차	-4259
실에	-4260
▁위안	-4261
▁교류	-4262
▁위로	-4263
트업	-4264
▁작업을	-4265
비아	-4266
▁옮겨	-4267
▁도쿄	-4268
언더파	-4269
▁출연한다	-4270
▁권고	-4271
▁면접	-4272
적이다	-4273
▁공개된	-4274
▁한층	-4275
팀이	-4276
▁2008	-4277
▁간편	-4278
역에서	-4279
▁인사를	-4280
▁컬렉	-4281
▁유엔	-4282
▁소식에	-4283
▁벨	-4284
▁흉	-4285
▁사라	-4286
kb	-4287
물질	-4288
▁기상	-4289
▁매체	-4290
▁심의	-4291
▁미디어	-4292
우고	-4293
▁하게	-4294
▁중간	-4295
▁즉시	-4296
▁벤	-4297
▁단순	-4298
pg	-4299
▁여의도	-4300
사례	-4301
▁뮤지컬	-4302
▁수준이다	-4303
진과	-4304
▁성공했다	-4305
▁확실	-4306
▁중심의	-4307
▁지금까지	-4308
사일	-4309
전국	-4310
▁라이브	-4311
▁전력	-4312
▁블록	-4313
▁대체로	-4314
▁샌	-4315
▁옆	-4316
▁시스템을	-4317
가에	-4318
무역	-4319
▁천안	-4320
fc	-4321
나다	-4322
▁북한의	-4323
▁벌금	-4324
▁참여했다	-4325
▁필수	-4326
▁야구	-4327
▁반복	-4328
우디	-4329
▁의혹을	-4330
재난	-4331
▁축소	-4332
▁성장을	-4333
▁무대	-4334
두산	-4335
▁삭	-4336
▁기록하며	-4337
▁제재	-4338
▁협력을	-4339
▁월화	-4340
정과	-4341
중이다	-4342
49	-4343
시대	-4344
▁들고	-4345
온이	-4346
▁캠페	-4347
공모	-4348
곳에	-4349
저는	-4350
ent	-4351
▁가득	-4352
스마트	-4353
▁nc	-4354
▁마이	-4355
▁강세를	-4356
▁정당	-4357
▁주어	-4358
▁들었다	-4359
▁탄핵	-4360
▁고급	-4361
▁이용한	-4362
시안	-4363
.▶	-4364
▁혼자	-4365
매를	-4366
▁허위	-4367
▁월드컵	-4368
월말	-4369
▁이들은	-4370
년이	-4371
▁종사	-4372
▁편안	-4373
울산	-4374
▁오히려	-4375
▁진행될	-4376
▁맡은	-4377
--	-4378
▁때까지	-4379
▁외에	-4380
▁56	-4381
▁보유하고	-4382
▁만기	-4383
▁권한	-4384
▁영업이익은	-4385
세에	-4386
▁고창	-4387
▁감독의	-4388
▁컨설팅	-4389
▁검증	-4390
▁하면서	-4391
함에	-4392
▁선착순	-4393
▁말까지	-4394
▁선출	-4395
도서관	-4396
▁‘201	-4397
▁영입	-4398
.12	-4399
드리	-4400
.*	-4401
▁비밀	-4402
▁모습으로	-4403
마지막	-4404
발표	-4405
▁홈런을	-4406
추고	-4407
▁전달했다	-4408
▁남부	-4409
▁들여	-4410
▁나가겠다	-4411
▁나머지	-4412
▁상향	-4413
주요	-4414
디션	-4415
▁지수는	-4416
장비	-4417
▁보급	-4418
▁댄	-4419
▁격려	-4420
▁농촌	-4421
▁대폭	-4422
▁여파	-4423
홈런	-4424
인력	-4425
▁메르	-4426
기업의	-4427
▁커뮤니	-4428
▁아티스트	-4429
드로	-4430
▁브라질	-4431
▁초기	-4432
▁깊은	-4433
▁반발	-4434
▁주로	-4435
▁했던	-4436
▁부담을	-4437
▁제가	-4438
▁경찰이	-4439
친구	-4440
▁사회공헌	-4441
▁kia	-4442
▁기대하고	-4443
▁힘입	-4444
▁중구	-4445
.30	-4446
▁여수	-4447
▁갤럭시	-4448
▁방송된다	-4449
다시	-4450
▁안전한	-4451
건에	-4452
▁센터	-4453
▁임금	-4454
종의	-4455
▁전파	-4456
▁급락	-4457
▁받게	-4458
▁듣고	-4459
▁못하는	-4460
여명의	-4461
▁메시지를	-4462
▁대통령과	-4463
▁만날	-4464
청소년	-4465
▁지연	-4466
▁한미	-4467
▁손을	-4468
거진	-4469
스테	-4470
장애인	-4471
44	-4472
▁기대를	-4473
▁th	-4474
소프트	-4475
▁보완	-4476
▁브리	-4477
▁정상회담	-4478
카데	-4479
세트	-4480
▁기업이	-4481
▁질병	-4482
▁제고	-4483
▁준수	-4484
▁상승세를	-4485
타로	-4486
▁선제	-4487
어도	-4488
령을	-4489
▁스페	-4490
▁버스	-4491
▁쏟아	-4492
사람	-4493
▁모색	-4494
▁이송	-4495
.<	-4496
드가	-4497
확실	-4498
▁구현	-4499
▁일정을	-4500
▁최고기온은	-4501
▁노후	-4502
▁수술	-4503
▁어울	-4504
▁담겼다	-4505
▁통보	-4506
▁뿌	-4507
▁인터뷰에서	-4508
재산	-4509
▁쌍	-4510
▁절반	-4511
77	-4512
▁출석	-4513
▁수상했다	-4514
▁거의	-4515
회와	-4516
기능	-4517
▁포스코	-4518
수원	-4519
▁하는데	-4520
~5	-4521
▁가상	-4522
자세한	-4523
등학생	-4524
▁덜	-4525
▁써	-4526
.15	-4527
▁당초	-4528
▁없고	-4529
▁전망된다	-4530
처를	-4531
▁검찰은	-4532
유로	-4533
▁맨	-4534
▁구속영	-4535
▁누리꾼	-4536
08	-4537
▁달아	-4538
▁알렸다	-4539
▁토대로	-4540
▁훈	-4541
증권은	-4542
▁pd	-4543
▁음주	-4544
▁미리	-4545
▁우리가	-4546
▁엠	-4547
이밖에	-4548
▁있지	-4549
공정	-4550
▁1%	-4551
▁실시한	-4552
▁투자를	-4553
▁순천	-4554
제의	-4555
미디어	-4556
카이	-4557
▁널	-4558
▁급증	-4559
노조	-4560
정상	-4561
▁선호	-4562
▁gs	-4563
▁역임	-4564
실이	-4565
▁추진하고	-4566
▁쌀	-4567
세는	-4568
▁함께하는	-4569
하려는	-4570
췄다	-4571
▁신청을	-4572
▁사이에	-4573
▁실내	-4574
▁호주	-4575
▁왔	-4576
▁st	-4577
프리카	-4578
▁제거	-4579
론을	-4580
▁한국의	-4581
기금	-4582
스트로	-4583
철도	-4584
▁제약	-4585
억원에	-4586
▁가격이	-4587
▁가능성도	-4588
조치	-4589
유가	-4590
판을	-4591
▁입건	-4592
▁자신을	-4593
만원이다	-4594
능력	-4595
▁초과	-4596
주기	-4597
▁범행	-4598
수수색	-4599
▁앤	-4600
스티벌	-4601
▁활용할	-4602
▁민원	-4603
시장의	-4604
el	-4605
에이	-4606
85	-4607
▁선배	-4608
▁공연을	-4609
86	-4610
▁훔	-4611
정당	-4612
차량	-4613
천군	-4614
▁앞장	-4615
▁섹	-4616
▁메이저	-4617
기압	-4618
▁이탈리아	-4619
▁용인	-4620
▁저렴	-4621
▁돋보이는	-4622
▁기념해	-4623
▁부품	-4624
▁응급	-4625
▁예상했다	-4626
▁힘입어	-4627
▁결정을	-4628
▁신입	-4629
박물	-4630
▁착수	-4631
▁낮아	-4632
▁내용이	-4633
▁앞둔	-4634
▁역량	-4635
▁올린	-4636
▁남은	-4637
▁읽	-4638
▁공약	-4639
▁회장이	-4640
▁공무	-4641
▁사고가	-4642
▁자유한국당	-4643
▁옷	-4644
모든	-4645
경찰에	-4646
▁결과가	-4647
▁압박	-4648
ap	-4649
선물	-4650
▁예능프로그램	-4651
인도	-4652
여자	-4653
▁소프트	-4654
▁유지했다	-4655
골을	-4656
▁발생할	-4657
▁걷	-4658
리핀	-4659
▁000	-4660
▁선별	-4661
▁실종	-4662
되기	-4663
인들이	-4664
므로	-4665
▁운영한다	-4666
▁오래	-4667
▁채택	-4668
▁타이어	-4669
46	-4670
▁다운	-4671
▁밟	-4672
박스	-4673
▁해석	-4674
은행이	-4675
포구	-4676
▁배달	-4677
▁로맨	-4678
▁향한	-4679
계가	-4680
평화	-4681
▁자가격	-4682
아침	-4683
▁것이란	-4684
▁금메달	-4685
중인	-4686
▁초대	-4687
▁세부	-4688
▁앞에	-4689
▁분명	-4690
튜디오	-4691
폰을	-4692
행복	-4693
계에	-4694
▁보기	-4695
▁강화를	-4696
▁합병	-4697
▁그렇게	-4698
▁타석	-4699
학습	-4700
▁박스	-4701
▁화장품	-4702
▁증정한다	-4703
▁검찰에	-4704
▁저소득	-4705
▁무대에	-4706
▁앉	-4707
▁명절	-4708
▁준공	-4709
기념	-4710
▁내에서	-4711
담당	-4712
▁아이돌	-4713
▁유출	-4714
유럽	-4715
▁봤다	-4716
▁내용의	-4717
▁꼬	-4718
.14	-4719
▁펜	-4720
▁운항	-4721
▁인생	-4722
외국	-4723
진의	-4724
케이션	-4725
▁투어	-4726
▁다르	-4727
▁eu	-4728
기상청은	-4729
▁57	-4730
▁물러	-4731
▁강릉	-4732
업에	-4733
▁특징이다	-4734
▁원활	-4735
▁휴대	-4736
텍사	-4737
▁매출액	-4738
만이	-4739
제작	-4740
▁42	-4741
▁가까운	-4742
▁배당	-4743
설을	-4744
소와	-4745
▁입증	-4746
▁탑승	-4747
▁그림	-4748
▁넘겨	-4749
▁이러한	-4750
si	-4751
일의	-4752
▁뭐	-4753
▁넥센	-4754
책을	-4755
차이즈	-4756
▁정체	-4757
▁모르	-4758
카데미	-4759
▁노하우	-4760
▁행복한	-4761
▁내달	-4762
시에서	-4763
▁영어	-4764
그룹은	-4765
!'	-4766
▁매니	-4767
레이드	-4768
▁경기에	-4769
단과	-4770
▁수비	-4771
쁘다	-4772
▁헌법	-4773
트의	-4774
됨에	-4775
경남	-4776
망을	-4777
▁발전을	-4778
▁협상	-4779
대통령	-4780
ay	-4781
▁·	-4782
▁저지	-4783
▁개방	-4784
일반	-4785
나갈	-4786
▁가로	-4787
식에	-4788
운전	-4789
▁끈다	-4790
위원회가	-4791
▁느낄	-4792
한테	-4793
▁아름다운	-4794
▁고객에게	-4795
▁빅데이터	-4796
▁쉽지	-4797
시키고	-4798
▁압수수색	-4799
▁re	-4800
용품	-4801
▁119	-4802
▁인구	-4803
▁일상	-4804
서와	-4805
인당	-4806
▁회계	-4807
수요	-4808
현은	-4809
▁실시했다	-4810
자료	-4811
▁가능하며	-4812
▁사기	-4813
▁결과에	-4814
호가	-4815
▁대우	-4816
▁건조	-4817
그래서	-4818
▁지원하고	-4819
▁읍	-4820
학년	-4821
▁새정치	-4822
▁끝난	-4823
▁서류	-4824
문에	-4825
▁쓴	-4826
▁청약	-4827
▁배럴	-4828
공장	-4829
▁얼마나	-4830
직한	-4831
▁의지를	-4832
if	-4833
타임	-4834
중소	-4835
▁조례	-4836
▁높이고	-4837
까지는	-4838
조원	-4839
랜차이즈	-4840
▁시장이	-4841
▁ceo	-4842
세종	-4843
▁어린이집	-4844
▁바뀌	-4845
지게	-4846
가포르	-4847
▁꺼	-4848
▁낼	-4849
▁긴장	-4850
통을	-4851
▁최저기온은	-4852
가격은	-4853
▁금액	-4854
▁광역	-4855
▁그러나	-4856
▁불구속	-4857
▁멘	-4858
▁힘든	-4859
▁행정부	-4860
본부장은	-4861
.”	-4862
▁룩	-4863
▁떠나	-4864
▁발휘	-4865
겠습니다	-4866
인사	-4867
드러	-4868
▁팬들의	-4869
▁41	-4870
기한	-4871
▁공장	-4872
▁영하	-4873
▁일시	-4874
▁남녀	-4875
주주	-4876
인들의	-4877
▁서울대	-4878
▁제일	-4879
평을	-4880
산을	-4881
▁물류	-4882
토론	-4883
▁최적	-4884
▁요금	-4885
▁테마	-4886
▁협약을	-4887
▁문을	-4888
▁것처럼	-4889
▁의한	-4890
▁아나	-4891
사용	-4892
▁패턴	-4893
▁건강한	-4894
▁느껴	-4895
이라도	-4896
경찰청	-4897
▁피해가	-4898
▁높이	-4899
▁법안	-4900
▁유로	-4901
민의	-4902
위원장은	-4903
연은	-4904
▁높게	-4905
시코	-4906
건은	-4907
▁풍부	-4908
▁실적을	-4909
▁변호사	-4910
다면	-4911
▁ip	-4912
▁전세계	-4913
▁신제품	-4914
책임	-4915
대응	-4916
▁사법	-4917
위에서	-4918
▁셈이다	-4919
▁적시	-4920
▁계기가	-4921
전체	-4922
▁장르	-4923
▁체결했다	-4924
기지	-4925
▁사퇴	-4926
▁분야의	-4927
▁잊	-4928
▁의뢰	-4929
▁중부	-4930
▁현대차	-4931
65	-4932
전문가	-4933
푸드	-4934
근로	-4935
캠프	-4936
▁파워	-4937
▁사회복지	-4938
이미	-4939
▁펼쳤다	-4940
▁체결했다고	-4941
이들	-4942
38	-4943
▁콘텐츠를	-4944
▁예정인	-4945
▁한반도	-4946
▁종로	-4947
▁법적	-4948
이사	-4949
곳에서	-4950
아동	-4951
소의	-4952
여개	-4953
▁기여할	-4954
뉴스	-4955
▁물었다	-4956
▁톱	-4957
▁이번에	-4958
▁알려진	-4959
▁물결	-4960
▁매출이	-4961
▁달하는	-4962
고는	-4963
자치단체	-4964
▁보상	-4965
▁한해	-4966
수와	-4967
▁가슴	-4968
▁수급	-4969
▁정식	-4970
▁자금이	-4971
▁이유를	-4972
▁정착	-4973
▁피해자	-4974
▁모으	-4975
관과	-4976
▁진행하는	-4977
▁강하게	-4978
스팅	-4979
경은	-4980
▁확충	-4981
▁깔	-4982
현장	-4983
▁줄어들	-4984
▁편리	-4985
▁판매한다	-4986
고가	-4987
문은	-4988
▁기록하고	-4989
▁표준	-4990
▁제휴	-4991
▁법정	-4992
오프	-4993
수준	-4994
▁조달	-4995
저축	-4996
▁쏠	-4997
복을	-4998
에셋	-4999
유통	-5000
▁구성됐다	-5001
▁회의를	-5002
▁인도네시아	-5003
▁칭	-5004
메리	-5005
▁75	-5006
▁않으면	-5007
▁떨어졌다	-5008
▁요청했다	-5009
▁전쟁	-5010
▁부총	-5011
공무원	-5012
국민의	-5013
▁통제	-5014
▁구글	-5015
란드	-5016
▁이래	-5017
▁김포	-5018
부처	-5019
▁단일	-5020
▁며	-5021
포럼	-5022
▁발생해	-5023
▁비슷한	-5024
상태	-5025
34	-5026
▁적립	-5027
▁동물	-5028
▁비중이	-5029
곳을	-5030
▁받아들	-5031
▁도와	-5032
▁국토교통	-5033
▁매매	-5034
▁신인	-5035
▁아울러	-5036
력으로	-5037
▁거론	-5038
▁징계	-5039
▁참고	-5040
▁자료를	-5041
▁스타트업	-5042
▁제주도	-5043
▁스크	-5044
회의에서	-5045
▁반등	-5046
▁산불	-5047
▁대상은	-5048
▁연령	-5049
>.	-5050
달러를	-5051
계약을	-5052
▁뜨거운	-5053
인증	-5054
름이	-5055
▁변화를	-5056
▁의미를	-5057
▁뒤를	-5058
측은	-5059
▁제품은	-5060
외에도	-5061
▁전기차	-5062
▁적합	-5063
▁인공지능	-5064
▁54	-5065
▁강제	-5066
lo	-5067
조직	-5068
▁체크	-5069
▁비즈니스	-5070
이브	-5071
▁인용	-5072
▁클럽	-5073
▁이상을	-5074
트에	-5075
▁우승을	-5076
▁인명	-5077
▁컬렉션	-5078
▁입찰	-5079
▁차질	-5080
▁마치고	-5081
▁품목	-5082
▁쏘	-5083
서로	-5084
▁법무부	-5085
▁등급	-5086
ls	-5087
포먼	-5088
▁내외	-5089
인터넷	-5090
▁업무협약을	-5091
▁잠실	-5092
▁분위기	-5093
해진	-5094
대변	-5095
..<	-5096
전기	-5097
년대	-5098
▁했고	-5099
▁연기를	-5100
▁판단했다	-5101
▁서부	-5102
간담	-5103
▁뮤직비디오	-5104
▁일환으로	-5105
▁거주하는	-5106
▁차기	-5107
함이	-5108
▁돌려	-5109
어린이	-5110
문이	-5111
▁이른	-5112
▁도널드	-5113
▁0.1	-5114
조를	-5115
▁임원	-5116
▁불확실	-5117
▁올려	-5118
▁납부	-5119
▁개그	-5120
였고	-5121
주차	-5122
이라면	-5123
▁벗어나	-5124
▁시작된	-5125
▁초등학교	-5126
너무	-5127
▁말고	-5128
당첨	-5129
▁화성	-5130
기간은	-5131
국립	-5132
▁심리	-5133
계올림픽	-5134
▁기자회견을	-5135
▁일자	-5136
결제	-5137
▁바꾸	-5138
▁부장	-5139
▁공천	-5140
나이	-5141
나눔	-5142
▁강화하고	-5143
▁월화드라마	-5144
▁파견	-5145
▁점유	-5146
▁개선을	-5147
▁자회사	-5148
시설을	-5149
문학	-5150
히는	-5151
년의	-5152
음에도	-5153
▁비대면	-5154
재가	-5155
▁의장	-5156
▁작품을	-5157
ad	-5158
이면	-5159
사업에	-5160
찬가지	-5161
▁같아	-5162
▁소환	-5163
▁안심	-5164
합의	-5165
시리즈	-5166
▁주재	-5167
▁리스크	-5168
▁생각을	-5169
ur	-5170
▁미술	-5171
▁추억	-5172
마이	-5173
설명	-5174
▁전원	-5175
▁현안	-5176
멕시코	-5177
▁털어놨다	-5178
▁창의	-5179
▁종목은	-5180
자유	-5181
랭킹	-5182
▁열애	-5183
▁깜짝	-5184
▁호흡을	-5185
▁아웃	-5186
강원	-5187
▁강남구	-5188
▁모두가	-5189
▁모양	-5190
호선	-5191
공급	-5192
▁신경	-5193
인에	-5194
▁발효	-5195
▁나오는	-5196
▁개발한	-5197
▁주가는	-5198
▁모은	-5199
▁탄생	-5200
▁솔루션	-5201
▁교육감	-5202
▁철저히	-5203
▁기대감을	-5204
▁무선	-5205
▁절감	-5206
▁5%	-5207
오피스	-5208
▁600	-5209
▁내리	-5210
▁소외	-5211
▁불가능	-5212
▁지표	-5213
시로	-5214
▁사고로	-5215
▁탁	-5216
▁성적	-5217
▁진짜	-5218
▁뛰어난	-5219
대화	-5220
회관	-5221
님이	-5222
석은	-5223
▁재배	-5224
제와	-5225
회계	-5226
진으로	-5227
골프	-5228
▁방송을	-5229
유플러스	-5230
od	-5231
인권	-5232
▁지난주	-5233
▁'3	-5234
▁방탄소년	-5235
▁특유의	-5236
영은	-5237
전한	-5238
▁즉각	-5239
행위	-5240
▁대북	-5241
▁베스트	-5242
브랜드	-5243
▁래	-5244
▁작곡	-5245
▁타이틀곡	-5246
.18	-5247
66	-5248
▁듀	-5249
▁결합	-5250
fp	-5251
교육을	-5252
▁노출	-5253
▁현장에	-5254
-3	-5255
▁교사	-5256
▁화보를	-5257
▁현황	-5258
보면	-5259
중심	-5260
▁보일	-5261
레이션	-5262
▁여러분	-5263
▁출연한	-5264
▁적은	-5265
▁한정	-5266
기순	-5267
▁사무총	-5268
▁하나로	-5269
만원에	-5270
시쯤	-5271
▁충청	-5272
▁x	-5273
▁53	-5274
의견	-5275
▁클라우드	-5276
▁스페셜	-5277
▁라디오	-5278
▁성능	-5279
▁숲	-5280
▁확대를	-5281
▁실시하고	-5282
전북	-5283
▁공판	-5284
▁되길	-5285
▁대책을	-5286
▁키움	-5287
▁기록을	-5288
▁평생	-5289
▁예보	-5290
▁sm	-5291
▁의미가	-5292
▁cc	-5293
▁남성이	-5294
▁대기업	-5295
마크	-5296
슈퍼	-5297
▁자택	-5298
여야	-5299
▁올리	-5300
▁삶을	-5301
▁회장의	-5302
어서	-5303
▁투명	-5304
전환	-5305
진료	-5306
그런데	-5307
점과	-5308
처는	-5309
청년	-5310
.25	-5311
▁외환	-5312
▁석유	-5313
은행의	-5314
성의	-5315
▁치러	-5316
위원회의	-5317
엑스	-5318
경기에	-5319
▁대표의	-5320
▁산하	-5321
▁목포	-5322
검사를	-5323
▁주목된다	-5324
▁특검	-5325
▁김모	-5326
pc	-5327
심이	-5328
▁있다면	-5329
▁가까이	-5330
▁마찬가지	-5331
▁조작	-5332
▁본인	-5333
▁서초	-5334
.200	-5335
▁이뤄졌다	-5336
▁직업	-5337
▁준다	-5338
▁생각이	-5339
스탄	-5340
~6	-5341
됐지만	-5342
▁투입해	-5343
수에	-5344
모집	-5345
.13	-5346
▁보니	-5347
▁숨진	-5348
▁목적으로	-5349
▁다만	-5350
▁제조업	-5351
▁있습니다	-5352
▁현장을	-5353
▁이뤄질	-5354
▁멈	-5355
퓨터	-5356
▁완전히	-5357
▁2007	-5358
시께	-5359
스키	-5360
▁흥행	-5361
사업은	-5362
▁점이	-5363
분양	-5364
▁소개했다	-5365
▁일제	-5366
었는데	-5367
▁맞춘	-5368
▁발령	-5369
▁자극	-5370
▁관계를	-5371
im	-5372
실적	-5373
방향	-5374
▁퍼포먼	-5375
▁그러면서	-5376
▁대처	-5377
혁명	-5378
▁남해	-5379
▁1500	-5380
▁상대적으로	-5381
▁재활	-5382
48	-5383
▁으로	-5384
▁활동에	-5385
▁맡고	-5386
▁치열	-5387
▁유동	-5388
▁재킷	-5389
▁이모	-5390
os	-5391
▁다채	-5392
▁선보인	-5393
59	-5394
실은	-5395
졌고	-5396
▁분리	-5397
▁소상공인	-5398
▁연다	-5399
▁포기	-5400
▁섭	-5401
부로	-5402
▁불리는	-5403
▁승객	-5404
tf	-5405
▁나는	-5406
▁뷰티	-5407
▁공략	-5408
▁서해	-5409
너스	-5410
▁직전	-5411
▁67	-5412
▁수정	-5413
올해는	-5414
배를	-5415
동구	-5416
▁팝	-5417
▁자전거	-5418
▁화려한	-5419
식과	-5420
▁틀	-5421
▁거짓	-5422
▁시기	-5423
▁장의	-5424
▁팀이	-5425
▁쾌	-5426
.[	-5427
르신	-5428
▁수소	-5429
관에	-5430
▁정치적	-5431
▁작년	-5432
전시	-5433
▁대법	-5434
.16	-5435
경기도	-5436
▁주간	-5437
드림	-5438
▁접속	-5439
유는	-5440
분부터	-5441
▁캐나다	-5442
▁계좌	-5443
▁안전을	-5444
ts	-5445
▁수록	-5446
▁브리핑	-5447
▁입장이다	-5448
▁넘게	-5449
▁농가	-5450
▁비행	-5451
▁펼친	-5452
▁요구했다	-5453
▁확대할	-5454
▁영광	-5455
▁캠프	-5456
▁화학	-5457
▁su	-5458
▁충족	-5459
▁공동으로	-5460
▁맞은	-5461
치며	-5462
법상	-5463
▁추진해	-5464
▁카메라를	-5465
란히	-5466
▁악화	-5467
▁연구개발	-5468
▁호남	-5469
▁자사	-5470
▁벽	-5471
산시	-5472
▁정례	-5473
회로	-5474
▁했는데	-5475
차전	-5476
ir	-5477
▁핀	-5478
▁보관	-5479
응답	-5480
희망	-5481
▁66	-5482
▁병행	-5483
▁개최했다	-5484
▁수색	-5485
▁출연을	-5486
팀을	-5487
▁태국	-5488
▁참여를	-5489
▁사용하는	-5490
▁교환	-5491
▁연애	-5492
지면	-5493
대상은	-5494
▁전담	-5495
째를	-5496
전형	-5497
▁보냈다	-5498
▁남겼다	-5499
▁신분	-5500
▁줄어든	-5501
▁수목드라마	-5502
▁이어졌다	-5503
물은	-5504
위안	-5505
천시	-5506
청이	-5507
함께	-5508
▁출산	-5509
석이	-5510
▁유기	-5511
▁방문한	-5512
▁정리	-5513
▁사로잡았다	-5514
▁건의	-5515
▁접한	-5516
▁원장은	-5517
인트를	-5518
▁모여	-5519
▁경우가	-5520
▁조사하고	-5521
최고	-5522
▁아나운	-5523
▁수영	-5524
▁의사를	-5525
자본	-5526
미세먼지	-5527
▁자문	-5528
▁정읍	-5529
▁잡았다	-5530
로그	-5531
▁지하철	-5532
ta	-5533
서의	-5534
처분	-5535
▁이사회	-5536
국토	-5537
대우	-5538
▁구매할	-5539
▁발생하는	-5540
중에	-5541
▁키워	-5542
▁트로	-5543
.17	-5544
▁안보	-5545
▁강의	-5546
▁결의	-5547
▁공시	-5548
▁꺾	-5549
▁차별화된	-5550
▁이혼	-5551
안보	-5552
▁운영을	-5553
놀이	-5554
▁대비해	-5555
▁고객을	-5556
유예	-5557
▁규모는	-5558
실장	-5559
사항을	-5560
▁습	-5561
낸다	-5562
임대	-5563
렬한	-5564
▁최신	-5565
▁앞선	-5566
수출	-5567
유치	-5568
편의	-5569
심으로	-5570
량의	-5571
▁노선	-5572
▁못해	-5573
▁감각	-5574
외교	-5575
▁마이크	-5576
▁밥	-5577
카페	-5578
▁나타나	-5579
▁개인정보	-5580
▁손해	-5581
▁찍은	-5582
▁거뒀다	-5583
▁처음이다	-5584
어는	-5585
▁이어가고	-5586
▁양국	-5587
이었던	-5588
▁테스트	-5589
▁상징	-5590
금액	-5591
▁시가	-5592
▁제시했다	-5593
▁항상	-5594
ce	-5595
굉장	-5596
▁절대	-5597
어스	-5598
▁시는	-5599
항공은	-5600
▁전무	-5601
보드	-5602
▁대리	-5603
▁전년동	-5604
▁이중	-5605
주행	-5606
▁고객이	-5607
▁전년대비	-5608
회장	-5609
▁삼성전	-5610
▁세트	-5611
▁스피	-5612
타점	-5613
발을	-5614
호에	-5615
▁분노	-5616
▁집에	-5617
관의	-5618
▁굳	-5619
▁국채	-5620
▁상한	-5621
남부	-5622
▁발견됐다	-5623
버그	-5624
비와	-5625
참가	-5626
▁실행	-5627
▁티켓	-5628
협회는	-5629
▁서울중앙	-5630
미술	-5631
즈가	-5632
희는	-5633
▁예산을	-5634
▁간의	-5635
연의	-5636
▁올랐	-5637
▁입법	-5638
▁'2	-5639
▁폐지	-5640
▁목적	-5641
▁발사	-5642
▁영동	-5643
시장이	-5644
▁점도	-5645
▁경우에는	-5646
개월간	-5647
오후	-5648
▁허가	-5649
금융투자	-5650
위와	-5651
▁'4	-5652
▁의장은	-5653
리트	-5654
▁싱가포르	-5655
료는	-5656
▁2%	-5657
▁취약계층	-5658
▁플라	-5659
▁보건복지	-5660
▁적용해	-5661
트코	-5662
▁말이	-5663
▁입학	-5664
▁진화	-5665
▁고령	-5666
▁모습이다	-5667
주와	-5668
▁시대	-5669
▁통계	-5670
▁신고를	-5671
▁구단	-5672
▁살해	-5673
▁후보자	-5674
ng	-5675
▁장식	-5676
▁재판에	-5677
내기	-5678
▁소요	-5679
감한	-5680
▁현행	-5681
경기에서	-5682
▁국가대표	-5683
▁인간	-5684
▁명확	-5685
▁환율	-5686
▁필리핀	-5687
▁굴	-5688
▁그쳤다	-5689
▁몽	-5690
~20	-5691
▁70%	-5692
▁위탁	-5693
블랙	-5694
▁항소	-5695
▁우리의	-5696
▁지휘	-5697
▁불가피	-5698
입을	-5699
▁단기	-5700
▁출국	-5701
▁이루어	-5702
면에	-5703
▁수렴	-5704
▁지수	-5705
즈의	-5706
공공	-5707
▁4000	-5708
해달라	-5709
▁촬영을	-5710
▁북부	-5711
▁종영	-5712
th	-5713
아트	-5714
▁충돌	-5715
▁풀어	-5716
이라면서	-5717
성군	-5718
▁가요	-5719
▁인지	-5720
▁청문	-5721
▁본격적으로	-5722
리바	-5723
▁상환	-5724
의약품	-5725
▁동남	-5726
▁훼손	-5727
동이	-5728
▁40%	-5729
었다고	-5730
▁유지하고	-5731
op	-5732
▁이어갔다	-5733
▁각오	-5734
▁51	-5735
▁별도의	-5736
▁총리	-5737
▁포항	-5738
mc	-5739
효과	-5740
▁사람을	-5741
좋은	-5742
▁용산	-5743
▁끌고	-5744
지표	-5745
부동산	-5746
▁기관은	-5747
▁기자들과	-5748
락을	-5749
▁비서	-5750
▁위촉	-5751
이어서	-5752
▁환경을	-5753
▁차량을	-5754
협약	-5755
▁눈에	-5756
텍사스	-5757
축산	-5758
▁고객의	-5759
▁0.3	-5760
▁거리두기	-5761
미는	-5762
역에	-5763
스케어	-5764
기반	-5765
▁선수들이	-5766
▁세련	-5767
내년	-5768
▁커플	-5769
▁경기가	-5770
시장에	-5771
▁티저	-5772
75	-5773
▁론	-5774
▁수강	-5775
▁숨졌다	-5776
▁알려져	-5777
심은	-5778
▁삶의	-5779
▁워크	-5780
▁신청할	-5781
민주연합	-5782
이의	-5783
▁64	-5784
유를	-5785
▁철도	-5786
▁경제적	-5787
▁만들고	-5788
▁99	-5789
▁준비했다	-5790
▁묘	-5791
ha	-5792
▁진정	-5793
▁ib	-5794
▁그렇	-5795
oc	-5796
▁금융투자	-5797
▁긍정적인	-5798
자책	-5799
▁매출액은	-5800
▁관세	-5801
▁전투	-5802
▁개발을	-5803
▁수익을	-5804
▁다녀	-5805
퍼런	-5806
▁찬성	-5807
▁이하의	-5808
▁시내	-5809
▁58	-5810
▁실업	-5811
11:00	-5812
▁보증	-5813
▁스테	-5814
집을	-5815
▁대화를	-5816
▁고등학교	-5817
▁추진한다	-5818
▁후보를	-5819
동물	-5820
▁특성	-5821
스트는	-5822
▁교통사고	-5823
려면	-5824
ew	-5825
전의	-5826
▁터키	-5827
로스	-5828
오고	-5829
▁q	-5830
우스	-5831
▁cctv	-5832
69	-5833
3'	-5834
▁감정	-5835
ver	-5836
콘텐츠	-5837
▁백악	-5838
▁자가격리	-5839
▁커뮤니티	-5840
에스	-5841
▁69	-5842
체가	-5843
▁담았다	-5844
자들	-5845
매출	-5846
▁자제	-5847
79	-5848
르기	-5849
▁영양	-5850
300	-5851
▁선보이는	-5852
전과	-5853
▁관객을	-5854
▁호응	-5855
▁볼넷	-5856
▁기소된	-5857
▁형태로	-5858
추가	-5859
▁다수의	-5860
▁부분이	-5861
▁기획재	-5862
태프	-5863
▁다수	-5864
▁시리아	-5865
▁선생	-5866
주에	-5867
▁지사는	-5868
평양	-5869
▁미래를	-5870
▁발표할	-5871
▁나타내고	-5872
분석	-5873
람회	-5874
▁모니터링	-5875
지원센터	-5876
었으며	-5877
트리온	-5878
▁쇼핑몰	-5879
▁사업의	-5880
▁지원해	-5881
▁찾은	-5882
▁들어갔다	-5883
▁1.5	-5884
▁심사를	-5885
이익은	-5886
계의	-5887
셔서	-5888
매매	-5889
▁지역은	-5890
▁끌어올	-5891
▁로봇	-5892
▁소리	-5893
▁통상	-5894
▁터뜨	-5895
▁배제	-5896
여러	-5897
굉장히	-5898
▁여기	-5899
▁강화해	-5900
▁넷	-5901
접종	-5902
하이닉	-5903
▁화제를	-5904
복합	-5905
▁야당	-5906
▁있는지	-5907
▁곤	-5908
일리	-5909
▁길을	-5910
기본	-5911
정비	-5912
▁지역경제	-5913
괜찮	-5914
▁알게	-5915
▁충격	-5916
과장은	-5917
▁'2018	-5918
▁첨단	-5919
져야	-5920
▁핑크	-5921
▁통산	-5922
nc	-5923
')	-5924
▁중순	-5925
▁있으면	-5926
▁올해는	-5927
당국	-5928
▁불이	-5929
▁조회	-5930
금으로	-5931
▁받았다고	-5932
▁이어지고	-5933
▁프랜차이즈	-5934
▁다짐	-5935
있게	-5936
▁선진	-5937
▁봤	-5938
연히	-5939
▁소셜	-5940
청문	-5941
치로	-5942
터를	-5943
▁막기	-5944
▁문제는	-5945
▁학생들이	-5946
환자	-5947
▁시작해	-5948
▁부상을	-5949
▁유가	-5950
▁파이	-5951
연이	-5952
▁분기	-5953
▁장관이	-5954
치의	-5955
▁공을	-5956
▁아르	-5957
▁위원장	-5958
기자	-5959
▁렌	-5960
사태	-5961
▁묶	-5962
소송	-5963
선에서	-5964
아리	-5965
셨다	-5966
▁노사	-5967
봐야	-5968
신용	-5969
지기	-5970
▁토지	-5971
방안	-5972
▁실적이	-5973
▁매출은	-5974
▁급여	-5975
노인	-5976
개소	-5977
▁긴밀	-5978
▁예매	-5979
진에	-5980
▁아빠	-5981
허가	-5982
▁해상	-5983
질의	-5984
▁la	-5985
▁민생	-5986
▁부족한	-5987
레드	-5988
스턴	-5989
▁맹	-5990
년과	-5991
▁배럴당	-5992
질을	-5993
▁잡고	-5994
▁찰	-5995
▁선정해	-5996
보수	-5997
▁진료	-5998
▁원을	-5999
체육관광	-6000
화문	-6001
▁생명	-6002
▁추락	-6003
▁정무	-6004
▁해운	-6005
▁마음이	-6006
▁스튜디오	-6007
▁들이	-6008
▁생존	-6009
▁입을	-6010
마스	-6011
타이어	-6012
▁수치다	-6013
브라	-6014
달라고	-6015
▁무상	-6016
한화	-6017
▁스케	-6018
▁추모	-6019
▁이들이	-6020
▁사모	-6021
레인	-6022
▁250	-6023
▁위기를	-6024
▁지역을	-6025
개정	-6026
법은	-6027
▁팬츠	-6028
▁실제로	-6029
▁송파	-6030
▁영등	-6031
들과의	-6032
수칙	-6033
▁케이블	-6034
주일	-6035
▁내세	-6036
▁전수	-6037
▁과학기술	-6038
▁사용해	-6039
▁피의	-6040
▁부담이	-6041
▁확인했다	-6042
▁택시	-6043
▁승용	-6044
해질	-6045
순위	-6046
▁미국과	-6047
.24	-6048
▁노력할	-6049
▁라이프	-6050
▁프로모션	-6051
제일	-6052
67	-6053
재단은	-6054
▁심각한	-6055
▁여파로	-6056
▁높이기	-6057
▁다채로운	-6058
▁상태로	-6059
▁시정	-6060
달러에	-6061
▁교수가	-6062
▁북한이	-6063
부터는	-6064
스트라	-6065
▁전세	-6066
광역	-6067
sd	-6068
▁유리	-6069
▁기사는	-6070
▁충전	-6071
기계	-6072
세점	-6073
나의	-6074
▁야외	-6075
정부가	-6076
▁방법을	-6077
▁스위	-6078
기압의	-6079
▁위축	-6080
등은	-6081
▁잠재	-6082
▁쓸	-6083
▁개입	-6084
지자	-6085
급여	-6086
억원이다	-6087
mw	-6088
▁실시할	-6089
▁좋지	-6090
▁아마	-6091
▁보통	-6092
▁네티즌들은	-6093
▁열릴	-6094
▁간담회	-6095
권과	-6096
▁얻고	-6097
▁행위	-6098
▁배터리	-6099
▁통일	-6100
▁말한	-6101
▁달한다	-6102
▁상하이	-6103
▁대해서	-6104
▁모델로	-6105
▁공기	-6106
루에서	-6107
신은	-6108
커피	-6109
▁시점	-6110
▁진행되며	-6111
▁안에서	-6112
sg	-6113
▁문제로	-6114
▁진행해	-6115
▁추구	-6116
▁미니앨범	-6117
플라	-6118
▁마크	-6119
벤처기업	-6120
▁보여주는	-6121
이상	-6122
▁80%	-6123
보기	-6124
▁유권	-6125
▁느낌을	-6126
▁금호	-6127
▁단지	-6128
아야	-6129
▁기재	-6130
▁핫	-6131
자도	-6132
방안을	-6133
▁어깨	-6134
▁기아	-6135
▁지방선거	-6136
와이	-6137
▁메이크업	-6138
▁문화예술	-6139
▁티셔츠	-6140
너지를	-6141
자격	-6142
▁여객	-6143
주시는	-6144
▁지구	-6145
력은	-6146
▁발산	-6147
달러로	-6148
근무	-6149
어가	-6150
▁문제에	-6151
▁클래식	-6152
▁조속	-6153
▁지배	-6154
▁있을지	-6155
시고	-6156
▁분들이	-6157
▁전국이	-6158
▁소프트웨어	-6159
렉시	-6160
▁땅볼	-6161
▁얼굴을	-6162
▁보인	-6163
▁이메	-6164
▁최다	-6165
▁탓	-6166
셔널	-6167
라이프	-6168
▁논의를	-6169
만한	-6170
충남	-6171
▁매월	-6172
▁오프라인	-6173
▁환영	-6174
동부	-6175
이기도	-6176
32	-6177
▁귀여	-6178
▁세미나	-6179
▁그가	-6180
▁높이는	-6181
군을	-6182
▁대로	-6183
▁훨	-6184
▁폭염	-6185
▁기록해	-6186
▁짜	-6187
▁상용	-6188
▁선수가	-6189
▁해당하는	-6190
▁별도	-6191
▁높여	-6192
▁모임	-6193
자문	-6194
추행	-6195
▁구속영장을	-6196
▁운영한다고	-6197
부장	-6198
만약	-6199
▁예정된	-6200
▁수사에	-6201
▁평택	-6202
ut	-6203
▁제정	-6204
▁국민의힘	-6205
▁부처	-6206
계획을	-6207
▁농도는	-6208
▁신세계	-6209
▁일본의	-6210
▁추진하는	-6211
거래소에서	-6212
▁유발	-6213
▁하자	-6214
해주는	-6215
▁개장	-6216
▁응모	-6217
▁가격에	-6218
▁제공된다	-6219
▁아주	-6220
일자리	-6221
위기	-6222
▁수험	-6223
▁다할	-6224
래곤	-6225
▁취재	-6226
··	-6227
▁유관	-6228
격한	-6229
▁표창	-6230
과거	-6231
조건	-6232
▁재해	-6233
▁평균자책	-6234
작을	-6235
▁무사	-6236
만으로	-6237
▁폐기	-6238
▁프로그램이다	-6239
이노	-6240
▁힘이	-6241
▁대표이사	-6242
타자	-6243
▁멕시코	-6244
가정	-6245
단한	-6246
아파트	-6247
57	-6248
▁보여주	-6249
▁당분간	-6250
▁준비를	-6251
▁공고	-6252
▁눈물을	-6253
교류	-6254
총회	-6255
▁컸	-6256
▁지명	-6257
▁훨씬	-6258
▁당기순	-6259
▁포럼	-6260
원한	-6261
▁차세대	-6262
▁프로듀	-6263
▁꿈을	-6264
▁안타를	-6265
▁수집	-6266
▁마운드	-6267
금지	-6268
▁위생	-6269
▁나오고	-6270
▁거래일보다	-6271
아라	-6272
업종	-6273
▁발의	-6274
▁대표와	-6275
확인	-6276
▁숙박	-6277
실장은	-6278
▁방송인	-6279
▁열렸다	-6280
▁자원봉사	-6281
ow	-6282
학을	-6283
▁유아	-6284
▁아끼	-6285
▁반려	-6286
▁처분	-6287
형이	-6288
청와대	-6289
실로	-6290
▁소독	-6291
ation	-6292
성한	-6293
▁강수	-6294
▁겪는	-6295
▁1~2	-6296
▁아시안	-6297
▁정부와	-6298
▁썼	-6299
▁사례가	-6300
▁상영	-6301
음이	-6302
▁반영해	-6303
보장	-6304
방지	-6305
▁경력	-6306
▁암호	-6307
▁하나의	-6308
타수	-6309
▁늘어날	-6310
▁독특	-6311
▁칭찬	-6312
▁간부	-6313
▁그것	-6314
▁집에서	-6315
▁찾았다	-6316
.27	-6317
ai	-6318
▁대표하는	-6319
▁일대	-6320
▁리얼	-6321
되자	-6322
로우	-6323
▁완성했다	-6324
▁못할	-6325
▁얻어	-6326
채용	-6327
▁사전에	-6328
▁높았다	-6329
▁동생	-6330
▁무너	-6331
▁성공적으로	-6332
▁마스크를	-6333
국을	-6334
▁협의를	-6335
▁에스	-6336
▁강화할	-6337
▁수업	-6338
하우스	-6339
▁이어갈	-6340
▁지급한다	-6341
.23	-6342
▁똑	-6343
▁휩	-6344
▁높일	-6345
▁예정이며	-6346
▁박스오피스	-6347
▁반박	-6348
감과	-6349
▁묻는	-6350
▁관심과	-6351
▁수수료	-6352
▁우리는	-6353
끄는	-6354
▁런던	-6355
▁기준을	-6356
▁사건이	-6357
▁아이폰	-6358
피아	-6359
▁출장	-6360
▁이사장은	-6361
▁증상이	-6362
피탈	-6363
조에	-6364
▁듯한	-6365
▁불어	-6366
▁제품이다	-6367
ra	-6368
▁페스티벌	-6369
▁출근	-6370
▁고마	-6371
▁골드	-6372
▁추첨을	-6373
▁메이저리그	-6374
충북	-6375
▁유력	-6376
▁역학	-6377
▁검거	-6378
사법	-6379
함과	-6380
▁배정	-6381
▁측이	-6382
카카오	-6383
▁눈빛	-6384
미널	-6385
들어	-6386
~10	-6387
▁동시	-6388
타이	-6389
▁빠진	-6390
▁85	-6391
카드는	-6392
▁마련해	-6393
연한	-6394
▁결정할	-6395
고등학교	-6396
순환	-6397
▁위에	-6398
▁농산물	-6399
▁어르신	-6400
▁립	-6401
▁들어간	-6402
▁씨는	-6403
널리스트	-6404
bp	-6405
우리가	-6406
구나	-6407
비로	-6408
이게	-6409
▁공개한	-6410
▁분쟁	-6411
▁타자	-6412
▁가맹점	-6413
만간	-6414
변호	-6415
▁사업이	-6416
▁외식	-6417
▁잠정	-6418
영국	-6419
▁지인	-6420
탄을	-6421
재해	-6422
▁실험	-6423
▁까	-6424
▁존중	-6425
▁중견	-6426
▁면제	-6427
▁혹은	-6428
▁능력을	-6429
라엘	-6430
디자인	-6431
라이브	-6432
싱턴	-6433
▁부채	-6434
▁화물	-6435
시장을	-6436
백을	-6437
아웃	-6438
▁지식	-6439
상승	-6440
타운	-6441
메이	-6442
▁지침	-6443
▁디스플레이	-6444
▁사이버	-6445
▁없도록	-6446
.21	-6447
일정	-6448
지인	-6449
▁머니	-6450
▁전라	-6451
▁범행을	-6452
▁배포	-6453
▁유해	-6454
▁발생하지	-6455
체계를	-6456
▁2022	-6457
▁계속해서	-6458
스닥	-6459
▁얻었다	-6460
▁경계	-6461
해온	-6462
▁가스	-6463
▁휴대전	-6464
▁제품으로	-6465
▁모집한다고	-6466
▁'5	-6467
▁채널을	-6468
▁핸	-6469
▁집을	-6470
.26	-6471
▁신체	-6472
▁for	-6473
▁감사하다	-6474
▁혼란	-6475
새로운	-6476
▁낭	-6477
▁빗	-6478
▁행사에	-6479
▁전해	-6480
전쟁	-6481
▁타격	-6482
교사	-6483
▁차이가	-6484
구와	-6485
종합지수는	-6486
▁도심	-6487
▁은퇴	-6488
▁곧바로	-6489
▁르	-6490
▁68	-6491
라디오	-6492
▁대통령을	-6493
▁대피	-6494
▁셔츠	-6495
▁규모가	-6496
▁단축	-6497
▁별도로	-6498
▁성인	-6499
▁2006	-6500
▁부천	-6501
기부	-6502
▁포착	-6503
▁문자	-6504
▁자체가	-6505
▁방영	-6506
자료를	-6507
▁어려워	-6508
관객	-6509
▁론칭	-6510
▁전공	-6511
▁결과는	-6512
보니	-6513
▁점수를	-6514
▁2~3	-6515
▁달성했다	-6516
▁제도를	-6517
▁사업이다	-6518
▁짧은	-6519
~8	-6520
▁침해	-6521
▁성적을	-6522
▁등장했다	-6523
투자증권은	-6524
▁시크	-6525
▁3%	-6526
▁오피스	-6527
▁데이	-6528
▁진로	-6529
▁학술	-6530
닥터	-6531
▁과태	-6532
▁참여한다	-6533
▁더블	-6534
▁약속했다	-6535
▁아프리카	-6536
▁상관	-6537
▁하향	-6538
▁대표를	-6539
홀딩	-6540
▁당했다	-6541
.28	-6542
통신에	-6543
▁셰	-6544
쉽게	-6545
▁청춘	-6546
관계를	-6547
▁훌	-6548
▁경상	-6549
▁확인하고	-6550
▁고정	-6551
▁진출을	-6552
▁준비하고	-6553
마케팅	-6554
▁추경	-6555
▁63	-6556
보자	-6557
▁이었다	-6558
▁컴퓨터	-6559
폭이	-6560
▁프레	-6561
▁퇴직	-6562
▁있어야	-6563
▁부분을	-6564
선발	-6565
대사	-6566
▁갑자기	-6567
▁의원을	-6568
.22	-6569
▁씨가	-6570
▁당첨번호	-6571
소재	-6572
▁소형	-6573
실제	-6574
▁기온은	-6575
.29	-6576
▁요양	-6577
▁세계적인	-6578
자재	-6579
▁융합	-6580
해요	-6581
▁드레	-6582
.▲	-6583
pp	-6584
▁대표적인	-6585
▁세대	-6586
▁정밀	-6587
▁전략을	-6588
르지	-6589
▁기탁	-6590
▁밸	-6591
▁제안했다	-6592
▁굉장히	-6593
▁명품	-6594
▁예방을	-6595
▁개통	-6596
▁당황	-6597
▁파악됐다	-6598
처벌	-6599
▁도민	-6600
▁육군	-6601
▁말한다	-6602
▁성장할	-6603
▁갖는다	-6604
▁실질적인	-6605
▁근로자	-6606
▁완벽한	-6607
물의	-6608
센트	-6609
▁추적	-6610
하라고	-6611
▁60%	-6612
▁엔터테인먼트	-6613
▁변호사는	-6614
▁관리를	-6615
▁공익	-6616
▁전까지	-6617
64	-6618
가입	-6619
▁you	-6620
▁공화	-6621
▁청렴	-6622
▁소송을	-6623
▁지방자치단체	-6624
▁84	-6625
▁트레이	-6626
위원회에	-6627
▁착공	-6628
비의	-6629
▁벌이고	-6630
▁증시	-6631
목으로	-6632
▁기후	-6633
▁총장은	-6634
▁고속도로	-6635
▁한국은	-6636
마를	-6637
부담	-6638
~1	-6639
폭행	-6640
▁끝까지	-6641
▁때마다	-6642
퀴즈	-6643
▁개발에	-6644
▁왼	-6645
우러	-6646
▁체납	-6647
▁분야에	-6648
▁포즈를	-6649
▁옛	-6650
▁그간	-6651
▁확대하고	-6652
다양	-6653
▁사용한	-6654
▁방향으로	-6655
▁눈이	-6656
▁보낸	-6657
▁이들을	-6658
▁랩	-6659
▁펼치고	-6660
▁신고했다	-6661
▁대표팀	-6662
▁증시는	-6663
구로	-6664
됐다는	-6665
▁정의당	-6666
▁극대화	-6667
정규	-6668
▁국민이	-6669
▁추후	-6670
대변인은	-6671
실점으로	-6672
▁나아가	-6673
▁배송	-6674
▁과제	-6675
▁수능	-6676
모바일	-6677
사업의	-6678
▁애니	-6679
가장	-6680
▁안겼다	-6681
금과	-6682
▁내야	-6683
▁미소를	-6684
▁환자는	-6685
내용	-6686
제조	-6687
▁칸	-6688
▁대결	-6689
▁궁금증을	-6690
이야	-6691
▁사내	-6692
지역의	-6693
전으로	-6694
장학	-6695
▁자살	-6696
▁700	-6697
▁내륙	-6698
단으로	-6699
통계	-6700
▁농림	-6701
만원이	-6702
▁기쁘다	-6703
▁태양광	-6704
▁기원	-6705
▁협력해	-6706
▁연합	-6707
▁미치는	-6708
물로	-6709
어진	-6710
▁미정	-6711
지주	-6712
▁기계	-6713
▁측정	-6714
▁검찰이	-6715
리포	-6716
▁기대감	-6717
▁의견이	-6718
▁자리에	-6719
운트	-6720
~30	-6721
▁창립	-6722
▁백화점	-6723
기소	-6724
요한	-6725
▁판매를	-6726
▁칠	-6727
정지	-6728
▁질의	-6729
드의	-6730
▁도중	-6731
▁지지를	-6732
▁증가하고	-6733
▁맞게	-6734
▁구분	-6735
▁승진	-6736
▁시사	-6737
반을	-6738
▁스크린	-6739
▁떠올	-6740
▁감염병	-6741
었으나	-6742
▁비핵	-6743
했었다	-6744
▁후보로	-6745
▁나왔	-6746
규제	-6747
렸고	-6748
▁서구	-6749
▁신축	-6750
중계	-6751
▁강연	-6752
▁끝나	-6753
학년도	-6754
크라	-6755
▁숫	-6756
▁77	-6757
작업	-6758
▁광양	-6759
▁나이	-6760
▁마치	-6761
식에는	-6762
▁순차	-6763
만명을	-6764
로가	-6765
▁이번이	-6766
▁척	-6767
타워	-6768
▁요리	-6769
▁도서관	-6770
▁한국당	-6771
치에	-6772
▁as	-6773
▁제천	-6774
▁좁	-6775
▁보육	-6776
▁강렬한	-6777
▁집행유예	-6778
▁이뤄진	-6779
▁증시가	-6780
▁쓰러	-6781
▁이유는	-6782
작용	-6783
▁신선	-6784
고도	-6785
▁마주	-6786
▁보여줄	-6787
▁배경으로	-6788
신규	-6789
숨을	-6790
▁무기	-6791
▁압도	-6792
▁운전자	-6793
▁할머니	-6794
적으로는	-6795
▁쫓	-6796
▁운영할	-6797
▁어우러	-6798
▁선고했다	-6799
인재	-6800
▁안팎	-6801
화의	-6802
▁'2016	-6803
프레	-6804
힌다	-6805
코스닥	-6806
▁110	-6807
▁함께한	-6808
▁활발한	-6809
▁띄	-6810
▁롱	-6811
▁어워	-6812
▁특집	-6813
▁실린	-6814
▁머리	-6815
▁경험이	-6816
▁달려	-6817
▁나무	-6818
▁때려	-6819
서울시	-6820
▁비용을	-6821
국방	-6822
▁서울시는	-6823
▁늘고	-6824
▁프린	-6825
▁영업이익이	-6826
글라	-6827
협상	-6828
▁대법원	-6829
▁그를	-6830
▁한진	-6831
머스	-6832
말을	-6833
▁자금을	-6834
▁컬러의	-6835
어난	-6836
아버	-6837
누적	-6838
지역에	-6839
▁방법으로	-6840
▁권역	-6841
▁발언을	-6842
▁멀티	-6843
해운	-6844
56	-6845
법이	-6846
▁코너	-6847
ore	-6848
설계	-6849
-4	-6850
집행	-6851
▁부적	-6852
▁유상	-6853
고속도로	-6854
미디	-6855
▁ict	-6856
▁비교해	-6857
▁매장에서	-6858
이니	-6859
▁총장	-6860
▁구성해	-6861
▁귀국	-6862
라가	-6863
▁조언했다	-6864
▁함유	-6865
▁팀의	-6866
▁있겠다	-6867
신했다	-6868
▁수혜	-6869
위험	-6870
▁내일	-6871
▁늘어나	-6872
만여	-6873
▁전화를	-6874
▁아카데미	-6875
▁후보자는	-6876
▁캘	-6877
에어	-6878
▁살인	-6879
▁성명을	-6880
..-	-6881
메이션	-6882
▁제품의	-6883
▁가계	-6884
▁운영된다	-6885
▁묵	-6886
리다	-6887
▁풍부한	-6888
▁천연	-6889
▁되도록	-6890
▁시민들의	-6891
▁토요일	-6892
했기	-6893
▁즐거	-6894
▁찾아가	-6895
층에	-6896
디아	-6897
▁연인	-6898
물산	-6899
네트워크	-6900
▁검토하고	-6901
정말	-6902
▁바닥	-6903
▁사우디	-6904
▁확산을	-6905
▁연극	-6906
▁행정안전	-6907
▁실태	-6908
▁해주	-6909
▁기온이	-6910
▁합리적인	-6911
▁말에	-6912
▁팀을	-6913
동해	-6914
▁시즌을	-6915
▁자발	-6916
러리	-6917
▁하던	-6918
▁가공	-6919
▁주행	-6920
▁다문화	-6921
그렇	-6922
리얼	-6923
▁가시	-6924
보안	-6925
▁국방부	-6926
▁훈훈	-6927
리조	-6928
▁전부터	-6929
원내	-6930
▁간호	-6931
▁계열사	-6932
통상자원	-6933
양의	-6934
▁첫날	-6935
▁군산	-6936
이벤	-6937
트랙	-6938
된다고	-6939
nn	-6940
▁당사	-6941
▁유망	-6942
▁지속가능	-6943
▁물결은	-6944
패션	-6945
더니	-6946
차에	-6947
화한	-6948
미가	-6949
▁깨끗	-6950
회에서는	-6951
▁정권	-6952
광고	-6953
세포	-6954
증이	-6955
▁원주	-6956
▁특강	-6957
▁성격	-6958
▁금리인	-6959
▁히트	-6960
▁깔끔	-6961
▁마약	-6962
물에	-6963
오픈	-6964
든지	-6965
▁돕기	-6966
▁부부	-6967
▁6000	-6968
▁뚜	-6969
작은	-6970
▁증가할	-6971
▁상태에서	-6972
▁'2017	-6973
▁미칠	-6974
결혼	-6975
▁육아	-6976
gb	-6977
▁중이며	-6978
뉴얼	-6979
▁얻은	-6980
▁과도	-6981
▁생활을	-6982
▁방송되는	-6983
▁주지	-6984
58	-6985
자력	-6986
협회에	-6987
▁차지하는	-6988
▁입사	-6989
▁가능할	-6990
▁유재	-6991
▁바른미래	-6992
▁갖춰	-6993
▁점포	-6994
▁지속될	-6995
▁당한	-6996
▁철저한	-6997
▁79	-6998
▁횡령	-6999
▁회담	-7000
▁도모	-7001
▁바꿔	-7002
본부장	-7003
▁춤	-7004
명에서	-7005
들로부터	-7006
▁기초자산	-7007
▁새정치민주연합	-7008
▁etf	-7009
led	-7010
▁재직	-7011
▁타율	-7012
▁가질	-7013
편을	-7014
유산	-7015
취업	-7016
▁곳은	-7017
▁본사	-7018
▁고객들에게	-7019
▁도약	-7020
68	-7021
그룹의	-7022
▁기존의	-7023
▁앞장서	-7024
▁독특한	-7025
경북	-7026
정보를	-7027
ml	-7028
▁역전	-7029
▁균형	-7030
▁대거	-7031
▁캐스팅	-7032
구장에서	-7033
뉴스에	-7034
▁멘토	-7035
▁캠페인을	-7036
토록	-7037
▁기각	-7038
▁펼칠	-7039
▁800	-7040
▁희망하는	-7041
▁국내에서	-7042
▁부당	-7043
▁연수	-7044
국장은	-7045
패로	-7046
▁훈련을	-7047
▁앙	-7048
학원	-7049
위원은	-7050
력에	-7051
▁질환	-7052
로도	-7053
▁대답	-7054
▁적정	-7055
▁제출한	-7056
사건	-7057
▁포함된	-7058
이트를	-7059
적한	-7060
▁가중	-7061
▁스페인	-7062
자산운용	-7063
▁김해	-7064
▁방해	-7065
▁잠시	-7066
초등학교	-7067
▁포인트를	-7068
▁내정	-7069
▁철강	-7070
치게	-7071
▁학생들의	-7072
▁조절	-7073
▁미사일	-7074
ont	-7075
▁130	-7076
▁미래에셋	-7077
오전	-7078
베스트	-7079
스카	-7080
배럴	-7081
▁속도를	-7082
▁임신	-7083
▁광화문	-7084
▁협박	-7085
▁말하며	-7086
▁댄스	-7087
이언	-7088
▁무죄	-7089
▁완주	-7090
실과	-7091
도전	-7092
..‘	-7093
▁중고	-7094
▁지진	-7095
▁미국에서	-7096
▁움직임	-7097
▁안전사고	-7098
하려고	-7099
구에서	-7100
매수	-7101
▁담고	-7102
▁여성이	-7103
가량	-7104
▁없지만	-7105
▁가속	-7106
▁낳	-7107
곡을	-7108
니가	-7109
▁목표를	-7110
▁그리	-7111
▁재능	-7112
▁조심	-7113
▁하늘	-7114
▁노래를	-7115
74	-7116
스럽다	-7117
▁있으나	-7118
▁약세를	-7119
쾌한	-7120
▁74	-7121
▁개헌	-7122
▁매치해	-7123
▁이어가	-7124
▁자진	-7125
▁전속	-7126
▁'2019	-7127
화재	-7128
▁경선	-7129
▁주기	-7130
▁먹고	-7131
▁쓰고	-7132
당에	-7133
부품	-7134
▁포장	-7135
▁교육부	-7136
▁득점	-7137
▁순위	-7138
테일	-7139
▁차관	-7140
스타일	-7141
▁돌아온	-7142
▁스웨	-7143
캐피탈	-7144
료가	-7145
선언	-7146
오염	-7147
만원대	-7148
▁공격을	-7149
54	-7150
▁대외	-7151
▁사이에서	-7152
십자	-7153
▁대사	-7154
▁무게	-7155
▁납품	-7156
▁불편을	-7157
▁애널리스트	-7158
어촌	-7159
▁만한	-7160
중소기업	-7161
▁메르스	-7162
▁사고를	-7163
▁매도	-7164
▁벌였다	-7165
▁부회장은	-7166
▁치매	-7167
▁180	-7168
화장	-7169
▁기간은	-7170
▁당국은	-7171
▁일어나	-7172
하루	-7173
▁커버	-7174
▁맞추	-7175
▁선정했다	-7176
문제	-7177
▁원격	-7178
정부의	-7179
▁한달	-7180
만원씩	-7181
희가	-7182
▁거다	-7183
▁아우	-7184
▁모집한다	-7185
챌린	-7186
▁남다른	-7187
닷컴	-7188
▁둘러싼	-7189
▁만났다	-7190
yp	-7191
▁토크	-7192
▁메인	-7193
엔터테인먼트는	-7194
퍼스	-7195
▁한일	-7196
▁패키지	-7197
▁맞았다	-7198
식에서	-7199
▁관람객	-7200
▁중동	-7201
▁청취	-7202
콘서트	-7203
재판부는	-7204
▁테이	-7205
▁모으고	-7206
▁선보이며	-7207
▁갖추고	-7208
▁평균자책점	-7209
산업의	-7210
시에는	-7211
수한	-7212
작으로	-7213
피안타	-7214
▁고교	-7215
금액은	-7216
▁주관하는	-7217
▁의혹이	-7218
▁윌	-7219
▁상업	-7220
▁세무	-7221
▁다이어	-7222
▁소규모	-7223
확진	-7224
▁군민	-7225
▁사랑의	-7226
▁아니냐는	-7227
▁야간	-7228
▁경위를	-7229
▁세상을	-7230
▁환자가	-7231
▁부분에	-7232
▁소중한	-7233
▁충분한	-7234
▁원장	-7235
▁줬다	-7236
드래곤	-7237
▁일겠다	-7238
심에서	-7239
▁회사의	-7240
▁출시를	-7241
조차	-7242
▁부실	-7243
행사를	-7244
▁발표한다	-7245
na	-7246
단기	-7247
▁포함됐다	-7248
▁우아	-7249
▁2005	-7250
▁새해	-7251
▁유족	-7252
▁우려를	-7253
처음	-7254
항을	-7255
▁무관	-7256
▁매거진	-7257
▁바이든	-7258
▁양산	-7259
한국은	-7260
▁즐기는	-7261
▁0.1%	-7262
▁시민들이	-7263
▁발간	-7264
▁괜찮	-7265
▁시급	-7266
모두	-7267
케미	-7268
▁밴드	-7269
▁발전에	-7270
▁패널	-7271
▁의원과	-7272
▁동일한	-7273
▁체감	-7274
양을	-7275
▁골든	-7276
당초	-7277
09:00	-7278
▁수확	-7279
▁신뢰를	-7280
수급	-7281
▁꼽았다	-7282
▁겨냥	-7283
▁행사에는	-7284
▁기록했다고	-7285
▁오염	-7286
기술을	-7287
76	-7288
각을	-7289
기아	-7290
▁안산	-7291
하길	-7292
▁얻을	-7293
점의	-7294
▁맛을	-7295
▁on	-7296
▁수십	-7297
▁연봉	-7298
em	-7299
▁제공해	-7300
▁향상을	-7301
군과	-7302
었을	-7303
▁수령	-7304
레기	-7305
순실	-7306
the	-7307
▁확정했다	-7308
▁연출했다	-7309
리우	-7310
수입	-7311
▁크림	-7312
▁비례	-7313
▁후배	-7314
▁앞세	-7315
▁원인을	-7316
▁부근	-7317
▁부합	-7318
▁의료기관	-7319
▁액션	-7320
장인	-7321
▁지목	-7322
0000	-7323
▁기업을	-7324
층의	-7325
▁몰아	-7326
촛불	-7327
▁돌아가	-7328
▁장례	-7329
▁사례를	-7330
78	-7331
▁선을	-7332
▁확보를	-7333
지역은	-7334
▁영역	-7335
줘야	-7336
시스템을	-7337
▁출시했다고	-7338
남도	-7339
▁꼼	-7340
▁발탁	-7341
▁발표된	-7342
짜리	-7343
건설은	-7344
역사	-7345
▁일단	-7346
ib	-7347
▁늘어났다	-7348
소한	-7349
진단	-7350
▁블록체인	-7351
스쿨	-7352
▁72	-7353
▁창작	-7354
▁대상을	-7355
▁공개된다	-7356
센터에	-7357
▁트렌드	-7358
▁탄탄	-7359
08:30	-7360
▁제공하기	-7361
사회적	-7362
방문	-7363
▁이어지는	-7364
▁표시	-7365
▁시청률을	-7366
▁감면	-7367
▁마음으로	-7368
▁보여줬다	-7369
▁중점	-7370
▁디자이너	-7371
▁인사청문	-7372
▁진행되고	-7373
회의실에서	-7374
라의	-7375
us	-7376
▁감축	-7377
▁치킨	-7378
▁출동한	-7379
▁부탁드린다	-7380
▁이스	-7381
대교	-7382
통화	-7383
▁감시	-7384
▁했다는	-7385
나와	-7386
▁이상으로	-7387
▁드림	-7388
▁않을까	-7389
따라서	-7390
▁협상을	-7391
▁지역주민	-7392
목적	-7393
▁62	-7394
▁'2015	-7395
▁내릴	-7396
▁사모펀드	-7397
▁대한항공	-7398
컴퍼	-7399
▁수리	-7400
▁기업에	-7401
▁요구하는	-7402
은은	-7403
영화제	-7404
치인	-7405
▁기술이	-7406
▁용의	-7407
▁멤버들은	-7408
▁팬들에게	-7409
노총	-7410
폭을	-7411
▁10:00	-7412
▁고성	-7413
▁부회장	-7414
▁비공개	-7415
곳의	-7416
▁집회	-7417
제다	-7418
▁지사	-7419
▁포털	-7420
▁휴대폰	-7421
세의	-7422
▁가이드	-7423
▁비트코	-7424
▁우대	-7425
겠고	-7426
로의	-7427
▁설문	-7428
▁재발	-7429
▁90%	-7430
▁붕	-7431
▁내수	-7432
▁여기에	-7433
sc	-7434
동조합	-7435
지니어	-7436
자다	-7437
▁타임	-7438
▁앉아	-7439
▁연계해	-7440
▁히어로	-7441
준은	-7442
▁수많은	-7443
82	-7444
▁중이라고	-7445
▁무슨	-7446
▁가능해	-7447
▁이끌었다	-7448
▁다니	-7449
▁포토	-7450
즈와	-7451
▁익산	-7452
▁맡는다	-7453
바마	-7454
▁안양	-7455
라크	-7456
마저	-7457
국장	-7458
▁재판부는	-7459
박물관	-7460
연구원은	-7461
▁오브	-7462
▁장난	-7463
▁퓨	-7464
▁원피	-7465
▁조건	-7466
▁주민들의	-7467
▁바람이	-7468
▁신속한	-7469
▁동영상	-7470
▁추정된다	-7471
블루	-7472
▁by	-7473
▁아산	-7474
▁선정됐다고	-7475
료로	-7476
▁다해	-7477
▁트윈	-7478
▁부드러	-7479
▁채무	-7480
▁떨어져	-7481
▁전반에	-7482
디지털	-7483
▁시너지	-7484
▁후문	-7485
▁고객들이	-7486
▁진심으로	-7487
▁해수	-7488
한미	-7489
▁부서	-7490
▁방지를	-7491
▁출시한	-7492
▁설치된	-7493
▁진상	-7494
▁데이터를	-7495
▁공인	-7496
자에게는	-7497
▁쟁	-7498
▁생긴	-7499
▁우주	-7500
▁변화가	-7501
공학	-7502
▁고기압의	-7503
▁ar	-7504
▁누가	-7505
▁따로	-7506
▁설득	-7507
공시	-7508
실히	-7509
▁때도	-7510
▁특화	-7511
▁규모다	-7512
놓고	-7513
부에서	-7514
단속	-7515
▁개성	-7516
▁미국이	-7517
홈쇼핑	-7518
▁문화체육관광	-7519
▁자리매	-7520
▁머리를	-7521
민은	-7522
▁나섰	-7523
요금	-7524
프랑	-7525
▁상을	-7526
▁마련할	-7527
소녀	-7528
현이	-7529
..2	-7530
▁기소됐다	-7531
▁여론조사	-7532
▁좋아하는	-7533
가와	-7534
▁보컬	-7535
▁안타까	-7536
엄마	-7537
사랑의	-7538
그녀	-7539
▁게스트로	-7540
▁기업들이	-7541
▁모범	-7542
안정	-7543
▁문화를	-7544
▁자가	-7545
사들이	-7546
구매	-7547
지다	-7548
▁세련된	-7549
▁스태프	-7550
▁공부	-7551
▁led	-7552
▁문화재	-7553
기상청에	-7554
망에	-7555
성도	-7556
▁암호화폐	-7557
▁출시했다	-7558
▁업무협약	-7559
그럼	-7560
▁경로	-7561
▁수험생	-7562
▁관할	-7563
여명을	-7564
▁일부를	-7565
ly	-7566
▁곽	-7567
년째	-7568
▁차이	-7569
▁플래	-7570
▁벌어지는	-7571
▁최저임금	-7572
학기	-7573
▁전통시장	-7574
공사가	-7575
인에게	-7576
▁매달	-7577
산화	-7578
▁면역	-7579
▁감사의	-7580
원내대표	-7581
변화	-7582
▁물품	-7583
사무소	-7584
시간을	-7585
▁청주시	-7586
▁주말드라마	-7587
~7	-7588
▁금융감독	-7589
업체인	-7590
▁파티	-7591
▁희망을	-7592
▁노력하고	-7593
▁출발했다	-7594
▁자연스럽게	-7595
배상	-7596
▁거친	-7597
▁아끼지	-7598
▁61	-7599
~201	-7600
▁늘려	-7601
▁아프	-7602
▁연내	-7603
▁구름이	-7604
▁본부장은	-7605
▁잇따라	-7606
면접	-7607
▁00	-7608
▁중학교	-7609
▁이용자	-7610
▁0.2%	-7611
▁모델을	-7612
▁분위기가	-7613
▁0.4	-7614
슬람	-7615
▁감성	-7616
았지만	-7617
▁이끄는	-7618
▁노하우를	-7619
▁셀트리온	-7620
심한	-7621
치킨	-7622
스토어	-7623
관리에	-7624
▁제출하면	-7625
..1	-7626
▁당장	-7627
▁술을	-7628
▁부사장은	-7629
▁닭	-7630
강남	-7631
마당	-7632
▁배려	-7633
생태	-7634
▁목소리가	-7635
▁89	-7636
▁조성을	-7637
▁톤	-7638
▁지출	-7639
▁입점	-7640
▁법원	-7641
▁어려울	-7642
소시	-7643
▁중도	-7644
▁기사입니다	-7645
▁홈페이지에	-7646
▁심판	-7647
안의	-7648
▁곳에	-7649
▁광주시	-7650
▁조만간	-7651
▁붙잡혔다	-7652
▁깊이	-7653
▁막아	-7654
▁휴가	-7655
과정을	-7656
▁콘서	-7657
▁떠난	-7658
▁재차	-7659
대회를	-7660
▁산업통상자원	-7661
위생	-7662
▁동원해	-7663
▁인스타그램을	-7664
티드	-7665
화될	-7666
▁다음날	-7667
▁목격	-7668
▁포스터	-7669
▁찾기	-7670
▁아버지	-7671
▁저렴한	-7672
▁활약을	-7673
▁탈퇴	-7674
만원에서	-7675
회원	-7676
43	-7677
총액	-7678
▁엄청	-7679
▁앱을	-7680
소속사	-7681
되도록	-7682
▁사업으로	-7683
▁컷	-7684
재정	-7685
▁부각	-7686
안과	-7687
우가	-7688
▁드론	-7689
▁지원에	-7690
▁고객들의	-7691
이달	-7692
▁콜라	-7693
▁시청자들의	-7694
숙한	-7695
공단은	-7696
▁기업은	-7697
▁누리꾼들은	-7698
▁상무는	-7699
▁혐의도	-7700
▁가능성은	-7701
▁판매하는	-7702
▁있음을	-7703
▁중이던	-7704
▁경비	-7705
▁말레	-7706
▁논의할	-7707
치와	-7708
▁근본	-7709
품질	-7710
▁유형	-7711
▁규모를	-7712
직자	-7713
▁것인지	-7714
▁생각하는	-7715
실험	-7716
▁앞바다	-7717
▁스탠	-7718
지금까지	-7719
▁항목	-7720
▁장면이	-7721
네요	-7722
타는	-7723
▁났다	-7724
▁연주	-7725
▁직원이	-7726
상업	-7727
다양한	-7728
▁예상되는	-7729
▁한강	-7730
립니다	-7731
▁선보여	-7732
▁사망했다	-7733
83	-7734
▁스타뉴스에	-7735
▁접목	-7736
▁덕분에	-7737
▁ex	-7738
전용	-7739
53	-7740
▁힙	-7741
러시아	-7742
▁개그맨	-7743
우주	-7744
기관의	-7745
▁투자자	-7746
▁고백했다	-7747
▁사흘	-7748
▁원인	-7749
▁통해서	-7750
▁살고	-7751
사단	-7752
▁자세	-7753
▁포트	-7754
▁후보의	-7755
실제로	-7756
▁위기에	-7757
▁나눴	-7758
▁쳐	-7759
예정	-7760
▁대의	-7761
▁일은	-7762
▁중대	-7763
▁포스트	-7764
법으로	-7765
▁뒤집	-7766
▁박사	-7767
▁순이었다	-7768
▁명령	-7769
▁기업들의	-7770
▁낚	-7771
▁방향을	-7772
▁76	-7773
▁사망자	-7774
▁속에는	-7775
삼진	-7776
▁기증	-7777
▁나아	-7778
▁데뷔한	-7779
위원회에서	-7780
gv	-7781
일이다	-7782
▁행사가	-7783
ch	-7784
▁강세다	-7785
▁영화를	-7786
▁매진	-7787
▁시작한다	-7788
레일	-7789
▁유치원	-7790
▁정책에	-7791
▁애플리	-7792
터는	-7793
▁저장	-7794
▁적응	-7795
실점	-7796
▁8000	-7797
▁캐주얼	-7798
▁능력	-7799
▁기반을	-7800
▁금메달을	-7801
▁서비스는	-7802
▁눈을	-7803
▁게임을	-7804
▁보이지	-7805
유공	-7806
▁세븐	-7807
▁마련된	-7808
▁슬로	-7809
▁연금	-7810
학회	-7811
▁편집	-7812
▁신한은행	-7813
수기	-7814
▁기업으로	-7815
▁받아들이	-7816
▁필요하다고	-7817
▁경고했다	-7818
▁주민등록	-7819
igh	-7820
▁전액	-7821
▁러브	-7822
▁베이징	-7823
▁많고	-7824
여기	-7825
▁측에	-7826
ab	-7827
청과	-7828
▁보이며	-7829
▁이글	-7830
▁철회	-7831
▁입었다	-7832
뮤지	-7833
▁않았지만	-7834
▁커지고	-7835
▁고통	-7836
▁텐	-7837
나쁨	-7838
▁메디	-7839
▁나란히	-7840
▁운영에	-7841
▁윈	-7842
▁상시	-7843
리면서	-7844
▁높아지고	-7845
▁병원에서	-7846
▁전국의	-7847
축산식품	-7848
▁일각	-7849
▁의약품	-7850
정보통신	-7851
▁묻자	-7852
▁수거	-7853
▁해명했다	-7854
퍼런스	-7855
▁추격	-7856
▁흐름을	-7857
▁확진자의	-7858
▁튀	-7859
더스	-7860
팅을	-7861
▁발열	-7862
▁형태의	-7863
▁순차적으로	-7864
▁사드	-7865
▁단행	-7866
▁설비	-7867
▁중증	-7868
▁이뤄진다	-7869
▁도시재생	-7870
▁금감	-7871
▁이마트	-7872
▁식사	-7873
이처럼	-7874
52	-7875
방위	-7876
▁인증을	-7877
▁파리	-7878
시다	-7879
세서	-7880
▁경기는	-7881
▁방식을	-7882
▁알리는	-7883
▁내내	-7884
프라이	-7885
▁대응을	-7886
▁워싱턴	-7887
▁유효	-7888
할지	-7889
▁유일하게	-7890
북부	-7891
▁기대감이	-7892
전화	-7893
▁느낀	-7894
▁애정을	-7895
cj	-7896
차례에	-7897
▁선별진료	-7898
▁호응을	-7899
▁고도	-7900
▁상회	-7901
▁인테	-7902
ps	-7903
▁지닌	-7904
경찰서	-7905
화하고	-7906
▁전년동기	-7907
▁것이라	-7908
▁차원의	-7909
▁믿고	-7910
▁종류	-7911
▁수익성	-7912
▁업그	-7913
층에서	-7914
바지	-7915
▁농도가	-7916
ace	-7917
이러한	-7918
▁전당	-7919
▁페이스북에	-7920
▁물가	-7921
▁적절	-7922
▁신속하게	-7923
연합회	-7924
▁한국을	-7925
해피	-7926
▁[	-7927
▁릴	-7928
수당	-7929
▁나스닥	-7930
▁be	-7931
▁브렉시	-7932
경이	-7933
▁소매	-7934
▁부대	-7935
▁백신을	-7936
▁확진자와	-7937
자연	-7938
▁죄송	-7939
▁한국과	-7940
▁갔다	-7941
▁이스라엘	-7942
▁기획재정부	-7943
▁남겨	-7944
▁보좌	-7945
▁손님	-7946
▁유포	-7947
▁점점	-7948
▁지원사업	-7949
향이	-7950
▁클린	-7951
시간이	-7952
▁메가	-7953
▁청소	-7954
▁25%	-7955
▁맞고	-7956
얀마	-7957
팀장은	-7958
▁생각하고	-7959
▁최우선	-7960
~9	-7961
▁닮	-7962
▁리더십	-7963
▁부안	-7964
▁나오지	-7965
▁필요하다는	-7966
▁싫	-7967
▁종교	-7968
대학원	-7969
▁논의가	-7970
▁상담을	-7971
▁시대를	-7972
▁견인	-7973
과학기술	-7974
마지막으로	-7975
▁침체	-7976
노트	-7977
▁제외하고	-7978
▁빠졌다	-7979
겁게	-7980
블록	-7981
oa	-7982
그린	-7983
여름	-7984
▁떠오	-7985
▁기반의	-7986
▁소식이	-7987
계좌	-7988
▁순매수	-7989
▁혁신을	-7990
트라	-7991
▁멜로	-7992
▁찾을	-7993
▁현역	-7994
▁무주	-7995
▁양호	-7996
층을	-7997
이렇게	-7998
▁투자의견	-7999
타민	-8000
면으로	-8001
▁꾸며	-8002
▁dj	-8003
지하	-8004
▁유사	-8005
▁프로모션을	-8006
▁않게	-8007
▁15%	-8008
▁증상	-8009
오롱	-8010
프는	-8011
▁비율	-8012
▁크루	-8013
▁않겠다	-8014
▁이른바	-8015
▁지분을	-8016
일까지다	-8017
▁번호	-8018
▁종로구	-8019
▁가격으로	-8020
▁국민들의	-8021
하니	-8022
▁폭력	-8023
▁중국이	-8024
▁14:00	-8025
▁이벤트는	-8026
일인	-8027
▁생각해	-8028
▁워크숍	-8029
▁중장기	-8030
▁큐	-8031
▁신중	-8032
▁쿠폰	-8033
▁취하고	-8034
지원을	-8035
▁플러스	-8036
63	-8037
▁막을	-8038
▁'2020	-8039
모임	-8040
▁최초의	-8041
▁부문에서	-8042
▁부총리는	-8043
▁공간을	-8044
▁구제	-8045
정규직	-8046
▁시기에	-8047
리게	-8048
전력	-8049
▁홀로	-8050
▁유가족	-8051
였으며	-8052
▁확인한	-8053
아의	-8054
▁버디	-8055
nh	-8056
▁몸을	-8057
수지	-8058
년만에	-8059
바다의	-8060
▁여부에	-8061
▁흰	-8062
▁가전	-8063
와는	-8064
행이	-8065
▁하락세를	-8066
연수	-8067
▁지원이	-8068
42	-8069
화해	-8070
▁취급	-8071
학술	-8072
▁서민	-8073
▁2.0	-8074
절을	-8075
클래	-8076
▁회의에서	-8077
▁네이	-8078
▁인적	-8079
▁제이	-8080
▁140	-8081
▁보합	-8082
▁차를	-8083
▁유니폼	-8084
▁at	-8085
▁가볍	-8086
▁이자	-8087
▁가격을	-8088
▁유상증	-8089
▁계획이라고	-8090
▁부지	-8091
▁fa	-8092
플루	-8093
▁잡은	-8094
▁지켰다	-8095
정원	-8096
▁각별	-8097
▁분할	-8098
에게도	-8099
▁2004	-8100
▁대회에서	-8101
▁자유롭게	-8102
홍보	-8103
▁목숨을	-8104
▁파악하고	-8105
▁스티	-8106
▁장착	-8107
▁안전하게	-8108
net	-8109
▁상상	-8110
였지만	-8111
▁화재가	-8112
▁기대했다	-8113
리도	-8114
▁섭취	-8115
▁훔친	-8116
▁준비한	-8117
정상회담	-8118
▁당국	-8119
▁매장을	-8120
▁딱	-8121
▁패전	-8122
▁항의	-8123
케미칼	-8124
▁사건에	-8125
이외에도	-8126
▁일자리를	-8127
dc	-8128
▁촉진	-8129
▁팬들과	-8130
▁어떠	-8131
하세요	-8132
▁의류	-8133
▁타이어뱅크	-8134
db	-8135
스포	-8136
식의	-8137
▁재미를	-8138
um	-8139
▁기간을	-8140
▁여행을	-8141
인드	-8142
▁동구	-8143
▁국민들이	-8144
▁발송	-8145
▁물어	-8146
레나	-8147
▁우편	-8148
▁감안해	-8149
72	-8150
추지	-8151
키는	-8152
▁시민의	-8153
▁물량	-8154
▁없었던	-8155
eb	-8156
모리	-8157
평등	-8158
▁성공적인	-8159
베이션	-8160
▁역사를	-8161
링크	-8162
영이	-8163
라면서	-8164
co	-8165
디스	-8166
▁관리에	-8167
▁역으로	-8168
차별	-8169
▁무릎	-8170
신과	-8171
..3	-8172
▁개관	-8173
▁긍정적	-8174
▁지적이	-8175
연대	-8176
▁개시	-8177
▁담보	-8178
▁신작	-8179
기관과	-8180
어떤	-8181
▁전체회의	-8182
생활을	-8183
▁아메리	-8184
iz	-8185
▁보행	-8186
▁복구	-8187
▁걸어	-8188
▁무려	-8189
▁스프	-8190
자리에	-8191
▁보여준	-8192
▁조사는	-8193
금리를	-8194
▁7000	-8195
▁돌파했다	-8196
▁지원하기	-8197
▁공원	-8198
국제공항	-8199
▁역임했다	-8200
▁측면에서	-8201
▁전망이	-8202
▁생각했다	-8203
대병원	-8204
▁떨어지는	-8205
▁먹는	-8206
▁무산	-8207
진흥원	-8208
▁박차를	-8209
중간	-8210
▁성폭력	-8211
마리	-8212
▁업데	-8213
▁출판	-8214
▁기대가	-8215
▁설치해	-8216
▁예고했다	-8217
루를	-8218
▁꾸준한	-8219
선과	-8220
▁유일한	-8221
▁대표이사는	-8222
▁길이	-8223
생명은	-8224
▁생중계	-8225
▁있으니	-8226
렉스	-8227
정기	-8228
조달	-8229
▁승인을	-8230
▁곳에서	-8231
▁할인된	-8232
보조	-8233
▁맺고	-8234
▁사망자는	-8235
▁캐릭터를	-8236
▁무장	-8237
▁과정에	-8238
▁간담회를	-8239
▁조사에서	-8240
▁프로그램은	-8241
셀러	-8242
▁편안한	-8243
▁매출을	-8244
▁비중은	-8245
▁부작용	-8246
▁여성의	-8247
▁돌아왔다	-8248
선수권	-8249
▁도서	-8250
▁선포	-8251
▁완공	-8252
▁계산	-8253
▁산다	-8254
▁분명히	-8255
▁시공	-8256
▁웨이	-8257
▁항공기	-8258
▁부착	-8259
▁신흥	-8260
▁원정	-8261
▁영화관	-8262
▁내는	-8263
▁삭제	-8264
41	-8265
바람	-8266
방해	-8267
▁정규직	-8268
▁빙	-8269
▁금품을	-8270
▁편의를	-8271
▁기조	-8272
▁95	-8273
밀리	-8274
▁선정돼	-8275
조선해양	-8276
▁78	-8277
대책본부	-8278
▁짙	-8279
▁즐거운	-8280
▁가치가	-8281
▁임직	-8282
▁팽	-8283
방에	-8284
▁지점	-8285
피를	-8286
▁받아야	-8287
▁호소했다	-8288
▁캡	-8289
▁밝혔	-8290
▁내비	-8291
▁합의했다	-8292
▁샘	-8293
금감	-8294
▁입소	-8295
관리를	-8296
재로	-8297
고한	-8298
르며	-8299
▁당내	-8300
▁이벤트도	-8301
림을	-8302
행히	-8303
▁다섯	-8304
악의	-8305
처가	-8306
투를	-8307
▁비주얼	-8308
▁넣어	-8309
졌지만	-8310
▁갤	-8311
▁마무리했다	-8312
무엇	-8313
▁방위	-8314
▁청와	-8315
▁코미디	-8316
▁웹툰	-8317
구청장	-8318
▁확보한	-8319
▁맞힌	-8320
▁부분은	-8321
.△	-8322
▁아트	-8323
▁장수	-8324
▁경찰청	-8325
▁몬	-8326
▁의회	-8327
▁감사드린다	-8328
▁뜬	-8329
금의	-8330
▁음료	-8331
▁짓고	-8332
▁순매도	-8333
▁가해	-8334
반기에	-8335
▁웰	-8336
▁마포구	-8337
외식	-8338
▁가야	-8339
고기	-8340
▁빠져나	-8341
▁패션을	-8342
▁짐	-8343
병을	-8344
▁시위	-8345
▁있다며	-8346
▁물리	-8347
▁불을	-8348
▁이날부터	-8349
▁초청해	-8350
▁연관	-8351
▁‘20	-8352
▁블로그	-8353
편이	-8354
▁성추행	-8355
▁인용해	-8356
대학교는	-8357
택시	-8358
▁뇌물	-8359
▁원활한	-8360
▁해상에서	-8361
센티브	-8362
▁김씨는	-8363
▁참석한다	-8364
94	-8365
연패	-8366
시키기	-8367
에서만	-8368
▁구축을	-8369
돼지	-8370
73	-8371
▁공지	-8372
▁수료	-8373
▁아니라고	-8374
잡고	-8375
▁주당	-8376
▁2.5	-8377
서울시는	-8378
차트	-8379
▁소통을	-8380
▁한국인	-8381
▁딜	-8382
우수	-8383
▁벤처	-8384
김씨는	-8385
▁유지할	-8386
개교	-8387
▁트랙	-8388
▁대응할	-8389
▁신년	-8390
▁닫	-8391
것이	-8392
▁돕는	-8393
하다가	-8394
과정에서	-8395
▁이야기가	-8396
▁있었지만	-8397
▁봉사활동을	-8398
표준	-8399
매체	-8400
콤한	-8401
▁송치	-8402
▁철거	-8403
▁플로	-8404
반도체	-8405
▁브라운	-8406
미국의	-8407
활동에	-8408
▁끝내	-8409
▁수상한	-8410
▁외무	-8411
▁vr	-8412
▁흑자	-8413
조치를	-8414
▁사운드	-8415
▁통화에서	-8416
월한	-8417
▁표정을	-8418
▁개척	-8419
▁핸드	-8420
전지	-8421
조한	-8422
▁al	-8423
당과	-8424
▁대중교통	-8425
▁주민들이	-8426
▁일일드라마	-8427
산림	-8428
▁세탁	-8429
년보다	-8430
디스플레이	-8431
시마	-8432
애플	-8433
▁무더	-8434
거래소	-8435
환경과학	-8436
15:00	-8437
교회	-8438
나도	-8439
판정을	-8440
▁마련한	-8441
서부	-8442
▁증명	-8443
▁행위를	-8444
ri	-8445
다이	-8446
▁강좌	-8447
▁느꼈	-8448
▁출신으로	-8449
끄러	-8450
ter	-8451
▁73	-8452
▁닐	-8453
▁공개할	-8454
▁저지른	-8455
출됐다	-8456
▁아니고	-8457
예상	-8458
▁편의점	-8459
차의	-8460
▁본인의	-8461
▁방한	-8462
].	-8463
민이	-8464
▁71	-8465
▁프로야구	-8466
금속	-8467
▁88	-8468
질이	-8469
▁관해	-8470
강화	-8471
말로	-8472
▁고조	-8473
▁겹	-8474
▁인기가	-8475
▁챌린	-8476
슨은	-8477
▁개념	-8478
▁사랑하는	-8479
서구	-8480
인프라	-8481
▁안된다	-8482
▁권리	-8483
▁올바른	-8484
▁중계	-8485
▁0.5%	-8486
겨울	-8487
▁출연하는	-8488
가치	-8489
받침	-8490
97	-8491
과장	-8492
자들과	-8493
▁살려	-8494
▁주시	-8495
은행과	-8496
▁귀여운	-8497
▁이라크	-8498
▁정보통신	-8499
▁팩	-8500
▁미스터	-8501
▁팬들을	-8502
▁적용된다	-8503
▁온스	-8504
▁가족이	-8505
▁대상이	-8506
▁외교부	-8507
▁영향이	-8508
▁맞서	-8509
사회복지	-8510
만원까지	-8511
▁이외	-8512
▁비상대책	-8513
부대	-8514
▁수학	-8515
▁있으	-8516
▁전역	-8517
▁안전관리	-8518
▁이겨	-8519
51	-8520
▁들은	-8521
▁자율주행	-8522
98	-8523
작업을	-8524
▁앨범을	-8525
화할	-8526
▁오토	-8527
▁닛	-8528
▁전후	-8529
▁자이언	-8530
음식	-8531
▁95%	-8532
▁공포	-8533
루수	-8534
무한	-8535
pga	-8536
▁작품이다	-8537
fm	-8538
▁저축	-8539
▁중국에서	-8540
데스	-8541
▁끊임	-8542
▁부산시	-8543
결정	-8544
▁롤	-8545
▁나를	-8546
▁변화에	-8547
수업	-8548
카를	-8549
▁탈락	-8550
폴리오	-8551
▁수술을	-8552
▁분석이다	-8553
▁떡	-8554
▁계절	-8555
▁실력을	-8556
▁제품에	-8557
매우	-8558
▁교과	-8559
플랫폼	-8560
▁완전	-8561
스토랑	-8562
▁대회를	-8563
▁비교적	-8564
▁확보했다	-8565
용한	-8566
▁돌봄	-8567
▁정부에	-8568
견을	-8569
▁등교	-8570
▁일방	-8571
기사	-8572
▁co	-8573
▁이내에	-8574
▁공수	-8575
▁출시된	-8576
▁삼성전자는	-8577
르크	-8578
발생	-8579
▁보존	-8580
▁치료제	-8581
▁한국에	-8582
▁사랑스러운	-8583
▁미안	-8584
▁보며	-8585
▁점은	-8586
▁각오를	-8587
▁반영한	-8588
리포니아	-8589
부채	-8590
▁전부	-8591
▁문의하면	-8592
지대	-8593
▁성폭행	-8594
님의	-8595
왔던	-8596
▁총리가	-8597
▁논의했다	-8598
▁국비	-8599
▁기관이	-8600
▁조치가	-8601
▁기간에	-8602
체육관에서	-8603
▁출전해	-8604
면의	-8605
▁wh	-8606
▁산학	-8607
▁웨딩	-8608
▁둘째	-8609
▁싶어	-8610
냐는	-8611
상위	-8612
▁개소	-8613
▁개의	-8614
▁정도의	-8615
▁충주	-8616
▁조사에	-8617
▁여부는	-8618
▁피고	-8619
삼성전자는	-8620
▁접종을	-8621
▁로드	-8622
▁썼다	-8623
▁신용카드	-8624
▁상당한	-8625
▁일산	-8626
▁금리를	-8627
법과	-8628
팀의	-8629
▁수차례	-8630
▁사후	-8631
▁상당히	-8632
▁출하	-8633
▁발주	-8634
61	-8635
▁외모	-8636
▁임용	-8637
통제	-8638
▁무인	-8639
▁수습	-8640
▁있겠	-8641
▁온스당	-8642
▁실시해	-8643
▁주목을	-8644
청주	-8645
▁mm	-8646
하려면	-8647
▁시설을	-8648
목이	-8649
스와의	-8650
소비자	-8651
▁부드러운	-8652
▁비율이	-8653
소통	-8654
뉴시스	-8655
▁의혹에	-8656
▁	-8657
다	-8658
.	-8659
이	-8660
는	-8661
에	-8662
을	-8663
'	-8664
고	-8665
의	-8666
로	-8667
지	-8668
한	-8669
가	-8670
은	-8671
하	-8672
기	-8673
1	-8674
를	-8675
0	-8676
서	-8677
대	-8678
사	-8679
시	-8680
해	-8681
2	-8682
도	-8683
인	-8684
자	-8685
했	-8686
수	-8687
일	-8688
전	-8689
원	-8690
으	-8691
정	-8692
장	-8693
스	-8694
부	-8695
리	-8696
상	-8697
있	-8698
과	-8699
라	-8700
주	-8701
제	-8702
보	-8703
국	-8704
어	-8705
아	-8706
공	-8707
3	-8708
만	-8709
나	-8710
위	-8711
회	-8712
들	-8713
등	-8714
관	-8715
5	-8716
성	-8717
구	-8718
소	-8719
업	-8720
진	-8721
경	-8722
선	-8723
적	-8724
비	-8725
4	-8726
동	-8727
개	-8728
며	-8729
중	-8730
화	-8731
게	-8732
면	-8733
계	-8734
신	-8735
트	-8736
오	-8737
조	-8738
것	-8739
와	-8740
그	-8741
연	-8742
9	-8743
명	-8744
행	-8745
6	-8746
할	-8747
내	-8748
통	-8749
여	-8750
마	-8751
유	-8752
모	-8753
년	-8754
산	-8755
방	-8756
안	-8757
7	-8758
8	-8759
드	-8760
당	-8761
우	-8762
문	-8763
발	-8764
미	-8765
영	-8766
된	-8767
터	-8768
무	-8769
용	-8770
재	-8771
분	-8772
세	-8773
치	-8774
후	-8775
생	-8776
금	-8777
실	-8778
출	-8779
월	-8780
간	-8781
차	-8782
감	-8783
교	-8784
거	-8785
역	-8786
단	-8787
난	-8788
체	-8789
운	-8790
예	-8791
러	-8792
매	-8793
청	-8794
말	-8795
학	-8796
최	-8797
강	-8798
표	-8799
민	-8800
타	-8801
s	-8802
요	-8803
입	-8804
식	-8805
니	-8806
반	-8807
현	-8808
설	-8809
%	-8810
바	-8811
결	-8812
달	-8813
a	-8814
프	-8815
되	-8816
속	-8817
확	-8818
건	-8819
양	-8820
점	-8821
밝	-8822
야	-8823
까	-8824
t	-8825
날	-8826
증	-8827
남	-8828
력	-8829
번	-8830
데	-8831
포	-8832
려	-8833
임	-8834
물	-8835
혔	-8836
직	-8837
됐	-8838
호	-8839
e	-8840
심	-8841
받	-8842
작	-8843
각	-8844
었	-8845
추	-8846
c	-8847
품	-8848
울	-8849
종	-8850
르	-8851
m	-8852
록	-8853
권	-8854
편	-8855
법	-8856
약	-8857
크	-8858
더	-8859
코	-8860
함	-8861
올	-8862
배	-8863
준	-8864
투	-8865
두	-8866
i	-8867
음	-8868
본	-8869
합	-8870
외	-8871
따	-8872
판	-8873
노	-8874
활	-8875
급	-8876
파	-8877
히	-8878
억	-8879
b	-8880
피	-8881
래	-8882
o	-8883
않	-8884
n	-8885
없	-8886
승	-8887
불	-8888
특	-8889
·	-8890
k	-8891
환	-8892
협	-8893
격	-8894
료	-8895
레	-8896
’	-8897
았	-8898
련	-8899
씨	-8900
능	-8901
-	-8902
총	-8903
‘	-8904
디	-8905
검	-8906
저	-8907
육	-8908
근	-8909
천	-8910
린	-8911
군	-8912
열	-8913
평	-8914
집	-8915
석	-8916
형	-8917
던	-8918
겠	-8919
초	-8920
담	-8921
처	-8922
카	-8923
참	-8924
복	-8925
북	-8926
목	-8927
께	-8928
또	-8929
송	-8930
광	-8931
l	-8932
언	-8933
“	-8934
찰	-8935
”	-8936
및	-8937
토	-8938
태	-8939
앞	-8940
른	-8941
별	-8942
질	-8943
g	-8944
책	-8945
론	-8946
r	-8947
브	-8948
규	-8949
향	-8950
버	-8951
술	-8952
=	-8953
p	-8954
때	-8955
항	-8956
획	-8957
변	-8958
망	-8959
령	-8960
티	-8961
박	-8962
였	-8963
접	-8964
험	-8965
d	-8966
축	-8967
알	-8968
같	-8969
독	-8970
루	-8971
순	-8972
새	-8973
될	-8974
김	-8975
졌	-8976
량	-8977
창	-8978
메	-8979
습	-8980
채	-8981
페	-8982
많	-8983
병	-8984
키	-8985
황	-8986
온	-8987
뉴	-8988
객	-8989
택	-8990
높	-8991
농	-8992
백	-8993
취	-8994
플	-8995
즈	-8996
람	-8997
충	-8998
필	-8999
응	-9000
맞	-9001
범	-9002
너	-9003
절	-9004
~	-9005
h	-9006
테	-9007
란	-9008
글	-9009
삼	-9010
v	-9011
벌	-9012
립	-9013
)	-9014
f	-9015
:	-9016
애	-9017
랑	-9018
션	-9019
센	-9020
패	-9021
극	-9022
익	-9023
견	-9024
류	-9025
길	-9026
든	-9027
누	-9028
네	-9029
율	-9030
락	-9031
늘	-9032
돼	-9033
워	-9034
융	-9035
악	-9036
친	-9037
돌	-9038
완	-9039
폭	-9040
족	-9041
측	-9042
런	-9043
좋	-9044
액	-9045
살	-9046
▲	-9047
블	-9048
못	-9049
존	-9050
림	-9051
손	-9052
u	-9053
팀	-9054
랜	-9055
케	-9056
움	-9057
램	-9058
침	-9059
베	-9060
엔	-9061
례	-9062
뒤	-9063
커	-9064
철	-9065
줄	-9066
막	-9067
홈	-9068
머	-9069
츠	-9070
염	-9071
률	-9072
럼	-9073
름	-9074
허	-9075
효	-9076
걸	-9077
롯	-9078
탄	-9079
왔	-9080
득	-9081
착	-9082
렸	-9083
냈	-9084
봉	-9085
곳	-9086
곡	-9087
갈	-9088
색	-9089
먼	-9090
희	-9091
홍	-9092
볼	-9093
퍼	-9094
넘	-9095
룹	-9096
쳐	-9097
층	-9098
잡	-9099
혐	-9100
쟁	-9101
첫	-9102
논	-9103
휴	-9104
혁	-9105
찾	-9106
골	-9107
째	-9108
클	-9109
혼	-9110
붙	-9111
느	-9112
잘	-9113
"	-9114
져	-9115
긴	-9116
밀	-9117
겨	-9118
눈	-9119
콘	-9120
벤	-9121
즌	-9122
w	-9123
났	-9124
답	-9125
탈	-9126
◎	-9127
힘	-9128
큰	-9129
널	-9130
△	-9131
y	-9132
럽	-9133
균	-9134
/	-9135
녀	-9136
징	-9137
얼	-9138
;	-9139
귀	-9140
팅	-9141
폐	-9142
빠	-9143
훈	-9144
엄	-9145
풍	-9146
낮	-9147
앙	-9148
갖	-9149
템	-9150
촉	-9151
캐	-9152
j	-9153
탁	-9154
링	-9155
웃	-9156
흥	-9157
냐	-9158
팬	-9159
덧	-9160
큼	-9161
끝	-9162
핑	-9163
몰	-9164
쳤	-9165
끌	-9166
쇼	-9167
컬	-9168
압	-9169
싶	-9170
죄	-9171
?	-9172
념	-9173
핵	-9174
찬	-9175
욱	-9176
혜	-9177
릴	-9178
텔	-9179
펀	-9180
폰	-9181
퇴	-9182
슈	-9183
윤	-9184
웨	-9185
델	-9186
◇	-9187
틀	-9188
헌	-9189
략	-9190
맡	-9191
뿐	-9192
솔	-9193
님	-9194
꾸	-9195
쓰	-9196
굴	-9197
슬	-9198
놓	-9199
좌	-9200
암	-9201
x	-9202
밖	-9203
숙	-9204
펼	-9205
춘	-9206
넷	-9207
컨	-9208
뮤	-9209
뤄	-9210
싱	-9211
캠	-9212
혹	-9213
털	-9214
떨	-9215
첨	-9216
왕	-9217
풀	-9218
렌	-9219
잠	-9220
낸	-9221
욕	-9222
랐	-9223
픽	-9224
쿠	-9225
즐	-9226
갔	-9227
먹	-9228
덕	-9229
텐	-9230
켜	-9231
겼	-9232
납	-9233
엘	-9234
뜻	-9235
숨	-9236
놀	-9237
촬	-9238
멤	-9239
릭	-9240
홀	-9241
옥	-9242
렇	-9243
앨	-9244
끼	-9245
혀	-9246
>	-9247
컴	-9248
맨	-9249
&	-9250
써	-9251
밤	-9252
<	-9253
턴	-9254
벽	-9255
닌	-9256
떠	-9257
돈	-9258
쪽	-9259
닝	-9260
섰	-9261
맹	-9262
푸	-9263
셔	-9264
콜	-9265
랙	-9266
닥	-9267
!	-9268
빈	-9269
뷰	-9270
힌	-9271
십	-9272
맛	-9273
킨	-9274
촌	-9275
쉽	-9276
얻	-9277
슨	-9278
헤	-9279
킹	-9280
셀	-9281
롭	-9282
딩	-9283
폼	-9284
팔	-9285
앤	-9286
뷔	-9287
렉	-9288
빌	-9289
몸	-9290
둘	-9291
둔	-9292
칭	-9293
갑	-9294
탕	-9295
쉬	-9296
씩	-9297
척	-9298
짜	-9299
휘	-9300
봤	-9301
떤	-9302
탑	-9303
궁	-9304
칙	-9305
뢰	-9306
칠	-9307
뛰	-9308
흡	-9309
랫	-9310
춰	-9311
빛	-9312
녹	-9313
쯤	-9314
듯	-9315
잔	-9316
맥	-9317
텍	-9318
싸	-9319
혈	-9320
뜨	-9321
픈	-9322
죽	-9323
톤	-9324
춤	-9325
줬	-9326
켓	-9327
찍	-9328
흐	-9329
읍	-9330
튜	-9331
빅	-9332
꽃	-9333
럭	-9334
벨	-9335
딸	-9336
겪	-9337
넥	-9338
꿈	-9339
폴	-9340
렴	-9341
럴	-9342
깨	-9343
뱅	-9344
앱	-9345
렵	-9346
젝	-9347
봄	-9348
웠	-9349
졸	-9350
켰	-9351
섭	-9352
콩	-9353
낙	-9354
엠	-9355
칼	-9356
콤	-9357
떻	-9358
봐	-9359
틱	-9360
괴	-9361
엑	-9362
쇄	-9363
곤	-9364
힐	-9365
깊	-9366
즉	-9367
겸	-9368
(	-9369
짓	-9370
헬	-9371
샤	-9372
컵	-9373
빨	-9374
멘	-9375
엇	-9376
낼	-9377
듀	-9378
킬	-9379
섬	-9380
펜	-9381
닉	-9382
톡	-9383
삶	-9384
롱	-9385
핀	-9386
틴	-9387
긍	-9388
왜	-9389
탐	-9390
#	-9391
갤	-9392
셜	-9393
잇	-9394
짝	-9395
빙	-9396
흘	-9397
눔	-9398
넣	-9399
꼽	-9400
짐	-9401
큐	-9402
밥	-9403
]	-9404
[	-9405
끈	-9406
값	-9407
릿	-9408
좀	-9409
괄	-9410
젠	-9411
웹	-9412
늦	-9413
몬	-9414
얘	-9415
흔	-9416
묻	-9417
z	-9418
믿	-9419
*	-9420
룩	-9421
돕	-9422
듣	-9423
냉	-9424
릉	-9425
맺	-9426
륙	-9427
웅	-9428
쾌	-9429
쁘	-9430
렀	-9431
꾼	-9432
랩	-9433
곧	-9434
벗	-9435
낌	-9436
q	-9437
윈	-9438
뽐	-9439
넓	-9440
돋	-9441
룸	-9442
팩	-9443
슷	-9444
땅	-9445
줘	-9446
뇌	-9447
옮	-9448
셨	-9449
톱	-9450
퓨	-9451
셋	-9452
몇	-9453
삭	-9454
멀	-9455
걱	-9456
밴	-9457
잉	-9458
몽	-9459
렬	-9460
끄	-9461
흑	-9462
잃	-9463
▶	-9464
냥	-9465
펴	-9466
빼	-9467
뽑	-9468
딜	-9469
젊	-9470
묘	-9471
횡	-9472
꼭	-9473
젤	-9474
멜	-9475
팝	-9476
놨	-9477
닐	-9478
듭	-9479
끊	-9480
+	-9481
븐	-9482
덜	-9483
꼬	-9484
챙	-9485
튼	-9486
챔	-9487
쌓	-9488
랭	-9489
롤	-9490
묵	-9491
믹	-9492
셉	-9493
쌀	-9494
찌	-9495
퀴	-9496
쌍	-9497
칸	-9498
뒀	-9499
둥	-9500
멋	-9501
녁	-9502
숲	-9503
댄	-9504
쿨	-9505
닛	-9506
꺼	-9507
룡	-9508
쓸	-9509
뒷	-9510
깔	-9511
끔	-9512
겁	-9513
밍	-9514
봇	-9515
쁨	-9516
훼	-9517
즘	-9518
킷	-9519
셈	-9520
씀	-9521
섹	-9522
맑	-9523
댓	-9524
밸	-9525
옷	-9526
췄	-9527
쁜	-9528
앉	-9529
밑	-9530
샌	-9531
덴	-9532
깜	-9533
쏟	-9534
쿄	-9535
틸	-9536
◆	-9537
짧	-9538
므	-9539
겐	-9540
랄	-9541
눠	-9542
쏘	-9543
곽	-9544
슴	-9545
옆	-9546
씬	-9547
낭	-9548
뿌	-9549
죠	-9550
쓴	-9551
빚	-9552
흉	-9553
닷	-9554
싼	-9555
얀	-9556
뭐	-9557
됨	-9558
멸	-9559
껴	-9560
룬	-9561
꼼	-9562
벼	-9563
걷	-9564
【	-9565
】	-9566
빗	-9567
떡	-9568
읽	-9569
컷	-9570
닭	-9571
덤	-9572
섯	-9573
텀	-9574
웰	-9575
샘	-9576
밟	-9577
뚜	-9578
캔	-9579
팽	-9580
듬	-9581
훔	-9582
낄	-9583
잊	-9584
탠	-9585
엽	-9586
쏠	-9587
뀌	-9588
☞	-9589
핫	-9590
벅	-9591
숍	-9592
셰	-9593
멕	-9594
윌	-9595
굿	-9596
옹	-9597
붕	-9598
캡	-9599
렛	-9600
핸	-9601
똑	-9602
띠	-9603
딘	-9604
빵	-9605
옵	-9606
샷	-9607
헨	-9608
룰	-9609
멈	-9610
굳	-9611
찮	-9612
밭	-9613
겹	-9614
킴	-9615
툰	-9616
랍	-9617
괜	-9618
궐	-9619
껏	-9620
굉	-9621
깝	-9622
꺾	-9623
옛	-9624
롬	-9625
썼	-9626
딱	-9627
샵	-9628
떼	-9629
쿼	-9630
첩	-9631
벳	-9632
팡	-9633
꿔	-9634
녕	-9635
숭	-9636
켈	-9637
묶	-9638
∼	-9639
엣	-9640
꿀	-9641
맘	-9642
펙	-9643
왼	-9644
훌	-9645
팜	-9646
쥐	-9647
썸	-9648
캘	-9649
쫓	-9650
탓	-9651
닫	-9652
끗	-9653
윙	-9654
훨	-9655
꼈	-9656
쉐	-9657
탱	-9658
튀	-9659
숫	-9660
컸	-9661
렘	-9662
깃	-9663
앗	-9664
휩	-9665
륜	-9666
낀	-9667
힙	-9668
좁	-9669
낚	-9670
틈	-9671
돔	-9672
팎	-9673
띄	-9674
앵	-9675
뻐	-9676
펠	-9677
퀘	-9678
픔	-9679
햇	-9680
뇨	-9681
덱	-9682
→	-9683
낳	-9684
챌	-9685
턱	-9686
뭉	-9687
핏	-9688
쇠	-9689
촛	-9690
맙	-9691
엉	-9692
렷	-9693
냄	-9694
흰	-9695
덮	-9696
뜬	-9697
뤘	-9698
덩	-9699
닮	-9700
볶	-9701
갓	-9702
넌	-9703
잖	-9704
볍	-9705
싫	-9706
릎	-9707
눴	-9708
탬	-9709
웍	-9710
렁	-9711
쥬	-9712
랬	-9713
맵	-9714
넬	-9715
슛	-9716
풋	-9717
눌	-9718
칩	-9719
찔	-9720
킥	-9721
짙	-9722
뼈	-9723
※	-9724
몫	-9725
펄	-9726
휠	-9727
륭	-9728
톰	-9729
━	-9730
붐	-9731
둑	-9732
멍	-9733
쉼	-9734
놈	-9735
윗	-9736
톨	-9737
펌	-9738
곁	-9739
땀	-9740
횟	-9741
붉	-9742
펫	-9743
옐	-9744
뜰	-9745
햄	-9746
잭	-9747
넉	-9748
갱	-9749
뽀	-9750
⁄	-9751
앓	-9752
첼	-9753
칫	-9754
듈	-9755
솟	-9756
곱	-9757
꼴	-9758
켄	-9759
뻔	-9760
뚝	-9761
섞	-9762
툼	-9763
퀸	-9764
닿	-9765
콕	-9766
잎	-9767
밌	-9768
륨	-9769
뮬	-9770
늄	-9771
짚	-9772
곰	-9773
옴	-9774
넨	-9775
낯	-9776
펑	-9777
뉘	-9778
둬	-9779
콧	-9780
탔	-9781
굽	-9782
_	-9783
±	-9784
씻	-9785
슐	-9786
댐	-9787
솜	-9788
헛	-9789
긋	-9790
쩍	-9791
뭔	-9792
퀄	-9793
뭄	-9794
갚	-9795
싹	-9796
캄	-9797
@	-9798
엿	-9799
뀐	-9800
뚫	-9801
잦	-9802
앰	-9803
딕	-9804
렐	-9805
릇	-9806
μ	-9807
궤	-9808
ᆞ	-9809
츄	-9810
딪	-9811
팟	-9812
돗	-9813
낫	-9814
삽	-9815
깐	-9816
땐	-9817
콰	-9818
늬	-9819
찜	-9820
첸	-9821
헝	-9822
샀	-9823
줌	-9824
쩌	-9825
툴	-9826
벚	-9827
꿨	-9828
딴	-9829
벡	-9830
넛	-9831
뭇	-9832
빔	-9833
챈	-9834
샴	-9835
씽	-9836
썬	-9837
뱃	-9838
팁	-9839
넸	-9840
멧	-9841
얽	-9842
쩔	-9843
뤼	-9844
옳	-9845
썰	-9846
홉	-9847
탰	-9848
붓	-9849
뱀	-9850
뜸	-9851
놔	-9852
꾀	-9853
켐	-9854
○	-9855
럿	-9856
쑥	-9857
촘	-9858
갯	-9859
쌈	-9860
뽕	-9861
얇	-9862
샐	-9863
뭘	-9864
뚱	-9865
딥	-9866
젖	-9867
웬	-9868
잼	-9869
겔	-9870
흙	-9871
닦	-9872
굵	-9873
짱	-9874
밋	-9875
몄	-9876
캣	-9877
텃	-9878
뛴	-9879
삿	-9880
쉴	-9881
줍	-9882
겉	-9883
삐	-9884
쯔	-9885
푼	-9886
왓	-9887
즙	-9888
뿜	-9889
녔	-9890
딧	-9891
헐	-9892
쭉	-9893
팰	-9894
퉁	-9895
숄	-9896
캉	-9897
끓	-9898
갇	-9899
쎄	-9900
딤	-9901
{	-9902
쿡	-9903
▷	-9904
궈	-9905
}	-9906
깎	-9907
흠	-9908
됩	-9909
쿤	-9910
쐐	-9911
틋	-9912
괌	-9913
셍	-9914
퀀	-9915
잣	-9916
팸	-9917
탤	-9918
펭	-9919
낡	-9920
딛	-9921
솥	-9922
꽂	-9923
챗	-9924
뜯	-9925
맷	-9926
냅	-9927
튠	-9928
찢	-9929
젓	-9930
쿵	-9931
썹	-9932
콥	-9933
싣	-9934
얹	-9935
꽁	-9936
늠	-9937
뜩	-9938
팍	-9939
랠	-9940
썩	-9941
짠	-9942
끽	-9943
귤	-9944
쪼	-9945
깅	-9946
|	-9947
섀	-9948
띈	-9949
왈	-9950
꽤	-9951
얄	-9952
뀔	-9953
젯	-9954
텝	-9955
떴	-9956
꽉	-9957
닙	-9958
°	-9959
겟	-9960
퐁	-9961
슘	-9962
푹	-9963
튬	-9964
엮	-9965
뺏	-9966
셸	-9967
똘	-9968
탭	-9969
꿇	-9970
뺀	-9971
껍	-9972
큘	-9973
`	-9974
튿	-9975
쫄	-9976
칵	-9977
곶	-9978
뗐	-9979
뵙	-9980
찐	-9981
쥔	-9982
깥	-9983
뻗	-9984
둠	-9985
숏	-9986
욘	-9987
★	-9988
엎	-9989
봅	-9990
낱	-9991
뻤	-9992
춥	-9993
띤	-9994
옌	-9995
