{"<s>":0,"<pad>":1,"</s>":2,"<unk>":3,"<mask>":4,"!":5,"\"":6,"#":7,"$":8,"%":9,"&":10,"'":11,"(":12,")":13,"*":14,"+":15,",":16,"-":17,".":18,"/":19,"0":20,"1":21,"2":22,"3":23,"4":24,"5":25,"6":26,"7":27,"8":28,"9":29,":":30,";":31,"<":32,"=":33,">":34,"?":35,"@":36,"A":37,"B":38,"C":39,"D":40,"E":41,"F":42,"G":43,"H":44,"I":45,"J":46,"K":47,"L":48,"M":49,"N":50,"O":51,"P":52,"Q":53,"R":54,"S":55,"T":56,"U":57,"V":58,"W":59,"X":60,"Y":61,"Z":62,"[":63,"\\":64,"]":65,"^":66,"_":67,"`":68,"a":69,"b":70,"c":71,"d":72,"e":73,"f":74,"g":75,"h":76,"i":77,"j":78,"k":79,"l":80,"m":81,"n":82,"o":83,"p":84,"q":85,"r":86,"s":87,"t":88,"u":89,"v":90,"w":91,"x":92,"y":93,"z":94,"{":95,"|":96,"}":97,"~":98,"¡":99,"¢":100,"£":101,"¤":102,"¥":103,"¦":104,"§":105,"¨":106,"©":107,"ª":108,"«":109,"¬":110,"®":111,"¯":112,"°":113,"±":114,"²":115,"³":116,"´":117,"µ":118,"¶":119,"·":120,"¸":121,"¹":122,"º":123,"»":124,"¼":125,"½":126,"¾":127,"¿":128,"À":129,"Á":130,"Â":131,"Ã":132,"Ä":133,"Å":134,"Æ":135,"Ç":136,"È":137,"É":138,"Ê":139,"Ë":140,"Ì":141,"Í":142,"Î":143,"Ï":144,"Ð":145,"Ñ":146,"Ò":147,"Ó":148,"Ô":149,"Õ":150,"Ö":151,"×":152,"Ø":153,"Ù":154,"Ú":155,"Û":156,"Ü":157,"Ý":158,"Þ":159,"ß":160,"à":161,"á":162,"â":163,"ã":164,"ä":165,"å":166,"æ":167,"ç":168,"è":169,"é":170,"ê":171,"ë":172,"ì":173,"í":174,"î":175,"ï":176,"ð":177,"ñ":178,"ò":179,"ó":180,"ô":181,"õ":182,"ö":183,"÷":184,"ø":185,"ù":186,"ú":187,"û":188,"ü":189,"ý":190,"þ":191,"ÿ":192,"Ā":193,"ā":194,"Ă":195,"ă":196,"Ą":197,"ą":198,"Ć":199,"ć":200,"Ĉ":201,"ĉ":202,"Ċ":203,"ċ":204,"Č":205,"č":206,"Ď":207,"ď":208,"Đ":209,"đ":210,"Ē":211,"ē":212,"Ĕ":213,"ĕ":214,"Ė":215,"ė":216,"Ę":217,"ę":218,"Ě":219,"ě":220,"Ĝ":221,"ĝ":222,"Ğ":223,"ğ":224,"Ġ":225,"ġ":226,"Ģ":227,"ģ":228,"Ĥ":229,"ĥ":230,"Ħ":231,"ħ":232,"Ĩ":233,"ĩ":234,"Ī":235,"ī":236,"Ĭ":237,"ĭ":238,"Į":239,"į":240,"İ":241,"ı":242,"Ĳ":243,"ĳ":244,"Ĵ":245,"ĵ":246,"Ķ":247,"ķ":248,"ĸ":249,"Ĺ":250,"ĺ":251,"Ļ":252,"ļ":253,"Ľ":254,"ľ":255,"Ŀ":256,"ŀ":257,"Ł":258,"ł":259,"Ń":260,"Ġì":261,"Ġë":262,"ìĿ":263,"ĠĠ":264,"Ġê":265,"íķ":266,"ëĭ":267,"ìĹ":268,"ìĿ´":269,"Ġí":270,"ëĭ¤":271,"ëĬ":272,"ëĬĶ":273,"ìĹĲ":274,"ê³":275,"ê°":276,"ë¡":277,"ìĦ":278,"ì§":279,"íķĺ":280,"ë¡ľ":281,"ĠìĿ":282,"ìĿĦ":283,"ìĿĺ":284,"Ġìŀ":285,"ìł":286,"ë¥":287,"ê°Ģ":288,"ìŀ":289,"ê³ł":290,"ì§Ģ":291,"ëı":292,"íķľ":293,"ë¦":294,"¸°":295,"ìľ":296,"ìĦľ":297,"Ġìķ":298,"ê²":299,"ìĭ":300,"ëĵ":301,"Ġìł":302,"ëıĦ":303,"ë¥¼":304,"ë§":305,"ìĿĢ":306,"ĠìĿ´":307,"ìķ":308,"Ĥ¬":309,"ĸ´":310,"Ġê°":311,"ë¦¬":312,"ê¸°":313,"ë©":314,"Ĥĺ":315,"ĠĠĠĠ":316,"Ġë§":317,"ìĬ":318,"ëł":319,"ìľ¼":320,"Ġê²":321,"ĮĢ":322,"ìļ":323,"Ŀ¼":324,"Ġë°":325,"ĠìĹ":326,"Īëĭ¤":327,"ìĸ´":328,"Ġê·":329,"ëĿ¼":330,"Ġìĭ":331,"Īĺ":332,"ìĿ¸":333,"íķ´":334,"Ġëĭ":335,"êµ":336,"ìĬ¤":337,"Ġê·¸":338,"ê²Į":339,"ìľ¼ë¡ľ":340,"ìĹĲìĦľ":341,"ëĤĺ":342,"Ġë³":343,"ëį":344,"Ġê³":345,"ĠìĦ":346,"ëĵ¤":347,"ìĺ":348,"ë©´":349,"ĥģ":350,"Ġì§":351,"Ġëª":352,"ìĭľ":353,"ĠìĤ¬":354,"ë°":355,"ë§Į":356,"ëŀ":357,"Ġìĺ":358,"ëŁ":359,"¶Ģ":360,"Ġ1":361,"ë¬":362,"ë³":363,"ìĽ":364,"ĠìķĦ":365,"ìĻ":366,"£¼":367,"ìŀĲ":368,"ì¹":369,"ë²":370,"Ġíķĺ":371,"ëĲ":372,"ĠìĪĺ":373,"íĸ":374,"ĠìŀĪ":375,"Ġìľ":376,"Ġ2":377,"ìķĦ":378,"ëĮĢ":379,"ĠĠĠ":380,"ê³¼":381,"ëħ":382,"Ġëĵ":383,"ìĤ¬":384,"Ġê°Ģ":385,"Ġë¬":386,"Ĭ¸":387,"ĠëĮĢ":388,"íĥ":389,"Ġëı":390,"ĠëĤ":391,"íĻ":392,"ìŀ¥":393,"Ġíķľ":394,"ì²":395,"Ġê²ĥ":396,"Ġìĭľ":397,"íĬ¸":398,"ëª":399,"ëĵľ":400,"ìĻĢ":401,"Ġë³´":402,"¯¸":403,"Ġëĭ¤":404,"íĺ":405,"¹Ħ":406,"ĨĮ":407,"ìłģ":408,"ĠìłĦ":409,"¤ĳ":410,"Ġêµ":411,"Ġê¸°":412,"ĠëĤĺ":413,"ĠìŀĲ":414,"Ġíķ":415,"ëĭĪ":416,"ĠìĬ":417,"±°":418,"ìłĦ":419,"ë¶Ģ":420,"ìłķ":421,"ĠëĲ":422,"ķĮ":423,"ìĥģ":424,"ëĤ":425,"ë©°":426,"ìļ°":427,"íĦ":428,"ìĪĺ":429,"íķĺëĬĶ":430,"Ġì§Ģ":431,"ìĿ¼":432,"Ġìļ":433,"ëį°":434,"ëĲĺ":435,"ê¸":436,"ĠìŀĪëĭ¤":437,"Ġìłķ":438,"ì§Ģë§Į":439,"ëħĦ":440,"ŀĪ":441,"¡°":442,"ìĦ±":443,"ĠìĿ¼":444,"íĦ°":445,"Ġëª¨":446,"ìĿ´ëĭ¤":447,"ì£¼":448,"ëŁ¬":449,"ĠëķĮ":450,"Ġë²":451,"ì°":452,"Ġë§Ī":453,"ĽĦ":454,"ĠíĮ":455,"ì¹ĺ":456,"ìĹĪëĭ¤":457,"Ġì°":458,"Ġëį":459,"ìļ©":460,"ĥĿ":461,"Ġìĥģ":462,"ĠíĻ":463,"Ġíĺ":464,"ìłľ":465,"ìĭł":466,"Ġë¶":467,"ëł¤":468,"Ġì¹":469,"íŀĪ":470,"êµŃ":471,"ë¬¸":472,"íĶ":473,"ë³´":474,"íĮ":475,"íĻĶ":476,"Ġê²½":477,"ĠìĹĨ":478,"Ġìľł":479,"ĠìĬ¤":480,"ëł¥":481,"Ġì£¼":482,"Ġê³µ":483,"ê·":484,"ĠíĶ":485,"Ġì¶":486,"ë¥´":487,"Ġì²":488,"Ġìłľ":489,"ĠìĿ¸":490,"êµ¬":491,"Ġíĥ":492,"ë§Ī":493,"ĠìķĬ":494,"Ġì¤ĳ":495,"¹Į":496,"Ġíı":497,"ê°Ħ":498,"Ġë¶Ģ":499,"ìķ¼":500,"ì§Ħ":501,"ìĹ¬":502,"Ġìĸ´":503,"ë£":504,"ëıĻ":505,"ìĽĲ":506,"ëįĺ":507,"ģ¬":508,"Ġ3":509,"ĠìĻ":510,"ìĹĲê²Į":511,"ìĹĪ":512,"´Ģ":513,"Ġìĺ¤":514,"Ġ20":515,"íķł":516,"íķĺê³ł":517,"ìĺ¤":518,"íĨ":519,"ë¯¸":520,"Ġë¬´":521,"Ġëĵ±":522,"íĥĢ":523,"ì¦":524,"ëłĪ":525,"ĠëĲĺ":526,"ê²©":527,"ĠìĨĮ":528,"ĠìľĦ":529,"ë¶":530,"Ġë¹Ħ":531,"ĠìĽ":532,"íķľëĭ¤":533,"Ĩį":534,"Ġìĸ":535,"ê¹Į":536,"ļĮ":537,"ê±°":538,"ĠĠĠĠĠ":539,"Ġì¢":540,"Ġíķ´":541,"ëªħ":542,"ĠìĹ¬":543,"ëŀĺ":544,"íĤ":545,"±´":546,"Ġê³ł":547,"Ġíĸ":548,"Ġë§Į":549,"ĠëĶ":550,"ìĦł":551,"íĸĪëĭ¤":552,"ĠìŀĪëĬĶ":553,"ĠëĤ´":554,"ìĸ":555,"ë²Ħ":556,"ëĲľ":557,"ĳĲ":558,"ëĦ":559,"ì²´":560,"Ġë°Ķ":561,"ë¹Ħ":562,"Ġë¯¸":563,"ìĨĮ":564,"ë¬´":565,"ĠëĦ":566,"Ġë§Ĳ":567,"ìľĦ":568,"ê³Ħ":569,"ëĭ¹":570,"ìĤ":571,"Ġì¡°":572,"ìĺĢ":573,"ìŀĳ":574,"ìĽĶ":575,"ì¡":576,"ìĿĮ":577,"ìĿ´ëĿ¼":578,"½Ķ":579,"Ġê±°":580,"ĠĠĠĠĠĠ":581,"íĭ":582,"ĠìĿĺ":583,"Ġë©":584,"ĠìĦ±":585,"ĠìĥĿ":586,"ĠëıĻ":587,"ìĭĿ":588,"ìļ´":589,"ĠìĤ":590,"ìĭ¤":591,"ĠëķĮë¬¸":592,"ĠìķĪ":593,"ĠëıĦ":594,"ì¶":595,"íĸĪ":596,"íı":597,"ëĭ¨":598,"Ġëħ":599,"Ġë°©":600,"ê³µ":601,"íĽĦ":602,"íģ¬":603,"ĠìĦł":604,"ë¶Ħ":605,"Ġìĺģ":606,"ìŀ¬":607,"ĠìĹ°":608,"ëĶ":609,"ì¤":610,"íĤ¤":611,"ìŀĦ":612,"Ġìĭł":613,"Ġë°ľ":614,"ĠíĽĦ":615,"Ġíķľëĭ¤":616,"Ġêµ¬":617,"ë¥¸":618,"ìļĶ":619,"ëĵ¤ìĿ´":620,"´Ī":621,"ìĦ¸":622,"ì¡°":623,"Ġìŀ¥":624,"íķĺê²Į":625,"íļĮ":626,"ê¹Įì§Ģ":627,"ë©´ìĦľ":628,"Ġ4":629,"íħ":630,"ëĬ¥":631,"ĠíĨ":632,"ìĪ":633,"ì¹´":634,"íķĻ":635,"ìķĺ":636,"ĠìĦ¸":637,"ì¤ĳ":638,"ì°¨":639,"ëĬĶëį°":640,"µľ":641,"íĸī":642,"ĠëĿ¼":643,"ìĹĲëĬĶ":644,"ë¬¼":645,"ëŀĮ":646,"İ¸":647,"Ġìłģ":648,"Ġë§İ":649,"Ġë¶Ī":650,"ë¯":651,"Ġê°ľ":652,"Ġìļ°":653,"Ġê²Į":654,"Ġ5":655,"Ġìµľ":656,"ì¦Ī":657,"ë£¨":658,"íĶĦ":659,"ìľł":660,"êµĲ":661,"ĠëįĶ":662,"Ġëĭ¹":663,"ìłĲ":664,"Ġìĭ¤":665,"ìĥĿ":666,"ë¦°":667,"Ġê¹":668,"ìĨį":669,"ĠíĬ":670,"ĠëĬ":671,"Ġê°Ļ":672,"ê°ľ":673,"Ġê°ķ":674,"Ġê¸":675,"ëĤ´":676,"Ġê²°":677,"ë°ĺ":678,"Ġì§Ħ":679,"ê·¸":680,"Ġë¬¸":681,"Ġë¹":682,"ĠìĦľ":683,"ë¸":684,"Ġì¹´":685,"Ġ201":686,"Ġëĵ¤":687,"ìĹ°":688,"ê°ģ":689,"ìĹŃ":690,"ĠìĽĲ":691,"ìĬµ":692,"Ī¬":693,"ĠìķĮ":694,"íķĺëĭ¤":695,"ìĹĲìĦľëĬĶ":696,"ĳľ":697,"Ġê²½ìļ°":698,"êµ°":699,"ìłģìľ¼ë¡ľ":700,"ĠíĥĢ":701,"ĠíĮĮ":702,"ëª¨":703,"ĠíĬ¹":704,"ĠëķĮë¬¸ìĹĲ":705,"Ġë°ĺ":706,"ëŁ°":707,"Ġê´Ģ":708,"ìħ":709,"00":710,"ê²½":711,"ĠëĲľ":712,"íĨł":713,"ê´Ģ":714,"íĺ¸":715,"ìłģìĿ¸":716,"ì¤Ģ":717,"ìķĪ":718,"Ġëħ¸":719,"ëĵł":720,"ìľ¼ë©°":721,"Ġë¦":722,"ìłĢ":723,"ìĤ°":724,"íĭ°":725,"ë°©":726,"Ġëĺ":727,"ë³¸":728,"ê¸ī":729,"ë¦¬ê³ł":730,"ê±´":731,"Ġìŀĳ":732,"Ġë°Ľ":733,"Ġëª»":734,"ĠìĤ¬ëŀĮ":735,"Ġëĭ¨":736,"ë¡Ŀ":737,"Ġíı¬":738,"ë²Ī":739,"ĠëĨ":740,"ĠìĹĲ":741,"ì¸":742,"±¸":743,"Ġìĵ":744,"ĠìĹŃ":745,"ĠëĤ¨":746,"ĠìŀĲìĭł":747,"íķ´ìĦľ":748,"ê¸Ī":749,"ì¢":750,"Ġì°¨":751,"Ġë¡":752,"ëĭ¤ëĬĶ":753,"Ġëł":754,"¶Į":755,"Ġì¢ĭ":756,"Ġë¬¼":757,"ë¶ĢíĦ°":758,"ë¨":759,"ëĥ":760,"ëłĪìĿ´":761,"ĠìĿ´íĽĦ":762,"ìĺģ":763,"ëĳĲ":764,"ĠëĶ°":765,"ì¼":766,"Ġì¶Ķ":767,"ëĶĶ":768,"íĥľ":769,"ë°ľ":770,"ĠíĺĦ":771,"ĠìĪ":772,"Ġë¦¬":773,"íķĺê¸°":774,"Ġëģ":775,"ĠìķĦëĭĪ":776,"Ġë³¸":777,"ĠëĺĲ":778,"ëĤľ":779,"ĠìĤ¬ìļ©":780,"ĠíĶĦ":781,"íķĺìĹ¬":782,"Ġë°°":783,"ĠíĿ":784,"ìĺĢëĭ¤":785,"ëĭĪëĭ¤":786,"íĺķ":787,"Ġë§¤":788,"ë²ķ":789,"Ġë¨":790,"ë¡ł":791,"ìĹħ":792,"ëĮĢë¡ľ":793,"ĠS":794,"Ġì¶ľ":795,"ĠëłĪ":796,"ì²ĺ":797,"ìĺ¨":798,"ĠíĶ¼":799,"ì½Ķ":800,"ì¢ħ":801,"íĮĮ":802,"Ġê³Ħ":803,"Ġë²Ħ":804,"ë¯¼":805,"Ġ19":806,"ëįĶ":807,"Ġëį°":808,"Ġëĭ¬":809,"ëħ¸":810,"ë¦Ħ":811,"íĨµ":812,"ìŀħ":813,"ëĭ¤ê³ł":814,"ĠíĹ":815,"Ġì£":816,"ĠíĨµ":817,"Ġì´Ī":818,"ë¸Į":819,"Ġíģ":820,"ĠëĪ":821,"Ġ6":822,"Ġê°Ĳ":823,"ĠëĳĲ":824,"ëŀĢ":825,"íķĺë©´":826,"íĶ¼":827,"íĮĲ":828,"Ġê±´":829,"Ġì±":830,"Ġì¦":831,"íĴ":832,"ĠêµŃ":833,"ĠìĺĪ":834,"ëĵ¤ìĿĢ":835,"Ġìĥ":836,"ĠìłķëıĦ":837,"Ġìŀ¬":838,"ìĪł":839,"ìĿ´ëĤĺ":840,"Ġìº":841,"ĠìłĢ":842,"ìĭ¬":843,"Ġìŀħ":844,"ìĬ¹":845,"Ġëĵľ":846,"íı¬":847,"ë°Ķ":848,"ì§ģ":849,"Ġë¶Ħ":850,"ĠìĨ":851,"Ġëĭ¤ë¥¸":852,"Ġíķł":853,"Ġíķ¨":854,"Ġì¤":855,"Ġê³µê²©":856,"Ġíģ¬":857,"ëĵ¤ìĿĦ":858,"ëĿ¼ëĬĶ":859,"ìĸĳ":860,"Ġê²ĥìĿ´":861,"ìł¸":862,"Ġì½Ķ":863,"Ġê¹Ģ":864,"ìĥ":865,"Ġì°¸":866,"Ġë¡ľ":867,"ìĽĮ":868,"ĠìłĲ":869,"íĹ":870,"Ġ7":871,"Ġì»":872,"ìĬ¤íĬ¸":873,"ĠìļĶ":874,"Ġíİ¸":875,"íķĺì§Ģ":876,"ìĹĲëıĦ":877,"ĠìĦ¤":878,"Ġìŀĺ":879,"ê»":880,"ĠêµĲ":881,"íĪ¬":882,"Ġíķĺì§Ģë§Į":883,"ì»":884,"Ġ8":885,"ëĿ¼ê³ł":886,"ĠëĲľëĭ¤":887,"Ġê·¸ë¦¬ê³ł":888,"ĠíĮ¨":889,"íħĮ":890,"ëĵ¤ìĿĺ":891,"ë¦¬ëĬĶ":892,"ê¸°ë¥¼":893,"ìħĺ":894,"ìĨ":895,"ê¶Į":896,"İĺ":897,"ëŀĳ":898,"Ġì£½":899,"ĠëıĮ":900,"ĠA":901,"Ġìĺ¬":902,"Ġìĵ°":903,"Ġê³¼":904,"ĠëĴ":905,"Ġíıī":906,"Ġê±¸":907,"ĠíķĺëĬĶ":908,"ì§ĢëĬĶ":909,"ëĲĺìĹĪëĭ¤":910,"ìľ¼ëĤĺ":911,"ê¸°ëıĦ":912,"Ġëªħ":913,"Ġëĸ":914,"Ġë¸":915,"Ġ10":916,"ê²ĥ":917,"Ġëĵ±ìŀ¥":918,"ĠM":919,"Ġê´":920,"ëŁ¼":921,"¿ł":922,"ê¸°ìĹĲ":923,"Ġëĵ¤ìĸ´":924,"ì§Ī":925,"ĠíĻĶ":926,"ì¡±":927,"Ġì²ĺ":928,"ĠìĤ´":929,"ĠìĤ¬ìĭ¤":930,"Ġë§ŀ":931,"Ġì¡":932,"ĠìĻ¸":933,"Ġê·¸ëŁ¬":934,"íĳľ":935,"ĠíĻķ":936,"Ġê°ĻìĿĢ":937,"Ġê°ĢëĬ¥":938,"íķ©":939,"íĻ©":940,"ëŁī":941,"Ġ9":942,"´Ŀ":943,"ìķ½":944,"íģ":945,"íķĺë©°":946,"Ġë©Ķ":947,"ĠíĶĮ":948,"íķ¨":949,"Ġìĭ¬":950,"į¼":951,"ìĦ¤":952,"ĠíķĺëĤĺ":953,"Ġì§ģ":954,"ìĦĿ":955,"ì¶ľ":956,"ĠëĮĢíķľ":957,"ëĬĶëĭ¤":958,"ë§¤":959,"ĠìºĲ":960,"Ġë³Ģ":961,"ĠìķĦìĿ´":962,"ëĲĺìĸ´":963,"ĠìĥĿê°ģ":964,"in":965,"ìļ¸":966,"ĠìĨį":967,"ĠëĴ¤":968,"Ġíĺ¸":969,"Ġíŀ":970,"ê»ĺ":971,"Ġê²ĮìŀĦ":972,"ìķĺëĭ¤":973,"ëĦ¤":974,"ë£Į":975,"ª½":976,"ë³ĳ":977,"ëķĮ":978,"ë³µ":979,"ë³´ëĭ¤":980,"ë¦Ń":981,"ì¡Į":982,"íĴĪ":983,"ê±°ëĤĺ":984,"ìłĪ":985,"ì²Ń":986,"ĠíķĦ":987,"ĠC":988,"Ġìķł":989,"ë§Ŀ":990,"ìĻ¸":991,"ë©Ķ":992,"ĠT":993,"ì¸ł":994,"íİ¸":995,"ëłĩ":996,"ĠíļĮ":997,"ĠëĨĴ":998,"íĸ¥":999,"ëł¨":1000,"ëĭ¤ê°Ģ":1001,"Ġëª¨ìĬµ":1002,"Ġì¹ĺ":1003,"ëģ":1004,"ë¥ĺ":1005,"ë¨¸":1006,"ëł¹":1007,"ì´Ī":1008,"er":1009,"ë°°":1010,"íĺĦ":1011,"ĠíķĻ":1012,"ë¦¬ë¥¼":1013,"Ġìĭľìŀĳ":1014,"ëĦĪ":1015,"ê²ł":1016,"ìĸ¸":1017,"ëħĢ":1018,"ê°Ĳ":1019,"Ġë¬¸ìłľ":1020,"ëĵ±":1021,"Ġì¢ħ":1022,"ìĶ":1023,"Ġíĸī":1024,"Ġê²ĥìĿ´ëĭ¤":1025,"Ġìĸ¸":1026,"ê´":1027,"ĠëĤł":1028,"Ġìķ½":1029,"ĠíĸĪ":1030,"Ġíķ¨ê»ĺ":1031,"Ġìļ´":1032,"Ġê°Ħ":1033,"ĠìĹĨëĭ¤":1034,"Ġëª©":1035,"ë§Ĳ":1036,"Ġíļ":1037,"Ġê²ĥìĿĦ":1038,"ìĸ´ìĦľ":1039,"ê¸°ê°Ģ":1040,"ĠB":1041,"ĠíĤ":1042,"Ġíħ":1043,"ĠíĻľ":1044,"ĠëĤĺìĺ¤":1045,"ĠíķľêµŃ":1046,"íĻĺ":1047,"Ġë²Ī":1048,"ĠĠĠĠĠĠĠĠ":1049,"ì²ľ":1050,"ĠíĸĪëĭ¤":1051,"ĠíĬ¸":1052,"Ġë°ķ":1053,"ìŀĪ":1054,"Ġì²´":1055,"ëĲľëĭ¤":1056,"Ġë§Įëĵ¤":1057,"Ġíŀĺ":1058,"Ģë¡ľ":1059,"ë¹":1060,"Ġì¡´":1061,"ĠìľĦíķ´":1062,"Ġì§ĳ":1063,"ëĲĺëĬĶ":1064,"Ġê°ģ":1065,"ĠìĨĲ":1066,"ìĤ´":1067,"ĠD":1068,"Ġìĸĳ":1069,"ì²ĺëŁ¼":1070,"ì³":1071,"Ŀ½":1072,"ĠìĿ´ìĥģ":1073,"ĠìĬ¹":1074,"ëł¸":1075,"ĠëģĿ":1076,"ĠëĦĪ":1077,"Ġíĳľ":1078,"ĠìĿ¼ë³¸":1079,"ë¦¬ê°Ģ":1080,"ê¸´":1081,"ê°ķ":1082,"ĢìĿ´":1083,"Ġëĭ¤ìĭľ":1084,"ĠëĶ°ëĿ¼":1085,"ĠìĤ¬ìĿ´":1086,"ë§ī":1087,"ĠìĬ¤í":1088,"íĹĺ":1089,"Ġ0":1090,"Ġìŀ¡":1091,"ĠëĺĲíķľ":1092,"ĠìĹĨëĬĶ":1093,"íĿ":1094,"ĠíĨł":1095,"Ġìĸ´ë":1096,"ìĹĲìĦľëıĦ":1097,"ĠìŀĪìĹĪ":1098,"ìĿ´ëĿ¼ê³ł":1099,"Ġê°Ģìŀ¥":1100,"ìĨ¡":1101,"ëıħ":1102,"ĠìĪľ":1103,"ë¦¼":1104,"ĠìĻĦ":1105,"ëĿ½":1106,"Ķëĭ¤":1107,"Ġëıħ":1108,"ê²°":1109,"ĠëĲĺìĹĪëĭ¤":1110,"ĠP":1111,"ëł¥ìĿĦ":1112,"ìĿ´ëĿ¼ëĬĶ":1113,"ĠìĹ´":1114,"Ġë£":1115,"ë¦½":1116,"on":1117,"ëª©":1118,"ĠìĿ´ë¦Ħ":1119,"ìľ¼ë©´":1120,"ì§Ģê³ł":1121,"Ġêµ°":1122,"ĠëĶĶ":1123,"ì¦Į":1124,"ĠíĪ¬":1125,"ëĭ´":1126,"Ġê·¼":1127,"·¨":1128,"ĠìĥģíĻ©":1129,"Ġëª¨ëĳĲ":1130,"ìĬ¤íĦ°":1131,"ĠìĥĪ":1132,"ìĥī":1133,"ëĭ¬":1134,"Ġëĭ¹ìĭľ":1135,"Ġíĺķ":1136,"Ġë³¼":1137,"Ġê²ĥìĿĢ":1138,"ì¿ł":1139,"Ġë¯":1140,"ì§Ģë¥¼":1141,"ĠíĮĢ":1142,"ĠìĥģëĮĢ":1143,"ĠëĤľ":1144,"ì±":1145,"Ġê·¸ëŁ°":1146,"íĥĦ":1147,"ĠíĮĲ":1148,"ì§ĳ":1149,"Ġë§ī":1150,"Ġì´Ŀ":1151,"ëĭĮ":1152,"ê·¼":1153,"ëł¥ìĿ´":1154,"ĠíĴ":1155,"ê¸°ëĬĶ":1156,"ìª½":1157,"Ġê²°êµŃ":1158,"Ġt":1159,"ĠìŀĪìĹĪëĭ¤":1160,"an":1161,"ë¦ŃíĦ°":1162,"Ġìķŀ":1163,"ê²¨":1164,"ĠíĤ¤":1165,"ëĤł":1166,"ĠL":1167,"íĺĢ":1168,"Ġë²ł":1169,"ĠF":1170,"Ġì±Ħ":1171,"ëĿ¼ìĿ´":1172,"Ġëª¨ëĵł":1173,"ëĬĲ":1174,"Ġ200":1175,"Ġ12":1176,"íĮ¨":1177,"ĠëĪĪ":1178,"ìķħ":1179,"Ġë§İìĿ´":1180,"ë´":1181,"íį¼":1182,"ĠìºĲë¦ŃíĦ°":1183,"Ġìĭľê°Ħ":1184,"ìĿ´ê³ł":1185,"Ġì¦Ŀ":1186,"ĠíıŃ":1187,"Ġíķĺê³ł":1188,"Ġì¹ľ":1189,"Ġë¹ł":1190,"ĠíŀĪ":1191,"Ġìķ¼":1192,"Ġëĭ¤ë§Į":1193,"Ġë¨¹":1194,"ìĺĪ":1195,"Ġíģ´":1196,"Ġë³´ìĹ¬":1197,"ĠíĶĮëłĪìĿ´":1198,"Ġê·¸ëŁ¬ëĤĺ":1199,"ìĹĨ":1200,"ĠíĶĦë¡ľ":1201,"Ġìĸ¼":1202,"Ġê²ĥìľ¼ë¡ľ":1203,"ĠëĦĺ":1204,"Ġê·¸ëŀĺ":1205,"Ġë³Ħ":1206,"ĠG":1207,"Ġìļ©":1208,"ì§¸":1209,"ëĥĲ":1210,"ĠìĿĮ":1211,"Ġë´":1212,"Ġíĥľ":1213,"Ġë³´ë©´":1214,"Łģ":1215,"ĠëĬ¥":1216,"Ġë³µ":1217,"ĠíĦ":1218,"ìĿ´ë©°":1219,"ìĿ´ëĬĶ":1220,"Ġíļ¨":1221,"¨ìĸ´":1222,"ê³¡":1223,"ĠëĦ¤":1224,"ë°Ľ":1225,"ìĿ´ìĹĪ":1226,"ĠI":1227,"ëĥ¥":1228,"ìĻķ":1229,"íķĺìĺĢëĭ¤":1230,"ĠëĪĦ":1231,"Ġëĵ¯":1232,"Ġìĸ´ëĸ":1233,"ìĿ´ì§Ģ":1234,"ì³Ĳ":1235,"ëĨ":1236,"ĠìŀĲìĭłìĿĺ":1237,"Ġíģ°":1238,"Ġìĥģíĥľ":1239,"íķĺë©´ìĦľ":1240,"Ġì¶©":1241,"ëĤ¨":1242,"Ġì¡´ìŀ¬":1243,"ìŁģ":1244,"ìĿ´íĬ¸":1245,"ĠíķŃ":1246,"Ġê·¸ëłĩ":1247,"ĠíħĮ":1248,"ì¡´":1249,"íĥĿ":1250,"Ġê´ĳ":1251,"ìłĳ":1252,"ĠìĻķ":1253,"Ġìī":1254,"Ġs":1255,"Ġëĳ":1256,"ìĹĶ":1257,"ìŀĲê°Ģ":1258,"ĠëĬĲ":1259,"Ġë§¤ìļ°":1260,"ĠE":1261,"ìĬ¤ë¥¼":1262,"Ġì»¤":1263,"¿Ĳ":1264,"ë³Ħ":1265,"ë°ķ":1266,"Ġë§İìĿĢ":1267,"ĠìĿĢ":1268,"Ġíķ©":1269,"ìĦ±ìĿ´":1270,"Ġì¶Ķê°Ģ":1271,"ĠíĺĦìŀ¬":1272,"Ġì°¾":1273,"Ġë°ı":1274,"Ġë¬¼ë¡ł":1275,"Ġì¤Ħ":1276,"ĠìĿ´ëŁ°":1277,"íĬ":1278,"ìĬ¤ìĿĺ":1279,"ë²Ķ":1280,"ë¯Ģë¡ľ":1281,"or":1282,"Ġë£¨":1283,"Ġê²Ģ":1284,"ĠìķĦëĭĪëĿ¼":1285,"ĠìŀĦ":1286,"ĠìĤ¼":1287,"Ġë³ĳ":1288,"ĠëĤĺìĺ¨":1289,"ìĿ´ìĹĪëĭ¤":1290,"Ġì²ľ":1291,"ë¦¬ì¦Ī":1292,"ëĲĺìĹĪ":1293,"ê°ĢëĬĶ":1294,"íļ":1295,"Ġì¤Ģ":1296,"ìĬ¤ê°Ģ":1297,"Ġ11":1298,"Ġìķħ":1299,"íķŃ":1300,"ĠK":1301,"ê¹":1302,"Ġìĥģëĭ¹":1303,"Ġë¸Į":1304,"Ġì½":1305,"ëĵ¤ìĹĲê²Į":1306,"ĠìĹĦ":1307,"ĠíĽ":1308,"íĶĮ":1309,"Ġê¸Ī":1310,"ë²¨":1311,"Ġë¸Ķ":1312,"Ġì·¨":1313,"Ġìĭľì¦Į":1314,"ar":1315,"ĠN":1316,"Ġìĭ¸":1317,"ĠìĿ´ìľł":1318,"he":1319,"Ġìĸ»":1320,"ĠìķĦëĭĮ":1321,"ìĿ¸ëĭ¤":1322,"ê²¬":1323,"ì»¤":1324,"ĠìŀĲì²´":1325,"ë¦´":1326,"ê¸Ģ":1327,"ĠëıĮìķĦ":1328,"ĠR":1329,"Ġê¸¸":1330,"ĠìĭĿ":1331,"Ġë°Ķë¡ľ":1332,"ëĵĿ":1333,"íķĻêµĲ":1334,"Ġëĭ¤ìĿĮ":1335,"ìĿ¸ìĿ´":1336,"ĠìłĦíĪ¬":1337,"Ġìĭ¤ìłľ":1338,"Ġì¼":1339,"ĠíķĦìļĶ":1340,"Ġíİĺ":1341,"ĠH":1342,"ìĹ´":1343,"Ġëŀ":1344,"Ġì²«":1345,"ê°Ģì§Ģ":1346,"Ġê°Ī":1347,"Ġì²ĺìĿĮ":1348,"ĠìĦ¸ê³Ħ":1349,"ĠìłĪ":1350,"ĠìĤ°":1351,"ì¹ľ":1352,"ìĽĢ":1353,"ìĿ¸ëį°":1354,"ĠìķĬëĬĶ":1355,"íħľ":1356,"ĠìĿ´ë¯¸":1357,"Ġë°±":1358,"Ġê·¹":1359,"íĥĪ":1360,"Ġëľ":1361,"ĠìĹŃìĭľ":1362,"ĠìķĦë¬´":1363,"ĠìĹ¬ëŁ¬":1364,"ìĬµëĭĪëĭ¤":1365,"ĠìĿ´ìļ©":1366,"ëĵ¤ê³¼":1367,"ëŀľ":1368,"ìĤ¬ë¥¼":1369,"ou":1370,"íĻľ":1371,"ê±¸":1372,"ĠìĹħ":1373,"Ġë²Į":1374,"íģ¼":1375,"ì¶Ķ":1376,"íĦ´":1377,"ì¡Įëĭ¤":1378,"ĠíĹĪ":1379,"ë¦¬ìķĦ":1380,"ĠìĻĢ":1381,"ë¸Ķ":1382,"ìĪľ":1383,"ìĿ¸ì§Ģ":1384,"Ġìĺ¨":1385,"Ġë¯¼":1386,"íķ´ìķ¼":1387,"Ġê±°ìĿĺ":1388,"ì§Ħëĭ¤":1389,"ĠìĦłìĪĺ":1390,"Ġë¨¸":1391,"į¨":1392,"at":1393,"ë¶Ģë¶Ħ":1394,"ĠíĬ¹íŀĪ":1395,"Ġê½":1396,"ëĿ¼ëıĦ":1397,"Ġëª¨ìĬµìĿĦ":1398,"Ġìĭľë¦¬ì¦Ī":1399,"ì§Ģê°Ģ":1400,"ì½":1401,"ĠìķĬê³ł":1402,"Ġíĭ":1403,"ĠëĲĺìĸ´":1404,"ĠíĮ¬":1405,"ë²ł":1406,"Ġìŀł":1407,"Ġê¸°ìĪł":1408,"íķĺìŀĲ":1409,"Ġê³³":1410,"Ġíķ´ëĭ¹":1411,"Ġë°Ģ":1412,"ì°½":1413,"ìĭľíĤ¤":1414,"ĠìĿ´ìķ¼":1415,"Ġëª°":1416,"Ġë¯¸êµŃ":1417,"íİĺ":1418,"ìĤ¬ê°Ģ":1419,"ìĥģìĿĦ":1420,"Ġë¥":1421,"Ġìĭ¶":1422,"Ġì¢ĭìĿĢ":1423,"Ġì¹´ëĵľ":1424,"ìĸ´ëĤĺ":1425,"Ġíļ¨ê³¼":1426,"ĠíĻ©":1427,"íĭĢ":1428,"Ġê¸°ë¡Ŀ":1429,"ëıĦê°Ģ":1430,"ê¸°ë¡ľ":1431,"Ġ15":1432,"ĠìĬ¤íĤ¬":1433,"Ġì¦ī":1434,"ëĭĺ":1435,"ĠW":1436,"ĠO":1437,"ëĵ¯":1438,"ì£":1439,"ë¦¬ìĬ¤":1440,"ë¥ł":1441,"ì°¬":1442,"Ġê°ĻìĿ´":1443,"ëıĮ":1444,"ëŁ½":1445,"íĸĪëįĺ":1446,"ê°Ļ":1447,"ëĦĲ":1448,"ë¶Ī":1449,"ĠìŀĪìľ¼ë©°":1450,"Ġëĸ¨ìĸ´":1451,"Ġì°½":1452,"ĠìĪĺëıĦ":1453,"ë¦°ëĭ¤":1454,"ì¼Ģ":1455,"ë°±":1456,"Ġë¶Ļ":1457,"ì°©":1458,"ìľ¨":1459,"Ġëĳĺ":1460,"ì¼ľ":1461,"Ġì¸":1462,"ëĳ":1463,"Ġì¢Ģ":1464,"Ġì£¼ìĿ¸":1465,"ĠìĿ¼ë°ĺ":1466,"Ġê²½ê¸°":1467,"Ġíĺ¼":1468,"ì§Ģë§ī":1469,"ìĿ´ì§Ģë§Į":1470,"ìĹĲìĦł":1471,"le":1472,"Ġì§Ħíĸī":1473,"ĠíĻĺ":1474,"ê°Ī":1475,"ë§ģ":1476,"ĠíĨµíķ´":1477,"ìľ¡":1478,"ìĦ±ìĿĦ":1479,"ë³Ģ":1480,"ĠìŀĪëĬĶëį°":1481,"ĠìŀĪìĿĦ":1482,"ĠìĿ¸ê°Ħ":1483,"ìŀ¥ìĿĦ":1484,"Ġê¼":1485,"Ġì§Ģê¸Ī":1486,"Ġê³¡":1487,"Ġíľ":1488,"ìĺ¬":1489,"ì¦Ŀ":1490,"ĠìĹĶ":1491,"ìķĦìĦľ":1492,"Ġì²Ń":1493,"ìĿ´ê°Ģ":1494,"Ġë¶Ģë¶Ħ":1495,"ê´ĳ":1496,"ì£¼ëĬĶ":1497,"Ġì§ĢìĹŃ":1498,"ì°°":1499,"ĠëĿ¼ê³ł":1500,"ĠëĿ¼ìĿ´":1501,"Ġëĸł":1502,"ëĪ":1503,"Ġê·Ģ":1504,"Ġë°Ŀ":1505,"ê·¹":1506,"ĠíĥĪ":1507,"íķĺì§Ģë§Į":1508,"ĠëĲĺëĬĶ":1509,"ĠìĬĪ":1510,"ĠĠĠĠĠĠĠĠĠĠ":1511,"Ġìĸ´ëĬĲ":1512,"ê¸¸":1513,"Ġê³ĦìĨį":1514,"ĠëĮĢë¶Ģë¶Ħ":1515,"Ġìħ":1516,"Ġê¶Į":1517,"Ġëªĩ":1518,"Ġë³´ê³ł":1519,"Ġë§Īì§Ģë§ī":1520,"ĠìķĬëĬĶëĭ¤":1521,"Ġë¿Ĳ":1522,"Ġë¶ģ":1523,"ĠìŀĪìĸ´":1524,"ë§¨":1525,"íĤ¨":1526,"Ġê´Ģëł¨":1527,"Ġê¸°ë³¸":1528,"íĺ¼":1529,"Ġëª¸":1530,"Ġíİ":1531,"ëĤ¬":1532,"Ġê³¨":1533,"ĠíĦ°":1534,"Ġëĭ´":1535,"ê´´":1536,"¶ģ":1537,"en":1538,"ĠëŃ":1539,"ìľ¼ëĭĪ":1540,"ëĨĵ":1541,"ĠìķĬìĿĢ":1542,"Ġì°¸ê³ł":1543,"ìłĦíŀĪ":1544,"ìĬ¬":1545,"ì£¼ìĿĺ":1546,"ê·ľ":1547,"ëģ¼":1548,"Ġëĭ¬ë¦¬":1549,"Ġê·¸ëĥ¥":1550,"ì²ł":1551,"íĿ¬":1552,"ĠìłķëıĦë¡ľ":1553,"ë¥´ëĬĶ":1554,"Ġì²ł":1555,"ìĬ·":1556,"Ġìĺ¬ëĿ¼":1557,"ĠëŁ":1558,"ĠìĤ¬ê±´":1559,"Ġm":1560,"ĠëĦĪë¬´":1561,"ë¡ľëĬĶ":1562,"ìĿĳ":1563,"ëł¸ëĭ¤":1564,"íĸĪê³ł":1565,"ë¨¹":1566,"Ġë§Įëĵ¤ìĸ´":1567,"ĠìŀĳíĴĪ":1568,"ĠìķĬìķĺ":1569,"íŀ":1570,"ìī":1571,"ì§ķ":1572,"ĠìĪĺì¤Ģ":1573,"Ġë¹ĦìĬ·":1574,"Ġw":1575,"ìłķìĿĦ":1576,"ĠëĲł":1577,"Ġê°Ģì§Ģê³ł":1578,"ĠëĤ´ìļ©":1579,"ĠíĶ¼íķ´":1580,"ĠëĿ¼ëĬĶ":1581,"ĩ´":1582,"ĠìŀĪê³ł":1583,"ìĸµ":1584,"ìķł":1585,"ë¡Ģ":1586,"ëĲĺê³ł":1587,"Ġë²Ķ":1588,"ëıĦë¡Ŀ":1589,"ĠìĿ¼ë¶Ģ":1590,"Ġê²ĥëıĦ":1591,"Ġë°©ìĨ¡":1592,"Ġ30":1593,"Ġë³´ìĿ¸ëĭ¤":1594,"ĠĊ":1595,"ëª¬":1596,"Ġë§Īë²ķ":1597,"ĠìĿ¸íķ´":1598,"al":1599,"ê³¤":1600,"Ġì¿ł":1601,"Ľ°":1602,"ìĸ´ê°Ģ":1603,"ĠìĿ´ë¥¼":1604,"Ġì£¼ìĿ¸ê³µ":1605,"ìĭľìķĦ":1606,"¾¸":1607,"ĠíĥĦ":1608,"Ġíķĺëĭ¤":1609,"ĠìĺģíĻĶ":1610,"ĠëĤ®":1611,"Ġë§ĪìĿĮ":1612,"Ġìĥģëĭ¹íŀĪ":1613,"ë¦¬ìĹĲ":1614,"ī´":1615,"Ġb":1616,"ĠìĬ¤íĥĢ":1617,"ĠëĮĢíķ´":1618,"ĠëĮĢìĭł":1619,"ìĿ¸ìĿĺ":1620,"ĠíĴĢ":1621,"20":1622,"ì±ħ":1623,"it":1624,"ĠìĦ±ê³µ":1625,"ĠìĹ¬ê¸°":1626,"ìŀĲë¥¼":1627,"Ġê·¸ëħĢ":1628,"êµ´":1629,"ìŀĲìĿĺ":1630,"ëĵľëĬĶ":1631,"ìĻĶ":1632,"re":1633,"Ġê·¸ëĮĢë¡ľ":1634,"ĠìĹĨìĿ´":1635,"ĠìĿ´ìłĦ":1636,"íıī":1637,"Ġë²ķ":1638,"ìĬ¨":1639,"ëĵ¤ëıĦ":1640,"íĬ¸ë¥¼":1641,"ĠëłĪìĿ´":1642,"ìĬ¤ë¡ľ":1643,"is":1644,"ëĵľë¥¼":1645,"Ġ100":1646,"ë²Į":1647,"ĠíĹ¤":1648,"ĸìĹĲ":1649,"Ġì¢ĭìķĦ":1650,"Ġë§¡":1651,"ëł¤ê³ł":1652,"ë²¤":1653,"ìĪĺê°Ģ":1654,"ì¶ķ":1655,"Ġ18":1656,"ĠëĬĺ":1657,"ìŀ¥ìĿ´":1658,"Ġì§Ī":1659,"ê±°ë¦¬":1660,"Ġ199":1661,"ì§ĢëıĦ":1662,"Ġìłľìŀĳ":1663,"ĠìĿĺë¯¸":1664,"íİ":1665,"ĠëĨĴìĿĢ":1666,"ìĭľìĹĲ":1667,"ìĬ¤ëĬĶ":1668,"Ġìłĳ":1669,"ĠëĽ°":1670,"íģ´":1671,"ì§ľ":1672,"Ġì¤ĳêµŃ":1673,"Ġ16":1674,"ìŀ¡":1675,"ìŀĪëĬĶ":1676,"ĠìĽĶ":1677,"ë¡ľìļ´":1678,"Ġëįķ":1679,"íĮĢ":1680,"ĠìłľìĻ¸":1681,"ĠV":1682,"ĠìĹĺ":1683,"ë§Īëĭ¤":1684,"ëŀµ":1685,"ì¹Ń":1686,"ëħĦìĹĲ":1687,"Ġê²©":1688,"Ġìļ°ë¦¬":1689,"Ġì§ģìłĳ":1690,"ĠëĤĺíĥĢ":1691,"ë³¼":1692,"ì´Ŀ":1693,"ë·":1694,"ĠĠĠĠĠĠĠ":1695,"ĠìĿ´ëĬĶ":1696,"ĠëĲĺìĹĪ":1697,"ĠìŀĲê¸°":1698,"Ġëħ¼":1699,"Ġê²½ìļ°ê°Ģ":1700,"ĠíĻľëıĻ":1701,"ìº":1702,"ê·Ģ":1703,"ĠìķĶ":1704,"ĠìĽĮ":1705,"ĠëĬ¥ëł¥":1706,"ëĬĺ":1707,"Ġë§İëĭ¤":1708,"Ġìĸ¸ê¸ī":1709,"ĠìľĦì¹ĺ":1710,"Ġë©´":1711,"Ġê·¸ê²ĥ":1712,"ëľ":1713,"ë¥´ê²Į":1714,"Ġê°ĸ":1715,"Ġë°ĽìķĦ":1716,"Ġê·¸ìĿĺ":1717,"ĠíĮĶ":1718,"Ġê¸°ì¤Ģ":1719,"ĠìŀĲìĭłìĿ´":1720,"ìĤ¬ìĿĺ":1721,"ĠìĿ´ìĸ´":1722,"ìŀĲëĬĶ":1723,"ìľĦë¥¼":1724,"ing":1725,"ìĭľê°Ħ":1726,"ë°Ģ":1727,"ĠìĿ¸ë¬¼":1728,"ìĪĺë¥¼":1729,"ìĶ¨":1730,"ĠêµŃê°Ģ":1731,"ĠìŀĪì§Ģë§Į":1732,"ëıĦë¥¼":1733,"ìĹĨìĿ´":1734,"íļį":1735,"ĠìĽĲëŀĺ":1736,"ĠëĮĢíĳľ":1737,"íķĺìĺĢ":1738,"Ġì±ħ":1739,"ì¸µ":1740,"ëħĲ":1741,"ê³¨":1742,"Ġê²°ê³¼":1743,"ĠìĿ´ê²ĥ":1744,"ìłķìĿ´":1745,"ĠëĤĺìĺ¤ëĬĶ":1746,"ì¹¨":1747,"ìļ±":1748,"ì¹ĺëĬĶ":1749,"Ġì¶ķ":1750,"íĮħ":1751,"ëĤ¸":1752,"Ġê´Ģê³Ħ":1753,"¤ë²Ħ":1754,"Ġê³¼ê±°":1755,"ëıĦë¡ľ":1756,"Ġëĵ±ìĿĺ":1757,"Ġê´´":1758,"ìŀĪëĭ¤":1759,"Ġìĵ¸":1760,"Ġìī½":1761,"ëĭµ":1762,"Ġë¨¼":1763,"Ġì°¾ìķĦ":1764,"ìĻĢìĿĺ":1765,"ëĶ©":1766,"ĠìľłìłĢ":1767,"ìłĦìĿĦ":1768,"ìĶ©":1769,"ĠìĦłíĥĿ":1770,"íķĺëĬĶëį°":1771,"íķĦ":1772,"Ġë°©ìĸ´":1773,"Ġìļ¸":1774,"ëĲł":1775,"ĠìĦľìļ¸":1776,"ĠìĿ´ëıĻ":1777,"ĠìŀĪëįĺ":1778,"Ġë§ĲìĿĦ":1779,"ìĦľëĬĶ":1780,"ĠìĿ´ëłĩ":1781,"ĠìĹĦì²Ń":1782,"ĠëĦ£":1783,"ì¸¡":1784,"ëĭĽ":1785,"Ġ13":1786,"ĠìĭľìłĪ":1787,"ĠU":1788,"ìļ°ëĬĶ":1789,"ëĮĢìĿĺ":1790,"ëĢ":1791,"ĠëıĪ":1792,"Ġì§ĢëĤĺ":1793,"ĠìŀĪëĭ¤ëĬĶ":1794,"Ġê°Ĳëıħ":1795,"Ġë°©ë²ķ":1796,"Ġë©¤ë²Ħ":1797,"ĠíĥĢìĿ´":1798,"ĠìĤ¬ëŀĳ":1799,"ë¶ģ":1800,"Ġì¡°ê¸Ī":1801,"ĠíĻį":1802,"Ĳëĭ¤":1803,"Ġíģ¬ê²Į":1804,"Ġíĸ¥":1805,"íĻĶë¥¼":1806,"Ġìĸ´ëĸ¤":1807,"ĠëķĮë¬¸ìĿ´ëĭ¤":1808,"ìłĲìĿĦ":1809,"ëĵľê°Ģ":1810,"ĠìĿ´ëŁ¬":1811,"Ġìĭ¤ìłľë¡ľ":1812,"Ġë§Ŀ":1813,"Ġíıīê°Ģ":1814,"ĠìłĦì²´":1815,"ëį¸":1816,"íķĺëįĺ":1817,"es":1818,"ĠìķłëĭĪ":1819,"Ġf":1820,"ê¸°ìĿĺ":1821,"ìĩ":1822,"ĠìĿ´ìĹĲ":1823,"Ġë°ĶëĢ":1824,"ĠìķĦëĭĪëĭ¤":1825,"íĻķ":1826,"Ġíĺ¹":1827,"ĠìĻľ":1828,"ì¤ĳìĹĲ":1829,"ì¤Ģëĭ¤":1830,"ë´ī":1831,"ìĿ´ìĬ¤":1832,"ì¤Ħ":1833,"ë¦¬ìĿĺ":1834,"ëĮĢë¥¼":1835,"ë¦¬ì§Ģ":1836,"ìĻĶëĭ¤":1837,"Ġê½¤":1838,"Ġìŀ¥ë©´":1839,"Ġê¹Į":1840,"íıŃ":1841,"êµŃìĿĺ":1842,"ëĵľìĿĺ":1843,"ĠëıĻìķĪ":1844,"íĽ":1845,"Ġëįĺ":1846,"Ġìľ¡":1847,"Ġ14":1848,"Ġê·ľ":1849,"ĠìĬ¬":1850,"Ġíķĺì§Ģ":1851,"Ġc":1852,"Ġê·¸ëŁ°ëį°":1853,"ëĭĿ":1854,"ìĽĲìĿ´":1855,"Ġì»¨":1856,"ì¹ĺë¥¼":1857,"ìĥģìĿ´":1858,"Ġìª½":1859,"Ġì¦Ŀê°Ģ":1860,"ê³¼ëĬĶ":1861,"Ġì¹ľêµ¬":1862,"ë¦¬ìĸ´":1863,"ĠìķĮëł¤":1864,"Ġì¤ĳìļĶ":1865,"ë©ĶìĿ´":1866,"ëªħìĿ´":1867,"íĤ¬":1868,"Ġë¥¼":1869,"íĬ¸ê°Ģ":1870,"Ġê¸ī":1871,"Ġìłķë§Ĳ":1872,"ĠìķĦì§ģ":1873,"íľ":1874,"ĠëĤĺìĺ¨ëĭ¤":1875,"ĠìĤ¬ëŀĮìĿ´":1876,"ë¨¸ëĭĪ":1877,"ĠìłľëĮĢë¡ľ":1878,"Ġd":1879,"ì¹ĺê°Ģ":1880,"ĠìķĦë²Ħ":1881,"Ġì´Īë°ĺ":1882,"ê²¼":1883,"ĠíĢ":1884,"ìĿ¸ìĿĦ":1885,"ĠìľĦíķľ":1886,"ĠëŁ¬":1887,"ìĿ´ìŀĲ":1888,"ĠëĭĪ":1889,"ĠëĨĵ":1890,"ĠìĬ¤íĨł":1891,"Ġê¸Ģ":1892,"Ġë§Įëĵł":1893,"ĠìĿ´ëķĮ":1894,"Ġê·¸ëŀĺìĦľ":1895,"ĠëĤĺëĬĶ":1896,"Ġë¬ĺ":1897,"ĠìķĬìķĺëĭ¤":1898,"ìķĻ":1899,"ìĭĿìĿĦ":1900,"ĠìłĦë¶Ģ":1901,"ìĹ¼":1902,"ëĲĺì§Ģ":1903,"Ġëĵ£":1904,"Ġìķķ":1905,"Ġìµľê³ł":1906,"Ġìľłëªħ":1907,"ëĪĦ":1908,"Ġìı":1909,"Ġê°ĳ":1910,"Ġê°ľë°ľ":1911,"ĠìĤ¬ëĿ¼":1912,"ë²Īì§¸":1913,"Ġë¶Īê°Ģ":1914,"Ġì§ĢìĽĲ":1915,"ìī¬":1916,"Ġë°ľìĥĿ":1917,"ĠìŀĲì£¼":1918,"ìĸ¼":1919,"Ġê¿":1920,"Ġíķ´ëıĦ":1921,"Ġíį¼":1922,"ĠìłĦìŁģ":1923,"Ġìĺģíĸ¥":1924,"ìĿ´ê¸°":1925,"ê²Ģ":1926,"ĠìĦľë¡ľ":1927,"Ġë³´ìĹ¬ì£¼":1928,"ĠíĿ¬":1929,"ĠìµľëĮĢ":1930,"ë§Įíģ¼":1931,"Ġëª¬":1932,"Ġíĭ°":1933,"ëªħìĿĦ":1934,"íķĺê¸°ëıĦ":1935,"Ġëĭ¹ìĹ°":1936,"ëĤĺëĬĶ":1937,"ĠìĿ´ëłĩê²Į":1938,"Ġì¹¨":1939,"ic":1940,"ë²½":1941,"ĠìĿ´ë£¨":1942,"ìĽħ":1943,"ĠìĤ´ìķĦ":1944,"ĠìŀĪìĸ´ìĦľ":1945,"ìŀĲë¡ľ":1946,"Ġ17":1947,"Ġëķ":1948,"Ġê¸°ì¡´":1949,"Ġ25":1950,"íŀĪëł¤":1951,"Ġì°¸ê³łë¡ľ":1952,"ëįķ":1953,"ĠìĶ":1954,"Ġê¹¨":1955,"Ġë¹Ħíķ´":1956,"ĠìĤ¬ë§Ŀ":1957,"ìĿ´ë¥¼":1958,"as":1959,"ĠìłģìĿ´":1960,"ĠìĤ¬íļĮ":1961,"Ġëľ»":1962,"Ġìĺ¤íŀĪëł¤":1963,"Ġë§Īì°¬":1964,"ĠìĿĺíķ´":1965,"Ġê·¸ëłĩê²Į":1966,"ĠX":1967,"ìį¨":1968,"ĠëĨĢ":1969,"Ġthe":1970,"Ġì¹¼":1971,"ìĨĲ":1972,"ĠìĿ¸íĦ°":1973,"ĠìľłëĭĽ":1974,"Ġë¹¨":1975,"Ġë§Īì°¬ê°Ģì§Ģ":1976,"ëłĮ":1977,"Ġë¹ĦêµĲ":1978,"®¤":1979,"Ġ2020":1980,"ìĬ¤íĥĢ":1981,"ĠíĻĪ":1982,"Ġíĺĳ":1983,"ì¼ĵ":1984,"ê°ĳ":1985,"íĽĪ":1986,"ĠëłĪë²¨":1987,"ë¡Ń":1988,"Ġìłķìĭł":1989,"Ġ2018":1990,"Ġìĸ´ëĸ»":1991,"ìĿĮìĿĦ":1992,"ëĬĶì§Ģ":1993,"íŀĮ":1994,"Ġíı¬íķ¨":1995,"ìłĦìĹĲ":1996,"ìĿ¼ìĹĲ":1997,"ìĸ´ë¡ľ":1998,"íĸĪìĿĦ":1999,"Ġì°į":2000,"ìłĦìĹĲìĦľ":2001,"ĠìĿ´ëŁ¬íķľ":2002,"ìĻĢëĬĶ":2003,"ĠìķĮê³ł":2004,"ĠìĮ":2005,"ìľ¼ë¡ľëĬĶ":2006,"Ġ2019":2007,"ê³³":2008,"Ġëį°ë¯¸":2009,"Ġê°ĢëĬ¥íķĺëĭ¤":2010,"ĠëģĮ":2011,"Ġë©Ģ":2012,"ĠìĹ°êµ¬":2013,"Ġì£¼ë¡ľ":2014,"ĠëĬĶ":2015,"ìĸ´ëĤľ":2016,"ìģ":2017,"Ġë°Ķê":2018,"ãģ":2019,"ĠíķĻìĥĿ":2020,"ĠìĹŃíķł":2021,"Ġë½":2022,"Ġì¸¡":2023,"íĸĪì§Ģë§Į":2024,"Ġëī´":2025,"ĠJ":2026,"Ġìĸ´ëł¤":2027,"Ġíķĺë©´":2028,"íĴį":2029,"ĠìĹĨìĸ´":2030,"Ġìĺģìĥģ":2031,"íķĺëł¤":2032,"ì§Ģìĸ´":2033,"ĠìĦ¤ìłķ":2034,"ìĦ¼":2035,"ac":2036,"Ġìĸ´ëĸ»ê²Į":2037,"ê²©ìĿĦ":2038,"Ġì¶ľìĹ°":2039,"ëłµ":2040,"Ġëħ¸ëŀĺ":2041,"ìĿ¸ìĿĢ":2042,"ĠìĿ´ë²Ī":2043,"ĠíķĻêµĲ":2044,"Ġíĥĳ":2045,"Ġê¶ģ":2046,"Ġo":2047,"ì»¬":2048,"Ġíķĺë©°":2049,"Ġê°Ģì§Ħ":2050,"Ġê°ķëł¥":2051,"ĠìķĦìĿ´íħľ":2052,"íķĺê±°ëĤĺ":2053,"ad":2054,"Ġë¹Į":2055,"ê°ĻìĿĢ":2056,"Ġë¬´ê¸°":2057,"ĠìķĦìĺĪ":2058,"ê³¼ìĿĺ":2059,"Ġìĩ":2060,"Ġìļ´ìĺģ":2061,"Ġì¢ĭëĭ¤":2062,"ĠìĿ´ìłľ":2063,"Ġë¹¼":2064,"ëıĻìķĪ":2065,"Ġp":2066,"ìĿµ":2067,"ĠëĤ´ê°Ģ":2068,"Ġë¨¼ìłĢ":2069,"Ġê²°ìłķ":2070,"ĠëĲĺê³ł":2071,"Ġê²Įëĭ¤ê°Ģ":2072,"ĠìĿ´ë²¤":2073,"000":2074,"ìĺ¤ëĬĶ":2075,"ĠëĨį":2076,"ĠìĿ¼ìĿ´":2077,"ì©":2078,"ĠìĹ¬ìĦ±":2079,"ĠìŀĪëĭ¤ê³ł":2080,"Ġê·¸ëĬĶ":2081,"Ġë´ī":2082,"Ġìľłì§Ģ":2083,"ĳ¸":2084,"ì¶©":2085,"om":2086,"ìłĲìĿ´":2087,"Ġëĥ":2088,"Ġìłķë³´":2089,"ì±Ħ":2090,"Ġë´Ĳ":2091,"ìĺĢëįĺ":2092,"ĠíĽĦë°ĺ":2093,"ìĥĪ":2094,"ìĪĻ":2095,"Ġ2017":2096,"Ġë°ľë§¤":2097,"ĠìĤ¬ìĭ¤ìĥģ":2098,"Ġ50":2099,"Ġì°©":2100,"ëĭĪê¹Į":2101,"ìĤ¬ëĬĶ":2102,"Ġê³µìĭĿ":2103,"ìĹĲìĦľìĿĺ":2104,"ëĵľë¡ľ":2105,"ê°Ŀ":2106,"ĠìĿ¼ëĭ¨":2107,"Ġë°ĶëŀĮ":2108,"ĠìĹĨìĹĪ":2109,"ë¬¼ìĿĦ":2110,"ĠíĸīëıĻ":2111,"ëħĦëĮĢ":2112,"Ġìµľì¢ħ":2113,"ĠíĮĮê´´":2114,"ë¶ĦìĹĲ":2115,"Ġê°Ģê¹Į":2116,"Ġê·¸ëŀĺëıĦ":2117,"ëĤĺë§Ī":2118,"ìĺ¥":2119,"Ġìĭ¬ì§Ģìĸ´":2120,"Ġê°Ģì§Ģ":2121,"ëĭ¤ë©´":2122,"Ġ2016":2123,"Ġíŀĺëĵ¤":2124,"ĠìŀĶ":2125,"Ġë³´íĨµ":2126,"Ġìĸ¼ë§Ī":2127,"ĠìĿĦ":2128,"ĠìĨĮìĨį":2129,"Ġëĵ±ìĿĦ":2130,"Ġìį¨":2131,"ìĿ´ìĸ´":2132,"Ġì¶ľìĭł":2133,"ĠëĬĲëĤ":2134,"ĠìĥĪë¡ľìļ´":2135,"ë°ĸìĹĲ":2136,"Ġëĵ¤ìĸ´ê°Ģ":2137,"Ġëª¬ìĬ¤íĦ°":2138,"Ġìķ¨":2139,"ĠíĿĶ":2140,"íĸĪëĭ¤ê³ł":2141,"Ġë³Ģê²½":2142,"Ġë¶Ģì¡±":2143,"Ġê³µê°ľ":2144,"ëŀ¨":2145,"Ġíĺķíĥľ":2146,"íľĺ":2147,"ìĬĪ":2148,"ĠìĦ±ëĬ¥":2149,"ë¥´ê³ł":2150,"Ġì¿":2151,"ëįĶëĿ¼ëıĦ":2152,"ĠëĤ´ëł¤":2153,"ĠìĨĮíĻĺ":2154,"ĠìĹĨìĹĪëĭ¤":2155,"ëª»":2156,"ë¥´ë©´":2157,"ìĪĺìĿĺ":2158,"íĻĶê°Ģ":2159,"Ġë¦¬ê·¸":2160,"ìŀĦìĿĦ":2161,"ĠëĵľëŁ¬":2162,"Ġh":2163,"ëŀĻ":2164,"ĠìĦ¤ëªħ":2165,"Ġë§Įíģ¼":2166,"Ġìļ°ìĬ¹":2167,"ĠìķĦëŀĺ":2168,"Ġë¹ĦìĬ·íķľ":2169,"ë¨¼":2170,"ĠëĶľ":2171,"ìĽĲìĿĦ":2172,"el":2173,"íļ¨":2174,"Ġìĸ¼êµ´":2175,"ĠìľłìĿ¼":2176,"ìĽł":2177,"íĤ¹":2178,"ĠëıĻìĭľìĹĲ":2179,"ë©¸":2180,"ĠìĻĦìłĦíŀĪ":2181,"ë£¡":2182,"am":2183,"ëĤ´ëĬĶ":2184,"Ġê°Ļëĭ¤":2185,"ìĭľì¼ľ":2186,"íĺĳ":2187,"ĠëĮĢíķľë¯¼":2188,"íĩ´":2189,"ëĤĺê°Ģ":2190,"íĬ¸ë¡ľ":2191,"ĠíĶĦë¦¬":2192,"ĠíĶĮëłĪìĿ´ìĸ´":2193,"ìļ´ëĵľ":2194,"īìŀ¥":2195,"ĠìłĦíĺĢ":2196,"ĠìľĦíķ´ìĦľ":2197,"Ġë°ĶëĢĮ":2198,"Ġã":2199,"Ġ198":2200,"ĠìĽĢ":2201,"ì§ĢìĿĺ":2202,"ë³´ë©´":2203,"íĻĶìĹĲìĦľ":2204,"ëĮĢê°Ģ":2205,"Ġëª¨ìĸĳ":2206,"íı°":2207,"ì¿":2208,"ĠìĿ´ìķ¼ê¸°":2209,"ìĵ":2210,"ĠëıĦìĭľ":2211,"ow":2212,"ĠëķĮëĬĶ":2213,"us":2214,"ê°Ħëĭ¤":2215,"ìĿ´ê¸°ëıĦ":2216,"Ġ2015":2217,"ĠíıĲ":2218,"ìĿ´íĦ°":2219,"Ġë½ĳ":2220,"Ġìŀĥ":2221,"íĬ¼":2222,"ìĬ¤íħľ":2223,"Ġíķľë²Ī":2224,"ë¥¸ëĭ¤":2225,"ìŀĲìĿ¸":2226,"ìĬ¤ìĻĢ":2227,"ĠìłĦìĹĲ":2228,"ĠìĪľê°Ħ":2229,"ë³´ëĭ¤ëĬĶ":2230,"Ġë²ĦìłĦ":2231,"Ġë§ĮëĤĺ":2232,"ĠíĻķìĿ¸":2233,"ë¦¬ê·¸":2234,"íħĲ":2235,"ĠëĺĲëĬĶ":2236,"ëĿ¼ìĿĺ":2237,"ĠìķĬìķĦ":2238,"ë¡ľìĦľ":2239,"Ġê¸°ìĸµ":2240,"ìĹĺ":2241,"ĠìĨ¡":2242,"ì´":2243,"ìĶ¬":2244,"ay":2245,"Ġë¬¸ìĦľ":2246,"ĠìĬĪíį¼":2247,"Ġë°©ìĭĿ":2248,"ìĽĥ":2249,"ĠìĹ¬ìŀĲ":2250,"Ġë§ĪìĿ´":2251,"ìŀħëĭĪëĭ¤":2252,"ë¡¯":2253,"Ġíĺ¹ìĿĢ":2254,"ĠìŀĲìĦ¸":2255,"Ġê¸°ìĤ¬":2256,"Ġê°ķíĻĶ":2257,"ìłģìĿ´":2258,"Ġìłķì¹ĺ":2259,"Ġë¶Īê°ĢëĬ¥":2260,"ĠìŀĲìľł":2261,"ëªħìĿĺ":2262,"ĠìĦ±ê²©":2263,"Ġê·¸ë¦¬":2264,"Ġìłģìļ©":2265,"ĠëĤľìĿ´":2266,"ĠìĬ¹ë¦¬":2267,"Ġ21":2268,"Ġì£¼ìŀ¥":2269,"íĥģ":2270,"ëģĶ":2271,"ĠëŃĲ":2272,"Ġë¬¸ìłľê°Ģ":2273,"ëŁŃ":2274,"íķľëĭ¤ëĬĶ":2275,"ìĥģìľ¼ë¡ľ":2276,"íĶ½":2277,"ĠëĶ°ëĿ¼ìĦľ":2278,"êµ¬ë¥¼":2279,"Ġêµīìŀ¥":2280,"ëľ¨":2281,"Ġy":2282,"ĠíĻľìķ½":2283,"Ġëĵľëŀĺ":2284,"ë¦¬ì¹´":2285,"ĠíĿĳ":2286,"Ġìĭ¤íĮ¨":2287,"ëłī":2288,"ĠëıħìĿ¼":2289,"ìĸ´ë²Ħ":2290,"ì§Ģë¡ľ":2291,"ìķķ":2292,"Ġì¢Į":2293,"Ġìī¬":2294,"Ġë°ľê²¬":2295,"Ġíľ´":2296,"Ġì£¼ë³Ģ":2297,"et":2298,"Ġê·¸ëĤĺë§Ī":2299,"ì°¸":2300,"Ġìµľì´Ī":2301,"ĠìĿĮìķħ":2302,"Ġëª¨ëį¸":2303,"ëĦ·":2304,"ion":2305,"ìĸ´ëıĦ":2306,"ì¡°ì°¨":2307,"Ġê°Ģìł¸":2308,"Ġë°°ìļ°":2309,"Ġìłķë¶Ģ":2310,"ĠíĳľíĺĦ":2311,"íķ´ëıĦ":2312,"íĬ¸ìĿĺ":2313,"ìĽĢìĿĦ":2314,"Ġn":2315,"ĠíĶĦëŀĳ":2316,"ĠìĽĢì§ģ":2317,"ĠìĿĳ":2318,"ëĿ¼ë§Ī":2319,"ĠëıĻìĿ¼":2320,"Ġê²¬":2321,"ĠìĨĶ":2322,"Ġì´":2323,"ì°®":2324,"ed":2325,"ĠìŀĪê¸°":2326,"ĠíĮ¨ë°°":2327,"ëĿ¼ê°Ģ":2328,"ê·¸ëŀ¨":2329,"ĠìŀĲìĭłìĿĦ":2330,"ë¹ł":2331,"Ġêµ¬ìĦ±":2332,"ë¡¤":2333,"º¼":2334,"Ġì¼ĢìĿ´":2335,"ĠíĬ¹ìĪĺ":2336,"ĠìĽĲìŀĳ":2337,"Ġê²½ìļ°ëıĦ":2338,"íĸĪëĬĶëį°":2339,"Ġíķ´ìĦľ":2340,"Ġë¯¿":2341,"Ġë°ĺìĿĳ":2342,"¢°":2343,"ĠìĤ¬ëŀĮëĵ¤ìĿ´":2344,"ĠëįĶìļ±":2345,"ĠíļĮë³µ":2346,"Ġê·¸ë¦¼":2347,"ĠêµŃëĤ´":2348,"ĠìĭľìĬ¤íħľ":2349,"ĠìĪ¨":2350,"ë¹Ħë¥¼":2351,"ĠìĤ¬ì§Ħ":2352,"ĠìĥĿìĤ°":2353,"Ġíķĺë£¨":2354,"ê°ĦìĹĲ":2355,"Ġê¸´":2356,"ë¦¬ìĺ¤":2357,"ëĮĢìĹĲ":2358,"ĠìĬ¤íĬ¸":2359,"Ġìĸ´ëĶĶ":2360,"êµ°ìĿĺ":2361,"Ġìĵ°ëĬĶ":2362,"ìĿ´ëĵľ":2363,"Ġë¹Ľ":2364,"ëŀľëĵľ":2365,"ĠìĽĥ":2366,"Ġê¸°ëĬ¥":2367,"ĠíŀĺìĿĦ":2368,"ĠìłķíĻķ":2369,"ĠY":2370,"Ġ2014":2371,"ìķĦê°Ģ":2372,"ĠëĶ¸":2373,"ĠëĤĺê°Ģ":2374,"ìĸ´ë¥¼":2375,"ìĹĩ":2376,"Ġìľ¤":2377,"Ġëįķë¶ĦìĹĲ":2378,"Ġìĸ´ëłµ":2379,"ìºĲ":2380,"ëĿ¼ë©´":2381,"Ġëħ¹":2382,"ĠìĬ¤íħĮ":2383,"íķľíħĮ":2384,"Ġê¿Ī":2385,"Ġë°Ľê³ł":2386,"ĠíĮ¨íĦ´":2387,"ĠìŀĪê²Į":2388,"ëĤ¬ëĭ¤":2389,"ëıĦìĿĺ":2390,"Ġìŀħìŀ¥":2391,"ĠíķĺëĬĶëį°":2392,"Ġì°¨ì§Ģ":2393,"ĠíĴį":2394,"Ġì¶ľìĭľ":2395,"ìĭľíĤ¨":2396,"ìĹĪê³ł":2397,"ĠëĦĺìĸ´":2398,"ìĦłìĿĦ":2399,"ĠìĦ¬":2400,"ĠìķĦì£¼":2401,"ëıĦëĬĶ":2402,"ë°į":2403,"ĠìĦ±ìļ°":2404,"Ġíİ¸ìĿ´ëĭ¤":2405,"ĠíĸĪì§Ģë§Į":2406,"ĠíĺĦìĭ¤":2407,"Ġë°ĶìĿ´":2408,"ĠìĿ¸ìłķ":2409,"Ġë³´ìĬ¤":2410,"Ġë¹Ī":2411,"Ġl":2412,"ĠìŀĲì²´ê°Ģ":2413,"Ġìŀĳì¤ĳ":2414,"íĸĪìľ¼ë©°":2415,"ëĵ±íķĻêµĲ":2416,"ìĽĲìĿĺ":2417,"ê°Ģê°Ģ":2418,"ìľ¼ë¯Ģë¡ľ":2419,"ĠìĿ´ë£¨ìĸ´":2420,"Ġìĭľê°ĦìĿ´":2421,"ĠìĿ´íķ´":2422,"ì£Ħ":2423,"ì§ĢìĹĲ":2424,"ê²łì§Ģë§Į":2425,"ì²´ë¥¼":2426,"ëĭī":2427,"íĥķ":2428,"ì³¤":2429,"ë¬¸ìĿĦ":2430,"ì¹ł":2431,"Ġë§ĲìĿ´":2432,"ìŀ¥ìĿĺ":2433,"ĠìķĬëĭ¤":2434,"ëĶĶìĺ¤":2435,"Ġì½ĺ":2436,"Ġëĵ±ìĿ´":2437,"Ġa":2438,"ol":2439,"ĠìĿ½":2440,"Ġê³Ħíļį":2441,"ì¹ĺê³ł":2442,"ì²Ļ":2443,"ìĿ´ìĹĪëįĺ":2444,"ì·¨":2445,"and":2446,"ìļķ":2447,"Ġëĭ¤ìĸĳ":2448,"ë£¹":2449,"Ġìĵ´":2450,"Ġê²¨":2451,"Ġì°¨ëŁī":2452,"íĶĦíĬ¸":2453,"ĠìĹĨê³ł":2454,"Ġê²½ì°°":2455,"Ġëĭµ":2456,"ê·ł":2457,"Ġì³":2458,"ê°Ķ":2459,"ĠìĦ¼":2460,"Ġëª»íķĺê³ł":2461,"Ġìĥ¤":2462,"ĠëĤĺìĻĢ":2463,"Ġìĩ¼":2464,"ëĮĢíķľ":2465,"ìĬ¤ëŁ¬":2466,"ëł¥ìĿĢ":2467,"íĸĪëĭ¤ëĬĶ":2468,"ĠëĶ±":2469,"ĠìĺģìĽħ":2470,"ig":2471,"Ġë°ľëıĻ":2472,"Ġëª»íķľ":2473,"Ġ24":2474,"ë©ĶìĿ´ìħĺ":2475,"ë·°":2476,"ê°ľìĿĺ":2477,"ĠëĮĢì²´":2478,"Ġê±":2479,"Ġê°ľìĿ¸":2480,"Ġìĥī":2481,"íĨµëł¹":2482,"il":2483,"ĠìķĮìķĦ":2484,"Ġêµīìŀ¥íŀĪ":2485,"ve":2486,"ìĬ¤íģ¬":2487,"Ġëĭ¨ìĪľ":2488,"ĠìķĦë§Ī":2489,"ĠíĻķìĭ¤":2490,"ĠìĿµ":2491,"ĠëĤ¨ìŀĲ":2492,"ĠíĬ¹ìĦ±":2493,"Ġë°ĽìĿĢ":2494,"ìĥģìĿĺ":2495,"ìłľê°Ģ":2496,"Ġë§µ":2497,"ĠìĪĺê°Ģ":2498,"Ġì§Ħì§ľ":2499,"íļĮìĿĺ":2500,"Ġìĸ´ë¨¸ëĭĪ":2501,"Ġë§ĪìĿĦ":2502,"ĠíĻķë¥ł":2503,"Ġëķħ":2504,"Ġê²½íĹĺ":2505,"ĠíĽĪ":2506,"ĠìĤ¬ìļ©íķĺëĬĶ":2507,"Ġíľĺ":2508,"Ġëĭ´ëĭ¹":2509,"ì¼°":2510,"Ġ40":2511,"Ġë¬»":2512,"ĠëĮĢíķ´ìĦľ":2513,"ìĿ´ëĿ¼ë©´":2514,"ĠìĭľìłĲ":2515,"ìłľë¥¼":2516,"ì§Ģì§Ģ":2517,"Ġë°ĿíĺĢ":2518,"ĠìĪĺë¡Ŀ":2519,"Ġê°ĢëĬ¥íķľ":2520,"Ġëĭ¤ë¥´":2521,"íĺģ":2522,"Ġì§ĢìĨį":2523,"ĠíĽ¨":2524,"Ġìī½ê²Į":2525,"ĠëĮĢíķĻ":2526,"ĠìĹĲíĶ¼":2527,"ëĵ¤ìĹĲ":2528,"Ġë§Īì°¬ê°Ģì§Ģë¡ľ":2529,"Ġìĸĺ":2530,"ê°ĲìĿĦ":2531,"íĺ¹":2532,"ìľ¼ë©´ìĦľ":2533,"Ġof":2534,"ëĭ¥":2535,"ĠíĮĲë§¤":2536,"ĠíĬ¹ì§ķ":2537,"ìķ¡":2538,"px":2539,"Ġì¤ĳìĭ¬":2540,"ĠìŀĲëıĻ":2541,"Ġìĸ´ë¦°":2542,"ìĪĺëĬĶ":2543,"ĩĮ":2544,"ë¹Ī":2545,"ê²łëĭ¤":2546,"Ġìķ¨ë²Ķ":2547,"ĠìľĦíĹĺ":2548,"ìĹĪëįĺ":2549,"Ġíĩ´":2550,"Ġì°¸ìĹ¬":2551,"ë¢°":2552,"ê³Ħë¥¼":2553,"ĠìĹŃìĤ¬":2554,"ĠìļĶêµ¬":2555,"Ġë¬´ìĹĩ":2556,"ë¿Ĳ":2557,"Ġëĭ¹ìĭł":2558,"Ġì½ľ":2559,"ê¶ģ":2560,"ĠíĽ¨ìĶ¬":2561,"Ġê°ĢëĬĶ":2562,"ê°Ķëĭ¤":2563,"ĠĠĠĠĠĠĠĠĠ":2564,"ì§Ŀ":2565,"Ġë°¤":2566,"Ġëĭ¹ìĹ°íŀĪ":2567,"ĠìķĬìĿĦ":2568,"Ġë¶ĦìľĦ":2569,"Ġì£¼ìĿĺ":2570,"ĠìķłëĭĪë©ĶìĿ´ìħĺ":2571,"ëĭĪìķĦ":2572,"ëį¤":2573,"ĠìĹ¬ê¸°ìĦľ":2574,"ìĭŃ":2575,"Ġë¹ĦíĮĲ":2576,"ĠìĺĨ":2577,"Ġì°¸ì¡°":2578,"ĠëĮĢíĨµëł¹":2579,"Ġê³µê²©ìĿĦ":2580,"ĠìĹ¬ìłĦíŀĪ":2581,"ĠìĥģëĮĢë¡ľ":2582,"Ġê°ĢëĬ¥ìĦ±ìĿ´":2583,"Ġì¡¸":2584,"ĠíĻľìļ©":2585,"Ġíĺ¼ìŀĲ":2586,"ìĿ´ìĿĺ":2587,"ì¹Ļ":2588,"Ġì¡°ìĦł":2589,"ëĨĵê³ł":2590,"Ġëĵ±ìŀ¥íķĺëĬĶ":2591,"ĠìĽĶëĵľ":2592,"Ġ22":2593,"ĠìĹĦì²ŃëĤľ":2594,"ìłĦìĿ´":2595,"Ġê³¼ìłķ":2596,"Ġê³łëł¤":2597,"Ġìķ¡":2598,"Ġë¶Īêµ¬":2599,"ìľ¼ë¡ľìĦľ":2600,"ĠìĪł":2601,"Ġëĺĳ":2602,"Ġê¾¸":2603,"ë¦¬ë¡ľ":2604,"Ġê°ķëł¥íķľ":2605,"Ġì¦Ĳ":2606,"Ġìĭ±":2607,"íĸĪìľ¼ëĤĺ":2608,"ìĭ¬ìĿĦ":2609,"Ġë³´ëĤ´":2610,"ĠìĹĲíĶ¼ìĨĮ":2611,"íķ©ëĭĪëĭ¤":2612,"Ġìŀĺëª»":2613,"ĠíķĺìĿ´":2614,"ê¶ĮìĿĦ":2615,"Ġíķµ":2616,"Ġìĺ¤ë¸Į":2617,"ĠìĹ¬ëĭ´":2618,"ìłģìĿĦ":2619,"Ġëĵľëŀĺê³¤":2620,"ê°ľë¥¼":2621,"ë¶Ģë¥¼":2622,"ĠìŀĪìĹĪëįĺ":2623,"Ġì§ĵ":2624,"ĠëĤĺë¨¸":2625,"ĠëĤ¨ìķĦ":2626,"ĠìĿ´ë¦ĦìĿĦ":2627,"ìĤ¼":2628,"íĨ¤":2629,"Ġg":2630,"Ġíķ´ê²°":2631,"ot":2632,"Ġê°Ģë©´":2633,"Ġì§Ħì¶ľ":2634,"íħĶ":2635,"ìĭĿìĿ´":2636,"Ġê°Ģì¡±":2637,"ìĪĺë¡ľ":2638,"ìĹĨëĬĶ":2639,"Ġê´ľ":2640,"Ġìļķ":2641,"Ġë¬´ìĭľ":2642,"ê¹Įì§ĢëĬĶ":2643,"Ġì±Ķ":2644,"ê²½ê¸°":2645,"ì²´ê°Ģ":2646,"Ġë³´ëĬĶ":2647,"ĠìĿ´ë²¤íĬ¸":2648,"ìŀ¥ìĿĢ":2649,"ĠìĤ¬ê³ł":2650,"ë¦¿":2651,"ìĻĦ":2652,"Ġìļ°ì£¼":2653,"ĠëĤĺìĻĶ":2654,"ĠêµĲìľ¡":2655,"íĥĢë¥¼":2656,"ìĤ¬ë¡ľ":2657,"Ġê°Ģê²©":2658,"Ġì»´":2659,"Ġëĭ¤ìĿ´":2660,"Ġìķ½ê°Ħ":2661,"Ġë²Įìĸ´":2662,"Ġì£¼ëĬĶ":2663,"ì§ĵ":2664,"ĠëĮ":2665,"ĠìĺģêµŃ":2666,"ìĹħìĿĦ":2667,"Ġê³§":2668,"ëł¤ìĦľ":2669,"Ġìĭ«":2670,"Ġ2013":2671,"Ġë§¥":2672,"ëĵ¯ìĿ´":2673,"ìĭ¸":2674,"Ġyou":2675,"ĠìĤ¬ìļ©íķł":2676,"ë¦¬ìĻĢ":2677,"ê°Ģë¥¼":2678,"ì°Į":2679,"ìĭľíĤ¤ëĬĶ":2680,"Ġ23":2681,"ëŁīìĿ´":2682,"ì»µ":2683,"Ġê·¸ê°Ģ":2684,"ìŀ¥ìĹĲ":2685,"ë¬¸ìĹĲ":2686,"Ġìŀ¡ìķĦ":2687,"Ġë²Ĺ":2688,"ë¹Ħê°Ģ":2689,"Ġê²°íĺ¼":2690,"ĠíķĺìŀĲ":2691,"ĠëĶ°ë¥´ë©´":2692,"ĠìĪĻ":2693,"ëĤĺëĿ¼":2694,"Ġë°ľíĳľ":2695,"Ġëħ¸ìĦł":2696,"Ġì£Ħ":2697,"Ġë¬¸ìłľëĬĶ":2698,"Ġë»":2699,"Ġë¿":2700,"íķľëĭ¤ê³ł":2701,"ì½ĺ":2702,"Ġëļ":2703,"íĺľ":2704,"ëĲĺë©´ìĦľ":2705,"Ġë¶Īêµ¬íķĺê³ł":2706,"ê²łëĭ¤ê³ł":2707,"ì¶°":2708,"Ġë³¸ìĿ¸":2709,"Ġì¼Ģ":2710,"ĬìĿĢ":2711,"Ġìľ¼":2712,"ĠëĬĲëĤĮ":2713,"Ġíļį":2714,"ëŁ´":2715,"ĠìĬ¤ìĬ¤ë¡ľ":2716,"Ġì¶©ë¶Ħ":2717,"Ġê°ģê°ģ":2718,"ë§Įíķľ":2719,"Ġì¡°ê±´":2720,"ë§ĮìĿ´":2721,"íŀĪëĬĶ":2722,"ĠìĿ¼ìĿĦ":2723,"ë·Ķ":2724,"ëĤľëĭ¤":2725,"ìłķíķľ":2726,"ë¶ĢìĿĺ":2727,"Ġìĵ°ëŁ¬":2728,"Ġë§¨":2729,"ëĶľ":2730,"Ġê°ĲìĨĮ":2731,"Ġíĳ¸":2732,"Ġê°ķíķľ":2733,"ë¦¬ê¸°":2734,"êµ°ìĿ´":2735,"Ġìĭľì²Ń":2736,"ë²ĦìĬ¤":2737,"ĠëĵľëĿ¼ë§Ī":2738,"Ġì¥":2739,"ĠìĦĿ":2740,"ĠìĿ´ëģ":2741,"ì¹ĺë¡ľ":2742,"Ġin":2743,"ëĮĢëĬĶ":2744,"Ġëģ¼":2745,"ìļ°ìĬ¤":2746,"íķ´ì£¼":2747,"ĠíĹ¬":2748,"ĠìĥĿíĻľ":2749,"ĠìĿĺê²¬":2750,"Ġë²Īì§¸":2751,"ĠìĿ´ìľłëĬĶ":2752,"ĠëĤĻ":2753,"ĠëģĬ":2754,"ìķĮ":2755,"Ġì¤ĳìļĶíķľ":2756,"ëłĢ":2757,"ĠìĬ¤íİĺ":2758,"íĸīìĿĦ":2759,"ĠëĲĺë©´":2760,"ìŀĲê¸°":2761,"ĠíĽĦìĹĲ":2762,"Ġë§Ľ":2763,"ĠíıŃë°ľ":2764,"íĺĪ":2765,"ĠìĿ´ëĿ¼ëĬĶ":2766,"íĭ´":2767,"ĠìĿ¼ìľ¼":2768,"ĠìĦ¤ì¹ĺ":2769,"ĠíĺĦëĮĢ":2770,"ì¶ĺ":2771,"Ġì§§":2772,"Ġìµľê·¼":2773,"ì¤¬":2774,"Ġìĺ¤ëŀĺ":2775,"ë¬¼ìĿ´":2776,"Ġëĵ±ìŀ¥íķľëĭ¤":2777,"Ġêµ¬ì¡°":2778,"ĠëĮĢíļĮ":2779,"ë³´ëĭĪ":2780,"Ġëĵ¤ê³ł":2781,"Ġêµ´":2782,"Ġì·¨ê¸ī":2783,"ìĦ±ìĿĢ":2784,"ĠíĹĮ":2785,"ìĪĺë¡Ŀ":2786,"íĬ¹":2787,"ĠìŀĳìĿĢ":2788,"ì£ł":2789,"ĠìĦłë°ľ":2790,"ìŀ¥ìĹĲìĦľ":2791,"Ġìłľê³µ":2792,"Ġë°ĽëĬĶ":2793,"Ġë©ĶìĿ´":2794,"ĠìŀĲìĹ°":2795,"ìĿ´ë©´":2796,"ë´ĩ":2797,"ĠìĤ¬ëŀĮìĿĢ":2798,"Ġì¡°íķ©":2799,"ë§ĮìĹĲ":2800,"ê¼":2801,"ĠíĶĦë¡ľê·¸ëŀ¨":2802,"ĠëıĦë§Ŀ":2803,"íķĺëĭ¤ëĬĶ":2804,"ĠëıĻë£Į":2805,"Ġíķ´ìķ¼":2806,"Ġëį°ë·Ķ":2807,"ë¶ĢìĹĲ":2808,"ë¯¹":2809,"Ġê·¸ë¥¼":2810,"ëĤĺê²Į":2811,"BS":2812,"Ġêµ³":2813,"Ġë°©íĸ¥":2814,"Ġê²ĥìĹĲ":2815,"ìłķëıĦ":2816,"Ġë³´ìĿ´ëĬĶ":2817,"Ġì²ĺë¦¬":2818,"ëłĪë²¨":2819,"Ġì´Īê¸°":2820,"ìľĦê°Ģ":2821,"ê¸°ê³ł":2822,"Ġíĥĵ":2823,"Ġíķľìłķ":2824,"ĠíĿ¥":2825,"Ġë°Ľìķĺ":2826,"ĠíķĺìĺĢëĭ¤":2827,"Ġìĺģíĸ¥ìĿĦ":2828,"ìŀ¥ìľ¼ë¡ľ":2829,"íĬ¸ëĬĶ":2830,"ĠíĥĲ":2831,"ìľĦë¡ľ":2832,"ë§¹":2833,"ĠëĤĺìģ":2834,"ĠíĿ¡":2835,"nd":2836,"ì¹¸":2837,"ĠìłĪëĮĢ":2838,"íĬľ":2839,"íĶĦë¥¼":2840,"Ġ2012":2841,"ìłľë¡ľ":2842,"Ġìļ´ëıĻ":2843,"Ġì§Ģêµ¬":2844,"ìĥ¤":2845,"Ġë§Įìķ½":2846,"ìĭľì¦Į":2847,"ĠëĿ":2848,"Ġíķĺê¸°":2849,"ĠìĹŃíķłìĿĦ":2850,"ĠìĹĳ":2851,"ĠThe":2852,"ìłł":2853,"ë§ĮìĿĦ":2854,"ĠëĪĦêµ¬":2855,"Ġíķľíİ¸":2856,"ëĲĺë©°":2857,"Ġì«":2858,"ĠëĤĺìĿ´":2859,"ëĥĪëĭ¤":2860,"ìĵ°":2861,"Ġëª©ìĨĮ":2862,"ĠëĤĺìĻĶëĭ¤":2863,"ì¦ĺ":2864,"ĵ¨":2865,"ĠëĲĺì§Ģ":2866,"Ġê²½ìļ°ëĬĶ":2867,"Ġìĺ¤ëĬĺ":2868,"Ġíı´":2869,"íĤ¤ëĬĶ":2870,"ìł¸ìĦľ":2871,"ĠìĬµ":2872,"ĠíĥĢê³ł":2873,"ìĹĦ":2874,"Ġëħ¼ëŀĢ":2875,"Ġë®¤":2876,"ĠìĥģìĬ¹":2877,"Ġë§ģ":2878,"Ġê°¤":2879,"ĠìĬ¤íĨłë¦¬":2880,"ĠíķŃëª©":2881,"Ġì²´ëł¥":2882,"ĠêµŃë¯¼":2883,"ĠíĬ¹ë³Ħ":2884,"Ġê²½ìłľ":2885,"Ġì¤ĳìķĻ":2886,"Ġ2010":2887,"ìĿ¼ìĿĦ":2888,"ê°ĢìĿĺ":2889,"ĠëĮĢíķľë¯¼êµŃ":2890,"ìĦ±ìĿĺ":2891,"ëĿ¼ìĿ¸":2892,"Ġê¼¬":2893,"ê°ĻìĿ´":2894,"ëĲĺìĹĪê³ł":2895,"Ġíķĺë©´ìĦľ":2896,"ìŀĲëĵ¤ìĿ´":2897,"ĠíĿĲ":2898,"ĠìķĦë¥´":2899,"ë´Ĳ":2900,"ëłĪìĿ´ëĵľ":2901,"ĠëĿ¼ìĿ¸":2902,"Ġst":2903,"ĠíĽĦë³´":2904,"Ġë°ĺë©´":2905,"ê²ĮìŀĦ":2906,"Ġì¤Ģë¹Ħ":2907,"ìľ¤":2908,"Ġìŀ¥ë¹Ħ":2909,"Ġíģ´ë¦¬ìĸ´":2910,"ìĸ´ìķ¼":2911,"íĶ¼ìĸ¸":2912,"ë¶Ļ":2913,"íĢ":2914,"ĠëŁ¬ìĭľìķĦ":2915,"ìħĶ":2916,"ĠíķĺìĹ¬":2917,"Ġë³´íĺ¸":2918,"Ġv":2919,"Ġì°¸ê°Ģ":2920,"ro":2921,"ĠíĢĺ":2922,"Ġìłľíķľ":2923,"ë§Ĳë¡ľ":2924,"Ġëĭ¤ëĭĪ":2925,"ĠíķŃìĥģ":2926,"ë§ĪìłĢ":2927,"Ġëĭ¤ìĸĳíķľ":2928,"ëĿ¼ìĦľ":2929,"ëį°ìĿ´íĬ¸":2930,"ĠíļįëĵĿ":2931,"ë¡ľë¥¼":2932,"Ġ197":2933,"Ġë¯¸ìħĺ":2934,"ĠìĿ´ìľłë¡ľ":2935,"ëĳ¥":2936,"ì´ĪìĹĲ":2937,"ìĬ¤ëŁ½":2938,"ĠìĪĺë¹Ħ":2939,"ĠëĤ®ìĿĢ":2940,"ìĹĲê²ĮëĬĶ":2941,"ëĥĲê³ł":2942,"id":2943,"ìľ¼ë¡ľëıĦ":2944,"Ġê³Ħìķ½":2945,"Ġë¸ĶëŀĻ":2946,"Ġê°ĢëģĶ":2947,"ĠëĵĢ":2948,"Ġì¡°ì§ģ":2949,"êµ¬ê°Ģ":2950,"Ġk":2951,"ëł¤ëĬĶ":2952,"ìĿ´ëĿ¼ëıĦ":2953,"Ġë²½":2954,"Ġìĺ¤ë¥¸":2955,"ìĤ¬ìĻĢ":2956,"íĭ°ë¸Į":2957,"íķĺëĭ¤ê³ł":2958,"ìĨĮë¥¼":2959,"ëĿ¼ë¥¼":2960,"íķĻìĥĿ":2961,"ĠìĹĲìĦľ":2962,"ĠìĤ¬ìĭ¤ìĿĦ":2963,"íķĺëĤĺ":2964,"ĠìĹħëį°ìĿ´íĬ¸":2965,"ĠìĿ¼ìĸ´ëĤĺ":2966,"ĠìłĦë¬¸":2967,"Ġêº¼":2968,"Ġì¤ĳìĹĲ":2969,"¾¼":2970,"ê²¼ëĭ¤":2971,"ëįĶëĭĪ":2972,"ik":2973,"ĠëĮĢë¶Ģë¶ĦìĿĺ":2974,"ìĿ¼ìĿ´":2975,"ĠìħĪ":2976,"ëĵ¤ë¡ľ":2977,"Ġ26":2978,"ì¤ĺ":2979,"ìĿĺë¥¼":2980,"ìľłìĿĺ":2981,"ë¡ľê°Ģ":2982,"íģ¬ë¥¼":2983,"ĠìķĦë²Ħì§Ģ":2984,"ĠìĹĶëĶ©":2985,"ĠíĮĮìĽĮ":2986,"Ġë°ľìĤ¬":2987,"Ġë²ĦìĬ¤":2988,"ĠíĶ¼íķ´ë¥¼":2989,"íķ¨ìĿĦ":2990,"Ġ28":2991,"Ġê±´ë¬¼":2992,"Ġë§Ĳíķľëĭ¤":2993,"ìĥģìĹĲ":2994,"ëĮĢíķĻêµĲ":2995,"Ġêµ¬ê°Ħ":2996,"ë¦¬ë©°":2997,"ĠìĨĮìĦ¤":2998,"ĠëĮĢë¯¸":2999,"ĠìŀĲë¦¬":3000,"Ġì°¬":3001,"Ġì±ĶíĶ¼ìĸ¸":3002,"ĠíĿĺ":3003,"¨ìĿ´":3004,"ì§Ģê²Į":3005,"Ġë¯¸ëŀĺ":3006,"íģĲ":3007,"ĠZ":3008,"ĠëĤĺë¨¸ì§Ģ":3009,"Ġë¹Ħë¡¯":3010,"ê¸°ìĻĢ":3011,"ĠìłĦìļ©":3012,"ëŀĦ":3013,"ìĤ¬ìĹĲ":3014,"íļĮë¥¼":3015,"ëĭ¹íķľ":3016,"im":3017,"ĠìĺĪìłķ":3018,"ìłĲìľ¼ë¡ľ":3019,"Ġë°ĸìĹĲ":3020,"ĠìĬ¤íĥ":3021,"ĠëĨĴëĭ¤":3022,"ĠìķĦëĭĪê³ł":3023,"Ġê¸°ì¤Ģìľ¼ë¡ľ":3024,"Ġíģ¬ë¡ľ":3025,"Ġìĭłê²½":3026,"ĠìłľêµŃ":3027,"Ġì¶Ķìłķ":3028,"íķĺëĭ¤ê°Ģ":3029,"ĠìĹ¬ëĭ´ìľ¼ë¡ľ":3030,"ë¥Ļ":3031,"Ġë¶ĢíĻľ":3032,"ë¦¬ë©´":3033,"íķĻëħĦ":3034,"ĠìłģìĿĦ":3035,"Ġìĸ¸ìłľ":3036,"íıĲ":3037,"ëł¥ìľ¼ë¡ľ":3038,"ìľĦìĹĲ":3039,"Ġìĸ´ì©":3040,"ĠìĹ°ê²°":3041,"ĠëĴ·":3042,"ĢĢ":3043,"Ġë°©ìĺģ":3044,"Ġë°°ê²½":3045,"Ġì¢ĭì§Ģ":3046,"ch":3047,"ìĭľë¥¼":3048,"ìĺĢê³ł":3049,"Ġê´ľì°®":3050,"ĠìľłëŁ½":3051,"Ġëŀľ":3052,"ë¦¬íĭ°":3053,"Ġëª©íĳľ":3054,"Ġì¸ł":3055,"Ġëį¤":3056,"ìłĦìĿĺ":3057,"Ġë¬´ìĬ¨":3058,"ì§Ģê¸°":3059,"ĠëĦĵ":3060,"Ġê²ĥê³¼":3061,"ĠìĥĿê¸´":3062,"ìĽĢìĿ´":3063,"Ġ27":3064,"ìķĶ":3065,"Ġë³´ìĿ´":3066,"ĠìłķëıĦìĿĺ":3067,"ĠëĳĲê³ł":3068,"ë§ŀ":3069,"ĠìĹĨìĿĦ":3070,"ìĿ¸ë¬¼":3071,"ë¬´ë¥¼":3072,"Ġëª¨ë¥´":3073,"Ġê±°ê¸°":3074,"Ġëĭ¤ë¥´ê²Į":3075,"Ġëª¨ëĵľ":3076,"ëŀį":3077,"Ġê²ĢìĿĢ":3078,"Ġë¥ĺ":3079,"ìļ´ëį°":3080,"Ġë°´":3081,"ëĤĻ":3082,"Ġë©ĶìĿ¸":3083,"ìĦ¸ë¥¼":3084,"Ġê°ĳìŀĲê¸°":3085,"íĹĪ":3086,"Ġto":3087,"ĠëįĶë¶Ī":3088,"ëĭ¤ëĭĪ":3089,"Ġë°Ľìķĺëĭ¤":3090,"Ġë¶ģíķľ":3091,"íģ¬ë¡ľ":3092,"Ġëª»íķĺëĬĶ":3093,"ĠìĭľëıĦ":3094,"Ġìľłë¦¬":3095,"ĠìŀĲëŀĳ":3096,"Ġëıħë¦½":3097,"Ġê¸°ëĭ¤":3098,"Ġëį±":3099,"ĠëģĿëĤĺ":3100,"ìľ¼ë¡ľìį¨":3101,"ê³łëĬĶ":3102,"ĠìĥĿì¡´":3103,"ĠìĥģíĻ©ìĹĲìĦľ":3104,"ĠíķĺëĬĺ":3105,"Ġë³´ëĭĪ":3106,"Ġì§Ģíķĺ":3107,"ĠìĹ¼":3108,"ìĽĲìĿĢ":3109,"ĠìľĦìĹĲ":3110,"Ġë§ĪìĬ¤íĦ°":3111,"Ġë±":3112,"Ġê²½ìļ°ìĹĲëĬĶ":3113,"ĠìĮĵ":3114,"Ġâ":3115,"¯¤":3116,"ĠìĨĮëª¨":3117,"ìĬ¤ìĹĲ":3118,"Ġìĸ»ìĿĦ":3119,"Ġìį":3120,"Ġë¶ĢìĤ°":3121,"ĠìĶ¨":3122,"ĠíĢĺìĬ¤íĬ¸":3123,"Ġì¢ħë£Į":3124,"ĠTV":3125,"ĠíĺĦìŀ¬ëĬĶ":3126,"ĠëĤĺìĦľ":3127,"Ġëĭ¬ëł¤":3128,"ìŀĲìĻĢ":3129,"íĪ":3130,"ĠìłĦìŀĳ":3131,"ê´ĢìĿ´":3132,"ĠíĭĢ":3133,"Ġë¶Ģëª¨":3134,"ĠëĮĢìłĦ":3135,"ĠìŀĪëĭ¤ë©´":3136,"Ġë²¨":3137,"ĠëĤĺë¦Ħ":3138,"ìĸ´ëĵ¤":3139,"ìł¤":3140,"Ġê´Ģë¦¬":3141,"Ġíİ¼":3142,"ìĿĮìĹĲëıĦ":3143,"ĠëĬ¥ëł¥ìĿĦ":3144,"Ġìĸµ":3145,"Ġì£¼ìļĶ":3146,"ì¡°ê±´":3147,"Ġë°ĶëŀĮìĹĲ":3148,"íĺĶëĭ¤":3149,"Ġë²ĪìĹŃ":3150,"ë¹Į":3151,"ìĭ±":3152,"Ġê¸°ê°Ħ":3153,"ëĭĲ":3154,"Ġìłķìŀĳ":3155,"Ġì§ĢëĤľ":3156,"ìĿ´ëŀĢ":3157,"Ġ000":3158,"ĠìĦ±ìŀ¥":3159,"Ġë¬¸íĻĶ":3160,"ĠìĿ´ìĥģìĿĺ":3161,"ĠSt":3162,"ì£½":3163,"ĠìµľìĨĮ":3164,"ĠìĿ¸íĦ°ë·°":3165,"ĠìĹ°ìĨį":3166,"ì£¼ê³ł":3167,"ë¶Ģê°Ģ":3168,"ëĭ¨ìĿĺ":3169,"Ġëª¨ìĬµìĿ´":3170,"em":3171,"ìĭłìĿĦ":3172,"ìĽĶìĹĲ":3173,"Ġë¶Ħëħ¸":3174,"Ġë¶ĪëŁ¬":3175,"ìĭľê°Ģ":3176,"ëªħìĿĢ":3177,"Ġì¶ķêµ¬":3178,"íĮĶ":3179,"Ġë§ĮëĵľëĬĶ":3180,"Ġê±´ëĭ´":3181,"Ġê°ģì¢ħ":3182,"ìľĦìĽĲ":3183,"Ġìŀ¥ì°©":3184,"ëī´":3185,"ìĹ¬ìĦľ":3186,"ëĿ¼ìļ´ëĵľ":3187,"Ġëĭ¬ìĦ±":3188,"ëł¬":3189,"Ġê¸°ëĮĢ":3190,"ĠëįĶë¶Īìĸ´":3191,"un":3192,"st":3193,"Ġë¹łë¥¸":3194,"ë¦¬ê²Į":3195,"Ġíģ¬ë¦¬ìĬ¤":3196,"ë¹Ļ":3197,"ëĲĺê¸°":3198,"ĠìľłíĬľ":3199,"ĠìĹĲëĦĪ":3200,"ìĦŃ":3201,"Ġì³Ĳ":3202,"ĠìĹ°ì¶ľ":3203,"ëĤ¼":3204,"ĠëĶ°ë¡ľ":3205,"Ġëª»íĸĪëĭ¤":3206,"ER":3207,"ĠìĺĪìĥģ":3208,"ìĩĦ":3209,"Ġì¹Ń":3210,"ĠìķĬê²Į":3211,"Ġë³Ħë¡ľ":3212,"Ġ2000":3213,"ì¼ĢìĿ´":3214,"ë°¥":3215,"Ġ2011":3216,"ìĿ´ë¡ľ":3217,"ĠìľłëĭĪ":3218,"īìĿĢ":3219,"ĠìłľìĻ¸íķľ":3220,"ëħĦë¶ĢíĦ°":3221,"ir":3222,"íĭ±":3223,"Ġìĭ¸ìļ°":3224,"Ġìľłëªħíķľ":3225,"Ġë°ĺëĮĢ":3226,"ĠíķĦìļĶíķľ":3227,"ê³łë¥¼":3228,"ĠìĿ´ëĿ¼ê³ł":3229,"ĠìĿ¼ìłķ":3230,"ëĭ¨ìĿĦ":3231,"ìĦľë¥¼":3232,"Ġê²½ìŁģ":3233,"ìĻ¸ë¡ľ":3234,"Ġê¹Ķ":3235,"ì¢ħìĿĺ":3236,"ĠíŀĪë¡ľ":3237,"Ġì§Ģë°©":3238,"ĠìĿ´ê²Į":3239,"Ġê·¼ìłĳ":3240,"ìĬ¤ëŁ¬ìļ´":3241,"ì¹´ìĿ´":3242,"ëĤ´ê³ł":3243,"Ġëı¼":3244,"ĠìłľìĿ¼":3245,"ĠìĹĨëĭ¤ëĬĶ":3246,"ĠìĪĺëĬĶ":3247,"ĠìĥģíĻ©ìĿ´":3248,"ĠìŀĪìľ¼ëĭĪ":3249,"ĠìłĦë°ĺ":3250,"ë²Ħë¦°":3251,"Ġë¶Ħëªħ":3252,"ĠìĭĿìľ¼ë¡ľ":3253,"ĠìłģìĿĢ":3254,"ìĹĪëĭ¤ê³ł":3255,"ĠìĤŃ":3256,"Ġë¹Ħíĸī":3257,"Ġê³µê²©ëł¥":3258,"Ġë¬¼ê±´":3259,"Ġê²ĮìŀĦìĿĦ":3260,"Ġê°ľëħĲ":3261,"Ġë¶Ģë¥´":3262,"Ġë§ĮíĻĶ":3263,"íĥĳ":3264,"ĠìĹĲíĶ¼ìĨĮëĵľ":3265,"ìĪĺíķľ":3266,"íĶĪ":3267,"ë³´ëĬĶ":3268,"Ġìŀłìĭľ":3269,"íĥĢë¡ľ":3270,"ĠìĿ´ìķ¼ê¸°ë¥¼":3271,"ĳł":3272,"ìĦłìĿ´":3273,"ĠìķĦëĭĪë©´":3274,"ĠìĹĶì§Ħ":3275,"ĠìķĦìĿ´ëıĮ":3276,"ĠìłĦì°¨":3277,"íĺ¸ê°Ģ":3278,"ë¯¸ê°Ģ":3279,"Ġë³¸ìĿ¸ìĿ´":3280,"ĠíĽĪëł¨":3281,"ê²Ĳ":3282,"íķ´ì§Ħ":3283,"ĠìķĪìĹĲ":3284,"Ġì§ķ":3285,"ëĳĶ":3286,"íĹĮ":3287,"ì§Ģë©´":3288,"ê¹Ŀ":3289,"ĠìĿ¼ë³¸ìĿĺ":3290,"Ġì§Ģì¼ľ":3291,"ĠĠĠĠĠĠĠĠĠĠĠĠĠĠĠĠ":3292,"Ġì°¨ìĿ´ê°Ģ":3293,"Ġ60":3294,"ĠëĤĺë¬´":3295,"ìĬ´":3296,"ìĭľì¼°":3297,"ì£¼ë¥¼":3298,"ĠìĦ¸ìĿ´":3299,"ì¢Į":3300,"Ġë¬¼ë¦¬":3301,"ĠìķķëıĦ":3302,"Ġ29":3303,"ìķ¼ë§Ĳë¡ľ":3304,"ë§Īê°Ģ":3305,"Ġe":3306,"ìµľ":3307,"Ġë¸ĮëĿ¼":3308,"ĠëĤĺìĺ¬":3309,"Ġë¹ħ":3310,"Ġìĺ·":3311,"ĠëĴ¤ìĹĲ":3312,"ìĭľìĿĺ":3313,"ĠìĬ¤íĶ¼":3314,"ì´Į":3315,"Ġê°ĸê³ł":3316,"ìĭľë¡ľ":3317,"ĠìķĦíĶĦ":3318,"ìĥģìĿĢ":3319,"Ġìķłì´ĪìĹĲ":3320,"Ġëĵ±ìľ¼ë¡ľ":3321,"ĠìĺĪë¥¼":3322,"Ġíı¬ì¼ĵ":3323,"ê³ĦìĿĺ":3324,"ĠìĭľìŀĳíĸĪëĭ¤":3325,"ì§Ģìħĺ":3326,"od":3327,"ìķĺëįĺ":3328,"ëŀŃ":3329,"ĥ¼":3330,"ĠíĶĦëŀĳìĬ¤":3331,"ë§ĪìĿĺ":3332,"ëĤĺìĿ´":3333,"ìĿ¸ê°Ģ":3334,"ĠìĹĨëĭ¤ê³ł":3335,"Ġì§ĳì¤ĳ":3336,"mm":3337,"ë®¤":3338,"ìķĹ":3339,"íĺ¸ë¥¼":3340,"Ġë¬ĺìĤ¬":3341,"ëıĻìĿĦ":3342,"ìĽĲìľ¼ë¡ľ":3343,"ëıĪ":3344,"Ġê¸°ìĹħ":3345,"Ġê³ĦìĹ´":3346,"ĠìĨĮê°ľ":3347,"ĠíĴĪ":3348,"Ġëľ¨":3349,"Ġíķĺê²Į":3350,"ìĭĿìľ¼ë¡ľ":3351,"ver":3352,"ĠìĪĺìłķ":3353,"ĠìĿ´ê±¸":3354,"Ġë°Ķê¿":3355,"ìĹĪëĬĶëį°":3356,"ìĭľëĬĶ":3357,"ĠíĻķìłķ":3358,"ĠìĿ´ìª½":3359,"Ġê¼Ń":3360,"ĠëŃĶ":3361,"Ġëĵ£ê³ł":3362,"ĠìķĪìłķ":3363,"íĿ¥":3364,"ĠíĬ¹ìłķ":3365,"ĠSK":3366,"ë²Ħëł¸ëĭ¤":3367,"ĠëĤĺíĥĢëĤĺ":3368,"ĠìŀĪìľ¼ë©´":3369,"Ġê²ª":3370,"ĠêµŃìłľ":3371,"ë©ĺ":3372,"ëĶĶìĸ´":3373,"Ġë¹łìł¸":3374,"ëĵľìĭľ":3375,"ĠìĤ¶":3376,"ê³Ħê°Ģ":3377,"ĠëĬĲëģ¼":3378,"ìľ¨ìĿ´":3379,"ë¬ĺ":3380,"Ġë¯¼ì£¼":3381,"ĠìĿ´ìĻ¸":3382,"ĠìĺĽ":3383,"Ġëĭ¬ëĿ¼":3384,"ëĮĢíķĻ":3385,"Ġì§ľ":3386,"Ġì¶ľìłĦ":3387,"ĠëıĮìķĦê°Ģ":3388,"Ġë¯¸ìĤ¬":3389,"ĠìĿ¼íĸī":3390,"Ġ31":3391,"ak":3392,"ĠìĿ´ëģĮ":3393,"Ġê²ĥìĿ´ëĿ¼ê³ł":3394,"ĠìĻ¼":3395,"ìĿ¸íĬ¸":3396,"íģ¬ê°Ģ":3397,"ĠíķŃê³µ":3398,"ì°į":3399,"ĠìŀĪìľ¼ëĤĺ":3400,"íķľëĭ¤ë©´":3401,"ĠìķĦêµ°":3402,"ĠëĤ©":3403,"ĠìĻ¸êµŃ":3404,"Ġê½ĥ":3405,"ĠìĻĶ":3406,"ĠìĦľë¹Ħ":3407,"ĠìĤ¬ëŀĮìĿĦ":3408,"ìĭ¬ìĿ´":3409,"ìĦ¸ëĮĢ":3410,"ë§ĪìŀĲ":3411,"ê°ĲìĿ´":3412,"ĠìŀĲìĦ¸íķľ":3413,"Ġë¨¸ë¦¬":3414,"ëłĪìĬ¤":3415,"igh":3416,"Ġê³µìĹ°":3417,"Ġíĥ±":3418,"ë¶Ģë¡ľ":3419,"ëŀĲ":3420,"Ġìĺµ":3421,"ĠëĵĿ":3422,"Ġë§ĲìĹĲ":3423,"ìĿ´ì¦Ī":3424,"Ġì§Ģíľĺ":3425,"ĠìĤ¼ìĦ±":3426,"ĠìłľíĴĪ":3427,"ëıĦìĹĲ":3428,"Ġë³¸ëŀĺ":3429,"Ġë¶Ģìłķ":3430,"ĠìĨĮë¦¬":3431,"ĠìĿ´ë¦ĦìĿ´":3432,"ut":3433,"Ġì½¤":3434,"Ġë¬´ëł¤":3435,"Ġíķľëĭ¤ëĬĶ":3436,"ĠíĮĲëĭ¨":3437,"Ġì¹¸":3438,"ìħī":3439,"ĠíĸĪëįĺ":3440,"Ġë§¹":3441,"Ġê³µì¤ĳ":3442,"ĠëĤĺì¤ĳìĹĲ":3443,"ĠìłĦìĦ¤":3444,"Ġíļ¨ê³¼ë¥¼":3445,"ĠìĦłê±°":3446,"BC":3447,"Ġë¡¤":3448,"Ġì¡¸ìĹħ":3449,"ĠìĹ¬ê¸°ìĹĲ":3450,"Ġë¹łë¥´ê²Į":3451,"ëĥĲëĬĶ":3452,"Ġê°Ģê¹Įìļ´":3453,"ĠíĬ¹ìĿ´":3454,"Ġíı¬ê¸°":3455,"ê½":3456,"ĠìĿ´íĥĪ":3457,"Ġìļ´íĸī":3458,"Ġê¸°íĥĢ":3459,"ĠìĨĮëħĢ":3460,"ìĭłìĿ´":3461,"ĠìĿ´ìļ©íķ´":3462,"Ġë°ĺëĵľìĭľ":3463,"Ġê³¼íķĻ":3464,"Ġìµľê³łìĿĺ":3465,"Ġìĺģìĸ´":3466,"ent":3467,"ag":3468,"ëļ":3469,"ĠìĹĺë¦¬":3470,"İìĿĢ":3471,"Ġì¡´ìŀ¬íķľëĭ¤":3472,"Ġë°ĸ":3473,"ĠíĦ¸":3474,"ĠìĥĿê°ģíķ´":3475,"ëŀ«":3476,"ìĹĪì§Ģë§Į":3477,"ë¡Ńê²Į":3478,"ì½ľ":3479,"ĠìĥĪë¡ľ":3480,"Ġìľ¼ë¡ľ":3481,"ĠìĿ´íĽĦë¡ľ":3482,"Ġìļ°ìĦł":3483,"Ġì¿¨":3484,"Ġë°°íĭĢ":3485,"Ġìĺ®":3486,"ĠìļĶìĨĮ":3487,"Ġìĺ¥":3488,"Ġì¤ĳìĹĲìĦľ":3489,"Ġìĭľê°ĦìĿĦ":3490,"Ġìĸ¼ë§ĪëĤĺ":3491,"Ġê±±":3492,"Ġì£½ìĿĢ":3493,"Ġ80":3494,"Ġë³´ìķĦ":3495,"ĠìĹ°ê¸°":3496,"Ġë°ĳ":3497,"Ġê¸°ê´Ģ":3498,"íķĺìĺĢê³ł":3499,"ĠìĮį":3500,"ĠëĤłìķĦ":3501,"Ġ196":3502,"ĠëĲĺìĹĪê³ł":3503,"50":3504,"Ġíı¬ì¼ĵëª¬":3505,"ĠêµĲì²´":3506,"ê¾¸":3507,"Ġê¸°ë³¸ìłģìľ¼ë¡ľ":3508,"ĠëĿĦ":3509,"ë¤":3510,"ëĭ¤ìļ´":3511,"ĠìķĦë¬´ë¦¬":3512,"Ġìķ¼êµ¬":3513,"ĠìķĮê²Į":3514,"ĠìĿ´ê±´":3515,"ĠìĤ¬ëŀĮëĵ¤ìĿĢ":3516,"ë§ĮìĿĺ":3517,"ë¸Ĳ":3518,"Ġë°Ķê¾¸":3519,"¨ìĿĦ":3520,"ìłĿ":3521,"Ġìµľê°ķ":3522,"ĠìĤ¬ë¡Ģ":3523,"ĠìķŀìĹĲ":3524,"ĠìĭľíĹĺ":3525,"ĠëĬ¦":3526,"ĠìĬ¤íĮĮ":3527,"Ġëĥī":3528,"ĠìŀĪìĬµëĭĪëĭ¤":3529,"ur":3530,"ë³´ê³ł":3531,"íĮ©":3532,"ĠíĸĪìľ¼ëĤĺ":3533,"Ġê²ĥì²ĺëŁ¼":3534,"ĠíĥĪì¶ľ":3535,"ëŁīìĿĦ":3536,"ack":3537,"Ġê²°ìĬ¹":3538,"ë°©ìĨ¡":3539,"Ġê¸°ëıĻ":3540,"Ġê·¼ì²ĺ":3541,"Ġëªħëł¹":3542,"ĠìĬ¤íħĮìĿ´ì§Ģ":3543,"ĠëĤĺëĿ¼":3544,"ì¥":3545,"Ġìıĺ":3546,"ì§ĢìĻĢ":3547,"ĠìŀĪìĹĪê³ł":3548,"ĠíĻĺê²½":3549,"Ġê³¼ìłķìĹĲìĦľ":3550,"ìĽĲìĹĲ":3551,"ë¶ĢíĦ°ëĬĶ":3552,"ĠëĤ¨ìĿĢ":3553,"íĻį":3554,"ĠíĺĪ":3555,"ĠìĬ¤íı¬":3556,"ë§¥":3557,"Ġë³´ìľł":3558,"10":3559,"ëĭ¨ìĿ´":3560,"ëĵ¤ìĸ´":3561,"ìĿ¸ìľ¼ë¡ľ":3562,"ĠìĪĺíĸī":3563,"Ġëĵ±ìŀ¥íķľ":3564,"Ġìłľëª©":3565,"ĠìłĲìłĲ":3566,"Ġë°ĽìĿĦ":3567,"ë²Ħë¦°ëĭ¤":3568,"ĠìłĲìĿĦ":3569,"Ġìĭ¬ê°ģ":3570,"ê²łëĭ¤ëĬĶ":3571,"ĠëķĮë§Īëĭ¤":3572,"ìĿ´ëĭĪ":3573,"Ġê·¸ëķĮ":3574,"Ġê°Ģë¥´":3575,"Ġë§İìķĦ":3576,"ë¯¸ë¥¼":3577,"íķĳ":3578,"Ġth":3579,"Ġë°ĺëĮĢë¡ľ":3580,"Ġìĸ´ëł¤ìļ´":3581,"Ġì¢ĭìķĦíķĺëĬĶ":3582,"ì¯¤":3583,"ĠìĭľìłĦ":3584,"Ġë°ĶëĿ¼":3585,"Ġìĵ°ê³ł":3586,"ãĤ":3587,"ë¶ĦìĿ´":3588,"ĠìĻĦìłĦ":3589,"Ġì¤Ģëĭ¤":3590,"Ġë°ľìłĦ":3591,"Ġì£½ìĿĮ":3592,"ìłľìĿĺ":3593,"Ġìłĳê·¼":3594,"ìĦ¸ê°Ģ":3595,"ì§ĦìĿ´":3596,"ìŀĦìĿ´":3597,"íĦ°ë¥¼":3598,"Ġê·¸ëħĢìĿĺ":3599,"Ġì§ģìĹħ":3600,"ĠìľĦìĿĺ":3601,"íĻĶìĿĺ":3602,"íķĺëĿ¼":3603,"Ġë©¸":3604,"ĠìķĬìľ¼ë©´":3605,"Ġ90":3606,"Ġíķ´ìĻ¸":3607,"ĠìłĢì§Ģ":3608,"ĠëıĪìĿĦ":3609,"ter":3610,"ĠìłĦëŀµ":3611,"ĠìĻĦë²½":3612,"ĠìŀĲì²´ëĬĶ":3613,"Ġê¸°ë°ĺ":3614,"ĠëĮĢìĤ¬":3615,"ĠìĤ¬ëĥ¥":3616,"ìĩ¼":3617,"ĠìłĦêµŃ":3618,"Ġê·¸ëŁ¼":3619,"ëĤĺìĿĺ":3620,"ĠíļĮìĤ¬":3621,"ëĤ¸ëĭ¤":3622,"Ġìĥģê´Ģ":3623,"ì§ĢëĿ¼":3624,"Ġëĵ±ìŀ¥ìĿ¸ë¬¼":3625,"Ġì«ĵ":3626,"ìļ°ê°Ģ":3627,"íİľ":3628,"ëª½":3629,"ëĮ":3630,"ìĸ¸ìĿĦ":3631,"ë¹Ľ":3632,"ĠìĨĮìŀ¬":3633,"ĠìĹ°ìĬµ":3634,"Ġë´ĲëıĦ":3635,"Ġìĥģëĭ¹íķľ":3636,"íĥĢê°Ģ":3637,"ĠëıĦìŀħ":3638,"ìłĲìĿĢ":3639,"21":3640,"Ġand":3641,"ĠìĥģíĥľìĹĲìĦľ":3642,"ëĸ":3643,"Ġë¹¨ë¦¬":3644,"ë¬¸ìĿ´":3645,"ĠíĮĮíĭ°":3646,"ì§Ģë©´ìĦľ":3647,"ec":3648,"ĠíĸĪëĬĶëį°":3649,"Ġë§Īë¬´":3650,"Ġíļ¨ê³¼ê°Ģ":3651,"Ġê³łìĸĳ":3652,"ĠìĤ¬ìĹħ":3653,"ëħĦìĹĲëĬĶ":3654,"Ġëĭ¤íĸī":3655,"ĠìķĦëĵ¤":3656,"ĠìĹĨìĸ´ìĦľ":3657,"ĠëıĦì°©":3658,"ìĸ´ìļĶ":3659,"ê¸ĪìĿĦ":3660,"Ġë¶ĢìĹ¬":3661,"ìĨĶ":3662,"ê°ĦìĿĺ":3663,"ĠìĹĨì§Ģë§Į":3664,"ĠìŀĲë¦¬ë¥¼":3665,"ê¹¨":3666,"Ġê·¸ë£¹":3667,"Ġê°ĢìĦľ":3668,"ê²ĥëıĦ":3669,"ë¡±":3670,"ìĹĲë§Į":3671,"ĠìĻĦìĦ±":3672,"Ġë³´ëĭ¤":3673,"ĠëŀŃ":3674,"Ġìłľê±°":3675,"ĠìľłìĤ¬":3676,"Ġë¹Ħë°Ģ":3677,"Ġê³łìłķ":3678,"Ġë°°ì¹ĺ":3679,"ì¹¼":3680,"ĠìĨĲìĿĦ":3681,"ĠìĿ´ê³³":3682,"Ġë¶Ģíĥģ":3683,"Ġëĭ¤ìĨĮ":3684,"ë§İìĿĢ":3685,"ĠëĨĴìķĦ":3686,"ëĶĺ":3687,"ĠìĿ¸íĦ°ëĦ·":3688,"ê¾¼":3689,"Ġëĵ¯íķĺëĭ¤":3690,"ĠìĤŃìłľ":3691,"Ġêµ¬ë§¤":3692,"ë¹ĦìķĦ":3693,"ëł¥ê³¼":3694,"Ġëªħì¹Ń":3695,"ìľĦëĬĶ":3696,"ĠíĮĮìĿ´":3697,"Ġë¿Į":3698,"ìĸ´ìĿĺ":3699,"ĠëĸłëĤĺ":3700,"ìĬ¤íĭ°":3701,"ĠíĥĢìŀħ":3702,"ĠìŀĪìĹĪëĬĶëį°":3703,"ëĲĲ":3704,"ì°¨ê°Ģ":3705,"íĵ¨":3706,"ë£¬":3707,"Ġê°Ģìļ´ëį°":3708,"ëĲĲëĭ¤":3709,"Ġë²łìĿ´":3710,"ĠëģĿìĹĲ":3711,"Ġìłķìĥģ":3712,"¬ìĺģ":3713,"Ġê¸°ì²´":3714,"ëħ¼":3715,"ĠìłľìĻ¸íķĺë©´":3716,"Ġì§Ģì§Ģ":3717,"Ġê±´ìĦ¤":3718,"ĠëıĻìĥĿ":3719,"ìĹŃìĿĦ":3720,"ĠìľłíĬľë¸Į":3721,"ĠìľłìĿ¼íķľ":3722,"Ġìŀĳê³¡":3723,"ê»´":3724,"ìĭľíĤ¬":3725,"ëĲĺë©´":3726,"ĠìĥģìľĦ":3727,"Ġì§Ĳ":3728,"Ġì§ģíĽĦ":3729,"ë³´ëĭ¤ëıĦ":3730,"íģ¬ìĿĺ":3731,"ìĦ¸ìļĶ":3732,"Ġëĭ¤ë£¨":3733,"Ġë³´ìĹ¬ì¤Ģëĭ¤":3734,"Ġë³ĢíĻĶ":3735,"ĠìĹĲìĿ´":3736,"Ġê´Ģíķľ":3737,"ĠëĽ°ìĸ´ëĤľ":3738,"ĠìĿ´ë¦ĦìĿĢ":3739,"ìĺ¨ëĭ¤":3740,"ĠìĤ¬ìļ©íķľëĭ¤":3741,"Ġíıīë²Ķ":3742,"Ġì¡°ì¢ħ":3743,"ĠìľłìĿ¼íķĺê²Į":3744,"Ġì²ĺìĿĮìľ¼ë¡ľ":3745,"Ġë¬´ì¡°ê±´":3746,"Ġìķ¤":3747,"ĠìĨĮë¹Ħ":3748,"Ġì¶Ķì²ľ":3749,"Ġêµ³ìĿ´":3750,"Ġì£¼ê³ł":3751,"Ġì¶©ë¶ĦíŀĪ":3752,"ĠìĦłìĥĿ":3753,"Ġì¶©ê²©":3754,"ì¹ĺìĿĺ":3755,"êµ°ìĿĢ":3756,"íķĻê³¼":3757,"ìĦ¯":3758,"Ġëĭ¤íģ¬":3759,"ĠìĽĮëĤĻ":3760,"Ġìĭ«ìĸ´":3761,"ĠìĤ¬ìĿ´ìĹĲ":3762,"ì°¨ë¥¼":3763,"ĠìķĦëĤ´":3764,"ëĥĪ":3765,"Ġì¹ł":3766,"Ġë³Ģìĭł":3767,"Ġì§Ģë°°":3768,"ĠLG":3769,"ĠëĤ¨ìĦ±":3770,"ì£¼ê°Ģ":3771,"Ġì¹ĺë£Į":3772,"Ġë§Īì¹ĺ":3773,"ë¶ĢëĬĶ":3774,"íĭ¸":3775,"ĠíĥĢê²©":3776,"ë¡ľìĿĺ":3777,"Ġìĺ¬ëł¤":3778,"ë³´ë¥¼":3779,"Ġë³´ê¸°":3780,"Ġê²¸":3781,"ìłģìĿ´ëĭ¤":3782,"Ġr":3783,"ĠìĪĺìĥģ":3784,"ĠëĩĮ":3785,"ĠëıĦìĻĢ":3786,"Ġìłķë¦¬":3787,"ìŀĸ":3788,"ìī½":3789,"ĠíĬĢ":3790,"Ġì¢ħë¥ĺ":3791,"Ġë§ŀì¶Ķ":3792,"ĠìĪĺë§İìĿĢ":3793,"Ġê·¸ê±¸":3794,"Ġì¶Ķì¸¡":3795,"ĠìĿĺìĻ¸ë¡ľ":3796,"Ġë¦°":3797,"ì§ĦìĿĦ":3798,"Ġíģ´ëŀĺ":3799,"ĠìłĦê°ľ":3800,"ĠíıīìĨĮ":3801,"ĠíŀĲ":3802,"ìľĪ":3803,"ëĦĺ":3804,"ìĪłìĿĦ":3805,"ĠìĿ´ë¡ľ":3806,"ĠëĲĺëĬĶëį°":3807,"Ġì§ĢëıĦ":3808,"ë±":3809,"ëį´":3810,"Ġì¢ħì¢ħ":3811,"ĠìĿ¼ëŁ¬":3812,"Ġë³µê·Ģ":3813,"ĠìŀĬ":3814,"íĶĦê°Ģ":3815,"íĬ¸ìĹĲ":3816,"Ġíĳľê¸°":3817,"ê¹Ģ":3818,"ì¦ĪìĿĺ":3819,"Ġê·¸ìķ¼ë§Ĳë¡ľ":3820,"Ġíıīê·ł":3821,"ëĲĺìĹĪìľ¼ë©°":3822,"Ġì¤ĳê°Ħ":3823,"íĦ°ê°Ģ":3824,"ëªĩ":3825,"ìĺĢìľ¼ëĤĺ":3826,"ìļ©ìľ¼ë¡ľ":3827,"Ġ70":3828,"ìĦłìĿĺ":3829,"ĠìĨĮëł¨":3830,"ĠìķĦì¹´":3831,"ĠëĮĢê¸°":3832,"ĠìĹħê·¸":3833,"ĠìŀĪì§Ģ":3834,"Ġë§ĲíķĺëĬĶ":3835,"ight":3836,"Ġì¹´ìļ´":3837,"ĠëĦĲ":3838,"íĥĦìĿĦ":3839,"ë°ĽìĿĢ":3840,"ĠíĻĶë©´":3841,"ë°©ìĿĦ":3842,"ëł¤ë©´":3843,"Ġë©ĭ":3844,"Ġëĵ¯íķľ":3845,"ìĸ´ì§Ħ":3846,"íĶĦë¡ľ":3847,"ìĿ´ìħĺ":3848,"ë°ĽëĬĶ":3849,"ì£¼ë¡ľ":3850,"Ġìºł":3851,"ëĦ£":3852,"Ġë²¤":3853,"ëĳĲê³ł":3854,"ĠëĿ¼ìĿ´ë¸Į":3855,"ì§ĪìĿĦ":3856,"Ġ00":3857,"Ġë¹Ħì¤ĳ":3858,"íĺķìĿĦ":3859,"Ġëªĩëªĩ":3860,"ëı¼":3861,"Ġê²½ê¸°ë¥¼":3862,"Ġëĸ¡":3863,"ìĹĪìĿĦ":3864,"ĠíĥĵìĹĲ":3865,"Ġì£¼ë¯¼":3866,"ĠëıĦì¤ĳ":3867,"ëª¨ê°Ģ":3868,"ìĦ¸ê¸°":3869,"ìĦ±ìĹĲ":3870,"ìĦĿìĿ´":3871,"ìĮ":3872,"Ġì´¬ìĺģ":3873,"Ġìŀ¥ìĨĮ":3874,"ëĵľìĻĢ":3875,"íĦ¸":3876,"ĠëħĢ":3877,"ìŀĶ":3878,"Ġê·¸ìłĢ":3879,"ĠìĥĿê°ģíķĺë©´":3880,"íĹ¤":3881,"ĠìĿ¸íķľ":3882,"ĠìĤ´íķ´":3883,"Ġêµ°ìĤ¬":3884,"Ġë³¸ê²©":3885,"êµ°ìĿĦ":3886,"ine":3887,"Ġëª¸ìĿĦ":3888,"Ġ194":3889,"Ġê¸°ê³Ħ":3890,"Ġì¤ĳë°ĺ":3891,"Ġë¶ĪìķĪ":3892,"Ġê³¤":3893,"ìłķìĹĲ":3894,"íĤ¤ê°Ģ":3895,"ëĴ":3896,"Ġë¬´ìŀ¥":3897,"íĸĪê¸°":3898,"ê´ĢìĿĦ":3899,"ìłģìľ¼ë¡ľëĬĶ":3900,"ĠëģĮìĸ´":3901,"ëĶ°":3902,"Ġê³µíı¬":3903,"ĠëĨĪ":3904,"Ġìĥģíĥľë¡ľ":3905,"ĠìĿ¸ìĭĿ":3906,"ìĿĮìĿ´":3907,"íŀĲ":3908,"ì¹´ìĻĢ":3909,"ĠíķľêµŃìĿĺ":3910,"ĠëıĻë¬¼":3911,"ëĵłì§Ģ":3912,"Ġê°ľê·¸":3913,"ĠìĤ¬ëĬĶ":3914,"íĻĶëĲľ":3915,"ĠëĮĢëĭµ":3916,"Ġê±°ê¸°ìĹĲ":3917,"ĠĠĠĠĠĠĠĠĠĠĠ":3918,"ìĺĢì§Ģë§Į":3919,"Ġìķī":3920,"Ġìĭ¤íĹĺ":3921,"Ġìĭ¸ìĽĢ":3922,"ĠìķŀìĹĲìĦľ":3923,"Ġëĭ¥":3924,"ĠìĭŃ":3925,"ĠëĬ¥ëł¥ìĿ´":3926,"ìĽĲìĹĲìĦľ":3927,"¾Į":3928,"ĠìŀĪìĹĪì§Ģë§Į":3929,"Ġíı¬ì§Ģìħĺ":3930,"Ġë³¸ìĿ¸ìĿĺ":3931,"ìŀĲëĵ¤ìĿĢ":3932,"ëķ":3933,"ĠíĬ¹ìľłìĿĺ":3934,"Ġë²Ħê·¸":3935,"íķĺëıĦë¡Ŀ":3936,"ĠìĪĺë°ĸìĹĲ":3937,"ĠíĪ¬ìŀħ":3938,"Ġë§ĪìĿĮìĿĦ":3939,"ĠëĮĢìĥģ":3940,"Ġë§ŀì¶°":3941,"Ġì²Ļ":3942,"Ġë°Ķëĭ¤":3943,"th":3944,"ST":3945,"Ġíķ©ë¥ĺ":3946,"ĠìĤ¬ëŀĮìĿĺ":3947,"ì¿Ħ":3948,"Ġë°ĺë³µ":3949,"Ġë³´ìĺĢëĭ¤":3950,"Ġìĺģíĺ¼":3951,"ê°ľë¡ľ":3952,"Ġìĸ´ëĳł":3953,"ĠìķĦíĤ¤":3954,"Ġì§ĢíĤ¤":3955,"ìĦ±ê³¼":3956,"Ġìĺ¤ëŀľ":3957,"ë§Īë¥¼":3958,"Ġíĸīë³µ":3959,"ĠìĿ´íķĺ":3960,"Ġë¨¹ê³ł":3961,"ĠëķĮëıĦ":3962,"Ġíŀĺëĵł":3963,"ìħľ":3964,"Ġë¶Ģíķĺ":3965,"Ġëĭ¤ìĿĮê³¼":3966,"ëŁ¿":3967,"Ġê°Ķ":3968,"ĠíĤ¹":3969,"ĠìłĲìĿ´":3970,"Ġëª¨ë¥´ëĬĶ":3971,"Ġë¡¯":3972,"Ġì¢ħì¡±":3973,"Ġê³µê°Ħ":3974,"ëıĦìĻĢ":3975,"Ġìļ´ìļ©":3976,"ĠìĹ°íķ©":3977,"Ġê°Ħëĭ¨":3978,"ê½ĥ":3979,"ìķĦë²Ħ":3980,"Ġë¯¸êµŃìĿĺ":3981,"íĮĲìĿĦ":3982,"ê³µê²©":3983,"Ġìĭľë¦¬ì¦ĪìĿĺ":3984,"Ġìŀĳê°Ģ":3985,"Ġìĭ±ê¸Ģ":3986,"ìĪĺëıĦ":3987,"Ġì§Ģê¸ĪìĿĢ":3988,"ĠìµľíĽĦ":3989,"íĸ¥ìĿ´":3990,"ĠìķĪìłĦ":3991,"ìłķìĿĢ":3992,"ĠíĻĢ":3993,"ĠëıĦìłĦ":3994,"ĠìĽ¹":3995,"Ġì¹´ìĿ´":3996,"íħĲì¸ł":3997,"ëħķ":3998,"ë¬¸ìĿĺ":3999,"Ġì§Ģìĥģ":4000,"Ġ2009":4001,"íļĮê°Ģ":4002,"Ġë¶Īê³¼":4003,"íķĺëł¤ê³ł":4004,"Ġ500":4005,"ìĬ¤ëŁ½ê²Į":4006,"ĠíĮĢìĿĺ":4007,"ĠíĥĪëĿ½":4008,"Ġìķŀìľ¼ë¡ľ":4009,"ìĬ¤íħĮ":4010,"ĠìĻ¸ìĹĲëıĦ":4011,"ê¹Ĳ":4012,"ëŁ¬ìĬ¤":4013,"ĠìķŀìĦľ":4014,"ëªħìľ¼ë¡ľ":4015,"ĠìĬ¤íģ¬":4016,"íı´":4017,"ëª°":4018,"ãĢĢ":4019,"Ġìĺ¤ë²Ħ":4020,"ëĳĺ":4021,"ì§Ģë©°":4022,"Ġìĺ¤íĶĦ":4023,"ĠëĮĢêµ¬":4024,"ë³´ìŀĲ":4025,"ëł¥ìĿĺ":4026,"ëĭĪíĭ°":4027,"Ġë¬´íķľ":4028,"ĠìĽ¨":4029,"ĠëĪĦêµ°":4030,"Ġë¦¬ëįĶ":4031,"Ġì¡°ìĤ¬":4032,"ĠíĿ¬ìĥĿ":4033,"ĠíĬ¸ìľĦ":4034,"ĠëĽ°ìĸ´":4035,"Ġëĵł":4036,"ĠíĸĪê³ł":4037,"ĠìķĬì§Ģë§Į":4038,"Ġë§ŀëĬĶ":4039,"ëłĽ":4040,"ĠìĨĮìľł":4041,"íķĢ":4042,"ĠìĬ¤íİ":4043,"ìĬ¤íĨł":4044,"ĠìłķìĭĿ":4045,"ìĿ¸ê³¼":4046,"Ġë©°":4047,"ê°ľìĽĶ":4048,"ĠìķĦëĬĶ":4049,"all":4050,"ë»":4051,"ĠíĦ´":4052,"ìĿ´ë¯Ģë¡ľ":4053,"ë¡ľë¶ĢíĦ°":4054,"ìĬ¹ìĿĦ":4055,"ëĵ¬":4056,"Ġì¢ħêµĲ":4057,"ĠìľĦíĺĳ":4058,"Ġìŀ¥ë©´ìĿ´":4059,"ĠìĿ¸ì²ľ":4060,"Ġë§ĲíĸĪëĭ¤":4061,"ìłķìľ¼ë¡ľ":4062,"Ġëļ«":4063,"Ġê¸°ì¡´ìĿĺ":4064,"Ġë»Ķ":4065,"ĠíĶĦëłĪ":4066,"íķĺëĭĪ":4067,"Ġë¬´ë¦¬":4068,"ìĦ¸ê³Ħ":4069,"ìª½ìľ¼ë¡ľ":4070,"ìĹĲê²ĮìĦľ":4071,"ĠëĤĺìĺ¤ì§Ģ":4072,"ĠëĮĢìĿĳ":4073,"ì§ĢìĹĲìĦľ":4074,"ëŁ¬ê°Ģ":4075,"Ġì±Ļ":4076,"íĬ¸ìĹĲìĦľ":4077,"Ġë§Ĳìķĺëĭ¤":4078,"ìĭľíĤ¤ê³ł":4079,"ì²©":4080,"ĠëĶĶìŀĲìĿ¸":4081,"Ġíĸīìłķ":4082,"ì¹ĺê²Į":4083,"Ġë¯¸ëĭĪ":4084,"Ġìłģê·¹":4085,"ë°ĶìĿ´":4086,"Ġì¹ĺëªħ":4087,"íĬ¸ìĻĢ":4088,"Ġëº":4089,"yle":4090,"Ġë©ĺ":4091,"Ġë¡ľë´ĩ":4092,"Ġê³µëıĻ":4093,"Ġíķĺëĵľ":4094,"ëŀĺëıĦ":4095,"íķĺìŀĲë©´":4096,"ĠìĥĿëªħ":4097,"ìĦĿìĿĦ":4098,"Ġì»´íĵ¨":4099,"Ġëĭ¤ë¥´ëĭ¤":4100,"Ġê°Ģê¹Ŀ":4101,"ĠìĤ¬íĥľ":4102,"ĠíĤ¬":4103,"Ġë¶Īë¦¬":4104,"íĤ¤ìĿĺ":4105,"ĠëĮĢëĭ¨":4106,"ap":4107,"ĠìĿ¼ìĿĢ":4108,"Ġë²Ķì£Ħ":4109,"ĠìĿ´ìĻĢ":4110,"ëĿ¼ë©°":4111,"ĠìĤ¬ê¸°":4112,"ĠìĿ¼ëŁ¬ìĬ¤íĬ¸":4113,"ĠìķĦë¦Ħ":4114,"ĠìļĶì²Ń":4115,"Ġìłķê·ľ":4116,"Ġìŀħê³ł":4117,"ĠìłĦíĨµ":4118,"ĠëŀĢ":4119,"íĶĮëłĪìĿ´":4120,"ì²´ìĿĺ":4121,"ìķĪìĿĦ":4122,"ëĵľìĹĲ":4123,"Ġê°ĢìĬ´":4124,"Ġëħ¸ëł¥":4125,"ĠëĮĢíĺķ":4126,"Ġë§º":4127,"ìŀĲìĹĲ":4128,"Ġëª½":4129,"ĠëĮĢì¤ĳ":4130,"os":4131,"ãħ":4132,"Ġìĸ»ìĸ´":4133,"Ġë¬¸ìłľë¥¼":4134,"ĠìĦŀ":4135,"ĠíĨµíķ©":4136,"Ġì¼Ħ":4137,"ĠìŀĳìĹħ":4138,"ĠìĿ¼ìĸ´":4139,"ì½¤":4140,"Ġë©Ī":4141,"Ġì±ĦëĦĲ":4142,"Ġìĺµìħĺ":4143,"Ġê³łíĨµ":4144,"ĠëķĮê¹Įì§Ģ":4145,"ĠìĿ´ìłģ":4146,"ìŀĲëĵ¤ìĿĺ":4147,"Âł":4148,"ĠíĥĢì¹´":4149,"Ġë°ĽëĬĶëĭ¤":4150,"ëĨĪ":4151,"ĠëĤĺìĿĺ":4152,"Ġíĳľìĭľ":4153,"Ġê´Ģëł¨ëĲľ":4154,"Ġìļ°ë¦¬ëĬĶ":4155,"ì²´ëĬĶ":4156,"Ġë¸Ķë£¨":4157,"Ġëį°ëł¤":4158,"Ġ35":4159,"ĠìķĶìĤ´":4160,"iki":4161,"Ġê±°ë¶Ģ":4162,"ĠQ":4163,"Ġìĥģì§ķ":4164,"ĠìĿĺíķĺë©´":4165,"êµ¬ëĤĺ":4166,"íĬ¸ëĿ¼":4167,"Ġë¹Ħë¡¯íķľ":4168,"Ġê·¸ë¦°":4169,"ĠíĮĮìĿ¼":4170,"ĠëĮĢíĻĶ":4171,"ìĬ¤ì¼Ģ":4172,"ĠìĹ°ìŀ¬":4173,"Ġê¾¸ì¤Ģ":4174,"ĠìłģìłĪ":4175,"Ġëĭ¨ìĪľíŀĪ":4176,"ìĭ¤ìĿĦ":4177,"um":4178,"ce":4179,"íĳ¸":4180,"ëª¨ë¥¼":4181,"ëĿ¼ìĿ´ëįĶ":4182,"Ġìĺ¬ëĿ¼ê°Ģ":4183,"Ġì°¨ìĿ´":4184,"ĠìĦ±ìļ°ëĬĶ":4185,"ĠìķĦëĭĪì§Ģë§Į":4186,"Ġìŀ¥ê°ĳ":4187,"ĠëĤ«":4188,"ìĿ´ìĹĪê³ł":4189,"Ġë¶īìĿĢ":4190,"ĠìĪ«":4191,"ĠëĮĢê²°":4192,"ì³¤ëĭ¤":4193,"íĮ¬":4194,"Ġê·¼ëį°":4195,"ìĿ´ëĭĿ":4196,"ĠìĥģíĻ©ìĿĦ":4197,"ì§Ĳ":4198,"Ġë°¥":4199,"Ġë´¤":4200,"ë¶ĦìĿĦ":4201,"ìĭłìĿĺ":4202,"ĠìķĦìī¬":4203,"ìĿ¸ëĵ¤ìĿ´":4204,"ìłķìĿĺ":4205,"ĠíĮ¨ì¹ĺ":4206,"ê²½ìĿĦ":4207,"Ġì¡°ìŀĳ":4208,"Ġë¶Ħë¥ĺ":4209,"Ġë°Ķëĭ¥":4210,"ĠìĿ¸ëıĦ":4211,"êµ¬ìĿĺ":4212,"ĠìĨįìĹĲìĦľ":4213,"ĠìĿ´ë¦Ħìľ¼ë¡ľ":4214,"ìļ°ê³ł":4215,"Ġre":4216,"ĠëĤ¨íİ¸":4217,"Ġë§Īì¹¨":4218,"Ġë°ĿíĺĶëĭ¤":4219,"Ġê±±ìłķ":4220,"ìĬ¤ìĹĲìĦľ":4221,"ë¡łìĿĦ":4222,"ĠíķĺëĤĺìĿĺ":4223,"ĠíĬ¹ìĦ±ìĥģ":4224,"Ġê°ģìĦ±":4225,"ĠëĤ´ìļ©ìĿĢ":4226,"ĠëĬĲê»´":4227,"ĠìĿ´ê¸°":4228,"ìķĺê³ł":4229,"ì¡Įê³ł":4230,"ë¡ľìļ°":4231,"ì½©":4232,"ìĽ¨":4233,"Ġê±°ì§ĵ":4234,"ĠìĤ¬ë¬´":4235,"Ġë¯¸ë¦¬":4236,"Ġë¹Ļ":4237,"ë¡ľëĵľ":4238,"ĠíŀĪìĸ´ë¡ľ":4239,"ĠëħĦ":4240,"ë²ķìĿĦ":4241,"Ġëĵ±ìĹĲ":4242,"ĠëĪĪìĿĦ":4243,"ĠëĬĺìĸ´":4244,"Ġë¬´ëĦĪ":4245,"ĠíķĺëĤĺë¡ľ":4246,"ë§Įìľ¼ë¡ľ":4247,"ëĵĢ":4248,"AR":4249,"ĠëĪĪìĹĲ":4250,"ŁìķĦ":4251,"ĠíĶ½":4252,"íİĺìĿ´ì§Ģ":4253,"Ġë¶Ļìĸ´":4254,"ìĹ½":4255,"Ġì¹´ëĵľë¥¼":4256,"ëĤĺë¥¼":4257,"ĠíķĦìļĶê°Ģ":4258,"Ġìŀ¥ëĤľ":4259,"ĠëŁ°":4260,"Ġê½¤ëĤĺ":4261,"ĠëĤ´ìĹĲìĦľ":4262,"ĠìĹŃëĮĢ":4263,"Ġ2008":4264,"ĠìĿ¸ìĥĿ":4265,"ìļ´ëıĻ":4266,"ìĿ¼ìĿĺ":4267,"ĠìłĢíķŃ":4268,"Ġë°¸":4269,"Ġë¶ķ":4270,"ĠëĲĺë©´ìĦľ":4271,"Ġìį¼":4272,"íķĺëł¤ëĬĶ":4273,"ĠíĮ¨ëŁ¬":4274,"ìĽĮìĦľ":4275,"Ġìĸ´ì°Į":4276,"ë¡ľê·¸":4277,"Ġë¶Ģë¶ĦìĿ´":4278,"ĠíĬ¸ë¦¬":4279,"Ġë§Īë¬´ë¦¬":4280,"Ġë§ŀìķĦ":4281,"ĠìłĲìĿĢ":4282,"ĠíĽĮ":4283,"ĠíĽĦìĨį":4284,"Ġëª©ìĪ":4285,"ìĺ·":4286,"Ġìħĭ":4287,"ĠíĥĿ":4288,"Ġë¹¼ìķĹ":4289,"ĠìłĲìĹĲìĦľ":4290,"Ġìµľì´Īë¡ľ":4291,"íķ´ì¡Įëĭ¤":4292,"ĠìĨįìĦ±":4293,"Ġê²½ê¸°ìĹĲìĦľ":4294,"Ġìŀ¬ë¯¸":4295,"íķ´ì§Ħëĭ¤":4296,"Ġë¡¯ëį°":4297,"ìĿ´ìķ¼":4298,"ë²Ħë¦¬ëĬĶ":4299,"Ġê·¸ë§Į":4300,"Ġì¹´ë©Ķ":4301,"ìĭľìĺ¤":4302,"ĠëĮĢë¹Ħ":4303,"Ġê·¹ìŀ¥":4304,"Ġê±°ìķ¼":4305,"ĠìĤ´ìķĦëĤ¨":4306,"ê·¸ë£¹":4307,"AN":4308,"Ġìļ°ë¦¬ê°Ģ":4309,"Ġì§Ħìŀħ":4310,"Ġì°Į":4311,"ëª¨ë¡ľ":4312,"Ġë§Įíķľ":4313,"ĠíĿī":4314,"Ġë©ľ":4315,"Ġwiki":4316,"19":4317,"ìĿ´ìĻĢ":4318,"ìķ½ìĿĦ":4319,"ìĭľë§Ī":4320,"Ġë¡Ŀ":4321,"Ġìĺ¤ë¦¬ì§Ģ":4322,"Ġëª¨ìĬµìľ¼ë¡ľ":4323,"Ġê°ĲìķĪ":4324,"ĠíļĮíĶ¼":4325,"ul":4326,"ìĹĲê²ĮëıĦ":4327,"ë§Ľ":4328,"ëĭ¨ê³Ħ":4329,"Ġë§īìķĦ":4330,"ĠíħĲ":4331,"ëĭµê²Į":4332,"ĠìĽĶëĵľì»µ":4333,"ĠìłģìĿĺ":4334,"Ġëįľ":4335,"ë¶ĢìĹĲìĦľ":4336,"ĠëĮĢíķľë¯¼êµŃìĿĺ":4337,"ĠìĤ¬ê²©":4338,"ĠìĿ´íĥĪë¦¬ìķĦ":4339,"ìŀĸìķĦ":4340,"Ġë§Ĳê³ł":4341,"ëĨĵìĿĢ":4342,"êµĲìľ¡":4343,"Ġì²´ëł¥ìĿ´":4344,"ìħ¨":4345,"ìķĦìĿĺ":4346,"ĠìĿ´ìľłê°Ģ":4347,"Ġëį°ìĿ´íĦ°":4348,"ìĿ¼ë¶ĢíĦ°":4349,"ĠëıĮëł¤":4350,"ëĭ¤ë¥¸":4351,"ĠíģĲ":4352,"ìłģìĿĢ":4353,"Ġstyle":4354,"ìĸ´ëĬĶ":4355,"ĠíĻķìŀ¥":4356,"ĠëĦ¤ìĿ´":4357,"Ġìłķì±ħ":4358,"íķ´ë¥¼":4359,"Ġê³µëŀµ":4360,"ëĤĺìĻĢ":4361,"ë¯¸ìĿĺ":4362,"km":4363,"ì¹´ê°Ģ":4364,"ĠìĦľìĪł":4365,"ë¤Ħ":4366,"ĠìłĦê¸°":4367,"ê¹Įì§ĢëıĦ":4368,"Ġê²¹":4369,"ĠìĭľëĮĢ":4370,"ĠíĻķìĭ¤íŀĪ":4371,"ation":4372,"Ġê¸°ìĪłìĿĦ":4373,"ĠëĤĺìģĺ":4374,"ìĬ¤ì½Ķ":4375,"ĠëĶĶìŀĲ":4376,"ĠëĤĺëĪĦ":4377,"ĠìłķìĿĺ":4378,"Ġëľ¬":4379,"ĠìĨĮëħĦ":4380,"ĠëĮĢíĳľìłģìĿ¸":4381,"ëĩĮ":4382,"ĠìŀĪìĹĪìľ¼ëĤĺ":4383,"ìĿ´ëĿ¼ìĦľ":4384,"ìĿ¼ìĿĢ":4385,"Ġíķľëĭ¤ê³ł":4386,"ĠìłĦìĤ¬":4387,"íĢ´":4388,"Ġëĭ®":4389,"íı¼":4390,"íĬ¸ë¦¬":4391,"ë°©ìĹĲ":4392,"Ġâĳ":4393,"Ġë³´ì¡°":4394,"Ġìĥģì²ĺ":4395,"ĠìĭľìĦ¤":4396,"op":4397,"ĠìĨĲìĹĲ":4398,"ê³łê°Ģ":4399,"íĺķìĿ´":4400,"Ġìĺģìŀħ":4401,"ëŀĲëĭ¤":4402,"Ġ32":4403,"Ġìĸ¸ë¡ł":4404,"ìłĦìľ¼ë¡ľ":4405,"ìĽłëĭ¤":4406,"ìĹĪëĭ¤ëĬĶ":4407,"ab":4408,"ĠëłĪëĵľ":4409,"Ġì£½ìĿĦ":4410,"ĠìĨįëıĦ":4411,"Ġìĭľê¸°":4412,"ĠëĲĲ":4413,"íķĺë¯Ģë¡ľ":4414,"Ġìĭ¶ìĿĢ":4415,"ìļ©íķľ":4416,"ĠìħĢ":4417,"ìĭľíĤ¨ëĭ¤":4418,"ë¥´ìĿĺ":4419,"ĠëĮĢíķ´ìĦľëĬĶ":4420,"ĠíĶĦë¡ľìłĿ":4421,"Ġëĭ¤ìļ´":4422,"Ġìĸĺê¸°":4423,"Ġìŀī":4424,"ĠìĿ¸ê¸°":4425,"ì»¨":4426,"ìĹŃìľ¼ë¡ľ":4427,"ìĹ°íŀĪ":4428,"ì¡°ìĿĺ":4429,"íĴĢ":4430,"Ġë°Ľì§Ģ":4431,"ĠìĤ¬ê³¼":4432,"ëª¨íĨł":4433,"ĠìĿ´ëĵ¤ìĿĢ":4434,"ìħĢ":4435,"ĠëĤĺìĺ¤ê³ł":4436,"Ġê¸°ëħĲ":4437,"ì¨":4438,"ĠìłĦíĻĺ":4439,"ë¦¬ìŀĲ":4440,"ë£Įë¥¼":4441,"Ġê·¸ëł¤":4442,"ìļ©ìĿ´":4443,"ĠíĿ¬ë§Ŀ":4444,"ĠìĥģëĮĢê°Ģ":4445,"êµ¬ëĬĶ":4446,"Ġê¹Ĭ":4447,"ĠíĥĢìĿ´íĭĢ":4448,"ĠìłĢê²©":4449,"Ġìĸ´ëłµëĭ¤":4450,"Ġvs":4451,"ĠìĦľë²Ħ":4452,"ëģĦ":4453,"ĠìłĬìĿĢ":4454,"ĠëĤĺë¥¼":4455,"Ġê±°ëĮĢíķľ":4456,"Ġì§Ģìłģ":4457,"Ġì¤ĳìĭ¬ìľ¼ë¡ľ":4458,"ëıĻìĥĿ":4459,"ĠëĤłëł¤":4460,"Ġìĭľë¯¼":4461,"ĠíĻķë³´":4462,"Ġëª¨íĭ°ë¸Į":4463,"Ġìĺ¤ë¥´":4464,"Ġê°ľì¡°":4465,"ĠEX":4466,"ĠëĪĦê°Ģ":4467,"Ġì»¨ìħī":4468,"ĠìĿ¸ë¥ĺ":4469,"Ġì§Ģìłķ":4470,"ë´¤":4471,"íķľëį°":4472,"ì§ĢìŀĲ":4473,"Ġì§ĳìĹĲ":4474,"Ġë¹ĦëĤľ":4475,"íħĢ":4476,"Ġë¬¼ìĸ´":4477,"ëłĢëĭ¤":4478,"ĠíĻĪëŁ°":4479,"ĠëĶ±íŀĪ":4480,"ìĤ°ìĿĦ":4481,"ĠìĭľëĤĺ":4482,"ë¥łìĿ´":4483,"ëłĪìĿ´ìħĺ":4484,"Ġê²¨ìļ°":4485,"Ġê·¸ìĹĲ":4486,"Ġëª»íķľëĭ¤":4487,"Ġë§Īë¥´":4488,"ìłĦìĿĢ":4489,"ë¦¬ë©´ìĦľ":4490,"ëĿ¼ìĬ¤":4491,"ĠPC":4492,"Ġìŀłê¹Ĳ":4493,"Ġë¹ĦêµĲìłģ":4494,"ĠìĦłë³´":4495,"ĠìłĲíĶĦ":4496,"ĠìĤ´ìĿ¸":4497,"íĮ¨ë¥¼":4498,"Ġìłľìĭľ":4499,"ìķĬ":4500,"Ġê¼½":4501,"ë¡ľëıĦ":4502,"ë¦¬ìĺ¨":4503,"ìłģìĿ´ê³ł":4504,"ĠìĽ¬":4505,"Ġìŀ¡ê³ł":4506,"Ġë¶Ģëĭ´":4507,"ĠíĨµê³¼":4508,"Ġê°ĢìĪĺ":4509,"ìŀ¥ê³¼":4510,"ĠìŀŃ":4511,"Ġëĵ±ê¸ī":4512,"Ġê°¤ëŁ¬":4513,"Ġë¬´ìĤ¬":4514,"Ġë³´ìĿ´ì§Ģ":4515,"Ġëĭ¹ìŀ¥":4516,"ĠìĨįìĹĲ":4517,"íļĮìĹĲìĦľ":4518,"Ġì¢Ģë¹Ħ":4519,"ìłĦìŁģ":4520,"ĠìĨĮë¦¬ë¥¼":4521,"Ġê±¸ìĸ´":4522,"ìĺĢëĬĶëį°":4523,"ĠëĤĺë":4524,"ìłľìĹĲ":4525,"Ġ300":4526,"Ġê¸¸ìĿĦ":4527,"Ġëį°ë¯¸ì§Ģë¥¼":4528,"Ġìķ½ìĨį":4529,"Ġìłķë³´ë¥¼":4530,"ì¦Īê°Ģ":4531,"ĠìķĦìĬ¤":4532,"ê°ľê°Ģ":4533,"Ġê²ĮìĿ´":4534,"ĠìŀĲìĭłìĿĢ":4535,"ĠëĤĺëĪ":4536,"ë¦¼íĶ½":4537,"ĠìĿ¼ë°ĺìłģìĿ¸":4538,"ê¸°ìĤ¬":4539,"ìĥĿíĻľ":4540,"ìª½ìĹĲ":4541,"ëĬĲëĥĲ":4542,"ìĦ±ëıĦ":4543,"Ġë¬¶":4544,"ĠëıĦìĽĢìĿĦ":4545,"ìľ¼ë¡ľë¶ĢíĦ°":4546,"Ġì¸¡ë©´":4547,"ĠëıĦì¿Ħ":4548,"ìĩł":4549,"ĠëĤĺìĿ´íĬ¸":4550,"Ġê°ľìµľ":4551,"Ġê°Ģê²Į":4552,"ĠìĥģëĮĢë¥¼":4553,"TV":4554,"Ġê·¸ê²ĥìĿĦ":4555,"íĺ¸ìĿĺ":4556,"ĠìĿ´ëĭ¤":4557,"Ġë¨¹ëĬĶ":4558,"Ġi":4559,"ĠìĿ´íĽĦìĹĲ":4560,"ê¿":4561,"íĴĪìĿĦ":4562,"ĠíĶĮëŀĺ":4563,"ĠìľĦì¹ĺíķľ":4564,"Ġë¶Ģë¥´ëĬĶ":4565,"ĠíĻĶìĹ¼":4566,"Ġë¿ĲìĿ´ëĭ¤":4567,"Ġì¢ģ":4568,"Ġë§ģíģ¬":4569,"ĠìµľëĮĢíķľ":4570,"ĠìľĪ":4571,"íĺĶ":4572,"ìĭ¬íŀĪ":4573,"íĻĶìĹĲ":4574,"ìľĦìĿĺ":4575,"Ġìº¡":4576,"ê¸°ê´Ģ":4577,"ĠíĺĲ":4578,"íļĮìĹĲ":4579,"íŀĮëĭ¤":4580,"ĠìĹĨê¸°":4581,"ĠíĮĢìĿ´":4582,"oc":4583,"ĠìķĦíĮĮ":4584,"ê°Ĵ":4585,"¶¤":4586,"ëĮĢìłĦ":4587,"Ġê·¸ëŁ´":4588,"ëĭ¨ìĹĲ":4589,"ĠìĬ¤ì½Ķ":4590,"ĠìĿ´ê²ĥìĿĢ":4591,"ĠìĿ´ê²ĥìĿ´":4592,"Ġë§Īë¦¬":4593,"ìķ¼ë§Ī":4594,"ì¹ľëĭ¤":4595,"Ġíķ´ìĦĿ":4596,"ĠëĤľìĿ´ëıĦ":4597,"Ġíıīë²Ķíķľ":4598,"ĠìĹī":4599,"Ġíĥĳìŀ¬":4600,"Ġë©Ģë¦¬":4601,"ìĻķìĿĺ":4602,"Ġì»¤ë®¤":4603,"Ġë¿Ĳë§Į":4604,"ĠĠĠĠĠĠĠĠĠĠĠĠ":4605,"Ġìŀĩ":4606,"ëĮĢíĳľ":4607,"Ġê°Ģìłķ":4608,"ĠìĬ¤íı¬ì¸ł":4609,"Ġìŀ¥ê¸°":4610,"Ġëª°ìķĦ":4611,"Ġìłľìķķ":4612,"ĠCh":4613,"Ġë°©ë¬¸":4614,"ìĦłìĪĺ":4615,"ìłľëĬĶ":4616,"ëıĻìĿ´":4617,"ëłĪìĿ¸":4618,"ë¥Ń":4619,"Ġê·¸ê²Į":4620,"Ġìĭľìŀĳíķľëĭ¤":4621,"ëª©ìĿĦ":4622,"ìŀĲìĹĲê²Į":4623,"ëł¥ìĹĲ":4624,"Ġë§ŀê³ł":4625,"ëķĮë¬¸ìĹĲ":4626,"Ġëĭ¤ë¦Ħ":4627,"ĠìĪ²":4628,"Ġìķħë§Ī":4629,"Ġìĺ¤ë¦¬ì§ĢëĦĲ":4630,"ĠíķĦìĤ´":4631,"ĠëĲĺê¸°":4632,"êµ¬ìĹĲ":4633,"ĠìĥĿê¸°":4634,"ĠìĥĿìĦ±":4635,"ON":4636,"Ġbe":4637,"Ġíĺģ":4638,"ê°¤":4639,"ĠíİĺìĿ´":4640,"ìĿ¼ëŁ¬":4641,"ĠíĮĮìķħ":4642,"Ġì¥Ĳ":4643,"ĠíŀĺìĿ´":4644,"ĠìĹ¬íĸī":4645,"ĠíĪ¬ìŀĲ":4646,"ëĿ½ìĿĦ":4647,"íĮĲìĿ´":4648,"Ġ2007":4649,"ìĿ´ìĹĪìľ¼ëĤĺ":4650,"Ġon":4651,"ĠëĮĢëĨĵê³ł":4652,"ìĭľë¸Į":4653,"Ġë³¸ìĿ¸ìĿĢ":4654,"Ġê±°ëĳĲ":4655,"ĠìĺĪìłĦ":4656,"ĠìĦ¤ë¦½":4657,"ìĦ¸ìĿ´":4658,"ĠëĶĶì§Ģ":4659,"ì³ĲìĦľ":4660,"Ġëħ¼ëŀĢìĿ´":4661,"ĠìĹĦì²ŃëĤĺê²Į":4662,"Ġíİľ":4663,"Ġìĭ¶ìĸ´":4664,"Ġë§Įëĭ¤":4665,"Ġë°Ķê¿Ķ":4666,"ìķħìĿĺ":4667,"ëĿ¼ìļ°":4668,"Ġ33":4669,"Ġì§ĢëĭĪ":4670,"ì§ĢìĹŃ":4671,"ound":4672,"ĠëĭĮ":4673,"ĠìķĦì¹¨":4674,"Ġë¯¸ëĵľ":4675,"ê²ģ":4676,"ìŀĦìĹĲëıĦ":4677,"Ġì»¬":4678,"ë°©ìĿĺ":4679,"ìĭľíĶ¼":4680,"Ġì½ĶìĬ¤":4681,"ĠìŀĪëıĦë¡Ŀ":4682,"ëĮĢìĹĲìĦľ":4683,"ĠëķĮìĿĺ":4684,"ill":4685,"ë¦¬ìĹĲìĦľ":4686,"ë¹µ":4687,"íĬ¸ë¡¤":4688,"Ġì§§ìĿĢ":4689,"ĠìĹ¬ë¦Ħ":4690,"ë°Ķë¡ľ":4691,"ëł´":4692,"Ġìµľì´ĪìĿĺ":4693,"ĠFC":4694,"ë°Ľê³ł":4695,"Ġãĥ¼":4696,"ĠìĬ¹ë¦¬ë¥¼":4697,"Ġ45":4698,"ì§ĦìĿĺ":4699,"ĠìĿ¸ê¸°ê°Ģ":4700,"ĠëģĿê¹Įì§Ģ":4701,"ĠKBS":4702,"Ġê¼´":4703,"ĠìĽĲíķĺëĬĶ":4704,"ĠëŃĶê°Ģ":4705,"ëħĦìĿ´":4706,"ĠìĿĢíĩ´":4707,"ê¸°ë§Į":4708,"ëŀ¬":4709,"Ġë°Ķíĥķ":4710,"íĺ¸ëĬĶ":4711,"ìŀī":4712,"ê³ĦìĹĲ":4713,"ĠYou":4714,"ìĭĿìĿĺ":4715,"ĠìºĲë¦ŃíĦ°ê°Ģ":4716,"ĠëģĿëĤ´":4717,"íģ¬ëŀĺ":4718,"ì§ĪìĿ´":4719,"Ġíģ¬ëĭ¤":4720,"Ġì§ĢëĭĮ":4721,"ëĭĺìĿ´":4722,"Ġë³´ë³ĳ":4723,"ĠëįĶë¸Ķ":4724,"Ġë°Ģìĸ´":4725,"Ġê·¸ëħĢëĬĶ":4726,"Ġê³łë¯¼":4727,"Ġëħ¸ëıĻ":4728,"ĠëıĦìĽĢìĿ´":4729,"ê°Ģë¡ľ":4730,"Ġì´Īë°ĺìĹĲ":4731,"ê¶ĮìĿ´":4732,"ìĦľê°Ģ":4733,"Ġì£¼ë¬¸":4734,"ĠìĿ´ìķ¼ê¸°ê°Ģ":4735,"Ġìĸ´ìļ¸":4736,"ë°ľìĿĦ":4737,"ĠëĴ¤ë¡ľ":4738,"ë¥´ê°Ģ":4739,"ĠìĿ¸ê°ĦìĿĺ":4740,"Ġëĸ¨":4741,"ĠíĻľëıĻìĿĦ":4742,"Ġê´ĳì£¼":4743,"Ġëª©ë¡Ŀ":4744,"Ġê°ľìĦł":4745,"ĠëĳĶ":4746,"Ġê¸Īì§Ģ":4747,"ìĥģìĹĲìĦľ":4748,"Ġìĸ´ëĬĲìłķëıĦ":4749,"Ġì¶Ķê°Ģë¡ľ":4750,"ĠìĤ¬ì¿ł":4751,"ĠìĦłìĸ¸":4752,"ĠìĥĿê²¨":4753,"ë³µìĿĦ":4754,"ie":4755,"ĠíķĦìĪĺ":4756,"ĠìľĮ":4757,"Ġx":4758,"íķĺê²ĮëıĦ":4759,"Ġë³´ëĦĪ":4760,"ĠìĿĺíķľ":4761,"Ġì´ī":4762,"ì¹´ìĿĺ":4763,"íķ¨ìĿ´":4764,"ĠìĦľë¸Į":4765,"ĠëħĢìĦĿ":4766,"Ġ2006":4767,"ìĿ´ìĹĲ":4768,"Ġê³³ìĹĲ":4769,"Ġìĺ¤íĨł":4770,"íŀĪê³ł":4771,"Ġëª¨ë¥¸ëĭ¤":4772,"ĠìĪĺì¤ĢìĿĺ":4773,"Ġë°ľìĸ¸":4774,"ĠìŀĲê¸°ê°Ģ":4775,"Ġíıīê°Ģë¥¼":4776,"íģ¬ëĬĶ":4777,"ĠëĿ¼ë©°":4778,"ìĻĢìĦľ":4779,"ĠëĤ´ìļ©ìĿĦ":4780,"ëł¸ê³ł":4781,"ĠìĹł":4782,"íĨ¨":4783,"Ġëį°ë¯¸ì§Ģ":4784,"Ġêµ¬ë¶Ħ":4785,"ĠëıĦë¡ľ":4786,"íĦ°ìĿĺ":4787,"art":4788,"ë§ĪíĬ¸":4789,"ĠìļĶë¦¬":4790,"Ġíĸ¥íķ´":4791,"ĠëªħìĿĺ":4792,"ê²ĮëıĦ":4793,"ĠëĤ¸":4794,"IN":4795,"Ġìī¬ìļ´":4796,"ë£¨ê°Ģ":4797,"ì½Ķê°Ģ":4798,"ĠëĮĵ":4799,"Ġê°ķì¡°":4800,"Ġë°©íķ´":4801,"Ġì±ħìŀĦ":4802,"ĠìĥģíĻ©ìĹĲ":4803,"Ġë¶Ħìķ¼":4804,"ĠëĲĺë©°":4805,"Ġë§Ĳíķ´":4806,"Ġë¶Ħë¦¬":4807,"ĠìĽĲê±°ë¦¬":4808,"Ġíķ´ì£¼":4809,"Ġëª¨ìķĦ":4810,"Ġê·¸ëłĪìĿ´":4811,"Ġë³´ì»¬":4812,"Ġê·¸ëłĩëĭ¤ê³ł":4813,"ëįľ":4814,"Ġì§Ģê¸Īê¹Įì§Ģ":4815,"ĠìĤ¬ëŀĮëĵ¤":4816,"ĠëĶ°ë¥¸":4817,"iz":4818,"ĠëģĿëĤľ":4819,"up":4820,"Ġê¶ģê·¹":4821,"ëĿ¼ìĻĢ":4822,"PC":4823,"Ġë¹Ħë¡Ŀ":4824,"ìĤ¬ìĹĲìĦľ":4825,"ĠìĿ´ìłĦìĹĲ":4826,"ì»·":4827,"Ġë¶ĢëĮĢ":4828,"ĠìķĦë¬´ëŀĺëıĦ":4829,"ë¦ĩ":4830,"ĠìĽĲëŀĺëĬĶ":4831,"ĠìķĻ":4832,"ìľµ":4833,"Ġíķµìĭ¬":4834,"ĠìŀĲìĭłìĹĲê²Į":4835,"Ġìķ¼ë§Ī":4836,"ĠíĪ¬ìĪĺ":4837,"Ġë¬¸ìłľë¡ľ":4838,"íĤ¤ë¥¼":4839,"ê°ĸ":4840,"ĠìķĮëł¤ìł¸":4841,"Ġê³łìĨį":4842,"ĠìĹ´ìĭ¬íŀĪ":4843,"ë¯¸ëĬĶ":4844,"ì½ĶìĿĺ":4845,"ĠìľĦíķ´ìĦľëĬĶ":4846,"Ġê²ģ":4847,"Ġì£ł":4848,"Ġë§Įëĵ¤ìĸ´ì§Ħ":4849,"Ġëªħì¤ĳ":4850,"ê³µìĿĦ":4851,"íĻĶìĹĲìĦľëĬĶ":4852,"Ġì§ģìłĦ":4853,"ëĭĪìĬ¤":4854,"Ġìķłë§¤":4855,"ìĿĦëķĮ":4856,"ĠìĿ´ìļ©íķľ":4857,"ìĨĮê°Ģ":4858,"Ġì´ĪëĮĢ":4859,"Ġê²ĥìĿ´ìĹĪëĭ¤":4860,"ord":4861,"íĻĢ":4862,"ì°¨ë¡ľ":4863,"Ġë°ĶëĢĮìĹĪëĭ¤":4864,"Ġëª¨íĹĺ":4865,"Ġ36":4866,"Ġë°ľíľĺ":4867,"Ġê¾¸ì¤ĢíŀĪ":4868,"ĠìĹĦë§Ī":4869,"Ġíļ¨ìľ¨":4870,"Ġë°ĽìķĦëĵ¤":4871,"ĠíĭĪ":4872,"ê³łëĵ±íķĻêµĲ":4873,"Ġë¯¸ì¹ľ":4874,"Ġë¨¸ë¦¬ë¥¼":4875,"ĠìłĲëł¹":4876,"11":4877,"ĠíĹĪìļ©":4878,"ĠíĥĢìĿ´ë°į":4879,"ì¹ĺì§Ģ":4880,"Ġë¡ľë§Ī":4881,"ĠHP":4882,"Ġëª»íķ´":4883,"Ġë³ĳìĤ¬":4884,"íĥĢëĬĶ":4885,"ìŀĲëĵ¤":4886,"Ġë¶Ģë¥¸ëĭ¤":4887,"ì¦Īë¥¼":4888,"ëĭ¬ëĿ¼ê³ł":4889,"Ġê±¸ë¡ľ":4890,"ĠìľĦìĹĲìĦľ":4891,"ĠêµĲíĨµ":4892,"ìĹĪìľ¼ëĤĺ":4893,"Ġê°±":4894,"ìĭľëĮĢ":4895,"ë¬¼ë¡ľ":4896,"Ġíŀĺëĵ¤ëĭ¤":4897,"Ġì¤ĳìĿ´ëĭ¤":4898,"íĿĳ":4899,"ĠìĤ¬ìĭ¤ìĿĢ":4900,"Ġê²ĮìŀĦìĿĺ":4901,"Ġê³łëĮĢ":4902,"íı¬ë¥¼":4903,"Ġëĸ¨ìĸ´ì§Ħ":4904,"ë¥´ê¸°":4905,"ìĹŃìĿ´":4906,"Ġíĥľìĸĳ":4907,"ĠBG":4908,"Ġì²ĺìĿĮìĹĲëĬĶ":4909,"ì´ī":4910,"ĠMP":4911,"ĠìľĦë¡ľ":4912,"ĠìĨįëıĦê°Ģ":4913,"ìļ°ìĿĺ":4914,"Ġë³´ìĹ¬ì£¼ëĬĶ":4915,"ĠíĽĮë¥Ń":4916,"íĿĲ":4917,"ìĹĲìĦľë§Į":4918,"ĠíĿĶíŀĪ":4919,"ĠìĦłìłķ":4920,"Ġëĸ¨ìĸ´ìł¸":4921,"Ġëĭ¤ê°Ģ":4922,"ĠìĥģëĮĢìłģìľ¼ë¡ľ":4923,"Ġãħ":4924,"Ġìĺ¤ëĬĶ":4925,"ĠìĹĨê²Į":4926,"Ġ193":4927,"Ġë©Ģíĭ°":4928,"ê°ģìĿĦ":4929,"ì²´ë¡ľ":4930,"ĠëłĮ":4931,"ĠëĮĦ":4932,"Ġê´ĳê³ł":4933,"ìĮį":4934,"Ġê±´ê°ķ":4935,"Ġme":4936,"ĠìĬ¤íĤ¬ìĿĦ":4937,"ì¹´ëĵľ":4938,"Ġíĺķíĥľë¡ľ":4939,"Ġëĸ¨ìĸ´ì§ĢëĬĶ":4940,"ĠìĥĿê°ģìĿĦ":4941,"ĠìĬ¤ìľĦ":4942,"ë¥ľ":4943,"ĠíķĺëĤĺê°Ģ":4944,"ìĿ¼ë¡ľ":4945,"ĠëĦĺìĸ´ê°Ģ":4946,"Ġìĺ¨ê°ĸ":4947,"Ġë§Įì¡±":4948,"ĠìŀĦë¬´":4949,"êµŃìĿ´":4950,"Ġì§Ģê¸ī":4951,"ok":4952,"Ġê·¸ëĵ¤ìĿĺ":4953,"ĠìĦ±íĸ¥":4954,"Ġë©¸ë§Ŀ":4955,"ëłĲ":4956,"ĠíĮ©":4957,"ĠìĤ¬ìļ©íķľ":4958,"Ġì²ĺìĿĮë¶ĢíĦ°":4959,"ë¡łìĿ´":4960,"ëŀĢëĵľ":4961,"Ġìĸ´ì©Ķ":4962,"ĠìłľìĻ¸íķĺê³ł":4963,"Ġì¤ĳìĹĲìĦľëıĦ":4964,"Ġë§ĲëıĦ":4965,"ĠìĿ¼ìĸ´ëĤľ":4966,"ëł¥ëıĦ":4967,"Ġë³¸íİ¸":4968,"Ġëį©":4969,"©ëĭĪëĭ¤":4970,"ĠëĬĺìĸ´ëĤĺ":4971,"Ġì¤Ħìĸ´ëĵ¤":4972,"ĠìķĦíĶĦë¦¬ì¹´":4973,"íĶĦìĿĺ":4974,"ĠëķĮë¶ĢíĦ°":4975,"íĨłê°Ģ":4976,"Ġë§Īëł¨":4977,"ê·ľëª¨":4978,"ĠëĦ¤ê°Ģ":4979,"Ġíı¬íķ¨íķľ":4980,"Ġê²ĮìŀĦìĿ´":4981,"Ġë²ĶìľĦ":4982,"ìĦľìĿĺ":4983,"ĠìĨĶë¡ľ":4984,"ĠìķĦëĤĺ":4985,"ĠìľłëıĦ":4986,"ĠìŀĳìĦ±":4987,"ê¶ĮìĿĺ":4988,"ìĿ´ìĹĪì§Ģë§Į":4989,"ê²©ìĿ´":4990,"AT":4991,"ĠìłĦìĪł":4992,"ĠìĹ°ì£¼":4993,"ĠíĺķìĦ±":4994,"Ġíĺľ":4995,"Ġê²¨ìļ¸":4996,"Ġìĭľìŀĳíķľ":4997,"ĠíķĦìļĶíķĺëĭ¤":4998,"ëħĦìĿĺ":4999,"ĠíĻĪíİĺìĿ´ì§Ģ":5000,"ìĥģíĥľ":5001,"ĠëĤĺìģľ":5002,"Ġë°ĺìĺģ":5003,"Ġê±°ìłĪ":5004,"ĠìĦ¤ê³Ħ":5005,"Ġê³µíĨµ":5006,"ĠëĤ´ë¶Ģ":5007,"Ġëª¨ìŀĲ":5008,"Ġìĺ¤íĽĦ":5009,"Ġì§ĦíĻĶ":5010,"ìĦ¸ìĿĺ":5011,"Ġit":5012,"ĠíĮĢìĿĦ":5013,"ĠìĿĺìĭ¬":5014,"ra":5015,"ìĿ´ëįĺ":5016,"ì¡°ê°Ģ":5017,"ĠìĬ¤ì¹´":5018,"Ġì¹´ìĺ¤":5019,"Ġê´ĳìĹŃ":5020,"ĠìķĪíĥĢ":5021,"Ġë³´ê¸ī":5022,"ĠìĿ´íĽĦìĹĲëĬĶ":5023,"Ġì¶Ķê°ĢëĲľ":5024,"Ġê´ĢíĨµ":5025,"ff":5026,"Ġê±°ëŀĺ":5027,"íİĻ":5028,"ĠìĹ°ìŀ¥":5029,"ĠìĹĨìľ¼ë©°":5030,"Ġëĵ±ë¡Ŀ":5031,"Ġê²Įìĭľ":5032,"ĠìĦľë¹ĦìĬ¤":5033,"ëĿ¼ë¦¬":5034,"ê³¨ìĿĦ":5035,"íĪ°":5036,"Ġë¸ĮëłĪìĿ´":5037,"Ġê¹İ":5038,"Ġëĭ¹íĻ©":5039,"ĠìĤ¬ê±´ìĿ´":5040,"íķĺê¸°ë¡ľ":5041,"ĠìĤ´ì§Ŀ":5042,"Ġêµ¬ìŀħ":5043,"Ġì»¨íĬ¸ë¡¤":5044,"ri":5045,"Ġë°¸ëŁ°":5046,"Ġëĸłìĺ¬":5047,"Ġëį°ìĿ´":5048,"Ġêµ¬ì¶ķ":5049,"Ġë¬´ê¸°ë¥¼":5050,"Ġê°ķìłľ":5051,"Ġì½ĶëĦĪ":5052,"Ġ1000":5053,"ìĪĺìĻĢ":5054,"ont":5055,"Ġë´īìĿ¸":5056,"Ġê°ĢëĵĿ":5057,"Ġíİ¸ì§ĳ":5058,"ìĦłìĹĲ":5059,"ĠìĤ¬ëŀĮëĵ¤ìĿĦ":5060,"ìĸĢ":5061,"Ġìļ°ëł¤":5062,"ĠëĤ³":5063,"ĠìŀĲìĤ´":5064,"ë¬´ëĿ¼":5065,"Ġê·¼ê±°":5066,"Ġë¶ĦìĦĿ":5067,"īĺ":5068,"Ġê³łëĵ±íķĻêµĲ":5069,"Ġì¤ĳëĭ¨":5070,"ìĿ¸ì§ĢëĿ¼":5071,"Ġëĵ±ëĵ±":5072,"ëħĦê¹Įì§Ģ":5073,"ëĭ¹ìĿ´":5074,"Ġê·¸ëħĢë¥¼":5075,"ĠìĪĺíĺ¸":5076,"Ġìĺ¤ìĺ¤":5077,"íĥĢìŀĦ":5078,"ìĭľì¼°ëĭ¤":5079,"ìĿ´ìĥģ":5080,"Ġì°©ìļ©":5081,"ĠìĤ¬ìĿ´ìĹĲìĦľ":5082,"Ġë°©ìĭĿìľ¼ë¡ľ":5083,"Ġì§Ģìĺ¥":5084,"ĠíħĮëŁ¬":5085,"ĠíĶĦë¡ľëĵĢ":5086,"ĠíķĺëĤĺë¥¼":5087,"ì¹ĺê¸°":5088,"Ġì¥¬":5089,"Ġì¶¤":5090,"Ġë¬´ìĦľ":5091,"ĠëĨĵê³ł":5092,"Ġìĭ¤ì§Ī":5093,"ëģ¼ë¦¬":5094,"ĠíĮĮíĬ¸":5095,"ë©´ìĦľëıĦ":5096,"ĠMBC":5097,"ìĭľíĭ°":5098,"ì°¨íĶ¼":5099,"ëłģ":5100,"Ġìĭ¤ìĭľ":5101,"ĠìŀĪìľ¼ë¯Ģë¡ľ":5102,"ĠìĿ¸ê¸°ë¥¼":5103,"Ġê·¸ë¦¬ìĬ¤":5104,"Ġê°Ħëĭ¤":5105,"ë¦¬ìķĪ":5106,"ìķĺì§Ģë§Į":5107,"Ġê°ľë´ī":5108,"Ġë§Įëĵ¤ìĹĪëĭ¤":5109,"Ġìĸ´ì°¨íĶ¼":5110,"ĠíĬ¸ëłĪìĿ´":5111,"ìĤ¬ìĿ´":5112,"ĠìķĬê¸°":5113,"íĶĦëłĪ":5114,"Ġíķ´êµ°":5115,"ĠìĤ¼êµŃ":5116,"ìļĶìĿ¼":5117,"Ġê¸°ë¡ĿíĸĪëĭ¤":5118,"ĠìĥĿê°ģíķĺëĬĶ":5119,"ĠìĿĮìĭĿ":5120,"ëłĺ":5121,"Ġì¦Ŀê±°":5122,"ëŁīìĿĺ":5123,"ìĥ·":5124,"ĠìķĬìľ¼ë©°":5125,"ĠëĮĢëĭ¤":5126,"ë¬¼ìĿĺ":5127,"ĠëĵľëĿ¼ìĿ´":5128,"ĠìĻĦë£Į":5129,"ĠìĤ¬ëŀĮëıĦ":5130,"Ġ2005":5131,"Ġê·¸ë§Įíģ¼":5132,"ĠìĥģëĮĢìĿĺ":5133,"ĠëłĪìĿ´ìłĢ":5134,"Ġì»´íĵ¨íĦ°":5135,"Ġê³ĦìĤ°":5136,"Ġìļ©ë³ĳ":5137,"ĠíĿ¡ìĪĺ":5138,"Ġëĵ¤ìĸ´ìĺ¤":5139,"ĠìķĦëĭĲ":5140,"Ġì£½ìĿ´":5141,"Ġ195":5142,"ĠìļĶìĭľ":5143,"ëıĦìĭľ":5144,"Ġê±°ëĮĢ":5145,"ĠìĹ´ë¦°":5146,"Ġê´Ģê´ĳ":5147,"Ńī":5148,"Ġë³´ìŀĲ":5149,"íķĺê¸°ìĹĲ":5150,"ĠìĹħê·¸ëłĪìĿ´ëĵľ":5151,"ë©į":5152,"ĠëĳĺìĿ´":5153,"ĠìĬ¤íİĻ":5154,"ĠìĿ¼ì¢ħìĿĺ":5155,"ë³´ê°Ģ":5156,"lay":5157,"Ġê·¸ëĭ¤":5158,"Ġë²Ĺìĸ´ëĤĺ":5159,"Ġê²ĥìĿ´ëĿ¼":5160,"ë¶ķ":5161,"ĠìĥĮ":5162,"Ġìľłìļ°":5163,"Ġ2004":5164,"ĠëĴ¤ì§ĳ":5165,"ëĤĺëĭ¤":5166,"ĠëıĻìĿ¼íķľ":5167,"Ġë§ĪìĤ¬":5168,"Ġê·¸ëıĻìķĪ":5169,"ìĸ´ìł¸":5170,"Ġìĸ¼êµ´ìĿĦ":5171,"Ġì¶ľë°ľ":5172,"ĠìĿ´ìĥģíķľ":5173,"ĠíĸĪëĭ¤ê³ł":5174,"PS":5175,"Ġë§Īì§Ģë§īìľ¼ë¡ľ":5176,"ìĹĪìľ¼ë©°":5177,"ìŀĲëĵ¤ìĿĦ":5178,"Ġìŀ¬ë£Į":5179,"ë¡ľëĤĺ":5180,"ĠëĤ´ìļ©ìĿ´":5181,"Ġê·¸ëłĩì§Ģ":5182,"ìķĦìĽĥ":5183,"Ġê²ĥìĿ´ëĿ¼ëĬĶ":5184,"ate":5185,"ë§ĮìĿĢ":5186,"ìŀĪëįĺ":5187,"ĠíĻ©ê¸Ī":5188,"Ġìĭłì²´":5189,"Ġëĸ¼":5190,"ĠìķĬìķĦìĦľ":5191,"Ġìĥģíĥľê°Ģ":5192,"ĠìĿ´ëĿ¼":5193,"Ġë²ĦíĬ¼":5194,"ove":5195,"ĠìķĦìĭľìķĦ":5196,"Ġìĸ´ì¨":5197,"ì¤¬ëĭ¤":5198,"Ġëĭ¹ìĭľìĹĲëĬĶ":5199,"Ġëª»íķł":5200,"ĠíĮ¨ëŁ¬ëĶĶ":5201,"ë¬µ":5202,"Ġì½Ķë¯¹":5203,"ĠìĦ¤ëĵĿ":5204,"Ġê²½ìĺģ":5205,"ìĨĮëħĢ":5206,"ê»ı":5207,"Ġë°°ìĭł":5208,"ìłĲìĹĲìĦľ":5209,"Ġê±°ì³Ĳ":5210,"Ġìĺ¨ëĿ¼ìĿ¸":5211,"Ġë°Ģëł¤":5212,"ìłĦìĤ¬":5213,"ĠìĭľëĤĺë¦¬ìĺ¤":5214,"Ġíı¬ìĿ¸íĬ¸":5215,"ĠëĮĢë¡ľ":5216,"íĨłë¦¬":5217,"Ġê·¸ê³³":5218,"ĠëĵĢìĸ¼":5219,"ĠíĪ¬íĳľ":5220,"ëį©":5221,"ê¸°ìĿ¸":5222,"íķĺìĿĺ":5223,"ë¹ĦìĿĺ":5224,"ê¸°ìĪł":5225,"íķĺëŁ¬":5226,"Ġì¤ĳê°ĦìĹĲ":5227,"Ġìķ½íķľ":5228,"Ġê¸°íļį":5229,"Ġê·¸ê²ĥìĿ´":5230,"íĻĶë¡ľ":5231,"ĠìķĪìĬµ":5232,"íĭ°ìĸ´":5233,"ê¸´ëĭ¤":5234,"ìĬ¤ìĹĲê²Į":5235,"ĠìķĦìĽĥ":5236,"ĠëĤ´ëĤ´":5237,"ëĲĺëĬĶëį°":5238,"ĠìĿĺìĤ¬":5239,"ĠìĻĢìĦľ":5240,"ĠëĿ¼ëĶĶìĺ¤":5241,"ìĦ±ìľ¼ë¡ľ":5242,"ê³łìĨį":5243,"Ġì§Ħìĺģ":5244,"ĠëĿ¼ìĿ´íĬ¸":5245,"ë¨¹ëĬĶ":5246,"ĠIn":5247,"ĠìķĦë¬´ëıĦ":5248,"Ġê·¸ê²ĥìĿĢ":5249,"ëıĦìļ°":5250,"ĠìĺĨìĹĲ":5251,"íķĺê¸´":5252,"Ġê·¸ê²ĥëıĦ":5253,"est":5254,"ì¹ĺìĹĲ":5255,"ĠìĿĢê·¼":5256,"ëĲĺìĹĪëĬĶëį°":5257,"Ġëĭ¨ëıħ":5258,"Ġ2002":5259,"ìļ©ìĿĦ":5260,"ĠíĥĳìĬ¹":5261,"cm":5262,"ìłĲìĹĲ":5263,"ëįĺê°Ģ":5264,"ëĭ¹ìĿĺ":5265,"ĠìĽĲìłķ":5266,"tt":5267,"Ġê±·":5268,"ĠëłĪìłĦ":5269,"ĠìĥĿê°ģìĿ´":5270,"ì¡°ë¥¼":5271,"ë¦¬ìĬ¤íĬ¸":5272,"ìĬ¤íĤ¬":5273,"êº¼":5274,"ìķĺëĬĶëį°":5275,"ĠìķĦë¬´ëŁ°":5276,"ind":5277,"ĠëĳĲëł¤":5278,"ê´ĢìĿĺ":5279,"ĠNo":5280,"Ġì¹´íİĺ":5281,"ĠìķĬìķĺê³ł":5282,"ĠìĦłë°°":5283,"Ġëĭ¤íĸīíŀĪ":5284,"Ġíķ¸":5285,"Ġë§ĲìĿ´ëĭ¤":5286,"ĠìĤ´ê³ł":5287,"Ġ99":5288,"ĠíŀĪíĬ¸":5289,"Ġë³´ìĥģ":5290,"Ġë§İìķĺëĭ¤":5291,"íĶ¼ìķĦ":5292,"ëĲĺê¸°ëıĦ":5293,"ĠìĬµê²©":5294,"Ġë²Ħíĭ°":5295,"ìķĺìĿĦ":5296,"Ġë§Įëĵ¤ê³ł":5297,"IA":5298,"Ġë¶Īë¦¬ëĬĶ":5299,"ìĪĺìĹĲ":5300,"ĠëĪĪì¹ĺ":5301,"ìĺ¤ê°Ģ":5302,"ë¥´íĬ¸":5303,"ë°©ìĿ´":5304,"ëłĻ":5305,"ĠìŀĪìĸ´ìķ¼":5306,"Ġì»¤ë®¤ëĭĪíĭ°":5307,"ia":5308,"ĠëĦ¥":5309,"Ġ34":5310,"ĠìĤ¬ìĭ¤ìĿ´":5311,"Ġë´Ħ":5312,"ëŁīìĿĢ":5313,"ĠíıŃíĥĦ":5314,"Ġíķ´ê¸Ī":5315,"Ġìłķë§Ĳë¡ľ":5316,"Ġë§ĪëĤĺ":5317,"Ġë²ĦíĶĦ":5318,"ì°¾":5319,"Ġ75":5320,"ìłĦìĹĲìĦľëĬĶ":5321,"ĠíĥĢìŀĦ":5322,"Ġìŀ¬ìĥĿ":5323,"ĠìĿ´ìĤ¬":5324,"Ġëĵ¤ìĸ´ìĦľ":5325,"ĠII":5326,"Ġíķ´ìĦ¤":5327,"Ġëĵ¤ìĸ´ê°ĢëĬĶ":5328,"Ġë§Ĳíķł":5329,"ĠìĹĲëĦĪì§Ģ":5330,"Ġìĵ°ì§Ģ":5331,"Ġì»¤ë²Ħ":5332,"Ġfor":5333,"Ġìľłëŀĺ":5334,"Ġë§Īì£¼":5335,"Ġíķĺëĭ¤ê°Ģ":5336,"ëĴ¤":5337,"ĠìĭľìłĲìĹĲìĦľ":5338,"ê°ĢìĹĲ":5339,"ì¦ĿìĿĦ":5340,"ĠìĿ¸ìĤ¬":5341,"íĥĢìĿĺ":5342,"ë²¼":5343,"Ġê°ĲìĹ¼":5344,"IC":5345,"Ġíģ´ëŁ½":5346,"Ġìĸ´ì§¸":5347,"ëĵ±ìĿĦ":5348,"ĠëĲĲëĭ¤":5349,"Ġë¯¼ì¡±":5350,"íĮĲìĹĲ":5351,"ìķĺëĭ¤ê³ł":5352,"êµ¬ë¡ľ":5353,"ìĦ¬":5354,"ĠìĻĢì¤ĳìĹĲ":5355,"ĠìıŁìķĦ":5356,"ĠìĪ¨ê²¨":5357,"ìĺĢìľ¼ë©°":5358,"ĠìķĦë¬´ê²ĥëıĦ":5359,"ëĵ¤ìĿ´ëĭ¤":5360,"Ġê³µíĻĶ":5361,"Ġì¢ħíķ©":5362,"Ġë§Ĳíķľ":5363,"Ġíĺ¼ëŀĢ":5364,"Ġíķĺëįĺ":5365,"íĨ±":5366,"ë§ĲìĿĦ":5367,"ĠìĿĺë¯¸ê°Ģ":5368,"ì¹ĺìĻĢ":5369,"Ġê±°ì£¼":5370,"ìĤ¬ê±´":5371,"ĠìĹĨìĹĪëįĺ":5372,"ĠìĤ¬ëł¹":5373,"ìĽĲëĵ¤ìĿ´":5374,"ìĭľê³ł":5375,"Ġìĸ´ì¨Į":5376,"ĠìłĦìŀĲ":5377,"ìĦłìĿĢ":5378,"ĠìłķëıĦëĬĶ":5379,"ĠìĿĺìĭĿ":5380,"ĠìĻ¼ìª½":5381,"ĠëĨĢëĿ¼":5382,"Ġì°¨ë¡Ģ":5383,"Ġê·¸ëħĢê°Ģ":5384,"ĠíĿ°":5385,"ĠìłľìķĪ":5386,"íķ´ìł¸":5387,"ìĽĲê³¼":5388,"ĠìŀħìĿĢ":5389,"ĠëĤľìĿ´ëıĦê°Ģ":5390,"Ġ1990":5391,"íģ¬ëŀĺíĶĦíĬ¸":5392,"ĠëķĮëł¤":5393,"ĠìłģìĹĲê²Į":5394,"ĠìĤ½":5395,"ìĦ°":5396,"ĠíĶĮëłĪìĿ´ìĸ´ê°Ģ":5397,"ì¼Ħ":5398,"ëĺ":5399,"Ġë¬´ëĤľ":5400,"ĠìĤ°ìĹħ":5401,"ê²ĥìĿ´":5402,"Ġê°ĵ":5403,"Ġì½©":5404,"Ġìĺ¤íĶĦëĭĿ":5405,"ĠíĸīëıĻìĿĦ":5406,"Ġë¶Ļìŀ¡":5407,"ê±°ë¦¬ê°Ģ":5408,"ì¿¨":5409,"Ġëĵ¤ìĸ´ê°Ħ":5410,"Ġë½ĳìķĦ":5411,"Ġê±´ëĦĪ":5412,"ë£¨ë¥¼":5413,"Ġìĸ»ìĿĢ":5414,"Ġíķĺê¸°ëıĦ":5415,"Ġë§ĮëĤľ":5416,"Ġë¶Ģìĥģ":5417,"ĠìķĦì§ģëıĦ":5418,"ĠìĬ¤íĥł":5419,"ĠìĿĺëıĦ":5420,"ĠTh":5421,"ê¸°ìĹĲëĬĶ":5422,"ĠìļĶì¦ĺ":5423,"Ġê·¸ëĭ¤ì§Ģ":5424,"ĠìĺģìĽĲ":5425,"ĠëĤĺìĺ¤ëĬĶëį°":5426,"íĻĶëĬĶ":5427,"Ġìĭłë¢°":5428,"Ġê°ĸì¶Ķ":5429,"Ġë¡±":5430,"ëħĦê°Ħ":5431,"ìĺ¤ìĿĺ":5432,"Ġì±Ħìļ©":5433,"ĠíĿĶëĵ¤":5434,"ë¹ĦëĬĶ":5435,"ëĶĶìħĺ":5436,"ê¶ĮìĹĲìĦľ":5437,"Ġìĸ¸ëĭĪ":5438,"ë°ĽìķĦ":5439,"íĮ¡":5440,"ĠëįķìĹĲ":5441,"ëĤ©":5442,"ìĭ¼":5443,"ìĨĮëħĦ":5444,"Ġì¿Ħ":5445,"Ġìĸ´ì©Į":5446,"Ġê³µë¶Ģ":5447,"Ġì§ĳìķĪ":5448,"íĨłìĿĺ":5449,"íķ´ì£¼ëĬĶ":5450,"íĮĲìĹĲìĦľëĬĶ":5451,"ĠëĪĪìĿ´":5452,"Ġê³ĦìĨįíķ´ìĦľ":5453,"Ġê·Ģì¡±":5454,"Ġë°ķìĤ´":5455,"Ġê´Ģìĭ¬ìĿĦ":5456,"ëĵľë¦¬":5457,"Ġì§ĳëĭ¨":5458,"ĠíĻķë¥łë¡ľ":5459,"Ġëį°ìĬ¤":5460,"Ġë¬´ëł¥":5461,"ĠìĿ¼ë¶ĢëŁ¬":5462,"Ġêº":5463,"íķĺì§ĢëĬĶ":5464,"Ġê°ľíİ¸":5465,"ĠìĿ´ëŀĢ":5466,"Ġëŀĺ":5467,"ĠíĻľìķ½ìĿĦ":5468,"Ġì°°":5469,"Ġë±Ģ":5470,"ëĮĢìĻĢ":5471,"ĠëıĻë§¹":5472,"Ġì¶Ķê°ĢëĲĺìĹĪëĭ¤":5473,"Ġis":5474,"Ġìľ¡êµ°":5475,"Ġë°Ķíĥķìľ¼ë¡ľ":5476,"Ġìĸ¸ìłľëĤĺ":5477,"Ġë§ĮìĹĲ":5478,"Ġëħ¸ëŀĺë¥¼":5479,"ĠíĨµíķ´ìĦľ":5480,"ĠìĹŃìłĦ":5481,"Ġê°Ģê¹ĮìĿ´":5482,"Ġì¡´ìŀ¬íķĺëĬĶ":5483,"Ġíķĳ":5484,"íĨłë¥¼":5485,"OR":5486,"Ġê°Ģë¡ľ":5487,"Ġë³´ìĹ¬ì¤Ģ":5488,"Ġë¶Ģë¶ĦìĿĢ":5489,"ìĸ´ì£¼":5490,"Ġê°Ģë©´ëĿ¼ìĿ´ëįĶ":5491,"ê³¼ë¥¼":5492,"ĠìĪĺìļĶ":5493,"48":5494,"AM":5495,"Ġìĵ´ëĭ¤":5496,"ĠRe":5497,"ìħĭ":5498,"ìĤŃ":5499,"íĺķìĿĺ":5500,"Ġì£¼ëıĦ":5501,"ĠìĤ¬íķŃ":5502,"ì§ĦìĿĢ":5503,"ê´ĳìĹŃ":5504,"ĠëķĮë¬¸ìĿ¸ì§Ģ":5505,"Ġëª¨ìħĺ":5506,"íķłëķĮ":5507,"Ġë©Ķê°Ģ":5508,"ĠìĿ´ëĵ¤":5509,"ĠëĮĢê³µ":5510,"ĠìĦľíı¬":5511,"ê³Ħë¡ľ":5512,"ĠìĿ´ëĵ¤ìĿ´":5513,"ant":5514,"Ġë°Ľê²Į":5515,"ea":5516,"ëĲĺìŀĲ":5517,"ĠìŀĲë£Į":5518,"Ġë§¤ìĿ¼":5519,"Ġê±°ë¦¬":5520,"ëĳĳ":5521,"Ġê¶¤":5522,"ìļ°ë¥¼":5523,"ĠìĤ¬ìĥģ":5524,"Ġì£¼ëł¥":5525,"Ġë¡ľì¼ĵ":5526,"ĠìĨĮìļ¸":5527,"ìĭľìĻĢ":5528,"ìĬ¤íĬ¸ë¡ľ":5529,"Ġê¸į":5530,"Ġë§İê³ł":5531,"ĠìĪľìĭĿ":5532,"ĠíĻķë¥łìĿ´":5533,"íķ´ì§ĢëĬĶ":5534,"ĠìłĦëĭ¬":5535,"Ģëĭ¤":5536,"¼Ī":5537,"ĠìĺģìĥģìĿĦ":5538,"ĠíĥĦìĥĿ":5539,"Ġëª©ìłģ":5540,"Ġë¹Ħíķĺë©´":5541,"ĠëĵľëĶĶìĸ´":5542,"ë¥´íģ¬":5543,"ĠìŀĲë¦¬ìĹĲ":5544,"Ġëį°ë¦¬ê³ł":5545,"ĠìĻ¸ìĹĲ":5546,"Ġë£°":5547,"Ġëį®":5548,"Ġë¶ķê´´":5549,"ĠìĻĶëĭ¤":5550,"ìĦłìľ¼ë¡ľ":5551,"Ġëĭ¿":5552,"Ġë°©ë²ķìĿĦ":5553,"íĦ°ëĬĶ":5554,"ë¿":5555,"ĠêµŃíļĮìĿĺ":5556,"íķĻìĿĦ":5557,"Ġê±¸ëł¤":5558,"Ġë§ĲìĿĢ":5559,"ĠìłģëıĦ":5560,"ë©´ìĿĦ":5561,"Ġë¶Īíİ¸":5562,"ĠëĳĺëŁ¬":5563,"ĠìķĮëłī":5564,"Ġëŀľëį¤":5565,"Ġì¡°ìłķ":5566,"Ġê¸ĢìĿĦ":5567,"ĠëĲĺìŀĲ":5568,"ëĲĺìĹĪëįĺ":5569,"íĮĲìĿĺ":5570,"OS":5571,"ìķĦìĿ´":5572,"ĠìķĦìĿ´íħľìĿĦ":5573,"ĠìĬ¤íĥ¯":5574,"Ġì²ĺì¹ĺ":5575,"ë§ĮìĽĲ":5576,"Ġê¸°ìłĪ":5577,"ê°ĢìĻĢ":5578,"ĠìķĮëł¤ì§Ħ":5579,"ê´ĢìĿĢ":5580,"íħį":5581,"íķĺìĺĢìľ¼ë©°":5582,"ĠëĳĲë²Īì§¸":5583,"ĠìĤ¬ëŀĮëĵ¤ìĿĺ":5584,"Ġìĭ¤íĸī":5585,"Ġì¹ĺê³ł":5586,"ê±°ìļ´":5587,"Ġê¸°íļĮë¥¼":5588,"Ġìĵ°ëłĪ":5589,"ĠìĬ¤íĤ¨":5590,"ì»´":5591,"ĠìłĦì²´ìłģìľ¼ë¡ľ":5592,"Ġìĭľíĸī":5593,"ëĭĺìĿĺ":5594,"Ġë¦´":5595,"Ġê³µìľł":5596,"Ġíİĺë¥´":5597,"ë¦¬ëĭ¤":5598,"Ġ2021":5599,"ìłĢíŀĪ":5600,"ĠìĪľìĭĿê°ĦìĹĲ":5601,"ê°ĢëĿ½":5602,"ĠíķĺìľĦ":5603,"ê±°ë¦¬ëĬĶ":5604,"ëĤĺë¬´":5605,"Ġì±Ħë¡ľ":5606,"Ġì»¨íħĲì¸ł":5607,"Ġë¶Ģì¡±íķľ":5608,"ell":5609,"ĠìķĪëĲĺëĬĶ":5610,"Ġì¹´ì¦Ī":5611,"Ġë³´ìĪĺ":5612,"ĠìĺĽëĤł":5613,"Ġê°Ģìŀħ":5614,"ìĦ¸íĬ¸":5615,"Ġë³µìŀ¡":5616,"Ġë¬µ":5617,"ëķħ":5618,"Ġë¬¸ìĿĦ":5619,"Ġë§ĪìĿĮìĹĲ":5620,"ĠìºĶ":5621,"ĠëĤ©ì¹ĺ":5622,"Ġì£¼ìĸ´":5623,"ë¡¬":5624,"ĠíķľëķĮ":5625,"Ġë³´ìĹ¬ì£¼ìĹĪëĭ¤":5626,"ĠëĽ°ìĸ´ëĤĺ":5627,"Ġìłķê¸Ģ":5628,"Ġìķ¡ìħĺ":5629,"Ġìŀ¬ëĬ¥":5630,"ë³´ëĭ¨":5631,"ĠìĪĺì¤Ģìľ¼ë¡ľ":5632,"ë¦ī":5633,"Ġë¶Īëªħ":5634,"Ġê·¼ë¬´":5635,"Ġê·¸ëĵ¤ìĿĢ":5636,"ĠíĻ©ìłľ":5637,"ps":5638,"ê¸īìĿĺ":5639,"Ġì¶©ëıĮ":5640,"Ġì¶ĶìłķëĲľëĭ¤":5641,"êµ°ìĹĲ":5642,"Ġì£¼ìĿ¸ê³µìĿ´":5643,"ëĶĶìķĦ":5644,"Ġìĺ¬ë¦¼íĶ½":5645,"ĠëĿ¼ìĿ´ë²Į":5646,"Ġìłľì¡°":5647,"ĠëıĮìķĦìĺ¤":5648,"Ġ01":5649,"gr":5650,"ë²Ħë¦¬ê³ł":5651,"Ġ38":5652,"ĠìĪĺìŀħ":5653,"ĠìłĪë°ĺ":5654,"Ġê·¸ëŁ°ì§Ģ":5655,"ĠìĬ¤íĬ¸ë¦¬":5656,"Ġë¹Ķ":5657,"ee":5658,"Ġìª½ìľ¼ë¡ľ":5659,"ìĿ´ìĹĪëĬĶëį°":5660,"Ġë³´ìĿ´ê³ł":5661,"Ġê¹ĬìĿĢ":5662,"Ġê³³ìĹĲìĦľ":5663,"ĠíħĮë§Ī":5664,"ìŀĲëıĦ":5665,"Ġë°©ë²ķìĿ´":5666,"ĠìĭľëĤ´":5667,"ë£¨ìĿĺ":5668,"ĠìĻ¸ëª¨":5669,"Ġê·¸ëŀ¬":5670,"ëĬ¥ëł¥":5671,"ìĭľíķľ":5672,"Ġì¡°ì¤Ģ":5673,"ë¯¼ì£¼":5674,"ĠìŀĪê¸´":5675,"ë³Ħë¡ľ":5676,"ĠìłķíĻķíŀĪ":5677,"ĠëĤ´ìĹĲ":5678,"Ġê³µìĿĦ":5679,"ĠíĿĺëŁ¬":5680,"Ġìłľë¡ľ":5681,"ĠëĤļ":5682,"ëĵ¤ìĹĲê²ĮëĬĶ":5683,"êµŃìĿĦ":5684,"Ġìĭłê·ľ":5685,"Ġìĺ¤ë¥¸ìª½":5686,"ĠëķĮìĹĲëĬĶ":5687,"Ġêº¼ëĤ´":5688,"ĠìķĦëĭĪìĹĪëĭ¤":5689,"ĠëĦĪë¬´ëĤĺ":5690,"ëİ":5691,"ĠíĨµíķľ":5692,"ĠíĻįì½©":5693,"ith":5694,"ìĥīìĿ´":5695,"Ġìĭ¬ê°ģíķľ":5696,"ĠëıĮíĮĮ":5697,"Ġë°ľìĿĮ":5698,"Ġëĭ¨ì§Ģ":5699,"Ġìĭľìŀ¥":5700,"ld":5701,"Ġê°ľìĿĺ":5702,"Ġê»":5703,"ĠìĦ±ëĬ¥ìĿ´":5704,"ìĦłìĹĲìĦľ":5705,"0000":5706,"ĠíĸĪìĿĦ":5707,"Ġìłķì²´":5708,"Ġíģ´ë¡ľ":5709,"ìĭ¤ìĹĲ":5710,"Ġë®¤ì§ģ":5711,"Ġëĭ¨ìłĲ":5712,"ê¸°ìĹĲìĦľ":5713,"Ġê³¨ëĵľ":5714,"ëŀ©":5715,"ëľ©":5716,"ĠìĥģíĴĪ":5717,"ĠìĹ¬ê²¨":5718,"ëĲ¨":5719,"ĠìĹĲìĸ´":5720,"ê¶ĮìĹĲ":5721,"ĠìĭłìĿĺ":5722,"ìĬ¤íĬ¸ë¥¼":5723,"ë¥ĺê°Ģ":5724,"ëħĦìĿĦ":5725,"ë¦¬ëĤĺ":5726,"Ġë°©ìĨ¡ìĿĦ":5727,"ë£¨ìĬ¤":5728,"ìĽ¨ìĸ´":5729,"ĠíĻĶìĤ´":5730,"ĠëįĺìłĦ":5731,"ìĻķìĿ´":5732,"Ġìķķë°ķ":5733,"AC":5734,"ĠìĿµìĪĻ":5735,"Ġë¥´":5736,"ĠSP":5737,"Ġë§ĪìĿĮìĿ´":5738,"ĠíĻĶëł¤":5739,"ĠìĤ¬ìļ©íķĺë©´":5740,"ĠìĿ´ìĬ¤":5741,"ãĥ":5742,"Ġëĵľë¦½":5743,"Ġ2003":5744,"ĠìĨĮë¦¬ê°Ģ":5745,"ìĤ¬ìĿ¸":5746,"Ġcom":5747,"ĠìĿ´ë¦ĦìĿĺ":5748,"Ġìłľê¸°":5749,"Ġì·¨ìĨĮ":5750,"Ġê°Ĵ":5751,"ìľ¼ëł¤":5752,"Ġê³µê²©ìĿ´":5753,"ĠíĮĲíĥĢ":5754,"Ġíķľë§Ī":5755,"ĠìĹĲìĿ´ìĬ¤":5756,"ĠìĥĿê²¼ëĭ¤":5757,"ë§ĪìĬ¤":5758,"Ġíı¼":5759,"ĠìĹ¬ëŁ¬ê°Ģì§Ģ":5760,"Ġíı¬ë¥´":5761,"ĠìµľìķħìĿĺ":5762,"ist":5763,"Ġìľµ":5764,"Ġëħ¸íĬ¸":5765,"ĠíķĺëįĶëĿ¼ëıĦ":5766,"ìĵ¸":5767,"ìķħíķľ":5768,"Ġíı°":5769,"ĠëĲľëĭ¤ëĬĶ":5770,"Ġì¡°ìĭ¬":5771,"ë£©":5772,"ue":5773,"ĠìĦ¸íĬ¸":5774,"ĠëıĻìķĦ":5775,"Ġì¦īìĭľ":5776,"Ġë¨¹ìĿĦ":5777,"Ġìĭ¤ìłľë¡ľëĬĶ":5778,"íİ´":5779,"íĻĪ":5780,"ĠìĹŃìľ¼ë¡ľ":5781,"ĠìĻĢìĿ´":5782,"AL":5783,"ìĿĢíĸī":5784,"ì¤ĳíķľ":5785,"Ġì´ĪìĽĶ":5786,"Ġë³¸ê²©ìłģìľ¼ë¡ľ":5787,"ĠSh":5788,"Ġëį´":5789,"Ġëĭ¹ìĭľìĿĺ":5790,"ĠíĨµìĿ¼":5791,"ìį":5792,"Ġêµ¬ëĭ¨":5793,"ĠKT":5794,"Ġëª°ëŀĺ":5795,"Ġëª¸ìĿ´":5796,"íĸĪëĭ¤ê°Ģ":5797,"ë³ĳìĿĦ":5798,"Ġë¯¼ê°Ħ":5799,"Ġê´Ģê³Ħë¥¼":5800,"if":5801,"ëį±":5802,"Ġìłł":5803,"ĠìĦłíĺ¸":5804,"ly":5805,"Ġìĸ´ê¹¨":5806,"ĠëıĮê²©":5807,"ĠìĿ´ë¯¸ì§Ģ":5808,"ĠìĿ¼ë°ĺìłģìľ¼ë¡ľ":5809,"ĠìĨĮë©¸":5810,"ĠëĲĺëıĮ":5811,"ë¹¨":5812,"Ġê¸Ģë¡ľ":5813,"ìĤ°ìĿ´":5814,"12":5815,"ĠìłľìĿ´":5816,"Ġíİ¸ìĿ´":5817,"Ġëĭ¤ëĭĪëĬĶ":5818,"íĮĲìĿĢ":5819,"ĠìķĪìĹĲìĦľ":5820,"ìĭľë¦¬ì¦Ī":5821,"ĠëķĮê°Ģ":5822,"ìĭ¤ìĿ´":5823,"Ġê³µì£¼":5824,"ì¥¬":5825,"ĠìĿ´ìª½ìĿĢ":5826,"Ġíķ´ìłľ":5827,"ìĿį":5828,"ĠëĶĶìĬ¤":5829,"íĥĲ":5830,"ëĤ´ë©°":5831,"Ġë°ĺëŀĢ":5832,"ĠST":5833,"ĠìĥĿë¬¼":5834,"Ġë¬¼ëŁ¬":5835,"ìĺĢëĭ¤ê³ł":5836,"ĠëĦĮ":5837,"ĠêµĲíĻĺ":5838,"ëħģ":5839,"LC":5840,"ìĿ¸ìĹĲê²Į":5841,"Ġìĭ¸ìļ°ëĬĶ":5842,"Ġì£¼ëª©":5843,"ëĭ«":5844,"Ġì¦Ŀëªħ":5845,"Ġëį°ë¯¸ì§Ģê°Ģ":5846,"ìĦ¼íĦ°":5847,"íĸĪìĬµëĭĪëĭ¤":5848,"Ġì¶Ķì§Ħ":5849,"ëŁ¬ë¥¼":5850,"ì¹´ë¥¼":5851,"Ġë§¡ìĿĢ":5852,"ard":5853,"Ġê¹ĢìĦ±":5854,"ìĽ¨ìĿ´":5855,"Ġê´´ë¬¼":5856,"Ġìĺ¤ë¡ľ":5857,"ĠìĿĺê²¬ìĿ´":5858,"ĠìĬ¤íĶĦ":5859,"Ġì¹´ìļ´íĦ°":5860,"ĠíħĶ":5861,"Ġëĵ¤ìĿĢ":5862,"ìĨįëıĦ":5863,"Ġìĵ°ëŁ¬ëľ¨":5864,"ĠìķĦë¹ł":5865,"ìĺ¤ë¥¼":5866,"Ġêº¾":5867,"Ġìŀ¥ìķł":5868,"Ġë¬´ê²Į":5869,"ì¢ĭ":5870,"Ġì¡°ê¸ĪìĶ©":5871,"Ġê³łìľł":5872,"ĠìĿ¸ì§Ģ":5873,"Ġìĭłì²Ń":5874,"Ġëĺĳê°ĻìĿĢ":5875,"ĠêµĲìĪĺ":5876,"ĠPS":5877,"ive":5878,"íĨ°":5879,"ëł¸ìĿĦ":5880,"Ġíħľ":5881,"Ġì§Ħìłķíķľ":5882,"ĠìĿ´ë¥´":5883,"ĠìĹ°ìĺĪ":5884,"Ġëĭ¹íķľ":5885,"ëĵľìĹĲìĦľ":5886,"Ġëĸ¡ë°¥":5887,"one":5888,"ìļ´ëĭ¤":5889,"Ġê·ł":5890,"ê°ĢëĬ¥":5891,"Ġê·¸ëŁ¼ìĹĲëıĦ":5892,"ĠíĽĦìĹĲëĬĶ":5893,"Ġë°©íĸ¥ìľ¼ë¡ľ":5894,"Ġíģ¬ë¦¬":5895,"ĠíĮ¨ì¹ĺë¡ľ":5896,"ĠìľłíĤ¤":5897,"Ġìĵ°ë©´":5898,"Ġëª¨ìĬµìĿĢ":5899,"Ġê±°ëĿ¼ê³ł":5900,"Ġëª»íķĺê²Į":5901,"Ġê³łê¸ī":5902,"Ġëª¹":5903,"Ġê´ľì°®ìĿĢ":5904,"ĠìĿ´ëŀĺ":5905,"ìĭĿìĿĢ":5906,"íĿ¡":5907,"ĠìĿ´íĽĦë¡ľëĬĶ":5908,"ĠìĿ´ë¡ł":5909,"ê³ĦìĹĲìĦľ":5910,"Ġë¶ĻìĹ¬":5911,"ê¹Įì§Ģë§Į":5912,"ìĹ°êµ¬":5913,"Ġëª¨ëĳĲê°Ģ":5914,"Ġíĺ¼ìŀĲìĦľ":5915,"Ġì£½ëĬĶ":5916,"Ġê²¬ìłľ":5917,"Ġë§ŀìĿ´":5918,"ĠìŀĲì²´ë¥¼":5919,"Ġìŀ¥ìłĲ":5920,"Ġêµ¬íĺĦ":5921,"Ġ37":5922,"ĠíķľêµŃìĸ´":5923,"ê¹Ķ":5924,"ĠíĶ¼ìķĦ":5925,"Ġìĺ¤ë¹ł":5926,"ë§ĪìłĢëıĦ":5927,"Ġìĸ¸ìĸ´":5928,"ĠìĤ¬ê±´ìĿĦ":5929,"Ġë¹ĦìĬ·íķĺê²Į":5930,"ĠëĮĢìŀ¥":5931,"ers":5932,"ĠíĶĦë¡ľíĨł":5933,"ang":5934,"ë¯¸ëĦĲ":5935,"ĠìŀĳìłĦ":5936,"Ġê³łìĥĿ":5937,"Ġì½¤ë³´":5938,"Ġíĺķìłľ":5939,"ĠìĦ±ìłģ":5940,"ĠìĿ¸êµ¬":5941,"Ġë°Ł":5942,"Ġìłģìĸ´ëıĦ":5943,"ë©ľ":5944,"ĠìĿ´ëĵ¤ìĿĺ":5945,"Ġëį§":5946,"ĠìĿ´ìĬ¹":5947,"ĠíĮ¨ìĭľë¸Į":5948,"ĠìĪĺë¦¬":5949,"Ġë°©íĮ¨":5950,"Ġëª©ìĪ¨ìĿĦ":5951,"ëĵľëĿ¼":5952,"ĠìĹ¬ìľł":5953,"Ġë¶Ģë¶ĦìĿĦ":5954,"ëĥĲë©°":5955,"Ġìĭ¤ëł¥":5956,"ĠìĥĿê²¼":5957,"ĠëĤŃ":5958,"ĠíħĮìĿ´":5959,"Ġëĺĳê°ĻìĿ´":5960,"ĠAP":5961,"Ġëª¸ìĹĲ":5962,"ĠëıĮì§Ħ":5963,"Ġë©ĶíĥĪ":5964,"Ġë¶Ģì§Ħ":5965,"Ġê°¤ëŁŃ":5966,"ĠìĬ¤ë§ĪíĬ¸":5967,"Ġì£¼ì§Ģ":5968,"Ġê²½ê¸°ëıĦ":5969,"ĠíĺĦìŀ¬ìĿĺ":5970,"ĠíĮĢìĿĢ":5971,"Ġê³¡ìĿĦ":5972,"ĠìķĪëĵľë¡ľ":5973,"ê¼¬":5974,"AS":5975,"ĠíĶĮëĿ¼":5976,"Ġì§Ŀ":5977,"Ġë³´ìĿ´ë©°":5978,"Ġê²©íĪ¬":5979,"ĠìĬ¤íĮĮìĿ´":5980,"ĠíĬ¸ëłĪ":5981,"Ġë§Īì§Ģë§īìĹĲ":5982,"Ġì¶ĶëĿ½":5983,"Ġê¹Įì§Ģ":5984,"Ġback":5985,"Ġìĸ´ëĸł":5986,"ĠìĹ¬ëŁ¬ëª¨ë¡ľ":5987,"ĠìĦłìĪĺê°Ģ":5988,"VE":5989,"Ġìĸ´ëĶĶê¹Įì§Ģ":5990,"ĠíĢĦ":5991,"ì¾Į":5992,"ĠíķĺëĤĺìĿ¸":5993,"Ġê³³ìĿ´":5994,"ĠíħĮíģ¬":5995,"ê°Ģê³ł":5996,"Ġëħ¸ì¶ľ":5997,"íĹ¨":5998,"ĠìĿ´ëĵĿ":5999,"ìķ¼ê°Ģ":6000,"Ġë§ĪëħĢ":6001,"ì±ħìĿĦ":6002,"ĠíĻĶìŀ¥":6003,"íĥ±":6004,"ê²łì§Ģ":6005,"Ġor":6006,"Ġë¹¨ê°Ħ":6007,"Ġì¡°ê°ģ":6008,"Ġìµľìĥģ":6009,"ĠìľłìłĢëĵ¤ìĿ´":6010,"ë¸Įë¥¼":6011,"ĠëĮĵê¸Ģ":6012,"Ġìĸ¼ìĿĮ":6013,"ere":6014,"ìĺ¤íĶĦ":6015,"Ġë¡ľëĵľ":6016,"ĠëĦ¤ìĿ´ë²Ħ":6017,"ì¦ĪëĬĶ":6018,"Ġìŀħìŀ¥ìĹĲìĦľëĬĶ":6019,"ĠëģĶ":6020,"ìĿ¼ê¹Įì§Ģ":6021,"íķ´ë³´":6022,"Ġë£Į":6023,"ëĦĲíĭ°":6024,"Ġë¬´ìĸ¸":6025,"Ġìłľë²ķ":6026,"ĠëĮĢì²´ë¡ľ":6027,"ĠëĤ´ëĬĶ":6028,"Ġìĵ°ìĿ´ëĬĶ":6029,"ë¥ĺë¥¼":6030,"ìĭľê°ĦìĿ´":6031,"ĠíķĢ":6032,"ĠìĺĪìĪł":6033,"Ġìĥģíĸ¥":6034,"Ġmy":6035,"ĠíĻįë³´":6036,"ëħĦëıĦ":6037,"ĠSp":6038,"ê²½ìĿ´":6039,"ìŀĳìĿĦ":6040,"ìĹ°ìĿ´":6041,"ìĹŃìĹĲìĦľ":6042,"Ġë§ĺ":6043,"ìĿ¸ëĵ¤ìĿĢ":6044,"Ġê¸°ëĬ¥ìĿĦ":6045,"íĺķìľ¼ë¡ľ":6046,"Ġë°ĺìĿĳìĿĦ":6047,"íļĮëĬĶ":6048,"Ġìħ°":6049,"ĠìĦŃ":6050,"ëĭĪê°Ģ":6051,"Ġìłķëĭ¹":6052,"ĠìľĦíķĺìĹ¬":6053,"Ġê·¼ìľ¡":6054,"Ġê³µìĤ°":6055,"Ġ48":6056,"ìĿĺê°Ģ":6057,"ê¸°ê°Ħ":6058,"ìķĪíĥĢ":6059,"íľ´":6060,"ë¬´ìĽĲ":6061,"Ġê²ĥìĿ´ê³ł":6062,"Ġì²«ë²Īì§¸":6063,"Ġì²´íı¬":6064,"ĠMS":6065,"Ġìĸ»ëĬĶ":6066,"ë©´ìĹĲ":6067,"êµĲíĨµ":6068,"Ġìĺ¬ë¦¬":6069,"ĠìĿĳìĽĲ":6070,"Ġë³¸ìĿ¸ëıĦ":6071,"íĺ¸ìĦł":6072,"arg":6073,"ìĤ¬íķŃ":6074,"ĠìĹ°ê³Ħ":6075,"Ġê·¸ìĹĲê²Į":6076,"íĺķìĿĢ":6077,"ĠìĤ¬ì§ĦìĿĦ":6078,"ĠëĦĺëĬĶ":6079,"Ġìļ´ìłĦ":6080,"ĠìĹĨìķł":6081,"ĠíĽĶ":6082,"Ġê°ĲëıħìĿ´":6083,"ë¡ľìĦľìĿĺ":6084,"Ġíı¬ìĿ¸":6085,"Ġê°ĳìĺ·":6086,"ĠìķĶíĿĳ":6087,"ĠìĿ´ê±°":6088,"ĠìķĬìķĦëıĦ":6089,"ëĨį":6090,"ì§Ģì»¬":6091,"Ġê²½ê¸°ê°Ģ":6092,"ain":6093,"Ġì£½ìĹ¬":6094,"Ġë§Įëĵłëĭ¤":6095,"Ġëŀ©":6096,"Ġê°ĢìĿ´":6097,"ĠìĦ±ëĬ¥ìĿĦ":6098,"Ġì§ĳìĸ´":6099,"ct":6100,"ĠëĮĢë¥Ļ":6101,"Ġì§¤":6102,"ì©¡":6103,"ìĺ¹":6104,"ĠìĿ¸ìĥģ":6105,"Ġìĸ´ì§Ģ":6106,"Ġíĳľì¤Ģ":6107,"ëª¨ë¦¬":6108,"Ġìª½ìĿ´":6109,"íķĺë©´ìĦľëıĦ":6110,"ĠëĦĵìĿĢ":6111,"ìĤ¬ì¹´":6112,"ë¶ĢìĻĢ":6113,"íİł":6114,"Ġì¡°ìļ©":6115,"ĠëıĻìĽĲ":6116,"ìĹĨëĭ¤":6117,"ìĬ¤íĮħ":6118,"ĠNPC":6119,"Ġìļ°ìĬ¹ìĿĦ":6120,"Ġì£¼ë¨¹":6121,"Ġê²°ì½Ķ":6122,"Ġíģ´ë¦¬":6123,"ĠìĦľìĦľ":6124,"Ġê¹ĥ":6125,"Ġëĭ¨ìĿ¼":6126,"Ġì½Ķë¡ľëĤĺ":6127,"ĠìĹħë¬´":6128,"ĠìĹ°ìķł":6129,"ĠìŀĲëıĻì°¨":6130,"Ġê·¸ëŀĺíĶ½":6131,"íĮĮìĿ´ìĸ´":6132,"Ġê³µê²©ëł¥ìĿ´":6133,"ìŀ¥ìĿ¸":6134,"ĠíĸīìĤ¬":6135,"ë¯¼ìĿ´":6136,"ĠëĤĺë£¨":6137,"ĠíĬ¹ë³Ħíķľ":6138,"ĠìŀĲìĭłê³¼":6139,"Ġíķĺê±°ëĤĺ":6140,"Ġë§¡ìķĺëĭ¤":6141,"ĠìŀħíķĻ":6142,"Ġê·¸ìĻĢ":6143,"ëŁ¬ìļ´":6144,"ĠíķĺëĤĺëĬĶ":6145,"16":6146,"ìĦłê±°":6147,"ĠìŀĳëıĻ":6148,"Ġë¬´ìĹĩë³´ëĭ¤":6149,"ĠìĿ´ê²ĥìĿĦ":6150,"ĠìĬ¤íİĺìĿ¸":6151,"ĠëĬĳ":6152,"ĠëĲĺì°¾":6153,"Ġë§Īë²ķìĤ¬":6154,"ĠìķĦëĿ¼":6155,"ë¬¸íĻĶ":6156,"ĠëıĦëĭ¬":6157,"Ġë¹Ħì¤ĳìĿ´":6158,"Ġê¸įìłķ":6159,"íķĺìĺĢìľ¼ëĤĺ":6160,"Ġê³łíĸ¥":6161,"ê¹Įì§ĢìĿĺ":6162,"Ġê±°ê¸°ëĭ¤":6163,"íĤ¥":6164,"Ġë¹łì§Ħ":6165,"ĠëĦ£ìĸ´":6166,"Ġíĺ¸íıī":6167,"Ġì²łëıĦ":6168,"ĠìĥĿê°ģíķĺê³ł":6169,"Ġëī´ìĬ¤":6170,"Ġì¹´ëĵľê°Ģ":6171,"ë¯¸ìķ¼":6172,"Ġìĺ¤íĶĪ":6173,"ding":6174,"ĠìĪĺìĿµ":6175,"Ġêµ¬ì²´":6176,"Ġê·ľëª¨":6177,"Ġë¯¸ìĤ¬ìĿ¼":6178,"ĠìķĦìķ¼":6179,"Ġ150":6180,"Ġì§Ģëªħ":6181,"ĠëłĪìĿ¸":6182,"ĠëıĻëĦ¤":6183,"Ġëĵľëŀį":6184,"ë²Ħë¦¬":6185,"ĠíĬ¸ìľĦíĦ°":6186,"Ġë¶ģë¯¸":6187,"30":6188,"ĠìłķëıĦê°Ģ":6189,"Ġê²©íĮĮ":6190,"ĠìĿ´ë¤Ħ":6191,"ì§ľë¦¬":6192,"ê´Ģê³Ħ":6193,"Ġê·¹ìŀ¥íĮĲ":6194,"ĠìĦłë¬¼":6195,"ĠëĪĮ":6196,"ìĬ¤íı¬":6197,"ìĹħìĿ´":6198,"Ġëĵľë¬¼":6199,"ĠìķĦìĺ¤":6200,"ëĭ¨ìĿĢ":6201,"ëĭ¹íķĺê³ł":6202,"ĠëªħìĺĪ":6203,"ĠìĬ¤íı°":6204,"Ġëĵ±ìŀ¥íĸĪëĭ¤":6205,"ĠìĻ¸êµĲ":6206,"Ġê³łìłĦ":6207,"ê²ĥìĿĦ":6208,"FA":6209,"ĠìłĢëħģ":6210,"ĠìĿ¼ëıĦ":6211,"Ġë¶Īê°ĢëĬ¥íķĺëĭ¤":6212,"Ġë§ĪìĿ´ëĦĪ":6213,"ĠëªħìĿ´":6214,"ê³¼íķĻ":6215,"ĠìĿ´ëĤł":6216,"ìŀ¥íķľ":6217,"Ġ2001":6218,"Ġì¶ľì²ĺ":6219,"ĠëĮĢë¦½":6220,"Ġíķ´ì²´":6221,"ìĭľìĦ¤":6222,"ëĭ¨ìľ¼ë¡ľ":6223,"Ġëĭ¬ìķĦ":6224,"Ġë°Ķë¥´":6225,"Ġê±´ì¶ķ":6226,"ĠìºĲë¦ŃíĦ°ìĿĺ":6227,"Ġì°¨ë³Ħ":6228,"Ġíıīê°Ģê°Ģ":6229,"Ġëĵ±íĮĲ":6230,"Ġì°¨ëĿ¼ë¦¬":6231,"ìķĦë¥¼":6232,"ĠìĦ¸ìĽĶ":6233,"ĠëĴ¤ë¥¼":6234,"ìĿ¸ìĿ¸":6235,"ĠìĬ¤íĬ¸ëĿ¼ìĿ´":6236,"ĠíĪ":6237,"adi":6238,"Ġê²Ģìĥī":6239,"Ġìĸ´ê·¸":6240,"íĳľë¥¼":6241,"ì§ģìĿĦ":6242,"Ġìłľì£¼":6243,"ĠëĳĲìĤ°":6244,"ĠìĹ¬ëıĻìĥĿ":6245,"íķ´ì¡Į":6246,"Ġ02":6247,"Ġê²ī":6248,"Ġê³µê¸ī":6249,"ëĪĪ":6250,"Ġíķ´ëĭ¹íķĺëĬĶ":6251,"ĠìºĲë¦ŃíĦ°ë¥¼":6252,"íĤ¤ìĻĢ":6253,"ĠìĤ¬ìĿ´ê°Ģ":6254,"Ġë¬´ë£Į":6255,"Ġê¶Įì´Ŀ":6256,"Ġë³´ìĹ¬ì£¼ê³ł":6257,"Ġhtt":6258,"Ġì§ĢëĤĺì¹ĺê²Į":6259,"ĠíķĺëĭĪ":6260,"ĠìĿ´íĽĦìĹĲëıĦ":6261,"ss":6262,"ĠëĤ´êµ¬":6263,"Ġëī´ìļķ":6264,"ĠìŀĪìĹĪëĭ¤ê³ł":6265,"Ġê¸°ì´Ī":6266,"Ġê²ĥìŀħëĭĪëĭ¤":6267,"Ġëįĺìł¸":6268,"Ġëª¨ë°Ķ":6269,"Ġê³ģ":6270,"ìĭ¤ìĹĲìĦľ":6271,"Ġê´Ģê³Ħê°Ģ":6272,"ëĵłê°Ģ":6273,"ĠAl":6274,"Ġê³°":6275,"Ġê°ĲìĤ¬":6276,"Ġê´´ë¡Ń":6277,"Ġìłģê·¹ìłģìľ¼ë¡ľ":6278,"ĠBl":6279,"Ġìĺ¤ë¦¬":6280,"ĠìĺĪìĻ¸":6281,"ĠìĬ¤íİĺìħľ":6282,"Ġìĺ¤ëŀ«":6283,"Ġ55":6284,"ëª¸":6285,"ĠëĤĺëıĦ":6286,"ort":6287,"ĠìĤ´ëł¤":6288,"Ġê°Ģê³ł":6289,"Ġëĭ¨ìĪľíķľ":6290,"Ġìĺ®ê²¨":6291,"ĠLv":6292,"íķ¨ìľ¼ë¡ľìį¨":6293,"ĠìĤ¬ìłķ":6294,"Ġíĳ¸ë¥¸":6295,"Ġê²Ĳ":6296,"Ġì¹´ëĤĺ":6297,"Ġì¤ĳìĿ¸":6298,"Ġë©ĶìĿ´ìłĢ":6299,"ìĭľìĬ¤":6300,"Ġíķ´ë°©":6301,"ê´ĢìĹĲ":6302,"êµ°ê³¼":6303,"ĠìĺĪì¸¡":6304,"ĠìĤ¬ìĿ´íĬ¸":6305,"Ġìĸ´ëĸ»ê²Įëĵł":6306,"Ġë°ĸìľ¼ë¡ľ":6307,"ĠìĤ´íİ´":6308,"ĠëĤ®ìķĦ":6309,"ëĲĺìĹĪìľ¼ëĤĺ":6310,"Ġíķ´ìłģ":6311,"Ġë¶ĢíĦ°":6312,"ìģĺ":6313,"ĠìķĦìī½":6314,"ë²ĪìĹĲ":6315,"ĠíļĮìłĦ":6316,"ì¹´ëĬĶ":6317,"Ġë³µìĪĺ":6318,"Ġëĵ¤ìĿ´":6319,"ì¡±ìĿĺ":6320,"ry":6321,"Ġìĸ´ì¨Įëĵł":6322,"ĠNC":6323,"Ġê³§ë°Ķë¡ľ":6324,"Ġê²½ê³Ħ":6325,"ĠëĬĲëĤĮìĿ´":6326,"ë¿Ĳë§Į":6327,"ìľ¨ìĿĦ":6328,"ĠëıĮìķĦìĺ¨":6329,"íķ¨ìĹĲ":6330,"Ġëĭ¤ìĪĺ":6331,"Ġê°Ģë¬¸":6332,"Ġíĥľìĸ´":6333,"Ġê³ĦìĬ¹":6334,"Ġìĭľê°ģ":6335,"Ġì²´ìľ¡":6336,"ëĭ¤ìĿ´":6337,"ĠíıŃíĴį":6338,"ì§Ģë§Ī":6339,"ìŀĳìĿĺ":6340,"ĠìĿ´íĽĦìĿĺ":6341,"ĠìĹ°ìĥģ":6342,"Ġì±ħìĿĦ":6343,"Ġëª°ëł¤":6344,"Ġë¶Īê½ĥ":6345,"ë²ķìĿ´":6346,"ìĿ¸ëĵ¤ìĿĺ":6347,"Ġë³Ģíĺ¸":6348,"ĠìŀĲìĽĲ":6349,"ĠìľĦê¸°ìĹĲ":6350,"Ġëĵ±ìĹĲìĦľ":6351,"ĠìķĬìķĺëįĺ":6352,"Ġìĥĺ":6353,"Ġìĭ¬íķľ":6354,"Ġìļ°ë¦¬ìĿĺ":6355,"Ġê°Ģë¦¬":6356,"ust":6357,"ãĥ¼":6358,"ĠìĿ´ìłľëĬĶ":6359,"Ġê²ĥë§Į":6360,"ê¸°ì§Ģ":6361,"íķ´ê°Ģ":6362,"Ġì§Ħì§Ģ":6363,"ĠìķĦìĤ¬":6364,"ĠìłĦíĻĶ":6365,"Ġìī½ëĭ¤":6366,"íĶĦëĬĶ":6367,"ëĦ¬":6368,"ĠìľĦíĤ¤":6369,"ĠìĹĨìľ¼ëĭĪ":6370,"Ġíķ©ëĭĪëĭ¤":6371,"ë©Ģ":6372,"Ġê°Ĳìłķ":6373,"Ġì¡±":6374,"Ġìłķëł¹":6375,"Ġ03":6376,"ĠìĿ´ëĤ´":6377,"Ġíģ¬ëłĪ":6378,"ìĹŃìĹĲ":6379,"ĠìŀĲê°Ģ":6380,"ĠìľĦì¹ĺë¥¼":6381,"ìŀĲëĵ¤ìĹĲê²Į":6382,"ĠíĮĮìĿ´íĦ°":6383,"ĠëĮĢìĥģìľ¼ë¡ľ":6384,"ĠëĮĢíıŃ":6385,"ĠìĹĨìĹĪê³ł":6386,"Ġíĵ¨":6387,"Ġê¸°ìĸ´":6388,"Ġë§Ĳíķĺë©´":6389,"ĠëĶľëŁ¬":6390,"Ġíģ¬ê³ł":6391,"ë³ĳìĿ´":6392,"ĠìĦ¼íĦ°":6393,"Ġê·¸ê±´":6394,"ĠìĿ´ìĬ¬":6395,"ĠíĬ¸ëŀĻ":6396,"ë§ģìĿĦ":6397,"Ġìĩł":6398,"ĠìĬ¤ì¼Ģ":6399,"ĠìĻķêµŃ":6400,"Ġë³´ë©°":6401,"Ġíĺĳëł¥":6402,"Ġìĺ¹":6403,"ì½ĶëĬĶ":6404,"ì§ĢëĬĶëį°":6405,"ë£¸":6406,"Ġëª©ìłģìľ¼ë¡ľ":6407,"Ġìľłëªħíķĺëĭ¤":6408,"Ġë¬´ëĮĢ":6409,"ìľ¼ëł¤ê³ł":6410,"ì²łëıĦ":6411,"ìĤ¬ëŀĮ":6412,"ĠìĭľíĤ¤":6413,"ë¥´ë¥¼":6414,"Ġì¡°ìłĪ":6415,"ĠìĹĨìľ¼ë©´":6416,"ìķĺìľ¼ëĤĺ":6417,"Ġë³´ëıĦ":6418,"Ġê¸°ìĬµ":6419,"ĠìĦłìĥĿëĭĺ":6420,"ĠìķĬìķĺì§Ģë§Į":6421,"ĠìķĦë²Ħì§Ģê°Ģ":6422,"Ġê·ĢìĹ¬":6423,"ë§ĪìĿĦ":6424,"ĠíĹ¤ëĵľ":6425,"ë¶ĢëĮĢ":6426,"ĠëıĻìĺģ":6427,"ìŀ¬ë¥¼":6428,"Ġê°Ģë³":6429,"ĠSBS":6430,"Ġíķľëį°":6431,"ĠíĮ¬ëĵ¤ìĿ´":6432,"ĠëģĿëĤĺê³ł":6433,"Ġê·¹ëĭ¨":6434,"Ġíĥģ":6435,"ĠìŀĦëªħ":6436,"Ġì¶©ìłĦ":6437,"Ġíħį":6438,"Ġìļ¸íĬ¸ëĿ¼":6439,"Ġëĭ¨ì²´":6440,"Ġê³ĦíļįìĿĦ":6441,"Ġê°ĦìĿĺ":6442,"ĠìłĪë§Ŀ":6443,"ëıĻìĿĺ":6444,"ëĶĶë¡ľ":6445,"íĸĪëĬĶì§Ģ":6446,"íĸĪìĹĪëĭ¤":6447,"Ġì§ĢëĭĪê³ł":6448,"ĠìłĲì°¨":6449,"ìĹ°ìĿĦ":6450,"ĠëĵĿìłĲ":6451,"ëĭ¹ìĿĦ":6452,"Ġê°Ģë³į":6453,"Ġíķľì°¸":6454,"Ġë§ŀì§Ģ":6455,"ë¦ĦìĿĦ":6456,"ë¨¸ë¦¬":6457,"Ġê°Ķëĭ¤":6458,"íķĺê¸°ëĬĶ":6459,"Ġê³Ħê¸ī":6460,"ĠìŀĲìĿ´":6461,"Ġì§ĢìĨįìłģìľ¼ë¡ľ":6462,"ì£¼ë©´":6463,"ĠìµľìĨĮíķľ":6464,"Ġì´Īì°½":6465,"ëĭ´ìĿĦ":6466,"íĻĶëĲĺìĸ´":6467,"Ġê³łìĸĳìĿ´":6468,"Ġê±°ë¦¬ê°Ģ":6469,"ìĭľìŀ¥":6470,"ìĿ¸ìĹĲ":6471,"ìĨĮìĹĲ":6472,"ëıĻìĹĲ":6473,"ì¡°ë¦¬":6474,"Ġíİ¸ìĿĺ":6475,"ê²©ìľ¼ë¡ľ":6476,"ì°¨ìłĦ":6477,"Ġì¹´ë¥´":6478,"Ġê³³ìľ¼ë¡ľ":6479,"ĠìĿ´ì¤ĳ":6480,"Ġê°Ģê¹Ŀëĭ¤":6481,"ìĶ¨ê°Ģ":6482,"ĠíĮ¬ëĵ¤ìĿĢ":6483,"Ġê¸°ëĬ¥ìĿ´":6484,"Ġë¬¸íķĻ":6485,"ĠíĹ¤ìĸ´":6486,"ĠíĮĮìĿ¼ëŁ¿":6487,"íķ´ìĦľëĬĶ":6488,"Ġì§Ģê¸ĪëıĦ":6489,"ìĨĮìĿĺ":6490,"Ġìľłìļ©":6491,"ĠìĿ´ìļ©íķĺìĹ¬":6492,"ĠíķĺíķĦ":6493,"Ġìĭ¶ëĭ¤":6494,"Ġê¸°ìĸµìĿĦ":6495,"ĠëĿ½":6496,"ìŀĲë§ĪìŀĲ":6497,"ĠíĮĮìĿ´ëĦĲ":6498,"ĦëĬĶ":6499,"ĠëĤĺìĻĢìĦľ":6500,"ĠìĦ¸ëł¥":6501,"ĠëŁ¬ë¸Į":6502,"Ġëĭ¬ë¦°":6503,"ĠìķĦìļ°":6504,"ëĭ¹íķĺëĬĶ":6505,"ĠíĶĮëłĪìĿ´ë¥¼":6506,"Ġëĭ¨ìĸ´":6507,"Ġíķľê¸Ģ":6508,"ìķĪìĿ´":6509,"Ġìĺ¤ìĬ¤":6510,"ë¨¼íĬ¸":6511,"ìŀĳìĿ´":6512,"íķłìĪĺ":6513,"ë¡ľìĬ¤":6514,"Ġê±¸ë¦°":6515,"ĠìķĦë¦Ħëĭ¤ìļ´":6516,"ĠíĺĦìĥģ":6517,"ëıħêµĲ":6518,"Ġì¶ľíĺĦ":6519,"Ġë¹Ĺ":6520,"Ġê³¼ìĹ°":6521,"Ġê´Ģìĭ¬":6522,"Ġëĭ¤ìĦ¯":6523,"og":6524,"ĠìĿ¸ê°ĦìĿ´":6525,"ë°Ľìķĺëĭ¤":6526,"ĠíıīíĻĶ":6527,"Ġëª¨ìľ¼":6528,"Ġ42":6529,"Ġìĸ´ë¥¸":6530,"ĠãĢĢ":6531,"Ġë¬´ë¦":6532,"ew":6533,"ĠëıĦìĽĢ":6534,"Ġë¯¸ëĤĺ":6535,"ê³¼ëıĦ":6536,"Ġê¹¨ëĭ«":6537,"ĠìĹ®":6538,"Ġë³Ģê²½ëĲĺìĹĪëĭ¤":6539,"Ġê³łë°±":6540,"ì©į":6541,"ŁĪ":6542,"Ġíģ¬ë£¨":6543,"ëŀŃíģ¬":6544,"ì§±":6545,"ĠìĹĨëĬĶëį°":6546,"ĠìĹĲìĬ¤":6547,"Ġëħ¸ìĺĪ":6548,"Ġê·ľìłķ":6549,"ĠíĮĮëŀĢ":6550,"Ġê°Ŀ":6551,"Ġëıķ":6552,"ĠíķĻìĤ´":6553,"Ġìĺ¤ëŀ«ëıĻìķĪ":6554,"ĠìķķëıĦìłģìĿ¸":6555,"Ġj":6556,"Ġê°Īëĵ±":6557,"ĠíĻĢë¡ľ":6558,"Ġìĭ¬ë¦¬":6559,"ìĹŃìĿĢ":6560,"ĠíİĢ":6561,"Ġê°Ģëĵľ":6562,"ë§Īë¦¬":6563,"Ġìŀ¡ëĬĶ":6564,"ìĹĪê¸°":6565,"ĠìķĦëĭĮê°Ģ":6566,"Ġë¹µ":6567,"Ġê¸¸ìĿ´":6568,"ëĭ¹íŀĪ":6569,"ëĶĶìĸ¸":6570,"Ġìĵ°ìĿ¸ëĭ¤":6571,"ĠìĭłìĿ¸":6572,"ĠíķľëıĻìķĪ":6573,"Ġíİ¼ì³Ĳ":6574,"ê³µìĿĺ":6575,"Ġê°ĻìķĦ":6576,"Ġêµ¬íķ´":6577,"ë°´":6578,"PG":6579,"Ġíļ¨ê³¼ëĬĶ":6580,"ìĭ¤íķľ":6581,"ĠìµľíĽĦìĿĺ":6582,"íĮĮë¥¼":6583,"40":6584,"Ġì¶Ķìłģ":6585,"ĠëıĦì¤ĳìĹĲ":6586,"Ġê·¹ë³µ":6587,"Ġê¹Įëĭ¤":6588,"ĠìĦ¸ìĥģìĿĦ":6589,"ìĿĺë¡ľ":6590,"ĠìĥĿê°ģë³´ëĭ¤":6591,"Ġê·¸ëłĩëĭ¤":6592,"íķ¨ê³¼":6593,"ĠìŀĪê¸°ìĹĲ":6594,"Ġêµ¬ì¶ľ":6595,"ìĭľìłĪ":6596,"ĠëĤĺë¦ĦëĮĢë¡ľ":6597,"ìºł":6598,"ĠìłĦíĪ¬ë¥¼":6599,"íķĺê³łìŀĲ":6600,"Ġë°´ëĵľ":6601,"Ġê¹ľ":6602,"Ġë§¡ê³ł":6603,"Ġë§īìĿĦ":6604,"ìĿ´ê¸´":6605,"ĠëĮĢíĻĶë¥¼":6606,"ĠìĨĮíĻĶ":6607,"ĠëįĶë¹Ļ":6608,"Ġê¸°ë¡ĿìĿĦ":6609,"ĠìĦ¸ê³ĦìĿĺ":6610,"ĠìĸĳìĤ°":6611,"ëĿ¼ê¸°":6612,"Ġíķ¨ìłķ":6613,"Ġì¤Ħìĸ´":6614,"ĠAI":6615,"Ġë¬´ìłģ":6616,"Ġê¸°ë°ĺìľ¼ë¡ľ":6617,"Ġê°ĪìķĦ":6618,"Ġì°½ì¡°":6619,"ì¢ħìĿ´":6620,"Ġ39":6621,"íķĺëł¤ë©´":6622,"ĠëĲĺìĸ´ìĦľ":6623,"ì£¼ìĿ¸":6624,"ĠìķĦë©Ķ":6625,"ĠëĤ¬":6626,"ĠíĻĶìĿ´íĬ¸":6627,"ëĤ´ê¸°":6628,"Ġëĵ±ìĿĢ":6629,"Ġíķľëĭ¤ë©´":6630,"ëĭ¤ëĭĪëĬĶ":6631,"ĠëĤ¼":6632,"ĠSS":6633,"Ġë¹ĦìĬ·íķĺëĭ¤":6634,"ë°°ë¥¼":6635,"Ġëĭī":6636,"ĠìłĦíĺķ":6637,"ĠìķīìķĦ":6638,"Ġë§ĲìķĦ":6639,"Ġê²ĥìĿ¸ì§Ģ":6640,"ED":6641,"ĠëĮĢì²ĺ":6642,"ore":6643,"íĻĺìĿ´":6644,"Ġë§İìķĦìĦľ":6645,"ìĬ¤íĬ¸ëĿ¼":6646,"ĠìķĬëĬĶëĭ¤ëĬĶ":6647,"ĠíĽĮë¥Ńíķľ":6648,"Ġë°ĽìķĦëĵ¤ìĿ´":6649,"ĠëĦĺê²¨":6650,"Ġë¸ĮëĿ¼ì§Ī":6651,"Ġë³´ëĤ¸":6652,"ìĺ¤ê³ł":6653,"Ġë²Ħë¦¬ê³ł":6654,"ĠìĬ¤íĥĢìĿ¼":6655,"Ġìĥģìĥģ":6656,"ĠìĤ¬ëŀĮëĵ¤ìĹĲê²Į":6657,"ĠëĲĺì§Ģë§Į":6658,"ĠìħĪìĿ´ëĭ¤":6659,"Ġê·¸ëĵ¤ìĿ´":6660,"ì¹ĺë©°":6661,"Ġê´Ģê°Ŀ":6662,"ĠíĮĮìĿ´ìĸ´":6663,"ĠìĦ¹":6664,"ìĺģìĿ´":6665,"ë¦¬ëıĦ":6666,"Ġëĭ¥íĦ°":6667,"ĠëĮĢë¶Ģë¶ĦìĿ´":6668,"Ġë§Ĳë¡ľ":6669,"Ġì°©ê°ģ":6670,"ë¯¸ìĻĢ":6671,"ìĹ°ìĿĺ":6672,"ê³łìĿĺ":6673,"ĠíĮĮê²¬":6674,"Ġëĭ¹ìĦł":6675,"ìķ¼ìĿĺ":6676,"ëĵŃ":6677,"Ġë§Īì¹¨ëĤ´":6678,"ĠìĤ¬ìĿ´ìĿĺ":6679,"Ġê¿ĪìĿĦ":6680,"íķĺëĿ¼ê³ł":6681,"ì°¨ëĬĶ":6682,"Ġ1980":6683,"ì£¼ì§Ģ":6684,"ìĨĮíķľ":6685,"ĠëıĦìĦľ":6686,"ìĥīìĿĦ":6687,"ë³´ìĬ¤":6688,"ĠëĮĢíķĻêµĲ":6689,"ê´Ģìľ¼ë¡ľ":6690,"ĠíĴĢìĸ´":6691,"ĠíĨµìĭł":6692,"ub":6693,"ëľ»":6694,"EC":6695,"ĠíĬĢìĸ´ëĤĺ":6696,"Ġì¤ĳìĹĲëĬĶ":6697,"ìĤ¬ìĹħ":6698,"ì²´ìĹĲ":6699,"ĠíĮĿ":6700,"Ġë¶ĦìľĦê¸°":6701,"ë§Įíģ¼ìĿĢ":6702,"Ġê³µíķŃ":6703,"Ġìį©":6704,"ìľ¼ë¡ł":6705,"Ġìŀĳì¤ĳìĹĲìĦľ":6706,"ĠìĦ¸ìĽĮ":6707,"Ġê°ľíĨµ":6708,"ëĭĪìĸ´":6709,"ĠëıĻìĭľ":6710,"ìĭ¬ìľ¼ë¡ľ":6711,"íıīê°Ģ":6712,"ĠìłĢê·¸":6713,"ĠìĥģíĻ©ìĿ´ëĭ¤":6714,"Ġìľłíĸī":6715,"ëĵľë¦½":6716,"ĠëĮĢëŀµ":6717,"Ġëª¨ìĹ¬":6718,"Ġëĳ¥":6719,"ĠìķĦë¨¸":6720,"ĠëĮĢíķĺìĹ¬":6721,"Ġë°©ë²ķìĿĢ":6722,"Ġì°½ìŀĳ":6723,"ĠìŀĲìĭłëĵ¤ìĿĺ":6724,"ìŀĲê³ł":6725,"ĠìłĲìĿ´ëĭ¤":6726,"Ġë³´ìĿ¼":6727,"Ġë§¤ëĭĪ":6728,"ĠëģĮê³ł":6729,"ĠíĥĢìĽĮ":6730,"ĠìĤ¬ìŀ¥":6731,"ê¸ĪìĿ´":6732,"Ġê°Ħíĺ¹":6733,"VP":6734,"Ġë²łë¥´":6735,"ĠìĿ¼ë³¸ìĸ´":6736,"íĬ¹ë³Ħ":6737,"ĠìĪĺì§ĳ":6738,"ĠMC":6739,"Ġì½Ķëĵľ":6740,"ĠíĶĦë¦¬ë¯¸":6741,"Ġê´Ģìĭ¬ìĿ´":6742,"Ġë³Ģíĺķ":6743,"ĠìłĦê¹Įì§Ģ":6744,"Ġë¶Īë²ķ":6745,"ĠìķĮíĮĮ":6746,"ĠìŀħìĿĦ":6747,"ê´ĳìĹŃìĭľ":6748,"Ġì¶Ķê²©":6749,"ĠìĪĺìĤ¬":6750,"Ġê¸°ìļ¸":6751,"Ġëĳĺì§¸":6752,"ê¸°ìĹħ":6753,"Ġì»¤ë§¨":6754,"ìĿ´ëĿ¼ë©°":6755,"íĥĢìĿ´":6756,"Ġìį¨ìĦľ":6757,"ĠìłľêµŃìĿĺ":6758,"ĠíĺķíĥľìĿĺ":6759,"Ġëª¨ë¥¸":6760,"Ġë³´ìŀ¥":6761,"Ġìĸ´ëĶĶê¹Įì§ĢëĤĺ":6762,"íĺĦìĿ´":6763,"Ġ400":6764,"ĠìĿ´ëĵ¤ìĿĦ":6765,"Ġìĭľíĭ°":6766,"Ġì§Ģíķĺì²ł":6767,"ong":6768,"ĠëĤĺíĥĢëĤľ":6769,"Ġ95":6770,"Ġê²½ìľł":6771,"ĠíıĲì§Ģ":6772,"ĠíķľíĻĶ":6773,"ity":6774,"ĠìĪľìĪĺ":6775,"ĠíĬ¹ìĿ´íķľ":6776,"ìłķë³´":6777,"ĠìĥĪë²½":6778,"Ġì¡´ìŀ¬íķĺì§Ģ":6779,"ĠìĿ¼ìĥģ":6780,"ìķŀ":6781,"Ġë¦¬ë²Ħ":6782,"Ġìĭľê¸°ìĹĲ":6783,"Ġê·¸ë¡ľ":6784,"ĠìĬ¤íĤ¬ìĿ´":6785,"ĠìĪĺìļ©":6786,"are":6787,"Ġë©į":6788,"Ġë²Ħëł¤":6789,"ĠìŀĪëĬĶì§Ģ":6790,"ìĥīìľ¼ë¡ľ":6791,"ĠìĤ¬ëŀĳìĿĦ":6792,"ĠìĦ±ê²©ìĿ´":6793,"ìľĻ":6794,"ast":6795,"ëĬĶê°Ģ":6796,"ĠìľĦíĹĺíķľ":6797,"ë¯¼ìĿĺ":6798,"Ġëĭ¤ëĵ¤":6799,"ĠìĦ±ìĿ¸":6800,"Ġë¦¬ë©ĶìĿ´":6801,"Ġëļľ":6802,"ĠìķĪëĤ´":6803,"Ġë©Ķì¹´":6804,"ĠìĪĺìĽĲ":6805,"Ġê¸°ìĪłìĿ´":6806,"Ġìĺ·ìĿĦ":6807,"Ġìľłëł¹":6808,"ëĲĺìĹĪì§Ģë§Į":6809,"ĠìĦ¤ìłķìĿ´":6810,"ĠìĻł":6811,"ìĹ°íķ©":6812,"ĠìłķëıĦëĭ¤":6813,"ĠìĿ¸ê·¼":6814,"íģ¬ìĻĢ":6815,"Ġìĵ°ê¸°":6816,"ĠìĬ¹ê°ķ":6817,"ë¶ĦìĿĺ":6818,"ëįĶëĿ¼":6819,"end":6820,"Ġë¹łë¥´":6821,"ĠìĪĺíķĻ":6822,"OL":6823,"Ġìŀħëł¥":6824,"ìŁģìĿ´":6825,"ĠëĮĢê·ľëª¨":6826,"ĠìľłíĿ¬":6827,"ĠëĬ¥ëł¥ìĿĢ":6828,"ĠìĥĿíĻľìĿĦ":6829,"ë²łë¥´":6830,"ĠëĤ´ëĨĵ":6831,"Ġë³´ì§Ģ":6832,"Ġì´ĿìĿĦ":6833,"Ġìŀĳìļ©":6834,"Ġê²ĥìĿ¼":6835,"ë¦¬ìĸ¸":6836,"ĠìħĶ":6837,"Ġë¶ĻìĿĢ":6838,"Ġëĵ¤ìĿĦ":6839,"ëĭĪìĿĺ":6840,"Ġë¹¡":6841,"Ġì£¼ë³ĢìĹĲ":6842,"ì¥Ĳ":6843,"ĠíĮĲìłķ":6844,"ëį°ë¯¸":6845,"ĠìŀĲìĭłëıĦ":6846,"Ġíķłë¨¸ëĭĪ":6847,"Ġìĭľì¼ľ":6848,"ĠìķĦëĭĪëĥĲëĬĶ":6849,"ìĿ¼ìĹĲëĬĶ":6850,"íĥĢìŀħ":6851,"íģ°":6852,"Ġì¤ĳìĹĲìĦľëĬĶ":6853,"15":6854,"ê¶ĮìĿĢ":6855,"Ġìŀ¦":6856,"ĠìĿĺì¡´":6857,"ĠìĦ¸ê³Ħë¥¼":6858,"Ġë¼Ī":6859,"ê´Ģë¦¬":6860,"Ġìŀ¡ìĿĦ":6861,"ìĺĢëĭ¤ëĬĶ":6862,"ĠMA":6863,"ìŀĪê³ł":6864,"ĠìłĦíĪ¬ìĹĲìĦľ":6865,"ĠíķłìķĦë²Ħ":6866,"Ġì§Ģê¸ĪìĿĺ":6867,"Ġê¹¨ìĸ´":6868,"ëĵ±ê¸ī":6869,"ĠëĤ¨ê²¨":6870,"ëĲľëĭ¤ëĬĶ":6871,"ĠëĤĺìķĦ":6872,"Ġëª©ê²©":6873,"ĠëĤĺëīĺ":6874,"ĠìĻ¸ìĹĲëĬĶ":6875,"Ġíķ©ì³Ĳ":6876,"ìĪŃ":6877,"ëĭ¹ìĹĲ":6878,"Ġì°¸ìłĦ":6879,"ë§ĪëĬĶ":6880,"ĠìŀĳíĴĪìĿĺ":6881,"ë²Ħëł¤":6882,"ĠCP":6883,"Ġêµ¬ìĨį":6884,"ĠAK":6885,"Ġê·¼ì²ĺìĹĲ":6886,"ĠìĹĨëįĺ":6887,"ë¹ĦíĬ¸":6888,"ìĬ¤íĬ¸ê°Ģ":6889,"ë¦¬ìķĦìĿĺ":6890,"ĠíĶĦë¡ľìłĿíĬ¸":6891,"ĠìĦľìĸĳ":6892,"ĠìĿ¼ìĿ´ëĭ¤":6893,"ĠëĤĺì¹´":6894,"ê°ľë°ľ":6895,"ĠìłķíĻķíķľ":6896,"ĠìĿ¼ì°į":6897,"Ġì²´ëł¥ìĿĦ":6898,"Ġë§İìĿĢëį°":6899,"ëĵ¤ê³¼ëĬĶ":6900,"Ġì§ĢìĹŃìĿĺ":6901,"Ġë§ŀëĭ¤":6902,"ì¤ĺìķ¼":6903,"IT":6904,"Ġìĸ´ëĳĲ":6905,"ìĿ´ìĹĪëĭ¤ê³ł":6906,"ìĭłìĿĢ":6907,"ĠìºĲë¦ŃíĦ°ë¡ľ":6908,"ĠìĪľìľĦ":6909,"Ġíķ©ê²©":6910,"ĠíļŁ":6911,"Ġê²ĢìĤ¬":6912,"Ġê³µê²©ìĹĲ":6913,"ĠDLC":6914,"ĠëĮĢì¶©":6915,"ìĭ¤ë¡ľ":6916,"ĠìĹ°ìĤ¬":6917,"ëĬĲëĿ¼":6918,"Ġìĸ´ëĸłíķľ":6919,"ĠëłĪìłĦëĵľ":6920,"ĠëŃĺ":6921,"ĠìłķíĻķíŀĪëĬĶ":6922,"ë©´ìľ¼ë¡ľ":6923,"Ġë©Īì¶Ķ":6924,"Ġìĭ¤ëł¥ìĿĦ":6925,"ëĶĶê°Ģ":6926,"ì¡°ì°¨ëıĦ":6927,"Ġì«ĵìķĦ":6928,"Ġìłľê°Ģ":6929,"ĠíıŃì£¼":6930,"ìłķë¶Ģ":6931,"íĬ¸ëĤ¨":6932,"ëĭ¤ë³´ëĭĪ":6933,"ake":6934,"ĠíĮ¬ëį¤":6935,"Ġëĺĳê°Ļ":6936,"Ġê²½ìĥģ":6937,"Ġíĥ±ì»¤":6938,"Ġíĺĳë°ķ":6939,"ìĸĳìĿ´":6940,"ĠëģĮëł¤":6941,"Ġëĵ¤ëł¤":6942,"ë¡Ģë¡ľ":6943,"Ġê¸°ëıħêµĲ":6944,"Ġê°Ģìķ¼":6945,"Ġê·¸ëŁ¬íķľ":6946,"Ġì£½ìĿĮìĿĦ":6947,"ĠëĿ¼ìĿ´ëįĶ":6948,"Ġì§ģìĽĲ":6949,"Ġë°ĺìĿĳìĿ´":6950,"ë²ĪìĿĺ":6951,"ĠSN":6952,"ĠëĮĢìĥģìĿ´":6953,"ìķĺëĭ¤ëĬĶ":6954,"ĠìĨĮì´Ŀ":6955,"Ġê²°ê³¼ë¥¼":6956,"Ġì¤ĳíĻĶ":6957,"ĠìĽĲì¹Ļ":6958,"EN":6959,"Ġì¤ĺ":6960,"ĠìĿ´ìĦ±":6961,"Ġìĭłê¸°":6962,"Ġëĭ¤ë¥¼":6963,"ìĤ¬íĤ¤":6964,"íĨµìĿĦ":6965,"ĠìĿ¸ê³µ":6966,"ĠCD":6967,"ground":6968,"ìĬ¤íĦ´":6969,"Ġëĭ¤ë¦¬":6970,"Ġëª¨ë°ĶìĿ¼":6971,"80":6972,"ĠëĵľëŁ¬ëĤĺ":6973,"Ġëĵ±ê³¼":6974,"Ġìĥ·":6975,"ĠëįĶëįĶ":6976,"ĠìķĦíĭ°":6977,"Ġê°¤ëŁŃìĭľ":6978,"ĠìļĶìĥĪ":6979,"Ġ192":6980,"ë£°":6981,"ĠBGM":6982,"Ġê²½íĸ¥ìĿ´":6983,"Ġë³´ìĿ¸":6984,"Ġêµ¬ë©į":6985,"ĠìłģìĿĳ":6986,"ĠìĺĪëĬ¥":6987,"ê¶":6988,"ĠìĪĺìĨ¡":6989,"Ġëĵ¤ìĸ´ê°Ħëĭ¤":6990,"Ġë°ĶëĢĲ":6991,"ĠìĿ´ë¦¬":6992,"ĠìĻ¸êµŃìĿ¸":6993,"ĠêµŃê°ĢëĮĢíĳľ":6994,"Ġíķľê³Ħ":6995,"Ġê°ĩ":6996,"ĠíĸĪëĭ¤ëĬĶ":6997,"ĠìłĪëĮĢë¡ľ":6998,"Ġ47":6999,"Ġë¹ļ":7000,"Ġëĭ¤ë£¨ëĬĶ":7001,"Ĭľ":7002,"Ġê³łê°Ŀ":7003,"Ġíı¬íĥĳ":7004,"ìľĦìĽĲíļĮ":7005,"Ġë³´ê²Į":7006,"íķĺëĬĶê²Į":7007,"ĠìĿĺë¢°":7008,"Ġë§Īêµ¬":7009,"ĠìŀĪìĸ´ëıĦ":7010,"ĠíĻķì§Ħ":7011,"ë¬´ê¸°":7012,"Ġë©Ķìĭľ":7013,"Ġê¹Ģìĺģ":7014,"se":7015,"ĠAn":7016,"ĠíĢĦë¦¬íĭ°":7017,"ĠìŀĪëĭ¤ê°Ģ":7018,"ĠìĬ¤íĬľ":7019,"ĠíĺĦì§Ģ":7020,"ĠìĿĢíĸī":7021,"ĠìłĦìĽĲ":7022,"ĠìĦ±ê³µíĸĪëĭ¤":7023,"Ġëºı":7024,"Ġë§īìŀ¥":7025,"Ġë¹Ħìļ©":7026,"Ġ1999":7027,"ĠìĤ¬ê±°ë¦¬":7028,"Ġì½ľëĿ¼":7029,"Ġë§īê¸°":7030,"ëĭ¹íķ´":7031,"Ġë¬¼ìĿĦ":7032,"ĠíķĺëĿ½":7033,"ĠìĭłìĿ´":7034,"Ġëĭ¬ê³ł":7035,"Ġìĸ´ë¦´":7036,"Ġë¸Įëŀľëĵľ":7037,"Ġì¦Ī":7038,"ìłĦíĪ¬":7039,"ĠíĸĪìľ¼ë©°":7040,"ĠìĪĺìĭŃ":7041,"Ġëį¸":7042,"ì¤ĳìĿ¸":7043,"ìĬ¤íĥĦ":7044,"ê²łìĬµëĭĪëĭ¤":7045,"ĠìķĦìĭľ":7046,"ìĹŃìĿĺ":7047,"ìĨĮìĹĲìĦľ":7048,"Ġíģ¬ë¡ľìĬ¤":7049,"ìĸ´ë²Ħë¦°":7050,"ê³µíķŃ":7051,"Ġìŀ¥ìĭĿ":7052,"Ġì¾Į":7053,"Ġì¶ĺ":7054,"ìĦ¸ìĹĲ":7055,"ë¦¼ìĿĦ":7056,"ĠëıĪìĿ´":7057,"14":7058,"ë»Ĳ":7059,"íķĺìĹĲ":7060,"ë¦°ìĿ´":7061,"ĠëįĶëįĶìļ±":7062,"Ġê²½ë¹Ħ":7063,"Ġë³´ìĿ´ì§Ģë§Į":7064,"Ġê²½ìļ°ìĹĲ":7065,"ëĿ¼ìĹĲ":7066,"ìŀĺ":7067,"ĠìĿĺë£Į":7068,"60":7069,"Ġë©Ģì©¡":7070,"Ġë¶ĦìľĦê¸°ë¥¼":7071,"isp":7072,"ìŀ¬ê°Ģ":7073,"ìĦľë¡ľ":7074,"Ġìłķë¥ĺ":7075,"ĠìŀĲìĭĿ":7076,"ĠëķĲ":7077,"ize":7078,"ĠëłĪìĺ¤":7079,"ìłľíķľ":7080,"ĠëıħìŀĲ":7081,"Ġìĭłê³ł":7082,"ĠìŀĪìĹĪìľ¼ë©°":7083,"ĠìĹĳìĬ¤":7084,"íĮĮìĿĺ":7085,"Ġë§ŀìĿĢ":7086,"ĠìĪĺì¹ĺ":7087,"ê¸°ê¹Įì§Ģ":7088,"Ġë§ŀê²Į":7089,"Ġê³¼ê±°ìĿĺ":7090,"ĠìĽĲë³¸":7091,"Ġë¶ĦìľĦê¸°ê°Ģ":7092,"ĠíĮ¬ëĵ¤ìĿĺ":7093,"Ġê°ķìłľë¡ľ":7094,"ĠìŀĥìĿĢ":7095,"ĠíĢ¸":7096,"Ġë¯¸ìķĪ":7097,"Ġ44":7098,"ĠìĿ´ìĥģìľ¼ë¡ľ":7099,"ĠíķĦëĵľ":7100,"Ġíŀĺìľ¼ë¡ľ":7101,"Ġë§ĮëĤ¬":7102,"Ġê¸°ë¶Ħ":7103,"íķµ":7104,"Ġë§Īì¸ł":7105,"Ġë§ĪëıĦ":7106,"Ġì°¾ëĬĶ":7107,"ĠìĹ¬ìĻķ":7108,"Ġìµľê°ķìĿĺ":7109,"Ġë¯¿ê³ł":7110,"Ġì¤ĳêµŃìĿĺ":7111,"ĠìĿĺíĺ¹":7112,"Ġì£¼ìłĦ":7113,"Ġê¸°ë³¸ìłģìĿ¸":7114,"Ġì§ĳìĹĲìĦľ":7115,"13":7116,"Ġê°ķíķĺê²Į":7117,"ĠíķĻìĽĲ":7118,"ë¬¼ìĹĲ":7119,"ĠìłĦìŁģìĿĦ":7120,"ì¦Ĳ":7121,"Ġwh":7122,"Ġì¹Ńì°¬":7123,"ĠìłģëĮĢ":7124,"ëĳ¥ìĿ´":7125,"ê¸ĭ":7126,"ip":7127,"Ġëĭ¨ê³Ħ":7128,"ĠìĻ¸ë¶Ģ":7129,"ĠìķĦëĭĪëĿ¼ëĬĶ":7130,"Ġëĭ¤ë£¬":7131,"Ġhe":7132,"ĠìķĦëĭĪëĿ¼ê³ł":7133,"Ġ1998":7134,"ĠíĽĹ":7135,"ĠëĤĺê°ĢëĬĶ":7136,"Ġë°ĺë°ľ":7137,"ĠìĤ¬ëŀĮëĵ¤ëıĦ":7138,"Ġì¢ĭìĿĦ":7139,"ê³¡ìĿĦ":7140,"ĠìĿ¸ìĪĺ":7141,"Ġê²ĮìĿ´ì§Ģ":7142,"ĠëŃī":7143,"ëĭ¹íķľëĭ¤":7144,"Ġì¤ĳíķĻêµĲ":7145,"ĠìĨĮíĶĦíĬ¸":7146,"ìĬ¤ëıĦ":7147,"Ġê´Ģê³Ħë¡ľ":7148,"ë®":7149,"ĠìĿĢê·¼íŀĪ":7150,"Ġê·¸ëłĩì§Ģë§Į":7151,"ĠìĻ¸ê³Ħ":7152,"Ġê¸°ìĹ¬":7153,"Ġì½ĺìĦľ":7154,"ĠìĤ¬ìļ©íķĺê³ł":7155,"Ġê³µêµ°":7156,"ĠíĨµìłľ":7157,"ìĦ¸ëĬĶ":7158,"Ġë§ĪìĪł":7159,"Ġë¯¸ì¸ł":7160,"ì¦ĪíĤ¤":7161,"Ġëľ¯":7162,"ĠíĮĲíĥĢì§Ģ":7163,"ĠêµŃë°©":7164,"18":7165,"ĠíıīìĿ´":7166,"Ġì£¼ê¸°":7167,"Ġìĺ¤íķ´":7168,"ë¸Įë¦¬":7169,"EM":7170,"ĠíķľìŀĲ":7171,"ĠëĦĪìĿĺ":7172,"íĮĢìĿ´":7173,"ë²ķìĿĢ":7174,"Ġê°Ĳìĭľ":7175,"Ġê°ĪìĪĺë¡Ŀ":7176,"Ġìĭľìķ¼":7177,"ìĦĿìĿĢ":7178,"Ġë°©ìĹĲ":7179,"Ġë§Īë²ķìĿĦ":7180,"Ġìĭ¸ìļ¸":7181,"Ġëĵ¤ìĸ´ê°Ī":7182,"ĠìĦ±ìłģìĿĦ":7183,"íħĮìĿ´":7184,"Ġë§ĪìĿ¸":7185,"ëıĻìľ¼ë¡ľ":7186,"Ġë²ķë¥ł":7187,"ë§ĿìĿĦ":7188,"ìĦ¤ìĿĦ":7189,"Ġìķ±":7190,"ĠCC":7191,"ĠíĸīìĦ±":7192,"ĠëĤĺëĪł":7193,"ĠíĻľìĦ±":7194,"Ġì£¼ìĹĪëĭ¤":7195,"ĠëŀŃíģ¬":7196,"line":7197,"ëĲĺì§Ģë§Į":7198,"Ġìĺ¤ì§ģ":7199,"ëĭ¹íĸĪëĭ¤":7200,"ĠìĤ¬ìļ©íķ´":7201,"Ġë°Ķë³´":7202,"ĠëĲĺìĹĪëĭ¤ê³ł":7203,"Ġë¶Īê°ĢëĬ¥íķľ":7204,"ĠëĥĦ":7205,"Ġì»·":7206,"ìŀł":7207,"Ġìĭ¤ëł¥ìĿ´":7208,"ĠìĿĺë¬´":7209,"ëŁīìľ¼ë¡ľ":7210,"Ġbackground":7211,"Ġì²ĺë²Į":7212,"ĠìĿ´ê¸¸":7213,"Ġë¸Ķë¡Ŀ":7214,"ëŁ¬ìĿĺ":7215,"ĠìŀĪìĹĪê¸°":7216,"Ġíķ«":7217,"ĠìłĢì£¼":7218,"ìĿ´ê²Į":7219,"ĠìłĦëł¥":7220,"ĠëĤ´ìĦ¸":7221,"íİ¸ìĹĲìĦľ":7222,"Ġëĭ¹íķ´":7223,"ĠíĶĮëłĪ":7224,"ĠíĬľ":7225,"Ġê·¸ëŁ¬ìŀĲ":7226,"ĠíķĺìĸĢ":7227,"ëĲĺìĹĪëĭ¤ê³ł":7228,"Ġpad":7229,"ĠìĿ´ìĸ´ì§ĢëĬĶ":7230,"ëħ¸ê°Ģ":7231,"ĠìłĦìĹĲëĬĶ":7232,"ìķĦëĬĶ":7233,"Ġë¬´ë¦İ":7234,"Ġ120":7235,"ĠDJ":7236,"ëĤ¨ëıĦ":7237,"Ġê°Ĳìĺ¥":7238,"ĠíĮĮíĬ¸ëĦĪ":7239,"Ġë¶ĢíĴĪ":7240,"ë°ĽìĿĦ":7241,"Ġê·ľì¹Ļ":7242,"Ġëª©ìĨĮë¦¬ê°Ģ":7243,"ìĿ¸ì§ĢëĬĶ":7244,"Ġ43":7245,"ì¡°ëĬĶ":7246,"ê³µìĿ´":7247,"ìĭ¬íķľ":7248,"íĦ°ë¦¬":7249,"ĠìłģìłĪíķľ":7250,"Ġìŀ¥êµĲ":7251,"Ġë´Ĳìķ¼":7252,"Ġìŀ¥ë©´ìĿĦ":7253,"ĠìŀĲë¦¬ìĹĲìĦľ":7254,"ĠìĿ´ìłĦìĿĺ":7255,"ì§ĢìĽĲ":7256,"Ġê²ĥìĿ´ë©°":7257,"Ġë¹Ħìĭ¸":7258,"ë¹ĦìĹĲ":7259,"Ġê°ķì²ł":7260,"Ġê³łìļ©":7261,"Ġì¶Ķêµ¬":7262,"ĠëĮĢìĤ¬ë¥¼":7263,"ĠìļĶê´´":7264,"Ġê°Ģê²©ìĿ´":7265,"ĠíĶ¼ë¥¼":7266,"argin":7267,"ĠìĪĺëł¨":7268,"Ġë³Ħëĭ¤ë¥¸":7269,"ĠëĮĢë§Į":7270,"Ġpadding":7271,"Ġìĸ¼êµ´ìĿ´":7272,"ëį°ëĭ¤":7273,"Ġìĺ¤ëĬĺëĤł":7274,"ìĭĿìĹĲ":7275,"Ġë¯¸ìķ¼":7276,"Ġì§ĢëĤ´":7277,"ĠíĬ¸ë¡ľ":7278,"Ġìłķì¹ĺìłģ":7279,"ĠíħĶëłĪ":7280,"Ġë³´ëĿ¼":7281,"Ġê½Ĥ":7282,"Ġë°ľëĭ¬":7283,"ĠìķĦë¦¬":7284,"Ġìĸ´ëĳłìĿĺ":7285,"ëĭ¤ëŀĢ":7286,"ĠëĮĢíĳľìłģìľ¼ë¡ľ":7287,"ëĲĺìĹĪìĿĦ":7288,"ëĿ¼ìĿ´ìĸ¸":7289,"Ġë©ķ":7290,"Ġíİ¸ìĦ±":7291,"ëł¸ëįĺ":7292,"ìĦ¸ë¡ľ":7293,"ë¡łìĿĺ":7294,"Ġì°¾ìķĦê°Ģ":7295,"ĠíĶĦë¦°":7296,"Ġë¬´ê¸°ë¡ľ":7297,"ĠìłĦíĽĦ":7298,"ĠíķľíĥĢ":7299,"ĠìŀĪìĹĪìĿĦ":7300,"ëħĶ":7301,"íĶ¼ìĬ¤":7302,"ĠëĤľëĭ¤":7303,"Ġì£Ħëĭ¤":7304,"Ġë§Īìĭľ":7305,"ĠìľĦì£¼ë¡ľ":7306,"ìĺµ":7307,"ì¦ĿìĿ´":7308,"Ġëĵ¤ìĹĪëĭ¤":7309,"ìĺĢê¸°":7310,"ĠìķĦê°Ģ":7311,"ĠìĽ¹íĪ°":7312,"Ġíĥľìĸ´ëĤľ":7313,"Ġê²Ģì°°":7314,"ĠìĤ¶ìĿĦ":7315,"ĠìĦ¸ìĥģ":7316,"Ġì§ĵìĿĦ":7317,"Ġì¢Įìļ°":7318,"ĠìĿ¼ìľ¼íĤ¤":7319,"ëŀĢëĭ¤":7320,"íĻĺìĿĦ":7321,"ĠëĦ·":7322,"ĠíĹĪëĤĺ":7323,"Ġì§ĳìĿĦ":7324,"ĠëĮĢíķŃ":7325,"ĠìĤ¬ìļ©íķĺì§Ģ":7326,"íĪ¬ë¥¼":7327,"íĮĲìĹĲìĦľ":7328,"Ġë¶ĢìĥģìĿĦ":7329,"Ġìĥģíĺ¸":7330,"ĠíĹĽ":7331,"ĠëıħíĬ¹":7332,"Ġì°¨ëĭ¨":7333,"ëĮĢíļĮ":7334,"ëĭ¤ìĭľ":7335,"íİ¸ìĿĺ":7336,"íķ´ì§Ģê³ł":7337,"ĠìłĦìĦ±":7338,"ĠëĨĴìĿ´":7339,"ĠíİĺìĿ´ìĬ¤":7340,"Ġìĸ´ì§Ģê°Ħ":7341,"ë¡ľë¡ľ":7342,"ĠHD":7343,"Ġëª¨ë¥´ê³ł":7344,"ĠëĤ´ìĿĺ":7345,"êµ¬ìĻĢ":7346,"our":7347,"Ġë§Īë¦¬ìĺ¤":7348,"Ġê·¸ëĿ¼":7349,"Ġì¹ĺëĬĶ":7350,"Ġë°ķìłķ":7351,"ì¸Ħ":7352,"ĠìķĦìī¬ìļ´":7353,"ĠìĿĺë¯¸ë¥¼":7354,"Ġë³´ìķĪ":7355,"Ġìł¤":7356,"Ġìĺ¬ë¦°":7357,"Ġê°ķíķĺëĭ¤":7358,"ĠìĿ´ìŀ¬":7359,"ìĭľíĤ¤ê¸°":7360,"ìĿ´ê¸°ìĹĲ":7361,"Ġëħ¹ìĿĮ":7362,"ĠëĤĺëĤĺ":7363,"Ġê°ĲëıħìĿĺ":7364,"ĠìĿ´ë£¨ìĸ´ì§Ħ":7365,"Ġì¿łë¡ľ":7366,"Ġê°Ļì§Ģë§Į":7367,"ĠìłķìĭłìĿĦ":7368,"ES":7369,"Ġì§ĢìĹŃìĹĲ":7370,"ĠHe":7371,"ĠëĮĢë¯¸ì§Ģë¥¼":7372,"ĠíĹĺ":7373,"ĠìĪĺë¡Ŀê³¡":7374,"ĠëĦĪíĿ¬":7375,"ë´Ĳìķ¼":7376,"ĠTH":7377,"Ġë°ĿíĺĢì¡Įëĭ¤":7378,"ìľ¼ëŁ¬":7379,"ĠìłĦë©´":7380,"Ġëª¨ìĸĳìĿ´ëĭ¤":7381,"ëĲĺìĸ´ìĦľ":7382,"Ġìı´":7383,"Ġmargin":7384,"ìĭłìľ¼ë¡ľ":7385,"ĠíķľêµŃìĹĲìĦľ":7386,"Ġì»¤íĶĮ":7387,"ĠëĵľëĬĶ":7388,"Ġì¡°ìĦ±":7389,"ì£¼ëħĦ":7390,"íķĺê¸°ê°Ģ":7391,"ĠìĿĮë°ĺ":7392,"ĠíħĮëŀĢ":7393,"Ġìį¨ë¨¹":7394,"ë°©ìĹĲìĦľ":7395,"Ġíĺ¸íħĶ":7396,"ë°¤":7397,"ĠëĬĲëĤĦ":7398,"ê³łë¡ľ":7399,"ê²½ì°°":7400,"Ġê·¸ëĵ¤ìĿĦ":7401,"kg":7402,"ëł¹ìĿĦ":7403,"Ġìļ¸ìĤ°":7404,"Ġ1997":7405,"ĠíĸīìľĦ":7406,"Ġìŀĥê³ł":7407,"Ġìĸ´ëł¤ìĽĮ":7408,"ĠìłĢìŀ¥":7409,"ĠëĲľëĭ¤ê³ł":7410,"Ġë°ĺê²©":7411,"ĠëĤĺìģĺì§Ģ":7412,"ĠíĮ¨íĦ´ìĿ´":7413,"ì¸łìĿĺ":7414,"ĠìĨĲìľ¼ë¡ľ":7415,"Ġê°ĢìĨį":7416,"ĠëĮĢê°ľ":7417,"ĠìĿ´ì§Ģ":7418,"ĠìŀĲê·¹":7419,"íĻĶìĻĢ":7420,"ìłģìĿĺ":7421,"íĥĢìĻĢ":7422,"ĠìĺĪë¹Ħ":7423,"ìĽĶë¶ĢíĦ°":7424,"Ġìŀĳê°Ģê°Ģ":7425,"ĠFA":7426,"Ġëĭ«":7427,"ìĭľì½Ķ":7428,"Ġ09":7429,"Ġì²ĺëŁ¼":7430,"Ġìĸ´ë§Ī":7431,"ìŀĲë¦¬":7432,"íķĺìĭľ":7433,"ect":7434,"ĠìłĦì§ģ":7435,"ood":7436,"ìĦľìĹĲ":7437,"Ġì±Ļê²¨":7438,"Ġì£½ìĿ¸":7439,"Ġ64":7440,"Ġê³¼ìłķìĿĦ":7441,"ë°©ìľ¼ë¡ľ":7442,"Ġìłķì§Ģ":7443,"Ġì¢ĭê²Į":7444,"ĠOn":7445,"ë±ħ":7446,"Ġìĸ´ëĵľ":7447,"ë¯¸ëĭĪ":7448,"ĠëĶĶë²Ħ":7449,"ĠìĤ¬ìļ´ëĵľ":7450,"Ġìĵ°ëłĪê¸°":7451,"ë¬ĺíķľ":7452,"ì§ĳìĿĦ":7453,"age":7454,"ĠìĦłìĪĺëĵ¤ìĿ´":7455,"ĠëĤĺìķĦê°Ģ":7456,"Ġìļ°ìĹ°íŀĪ":7457,"íķ´ì¤Ģëĭ¤":7458,"Ġëĭ¤ìĿĮëĤł":7459,"Ġìĺ¬ë¦¬ëĬĶ":7460,"Ġë³Ħê°ľë¡ľ":7461,"Ġê³½":7462,"ĠìĪĺìĺģ":7463,"ĠìºĲëĤĺëĭ¤":7464,"ê²Ł":7465,"ì¡¸":7466,"Ġ190":7467,"ëĭ¹íķł":7468,"Ġê°ķëĤ¨":7469,"íĨ¡":7470,"ëĮĢìŀ¥":7471,"ĠëĤ´ì§Ģ":7472,"ë¥´ì§Ģ":7473,"Ġê³µê²©íķĺëĬĶ":7474,"ĠëĮĢë¯¸ì§Ģ":7475,"ĠìĺĪê³ł":7476,"Ġë¶ĪìĿĦ":7477,"ĠìķĦìĿ´ë¥¼":7478,"Ġì£½ìĸ´":7479,"Ġ05":7480,"ĠìŀĲìĦ¸íŀĪ":7481,"Ġìĭ¬íķĺê²Į":7482,"Ġì±ĦìĽĮ":7483,"íĻĪëŁ°":7484,"ë²ĪìĿ´":7485,"ĠìĿ´ë²ĪìĹĲëĬĶ":7486,"ë²ĪìĿĦ":7487,"ĠìĿ´ë¥¸":7488,"íİĺìĿ´":7489,"ìĨįìĦ±":7490,"Ġë§ĪìĿ´íģ´":7491,"Ġë³´ìĹ¬ì£¼ë©°":7492,"íĶĶ":7493,"Ġëĵ¤ìĸ´ìĺ¨":7494,"Ġìĭ¸ìĽĢìĿĦ":7495,"Ġì£½ìĿ¼":7496,"Ġë¬´íļ¨":7497,"Ġìĸ¸ìłł":7498,"ĠìķĦë§ĪëıĦ":7499,"Ġë°©ìĸ´ëł¥":7500,"Ġìłķì°©":7501,"ìĬ¤íĨ¤":7502,"ĠìĿ¼ë°©":7503,"Ġë°ľë§¤ëĲľ":7504,"Ġê¹Ģìłķ":7505,"ĠìĿ´ìĻ¸ìĹĲëıĦ":7506,"Ġë°©ë²ķìľ¼ë¡ľ":7507,"ë¡łìĿĢ":7508,"íĨłëĬĶ":7509,"Ġëį°ëĭ¤ê°Ģ":7510,"ĠìŀĲëŀĳíķľëĭ¤":7511,"Ġë¶Īë¦°ëĭ¤":7512,"ĠìŀłìĪĺ":7513,"ĠìĬ¹ë¶Ģ":7514,"ĠìŀĦìĭľ":7515,"ĠìŀĲë³¸":7516,"ĠìĹ°ëĿ½":7517,"ĠëĦ£ê³ł":7518,"ĠìĥģìĪł":7519,"ĠìĬ¤ì¹´ìĿ´":7520,"ĠëĪĪë¬¼ìĿĦ":7521,"Ġíı¬ìĬ¤íĬ¸":7522,"Ġê°ĢëĬ¥íķĺë©°":7523,"Ġsh":7524,"Ġì»¸":7525,"ĠìľłìłĢê°Ģ":7526,"ĠíķĺìĪĺ":7527,"Ġëĭ¹ìĭłìĿ´":7528,"ĠìŀĲë§¤":7529,"Ġê³łêµ¬":7530,"Ġíĸ¥ìĥģ":7531,"Ġê°Ģì¡Į":7532,"Ġë§Ĳíķĺê³ł":7533,"ĠìĭłìĦ±":7534,"ĠëĴ¤ìĹĲìĦľ":7535,"Ġê°ĢëĬ¥ìĦ±ëıĦ":7536,"Ġì²¨":7537,"Ġì±ķ":7538,"Ġê°Ģì§ľ":7539,"Ġíĥľìĸ´ëĤĺ":7540,"Ġê·Ģì°®":7541,"ĠìĿ¼ìĭľ":7542,"ì°¨ìĹĲ":7543,"Ġë³¸ëĭ¤":7544,"ĠìĦ¸ê³Ħê´Ģ":7545,"ĠìķĦë°Ķ":7546,"ĠìķĮê²łì§Ģë§Į":7547,"Ġìķ½ê°ĦìĿĺ":7548,"Ġì¤ĳê³Ħ":7549,"íĮĮê°Ģ":7550,"ĠëĶĶì§ĢíĦ¸":7551,"Ġë¸ĶëŁ¬":7552,"ë¦°ìĿĺ":7553,"Ġë¹ĦëĶĶìĺ¤":7554,"ĠìĿĺë¯¸ë¡ľ":7555,"Ġê±¸ì³Ĳ":7556,"Ġìķµ":7557,"ĠëĤ´ë¦¬":7558,"ĠAT":7559,"Ġê°ľìŀħ":7560,"ĠìĿ´ìĿµ":7561,"Ġë©Ķëī´":7562,"ĠAr":7563,"Ġìŀ¬íĺĦ":7564,"Ġëĵ¤ë©´":7565,"ë§īìĿĦ":7566,"order":7567,"ĠìĬ¤ë§ĪíĬ¸íı°":7568,"Ġë¶ĢëĶ":7569,"Ġìĭľëĭ¬":7570,"Ġê³µê°ľëĲľ":7571,"Ġë°ķê·¼":7572,"Ġëĸ¨ìĸ´ì§Ħëĭ¤":7573,"ìŀĪìĸ´":7574,"ĠíĨłëª¨":7575,"Ġê³łëĵ±":7576,"íķľìĿĦ":7577,"ĠDe":7578,"ë¦¬ëĿ¼":7579,"ĠíĽĹëĤł":7580,"ëªħíķľ":7581,"Ġìŀ¡íĺĢ":7582,"Ġìļ©ìĿĺ":7583,"ĠíĽĦìĨįìŀĳ":7584,"Ġê°ĲìķĪíķĺë©´":7585,"ĠìĽ¨ìĿ´":7586,"Ġìŀ¥ìĪĺ":7587,"Ġë¹Ħìĭ¼":7588,"ĠìĿ¸íĺķ":7589,"Ġìī´":7590,"ĠWh":7591,"Ġwith":7592,"Ġê°Ģì¹ĺ":7593,"Ġfont":7594,"out":7595,"ĠìłĦíĺķìłģìĿ¸":7596,"Ġê·¸ëŁ¬ëĭĪê¹Į":7597,"Ġë¦¬ë©ĶìĿ´íģ¬":7598,"Ġëª¨ì¡°ë¦¬":7599,"íĮĮìĿ´":7600,"ĠìľłìłĦ":7601,"Ġì¶ľíĮĲ":7602,"êµĲë¥¼":7603,"ë§Īë£¨":7604,"ëĭĪìĻĢ":7605,"Ġì°Ķ":7606,"ĠPD":7607,"ĠíĮĮëĿ¼":7608,"ĠíķĺëĤĺëıĦ":7609,"Ġëĸłìĺ¤":7610,"ĠíļĮìĿĺ":7611,"isplay":7612,"ĠíĽĦì§Ģ":7613,"íĮħìĿĦ":7614,"ĠëłĪë²¨ìĿ´":7615,"ĠìŀĲëĬĶ":7616,"Ġì§Ģìĸ´":7617,"Ġë¬´ëłµ":7618,"ure":7619,"ĠìķĦë²Ħì§ĢìĿĺ":7620,"Ġì§ĢìĭĿ":7621,"íĸ¥ìĿĦ":7622,"ĠìķĬëıĦë¡Ŀ":7623,"Ġë§ĮëĤĺê²Į":7624,"iv":7625,"Ġë¬´ë°©":7626,"ĠëĤłê°ľ":7627,"Ġë²Ħëł¸ëĭ¤":7628,"Ġíķĺìķ¼":7629,"Ġë¶Ģë¥¸":7630,"ĠíĻķìĿ¸íķł":7631,"Ġíŀĺëĵ¤ìĸ´":7632,"íĨ¨ë¦Ń":7633,"ì¢ħìĿĦ":7634,"Ġê²ĮìŀĦìĹĲìĦľ":7635,"Ġëĵ¤ìĹ¬":7636,"Ġë¬¼ê³ł":7637,"ìģľ":7638,"ìĸ´ìĻĢ":7639,"Ġëª°ëĿ¼ëıĦ":7640,"ìķ¼êµ¬":7641,"ĠíĻĶë¥¼":7642,"ĠëĲĺìĹĪëĬĶëį°":7643,"ìĹĲëĭ¤":7644,"MA":7645,"ĠìĤ¬ëĿ¼ì§Ħ":7646,"ĠëĤ´ê²Į":7647,"ĠíĿ¥íĸī":7648,"ĠëĤĺìĿ´ê°Ģ":7649,"Ġì£½ê³ł":7650,"Ġìłĳì´ī":7651,"ĠìĪĺì¤ĢìĿ´ëĭ¤":7652,"Ġì§Īë¬¸":7653,"ìķ¤":7654,"ë²Ħëł¸":7655,"ĠìķĬìķĺìĿĦ":7656,"Ġthat":7657,"ĠìĨĮíĺķ":7658,"ìĨĮë¡ľ":7659,"ĳ¼":7660,"Ġê·¼ë³¸":7661,"ëļ±":7662,"íļ¨ê³¼":7663,"Ġyour":7664,"ê¸°ëĤĺ":7665,"Ġë²łìĿ´ìĬ¤":7666,"Ġë¹Ħìĥģ":7667,"Ġë£¨íĬ¸":7668,"ĠíĹ¨":7669,"ime":7670,"RA":7671,"Ġíķ´ë³ĳ":7672,"ĠíĶĦëĿ¼":7673,"ìľłë¥¼":7674,"ë§µ":7675,"ìŀĩ":7676,"ĠìĪ¨ìĸ´":7677,"ĠìłĦë©¸":7678,"Ġìļ°ë¦¬ëĤĺëĿ¼":7679,"ĠìŀĪìĿĮìĿĦ":7680,"ê¸īìľ¼ë¡ľ":7681,"Ġê¹Ģíĥľ":7682,"ĠìłĦë¶ĢíĦ°":7683,"Ġì¼ľ":7684,"ĠìĻĦë²½íķľ":7685,"ëłĪìĿ´íĦ°":7686,"ë¦¬íĬ¸":7687,"ĠíĽĦì¿ł":7688,"ìĤ°ìĹħ":7689,"íĺĦìĿĺ":7690,"Ġê³¼ê±°ìĹĲ":7691,"Ġê¸Īìľµ":7692,"Ġê²½ê¸°ëĬĶ":7693,"ìĭľëĭ¤":7694,"ĠìĨĮìĪĺ":7695,"íļĮë§Ĳ":7696,"ĠìĿ´ìĬ¬ëŀĮ":7697,"17":7698,"ĠëªħíĻķ":7699,"ĠìŀĲëıĻìľ¼ë¡ľ":7700,"ire":7701,"ĠìĿ´ìĥģìĿĦ":7702,"ĠìĿ¸íĦ°ë·°ìĹĲìĦľ":7703,"ë¹ĦìĬ¤":7704,"Ġìŀ¡ìĿĢ":7705,"ĠëĦī":7706,"Ġë£¨ìĭľ":7707,"ĠGT":7708,"ìĽĮëĵľ":7709,"ĠAR":7710,"Ġê¹Ģì¢ħ":7711,"ìĺĢìĿĦ":7712,"Ġíĺ¹ìĭľ":7713,"ĠìĿĺìĽĲ":7714,"ĠSC":7715,"ĠìłĦíķ¨":7716,"ĠìļķìĿĦ":7717,"ĠìĤ¬ê±´ìĿĺ":7718,"ĠíĻĺìĺģ":7719,"Ġê¹ĶëģĶ":7720,"ĠëĪĮëŁ¬":7721,"ëł¹ìĿ´":7722,"Ġíİł":7723,"ì½Ķë¥¼":7724,"ĠëĦ¤ëįľ":7725,"ĠìĭľìłĪìĿĺ":7726,"ìħ°":7727,"ĠëģĪ":7728,"ĠëĦĲë¦¬":7729,"ë³´ê¸°":7730,"Ġì¢ĭê³ł":7731,"Ġìŀĳê°ĢìĿĺ":7732,"Ġì¤Ģìļ°":7733,"IS":7734,"ĠìłģíĺĢ":7735,"Ġë§ĪìĻķ":7736,"ì§ģíķľ":7737,"ĠìłĲìĪĺ":7738,"FC":7739,"ĠìĿ¼ë³¸ìĹĲìĦľ":7740,"Ġìī½ì§Ģ":7741,"Ġëĭ¤ìĪĺìĿĺ":7742,"ĠíĻľë°ľ":7743,"ìłĦì°¨":7744,"ìļķìĿĦ":7745,"ĠìłĢëĬĶ":7746,"Ġêµ°ëĭ¨":7747,"Ġê³Ħìķ½ìĿĦ":7748,"ìķ½ìĿ´":7749,"ĠêµŃíļĮìĿĺìĽĲ":7750,"ëª¨ëį¸":7751,"Ġë¹ĽìĿĦ":7752,"Ġë¯¸ìĬ¤":7753,"ĠëĨĴê³ł":7754,"íŀĪì§Ģ":7755,"ëħ¸ìĿĺ":7756,"ë¬¼ìĿĢ":7757,"ĠëĲĺìĹĪìľ¼ë©°":7758,"99":7759,"Ġë²ĦíĶĦë¥¼":7760,"Ġì£¼ìĿ¸ê³µìĿĺ":7761,"ĠíĿł":7762,"Ġìĸ¸ê¸īíķľ":7763,"Ġê°ĢëĿ¼":7764,"íķĺê°Ģ":7765,"ome":7766,"Ġê³¡ìĿ´":7767,"ë¹Ħë¡ľ":7768,"Ġ04":7769,"ĠìĨĮìĭĿìĿĦ":7770,"ìĸ´ë¦¬":7771,"ĠìĿ´ëĤĺ":7772,"êµŃìĿĢ":7773,"Ġë°°ìļ°ëĬĶ":7774,"ìºĶ":7775,"ĠíĥĢì¼Ģ":7776,"ĠìĶ¹":7777,"íı¬ê°Ģ":7778,"ìĨĮë¦¬":7779,"ĠíľĺëĳĲ":7780,"Ġê°Ģë§Į":7781,"íĶ¼ë¥¼":7782,"êµŃìĹĲ":7783,"BO":7784,"Ġìľłë¡ľ":7785,"Ġë§Īíģ¬":7786,"Ġíķľìª½":7787,"ĠìĤ¬ëŀĮìĹĲê²Į":7788,"ĠìĬµëĵĿ":7789,"ë©´ìĹĲìĦľ":7790,"Ġì§ĳìľ¼ë¡ľ":7791,"Ġ1995":7792,"Ġëĭ¤ìĿĮìĹĲ":7793,"íĸĪëĭ¤ë©´":7794,"ĠĠĠĠĠĠĠĠĠĠĠĠĠĠĠĠĠĠĠĠĠĠĠĠĠĠĠĠĠĠĠĠ":7795,"Ġê±°ëĵŃ":7796,"ìķ½íķľ":7797,"Ġëĭ¤ìĿ´ìķĦ":7798,"Ġë¬´ëį¤":7799,"ìĿ´ëĵł":7800,"ĠUS":7801,"ĠìĬ¤ìĬ¹":7802,"ĠìĹĨìĿĮ":7803,"Ġê³³ìĿĢ":7804,"ĠëĤ´ë³´":7805,"Ġ08":7806,"ĠìĹ´ìĩł":7807,"Ġêµ¬ìĤ¬":7808,"Ġë¨¸ë¦¬ê°Ģ":7809,"ob":7810,"ĠëĤĺë©´":7811,"ĠìĻľëĥĲ":7812,"Ġëª¨ë¦¬":7813,"ìĿ¸ìĿ´ëĭ¤":7814,"ìŀĲëıĻ":7815,"ĠëĤĺìĺ¤ê¸°":7816,"íļĮìĤ¬":7817,"ìħĺìĿĦ":7818,"ë°ĽëĬĶëĭ¤":7819,"ĠìĤ¬íļĮìłģ":7820,"ĠFI":7821,"êµĲìĿĺ":7822,"Ġìĸ´ì§¸ìĦľ":7823,"Ġì¿łíĤ¤":7824,"Ġì²ľìŀ¬":7825,"ĠìłĳìĨį":7826,"Ġë¶ĢìĦľ":7827,"25":7828,"ĠìĪĺìĹħ":7829,"Ġì¼ĢìĿ´ìĬ¤":7830,"Ġëį§ë¶Ļ":7831,"ì§Ģë°©":7832,"Ġë§ĲíķĺìŀĲë©´":7833,"íķĺìĿ´":7834,"Ġê¹¨ëĭ¬":7835,"ê°Ģë©°":7836,"ëį°ìĬ¤":7837,"ĠíĦ°ëľ¨":7838,"Ġ07":7839,"Ġë²łíĬ¸ëĤ¨":7840,"Ġìºłíİĺ":7841,"ìĹĲê²Ĳ":7842,"Ġì§ĢìĽĲìĿĦ":7843,"Ġëıĭ":7844,"ë¦¬ìĸ¼":7845,"Ġì°¢":7846,"ĠAC":7847,"ĠíĽĦìĪł":7848,"ì¸łê°Ģ":7849,"ĠíķĻìĥĿëĵ¤ìĿ´":7850,"ìķĦíĮĮ":7851,"ĠìĤ¬ìĸĳ":7852,"Ġì£½ìĿĮìĿĺ":7853,"ĠíİĺìĿ´ì§Ģ":7854,"ìĥĿìĿĦ":7855,"ìľ¼ë¡ľìĦľìĿĺ":7856,"Ġê³łìŀĳ":7857,"Ġì¡°ì§Ģ":7858,"ë³ĢìĿ´":7859,"ë§Īë²ķ":7860,"Ġê·¸ëŁ¬ëĭ¤ê°Ģ":7861,"ë¡ľìĻĢ":7862,"Ġíļ¡":7863,"Ġê°Ģë³įê²Į":7864,"íķĺëįĶëĿ¼ëıĦ":7865,"Ġì£¼ìĹ°":7866,"ëªħìĹĲ":7867,"Ġíķľìłķìľ¼ë¡ľ":7868,"Ġë¬´ì²Ļ":7869,"ĠìĬ¹ê²©":7870,"íĥĦìĿ´":7871,"ìĤ¬ëŀĳ":7872,"Ġë¶ĢìĪĺ":7873,"ĠíļĮìĪĺ":7874,"íķĺëĿ¼ëĬĶ":7875,"Ġê°ķìĽĲ":7876,"ëłĪëĤĺ":7877,"Ġìĺ³":7878,"Ġì¶©ê²©ìĿĦ":7879,"Ġëĭ¹ìĹ°íķľ":7880,"ĠëıĻë°©":7881,"Ġë¹łìł¸ëĤĺ":7882,"Ġì¶ľìŀ¥":7883,"íĺ¸ìĻĢ":7884,"Ġê°Ħìĭł":7885,"ìĤ°ìĿĺ":7886,"ì±ł":7887,"Ġë¬¼ë¡łìĿ´ê³ł":7888,"ĠìľłìĤ¬íķľ":7889,"ĠìłĢëŁ°":7890,"Ġì§ĢëĬ¥":7891,"ê²½ìĹĲ":7892,"Ġê²°ê³¼ìłģìľ¼ë¡ľ":7893,"ìĿ¸ëĵ¤":7894,"ĠìĿ´ìĭĿ":7895,"ìĦĿìĿĺ":7896,"Ġëľ»ìĿĦ":7897,"ĠìĿ´ê²ĥëıĦ":7898,"íĻĶíķľ":7899,"ëĤĺëĿ¼ìĿĺ":7900,"Ġê°ĢìĤ¬":7901,"ê±°ìķ¼":7902,"ĠìĿ´ëģĮê³ł":7903,"Ġëľ¬ê¸Ī":7904,"ĠíħĮìĬ¤íĬ¸":7905,"ĠìĭĿìĿĺ":7906,"Ġë§ĮëĤł":7907,"ĠìŀĪìĹĪëĭ¤ëĬĶ":7908,"Ġì¤¬":7909,"ëıĦìĹĲìĦľ":7910,"ĠëĦĪëĬĶ":7911,"ìķ¼ë§Į":7912,"ì¤ĳíķĻêµĲ":7913,"ĠìŀĲì²´ìĿĺ":7914,"Ġì¶Ķìĸµ":7915,"ë¨¹ê³ł":7916,"Ġìĭľê°ĦìĹĲ":7917,"Ġinline":7918,"Ġë³´ëĦĪìĬ¤":7919,"ê±´ìĿĦ":7920,"ì½ĶìĻĢ":7921,"ìłĦê³¼":7922,"ìĭľíĹĺ":7923,"ĠëĳĺìĿĢ":7924,"íĬĢ":7925,"ĠìĿ¼ìľ¼íĤ¨":7926,"ĠëĮĢìĤ¬ê°Ģ":7927,"ĠìłĢëł´":7928,"ĠíĹĮíĦ°":7929,"Ġê±°ë¦¬ë¥¼":7930,"ëĮĦ":7931,"ĠVS":7932,"Ġë°ķìĤ¬":7933,"ĠìĬ¤íĭ°":7934,"Ġì²ŃëħĦ":7935,"ìŀĪê²Į":7936,"Ġê·¸ëŁ¬ë©´":7937,"ide":7938,"Ġborder":7939,"ock":7940,"Ġëªħëł¹ìĿĦ":7941,"íĥĿìĿĦ":7942,"Ġë§Ĳíķĺë©°":7943,"ìĥīìĿĺ":7944,"ĠëıĦë°ľ":7945,"ë²ħ":7946,"ëģĦëŁ¬":7947,"ĠìĨĲê°ĢëĿ½":7948,"ĠìĨĮëĭī":7949,"ĠíĨµìĥģ":7950,"ìĬ¤íĤ¤":7951,"ë§ĿìĿ´":7952,"ess":7953,"Ġê°ĲìłķìĿĦ":7954,"ĠìĿ´ìĺģ":7955,"Ġê°ķìļĶ":7956,"Ġë¬´ê´Ģ":7957,"ë¡ľìĽĮ":7958,"Ġì»¤ëĭ¤ëŀĢ":7959,"ìĦĿìĹĲ":7960,"Ġë¶ĦëªħíŀĪ":7961,"ëĭĺìĿĦ":7962,"ë§ģìĿ´":7963,"ĠëĤĺíĥĢëĤľëĭ¤":7964,"Ġë¬´ìĭľíķĺê³ł":7965,"ìĤ¬ëł¹":7966,"ĠìķĦìĿ¼":7967,"ass":7968,"uc":7969,"Ġì°įìĸ´":7970,"ë¥łìĿĦ":7971,"Ġëĭ¬ëŁ¬":7972,"ĠìºĲìĬ¤íĮħ":7973,"ì¦ĪìĻĢ":7974,"Ġìľłì¹ĺ":7975,"Ġëĭ¨ëĭ¨":7976,"ìĭľíķĺëĬĶ":7977,"Ġê°ľë§ī":7978,"ĠìĹĨëĭ¤ë©´":7979,"ì¹ĺë©´":7980,"Ġìĸ´ë¦°ìĿ´":7981,"ê¹¥":7982,"Ġìľµíķ©":7983,"adius":7984,"ë³´ëĵľ":7985,"Ġë¶ĢëĶª":7986,"ëł¬íķľ":7987,"Ġê²ĮìŀĦìĹĲ":7988,"ĠìĿ´ê²¨":7989,"ĠìķĪíĭ°":7990,"Ġíľ´ëĮĢ":7991,"ë¹ĦìĻĢ":7992,"ìĬĪíĥĢ":7993,"Ġëĭ¹íķĺëĬĶ":7994,"Ġê¸°ìŀĲ":7995,"Ġíķ©ìĦ±":7996,"ëĶ§":7997,"Ġë¬´ìŀĳ":7998,"Ġê±°ê¸°ìĦľ":7999}