#version: 0.2
Ġ ì
Ġ ë
ì Ŀ
Ġ Ġ
Ġ ê
í ķ
ë ĭ
ì Ĺ
ìĿ ´
Ġ í
ëĭ ¤
ë Ĭ
ëĬ Ķ
ìĹ Ĳ
ê ³
ê °
ë ¡
ì Ħ
ì §
íķ ĺ
ë¡ ľ
Ġì Ŀ
ìĿ Ħ
ìĿ ĺ
Ġì ŀ
ì ł
ë ¥
ê° Ģ
ì ŀ
ê³ ł
ì§ Ģ
ë ı
íķ ľ
ë ¦
¸ °
ì ľ
ìĦ ľ
Ġì ķ
ê ²
ì ĭ
ë ĵ
Ġì ł
ëı Ħ
ë¥ ¼
ë §
ìĿ Ģ
ĠìĿ ´
ì ķ
Ĥ ¬
ĸ ´
Ġê °
ë¦ ¬
ê ¸°
ë ©
Ĥ ĺ
ĠĠ ĠĠ
Ġë §
ì Ĭ
ë ł
ìľ ¼
Ġê ²
Į Ģ
ì ļ
Ŀ ¼
Ġë °
Ġì Ĺ
Ī ëĭ¤
ì ĸ´
Ġê ·
ë Ŀ¼
Ġì ĭ
Ī ĺ
ìĿ ¸
íķ ´
Ġë ĭ
ê µ
ìĬ ¤
Ġê· ¸
ê² Į
ìľ¼ ë¡ľ
ìĹĲ ìĦľ
ë Ĥĺ
Ġë ³
ë į
Ġê ³
Ġì Ħ
ëĵ ¤
ì ĺ
ë© ´
ĥ ģ
Ġì §
Ġë ª
ìĭ ľ
Ġì Ĥ¬
ë °
ë§ Į
ë ŀ
Ġì ĺ
ë Ł
¶ Ģ
Ġ 1
ë ¬
ë ³
ì Ľ
Ġìķ Ħ
ì Ļ
£ ¼
ìŀ Ĳ
ì ¹
ë ²
Ġ íķĺ
ë Ĳ
Ġì Īĺ
í ĸ
Ġìŀ Ī
Ġì ľ
Ġ 2
ìķ Ħ
ë ĮĢ
ĠĠ Ġ
ê³ ¼
ë ħ
Ġë ĵ
ì Ĥ¬
Ġê° Ģ
Ġë ¬
Ĭ ¸
Ġë ĮĢ
í ĥ
Ġë ı
Ġë Ĥ
í Ļ
ìŀ ¥
Ġ íķľ
ì ²
Ġê² ĥ
Ġìĭ ľ
í Ĭ¸
ë ª
ëĵ ľ
ìĻ Ģ
Ġë³ ´
¯ ¸
Ġëĭ ¤
í ĺ
¹ Ħ
Ĩ Į
ìł ģ
Ġìł Ħ
¤ ĳ
Ġê µ
Ġê ¸°
Ġë Ĥĺ
Ġìŀ Ĳ
Ġ íķ
ëĭ Ī
Ġì Ĭ
± °
ìł Ħ
ë ¶Ģ
ìł ķ
Ġë Ĳ
ķ Į
ì ĥģ
ë Ĥ
ë© °
ìļ °
í Ħ
ì Īĺ
íķĺ ëĬĶ
Ġì§ Ģ
ìĿ ¼
Ġì ļ
ëį °
ëĲ ĺ
ê ¸
Ġìŀ Īëĭ¤
Ġìł ķ
ì§Ģ ë§Į
ëħ Ħ
ŀ Ī
¡ °
ìĦ ±
ĠìĿ ¼
íĦ °
Ġëª ¨
ìĿ´ ëĭ¤
ì £¼
ëŁ ¬
Ġë ķĮ
Ġë ²
ì °
Ġë§ Ī
Ľ Ħ
Ġí Į
ì¹ ĺ
ìĹ Īëĭ¤
Ġì °
Ġë į
ìļ ©
ĥ Ŀ
Ġì ĥģ
Ġí Ļ
Ġí ĺ
ìł ľ
ìĭ ł
Ġë ¶
ëł ¤
Ġì ¹
í ŀĪ
êµ Ń
ë¬ ¸
í Ķ
ë³ ´
í Į
íĻ Ķ
Ġê² ½
ĠìĹ Ĩ
Ġìľ ł
ĠìĬ ¤
ëł ¥
Ġì £¼
Ġê³ µ
ê ·
Ġí Ķ
Ġì ¶
ë¥ ´
Ġì ²
Ġìł ľ
ĠìĿ ¸
êµ ¬
Ġí ĥ
ë§ Ī
Ġìķ Ĭ
Ġì ¤ĳ
¹ Į
Ġí ı
ê° Ħ
Ġë ¶Ģ
ìķ ¼
ì§ Ħ
ìĹ ¬
Ġì ĸ´
ë £
ëı Ļ
ìĽ Ĳ
ëį ĺ
ģ ¬
Ġ 3
Ġì Ļ
ìĹĲ ê²Į
ìĹ Ī
´ Ģ
Ġìĺ ¤
Ġ2 0
íķ ł
íķĺ ê³ł
ìĺ ¤
í Ĩ
ë ¯¸
Ġë¬ ´
Ġëĵ ±
íĥ Ģ
ì ¦
ëł Ī
ĠëĲ ĺ
ê² ©
Ġì ĨĮ
Ġìľ Ħ
ë ¶
Ġë ¹Ħ
Ġì Ľ
íķľ ëĭ¤
Ĩ į
Ġì ĸ
ê ¹Į
ļ Į
ê ±°
ĠĠĠĠ Ġ
Ġì ¢
Ġ íķ´
ëª ħ
ĠìĹ ¬
ëŀ ĺ
í Ĥ
± ´
Ġê³ ł
Ġí ĸ
Ġë§ Į
Ġë Ķ
ìĦ ł
íĸ Īëĭ¤
ĠìŀĪ ëĬĶ
ĠëĤ ´
ì ĸ
ë² Ħ
ëĲ ľ
ĳ Ĳ
ë Ħ
ì² ´
Ġë° Ķ
ë ¹Ħ
Ġë ¯¸
ì ĨĮ
ë¬ ´
Ġë Ħ
Ġë§ Ĳ
ìľ Ħ
ê³ Ħ
ëĭ ¹
ì Ĥ
Ġì ¡°
ìĺ Ģ
ìŀ ĳ
ìĽ Ķ
ì ¡
ìĿ Į
ìĿ´ ëĿ¼
½ Ķ
Ġê ±°
ĠĠĠĠ ĠĠ
í ĭ
ĠìĿ ĺ
Ġë ©
ĠìĦ ±
Ġì ĥĿ
Ġëı Ļ
ìĭ Ŀ
ìļ ´
Ġì Ĥ
ìĭ ¤
ĠëķĮ ë¬¸
Ġìķ Ī
Ġëı Ħ
ì ¶
íĸ Ī
í ı
ëĭ ¨
Ġë ħ
Ġë° ©
ê³ µ
í ĽĦ
í ģ¬
ĠìĦ ł
ë¶ Ħ
Ġìĺ ģ
ìŀ ¬
ĠìĹ °
ë Ķ
ì ¤
íĤ ¤
ìŀ Ħ
Ġìĭ ł
Ġë° ľ
Ġí ĽĦ
Ġíķľ ëĭ¤
Ġêµ ¬
ë¥ ¸
ìļ Ķ
ëĵ¤ ìĿ´
´ Ī
ìĦ ¸
ì ¡°
Ġìŀ ¥
íķĺ ê²Į
í ļĮ
ê¹Į ì§Ģ
ë©´ ìĦľ
Ġ 4
í ħ
ëĬ ¥
Ġí Ĩ
ì Ī
ì¹ ´
íķ Ļ
ìķ ĺ
ĠìĦ ¸
ì ¤ĳ
ì° ¨
ëĬĶ ëį°
µ ľ
íĸ ī
Ġë Ŀ¼
ìĹĲ ëĬĶ
ë¬ ¼
ëŀ Į
İ ¸
Ġìł ģ
Ġë§ İ
Ġë¶ Ī
ë ¯
Ġê° ľ
Ġìļ °
Ġê² Į
Ġ 5
Ġì µľ
ì¦ Ī
ë£ ¨
íĶ Ħ
ìľ ł
êµ Ĳ
Ġëį Ķ
Ġëĭ ¹
ìł Ĳ
Ġìĭ ¤
ì ĥĿ
ë¦ °
Ġê ¹
ì Ĩį
Ġí Ĭ
Ġë Ĭ
Ġê° Ļ
ê° ľ
Ġê° ķ
Ġê ¸
ëĤ ´
Ġê² °
ë° ĺ
Ġì§ Ħ
ê· ¸
Ġë¬ ¸
Ġë ¹
ĠìĦ ľ
ë ¸
Ġì¹ ´
Ġ20 1
Ġëĵ ¤
ìĹ °
ê° ģ
ìĹ Ń
ĠìĽ Ĳ
ìĬ µ
Ī ¬
Ġìķ Į
íķĺ ëĭ¤
ìĹĲìĦľ ëĬĶ
ĳ ľ
Ġê²½ ìļ°
êµ °
ìłģ ìľ¼ë¡ľ
Ġíĥ Ģ
ĠíĮ Į
ëª ¨
ĠíĬ ¹
ĠëķĮë¬¸ ìĹĲ
Ġë° ĺ
ëŁ °
Ġê ´Ģ
ì ħ
0 0
ê² ½
ĠëĲ ľ
íĨ ł
ê ´Ģ
íĺ ¸
ìłģ ìĿ¸
ì¤ Ģ
ìķ Ī
Ġëħ ¸
ëĵ ł
ìľ¼ ë©°
Ġë ¦
ìł Ģ
ìĤ °
íĭ °
ë° ©
Ġë ĺ
ë³ ¸
ê¸ ī
ë¦¬ ê³ł
ê ±´
Ġìŀ ĳ
Ġë° Ľ
Ġëª »
ĠìĤ¬ ëŀĮ
Ġëĭ ¨
ë¡ Ŀ
Ġíı ¬
ë² Ī
Ġë Ĩ
ĠìĹ Ĳ
ì ¸
± ¸
Ġì ĵ
ĠìĹ Ń
ĠëĤ ¨
ĠìŀĲ ìĭł
íķ´ ìĦľ
ê¸ Ī
ì ¢
Ġì° ¨
Ġë ¡
ëĭ¤ ëĬĶ
Ġë ł
¶ Į
Ġì¢ ĭ
Ġë¬ ¼
ë¶Ģ íĦ°
ë ¨
ë ĥ
ëłĪ ìĿ´
ĠìĿ´ íĽĦ
ìĺ ģ
ë ĳĲ
ĠëĶ °
ì ¼
Ġì¶ Ķ
ëĶ Ķ
íĥ ľ
ë° ľ
Ġíĺ Ħ
Ġì Ī
Ġë¦ ¬
íķĺ ê¸°
Ġë ģ
ĠìķĦ ëĭĪ
Ġë³ ¸
Ġëĺ Ĳ
ëĤ ľ
ĠìĤ¬ ìļ©
ĠíĶ Ħ
íķĺ ìĹ¬
Ġë° °
Ġí Ŀ
ìĺĢ ëĭ¤
ëĭ Īëĭ¤
íĺ ķ
Ġë§ ¤
ë² ķ
Ġë ¨
ë¡ ł
ìĹ ħ
ëĮĢ ë¡ľ
Ġ S
Ġì¶ ľ
Ġëł Ī
ì² ĺ
ìĺ ¨
ĠíĶ ¼
ì ½Ķ
ì¢ ħ
íĮ Į
Ġê³ Ħ
Ġë² Ħ
ë¯ ¼
Ġ1 9
ëį Ķ
Ġëį °
Ġëĭ ¬
ëħ ¸
ë¦ Ħ
íĨ µ
ìŀ ħ
ëĭ¤ ê³ł
Ġí Ĺ
Ġì £
ĠíĨ µ
Ġì ´Ī
ë¸ Į
Ġí ģ
Ġë Ī
Ġ 6
Ġê° Ĳ
Ġë ĳĲ
ëŀ Ģ
íķĺ ë©´
íĶ ¼
íĮ Ĳ
Ġê ±´
Ġì ±
Ġì ¦
í Ĵ
Ġêµ Ń
Ġìĺ Ī
ëĵ¤ ìĿĢ
Ġì ĥ
Ġìłķ ëıĦ
Ġìŀ ¬
ìĪ ł
ìĿ´ ëĤĺ
Ġì º
Ġìł Ģ
ìĭ ¬
Ġìŀ ħ
ìĬ ¹
Ġëĵ ľ
íı ¬
ë° Ķ
ì§ ģ
Ġë¶ Ħ
Ġì Ĩ
Ġëĭ¤ ë¥¸
Ġíķ ł
Ġíķ ¨
Ġì ¤
Ġê³µ ê²©
Ġí ģ¬
ëĵ¤ ìĿĦ
ëĿ¼ ëĬĶ
ìĸ ĳ
Ġê²ĥ ìĿ´
ìł ¸
Ġì ½Ķ
Ġê¹ Ģ
ì ĥ
Ġì° ¸
Ġë¡ ľ
ìĽ Į
Ġìł Ĳ
í Ĺ
Ġ 7
Ġì »
ìĬ¤ íĬ¸
Ġìļ Ķ
Ġí İ¸
íķĺ ì§Ģ
ìĹĲ ëıĦ
ĠìĦ ¤
Ġìŀ ĺ
ê »
Ġêµ Ĳ
í Ī¬
Ġíķĺ ì§Ģë§Į
ì »
Ġ 8
ëĿ¼ ê³ł
ĠëĲľ ëĭ¤
Ġê·¸ ë¦¬ê³ł
ĠíĮ ¨
íħ Į
ëĵ¤ ìĿĺ
ë¦¬ ëĬĶ
ê¸° ë¥¼
ìħ ĺ
ì Ĩ
ê ¶Į
İ ĺ
ëŀ ĳ
Ġì£ ½
Ġëı Į
Ġ A
Ġìĺ ¬
Ġìĵ °
Ġê³ ¼
Ġë Ĵ
Ġíı ī
Ġê ±¸
Ġíķĺ ëĬĶ
ì§Ģ ëĬĶ
ëĲĺ ìĹĪëĭ¤
ìľ¼ ëĤĺ
ê¸° ëıĦ
Ġëª ħ
Ġë ĸ
Ġë ¸
Ġ1 0
ê² ĥ
Ġëĵ± ìŀ¥
Ġ M
Ġê ´
ëŁ ¼
¿ ł
ê¸° ìĹĲ
Ġëĵ¤ ìĸ´
ì§ Ī
ĠíĻ Ķ
ì¡ ±
Ġì² ĺ
ĠìĤ ´
ĠìĤ¬ ìĭ¤
Ġë§ ŀ
Ġì ¡
ĠìĻ ¸
Ġê·¸ ëŁ¬
í ĳľ
ĠíĻ ķ
Ġê°Ļ ìĿĢ
Ġê°Ģ ëĬ¥
íķ ©
íĻ ©
ëŁ ī
Ġ 9
´ Ŀ
ìķ ½
í ģ
íķĺ ë©°
Ġë© Ķ
ĠíĶ Į
íķ ¨
Ġìĭ ¬
į ¼
ìĦ ¤
Ġíķĺ ëĤĺ
Ġì§ ģ
ìĦ Ŀ
ì¶ ľ
ĠëĮĢ íķľ
ëĬĶ ëĭ¤
ë§ ¤
Ġìº Ĳ
Ġë³ Ģ
ĠìķĦ ìĿ´
ëĲĺ ìĸ´
ĠìĥĿ ê°ģ
i n
ìļ ¸
Ġì Ĩį
ĠëĴ ¤
Ġíĺ ¸
Ġí ŀ
ê» ĺ
Ġê²Į ìŀĦ
ìķĺ ëĭ¤
ëĦ ¤
ë£ Į
ª ½
ë³ ĳ
ë ķĮ
ë³ µ
ë³´ ëĭ¤
ë¦ Ń
ì¡ Į
íĴ Ī
ê±° ëĤĺ
ìł Ī
ì² Ń
Ġíķ Ħ
Ġ C
Ġìķ ł
ë§ Ŀ
ìĻ ¸
ë© Ķ
Ġ T
ì¸ ł
í İ¸
ëł ĩ
Ġí ļĮ
ĠëĨ Ĵ
íĸ ¥
ëł ¨
ëĭ¤ ê°Ģ
Ġëª¨ ìĬµ
Ġì¹ ĺ
ë ģ
ë¥ ĺ
ë¨ ¸
ëł ¹
ì ´Ī
e r
ë° °
íĺ Ħ
Ġíķ Ļ
ë¦¬ ë¥¼
Ġìĭľ ìŀĳ
ëĦ Ī
ê² ł
ìĸ ¸
ëħ Ģ
ê° Ĳ
Ġë¬¸ ìłľ
ëĵ ±
Ġì¢ ħ
ì Ķ
Ġíĸ ī
Ġê²ĥ ìĿ´ëĭ¤
Ġìĸ ¸
ê ´
ĠëĤ ł
Ġìķ ½
Ġíĸ Ī
Ġíķ¨ ê»ĺ
Ġìļ ´
Ġê° Ħ
ĠìĹĨ ëĭ¤
Ġëª ©
ë§ Ĳ
Ġí ļ
Ġê²ĥ ìĿĦ
ìĸ´ ìĦľ
ê¸° ê°Ģ
Ġ B
Ġí Ĥ
Ġí ħ
ĠíĻ ľ
ĠëĤĺ ìĺ¤
Ġíķľ êµŃ
íĻ ĺ
Ġë² Ī
ĠĠĠĠ ĠĠĠĠ
ì² ľ
Ġíĸ Īëĭ¤
Ġí Ĭ¸
Ġë° ķ
ìŀ Ī
Ġì² ´
ëĲľ ëĭ¤
Ġë§Į ëĵ¤
Ġíŀ ĺ
Ģ ë¡ľ
ë ¹
Ġì¡ ´
ĠìľĦ íķ´
Ġì§ ĳ
ëĲĺ ëĬĶ
Ġê° ģ
ĠìĨ Ĳ
ìĤ ´
Ġ D
Ġìĸ ĳ
ì²ĺ ëŁ¼
ì ³
Ŀ ½
ĠìĿ´ ìĥģ
ĠìĬ ¹
ëł ¸
Ġëģ Ŀ
ĠëĦ Ī
Ġí ĳľ
ĠìĿ¼ ë³¸
ë¦¬ ê°Ģ
ê¸ ´
ê° ķ
Ģ ìĿ´
Ġëĭ¤ ìĭľ
ĠëĶ° ëĿ¼
ĠìĤ¬ ìĿ´
ë§ ī
ĠìĬ¤ í
íĹ ĺ
Ġ 0
Ġìŀ ¡
ĠëĺĲ íķľ
ĠìĹĨ ëĬĶ
í Ŀ
ĠíĨ ł
Ġìĸ´ ë
ìĹĲìĦľ ëıĦ
ĠìŀĪ ìĹĪ
ìĿ´ëĿ¼ ê³ł
Ġê°Ģ ìŀ¥
ìĨ ¡
ëı ħ
ĠìĪ ľ
ë¦ ¼
ĠìĻ Ħ
ë Ŀ½
Ķ ëĭ¤
Ġëı ħ
ê² °
ĠëĲĺ ìĹĪëĭ¤
Ġ P
ëł¥ ìĿĦ
ìĿ´ëĿ¼ ëĬĶ
ĠìĹ ´
Ġë £
ë¦ ½
o n
ëª ©
ĠìĿ´ ë¦Ħ
ìľ¼ ë©´
ì§Ģ ê³ł
Ġêµ °
ĠëĶ Ķ
ì¦ Į
Ġí Ī¬
ëĭ ´
Ġê· ¼
· ¨
Ġìĥģ íĻ©
Ġëª¨ ëĳĲ
ìĬ¤ íĦ°
Ġìĥ Ī
ìĥ ī
ëĭ ¬
Ġëĭ¹ ìĭľ
Ġíĺ ķ
Ġë³ ¼
Ġê²ĥ ìĿĢ
ì ¿ł
Ġë ¯
ì§Ģ ë¥¼
Ġí ĮĢ
Ġìĥģ ëĮĢ
ĠëĤ ľ
ì ±
Ġê·¸ ëŁ°
íĥ Ħ
ĠíĮ Ĳ
ì§ ĳ
Ġë§ ī
Ġì ´Ŀ
ëĭ Į
ê· ¼
ëł¥ ìĿ´
Ġí Ĵ
ê¸° ëĬĶ
ì ª½
Ġê²° êµŃ
Ġ t
ĠìŀĪ ìĹĪëĭ¤
a n
ë¦Ń íĦ°
Ġìķ ŀ
ê² ¨
ĠíĤ ¤
ëĤ ł
Ġ L
íĺ Ģ
Ġë² ł
Ġ F
Ġì± Ħ
ëĿ¼ ìĿ´
Ġëª¨ ëĵł
ëĬ Ĳ
Ġ20 0
Ġ1 2
íĮ ¨
ĠëĪ Ī
ìķ ħ
Ġë§İ ìĿ´
ë ´
í į¼
ĠìºĲ ë¦ŃíĦ°
Ġìĭľ ê°Ħ
ìĿ´ ê³ł
Ġì¦ Ŀ
Ġíı Ń
Ġíķĺ ê³ł
Ġì¹ ľ
Ġë¹ ł
Ġí ŀĪ
Ġìķ ¼
Ġëĭ¤ ë§Į
Ġë¨ ¹
ìĺ Ī
Ġíģ ´
Ġë³´ ìĹ¬
ĠíĶĮ ëłĪìĿ´
Ġê·¸ëŁ¬ ëĤĺ
ìĹ Ĩ
ĠíĶĦ ë¡ľ
Ġìĸ ¼
Ġê²ĥ ìľ¼ë¡ľ
ĠëĦ ĺ
Ġê·¸ ëŀĺ
Ġë³ Ħ
Ġ G
Ġìļ ©
ì§ ¸
ëĥ Ĳ
ĠìĿ Į
Ġë ´
Ġíĥ ľ
Ġë³´ ë©´
Ł ģ
ĠëĬ ¥
Ġë³ µ
Ġí Ħ
ìĿ´ ë©°
ìĿ´ ëĬĶ
Ġíļ ¨
¨ ìĸ´
ê³ ¡
ĠëĦ ¤
ë° Ľ
ìĿ´ ìĹĪ
Ġ I
ëĥ ¥
ìĻ ķ
íķĺ ìĺĢëĭ¤
ĠëĪ Ħ
Ġëĵ ¯
Ġìĸ´ë ĸ
ìĿ´ ì§Ģ
ì³ Ĳ
ë Ĩ
ĠìŀĲìĭł ìĿĺ
Ġíģ °
Ġìĥģ íĥľ
íķĺ ë©´ìĦľ
Ġì¶ ©
ëĤ ¨
Ġì¡´ ìŀ¬
ì Łģ
ìĿ´ íĬ¸
Ġíķ Ń
Ġê·¸ ëłĩ
Ġíħ Į
ì¡ ´
íĥ Ŀ
Ġê´ ĳ
ìł ĳ
ĠìĻ ķ
Ġì ī
Ġ s
Ġë ĳ
ìĹ Ķ
ìŀĲ ê°Ģ
ĠëĬ Ĳ
Ġë§¤ ìļ°
Ġ E
ìĬ¤ ë¥¼
Ġì» ¤
¿ Ĳ
ë³ Ħ
ë° ķ
Ġë§İ ìĿĢ
ĠìĿ Ģ
Ġíķ ©
ìĦ± ìĿ´
Ġì¶Ķ ê°Ģ
ĠíĺĦ ìŀ¬
Ġì° ¾
Ġë° ı
Ġë¬¼ ë¡ł
Ġì¤ Ħ
ĠìĿ´ ëŁ°
í Ĭ
ìĬ¤ ìĿĺ
ë² Ķ
ë¯ Ģë¡ľ
o r
Ġë£ ¨
Ġê² Ģ
ĠìķĦëĭĪ ëĿ¼
Ġìŀ Ħ
ĠìĤ ¼
Ġë³ ĳ
ĠëĤĺ ìĺ¨
ìĿ´ ìĹĪëĭ¤
Ġì² ľ
ë¦¬ ì¦Ī
ëĲĺ ìĹĪ
ê°Ģ ëĬĶ
í ļ
Ġì¤ Ģ
ìĬ¤ ê°Ģ
Ġ1 1
Ġìķ ħ
íķ Ń
Ġ K
ê ¹
Ġìĥģ ëĭ¹
Ġë¸ Į
Ġì ½
ëĵ¤ ìĹĲê²Į
ĠìĹ Ħ
Ġí Ľ
íĶ Į
Ġê¸ Ī
ë² ¨
Ġë¸ Ķ
Ġì ·¨
Ġìĭľ ì¦Į
a r
Ġ N
Ġìĭ ¸
ĠìĿ´ ìľł
h e
Ġìĸ »
ĠìķĦ ëĭĮ
ìĿ¸ ëĭ¤
ê² ¬
ì» ¤
ĠìŀĲ ì²´
ë¦ ´
ê¸ Ģ
ĠëıĮ ìķĦ
Ġ R
Ġê¸ ¸
Ġìĭ Ŀ
Ġë°Ķ ë¡ľ
ëĵ Ŀ
íķĻ êµĲ
Ġëĭ¤ ìĿĮ
ìĿ¸ ìĿ´
ĠìłĦ íĪ¬
Ġìĭ¤ ìłľ
Ġì ¼
ĠíķĦ ìļĶ
Ġí İĺ
Ġ H
ìĹ ´
Ġë ŀ
Ġì² «
ê°Ģ ì§Ģ
Ġê° Ī
Ġì²ĺ ìĿĮ
ĠìĦ¸ ê³Ħ
Ġìł Ī
ĠìĤ °
ì¹ ľ
ìĽ Ģ
ìĿ¸ ëį°
ĠìķĬ ëĬĶ
íħ ľ
ĠìĿ´ ë¯¸
Ġë° ±
Ġê· ¹
íĥ Ī
Ġë ľ
ĠìĹŃ ìĭľ
ĠìķĦ ë¬´
ĠìĹ¬ ëŁ¬
ìĬµ ëĭĪëĭ¤
ĠìĿ´ ìļ©
ëĵ¤ ê³¼
ëŀ ľ
ìĤ¬ ë¥¼
o u
íĻ ľ
ê ±¸
ĠìĹ ħ
Ġë² Į
íģ ¼
ì¶ Ķ
íĦ ´
ì¡Į ëĭ¤
ĠíĹ Ī
ë¦¬ ìķĦ
ĠìĻ Ģ
ë¸ Ķ
ìĪ ľ
ìĿ¸ ì§Ģ
Ġìĺ ¨
Ġë¯ ¼
íķ´ ìķ¼
Ġê±° ìĿĺ
ì§Ħ ëĭ¤
ĠìĦł ìĪĺ
Ġë¨ ¸
į ¨
a t
ë¶Ģ ë¶Ħ
ĠíĬ¹ íŀĪ
Ġê ½
ëĿ¼ ëıĦ
Ġëª¨ìĬµ ìĿĦ
Ġìĭľ ë¦¬ì¦Ī
ì§Ģ ê°Ģ
ì ½
ĠìķĬ ê³ł
Ġí ĭ
ĠëĲĺ ìĸ´
ĠíĮ ¬
ë² ł
Ġìŀ ł
Ġê¸° ìĪł
íķĺ ìŀĲ
Ġê³ ³
Ġíķ´ ëĭ¹
Ġë° Ģ
ì° ½
ìĭľ íĤ¤
ĠìĿ´ ìķ¼
Ġëª °
Ġë¯¸ êµŃ
í İĺ
ìĤ¬ ê°Ģ
ìĥģ ìĿĦ
Ġë ¥
Ġìĭ ¶
Ġì¢ĭ ìĿĢ
Ġì¹´ ëĵľ
ìĸ´ ëĤĺ
Ġíļ¨ ê³¼
ĠíĻ ©
íĭ Ģ
Ġê¸° ë¡Ŀ
ëıĦ ê°Ģ
ê¸° ë¡ľ
Ġ1 5
ĠìĬ¤í Ĥ¬
Ġì¦ ī
ëĭ ĺ
Ġ W
Ġ O
ëĵ ¯
ì £
ë¦¬ ìĬ¤
ë¥ ł
ì° ¬
Ġê°Ļ ìĿ´
ëı Į
ëŁ ½
íĸĪ ëįĺ
ê° Ļ
ëĦ Ĳ
ë¶ Ī
ĠìŀĪ ìľ¼ë©°
Ġëĸ ¨ìĸ´
Ġì° ½
ĠìĪĺ ëıĦ
ë¦° ëĭ¤
ì¼ Ģ
ë° ±
Ġë¶ Ļ
ì° ©
ìľ ¨
Ġëĳ ĺ
ì¼ ľ
Ġì ¸
ë ĳ
Ġì¢ Ģ
Ġì£¼ ìĿ¸
ĠìĿ¼ ë°ĺ
Ġê²½ ê¸°
Ġíĺ ¼
ì§Ģ ë§ī
ìĿ´ ì§Ģë§Į
ìĹĲ ìĦł
l e
Ġì§Ħ íĸī
ĠíĻ ĺ
ê° Ī
ë§ ģ
ĠíĨµ íķ´
ìľ ¡
ìĦ± ìĿĦ
ë³ Ģ
ĠìŀĪëĬĶ ëį°
ĠìŀĪ ìĿĦ
ĠìĿ¸ ê°Ħ
ìŀ¥ ìĿĦ
Ġê ¼
Ġì§Ģ ê¸Ī
Ġê³ ¡
Ġí ľ
ìĺ ¬
ì¦ Ŀ
ĠìĹ Ķ
ìķĦ ìĦľ
Ġì² Ń
ìĿ´ ê°Ģ
Ġë¶Ģ ë¶Ħ
ê´ ĳ
ì£¼ ëĬĶ
Ġì§Ģ ìĹŃ
ì° °
ĠëĿ¼ ê³ł
ĠëĿ¼ ìĿ´
Ġëĸ ł
ë Ī
Ġê· Ģ
Ġë° Ŀ
ê· ¹
Ġíĥ Ī
íķĺ ì§Ģë§Į
ĠëĲĺ ëĬĶ
ĠìĬ Ī
ĠĠĠĠ ĠĠĠĠĠĠ
Ġìĸ´ ëĬĲ
ê¸ ¸
Ġê³Ħ ìĨį
ĠëĮĢ ë¶Ģë¶Ħ
Ġì ħ
Ġê ¶Į
Ġëª ĩ
Ġë³´ ê³ł
Ġë§Ī ì§Ģë§ī
ĠìķĬ ëĬĶëĭ¤
Ġë ¿Ĳ
Ġë¶ ģ
ĠìŀĪ ìĸ´
ë§ ¨
íĤ ¨
Ġê´Ģ ëł¨
Ġê¸° ë³¸
íĺ ¼
Ġëª ¸
Ġí İ
ë Ĥ¬
Ġê³ ¨
ĠíĦ °
Ġëĭ ´
ê´ ´
¶ ģ
e n
Ġë Ń
ìľ¼ ëĭĪ
ëĨ ĵ
ĠìķĬ ìĿĢ
Ġì°¸ ê³ł
ìłĦ íŀĪ
ìĬ ¬
ì£¼ ìĿĺ
ê· ľ
ëģ ¼
Ġëĭ¬ ë¦¬
Ġê·¸ ëĥ¥
ì² ł
íĿ ¬
ĠìłķëıĦ ë¡ľ
ë¥´ ëĬĶ
Ġì² ł
ìĬ ·
Ġìĺ¬ ëĿ¼
Ġë Ł
ĠìĤ¬ ê±´
Ġ m
ĠëĦĪ ë¬´
ë¡ľ ëĬĶ
ìĿ ĳ
ëł¸ ëĭ¤
íĸĪ ê³ł
ë¨ ¹
Ġë§Įëĵ¤ ìĸ´
Ġìŀĳ íĴĪ
ĠìķĬ ìķĺ
í ŀ
ì ī
ì§ ķ
ĠìĪĺ ì¤Ģ
Ġë¹Ħ ìĬ·
Ġ w
ìłķ ìĿĦ
ĠëĲ ł
Ġê°Ģ ì§Ģê³ł
ĠëĤ´ ìļ©
ĠíĶ¼ íķ´
ĠëĿ¼ ëĬĶ
ĩ ´
ĠìŀĪ ê³ł
ìĸ µ
ìķ ł
ë¡ Ģ
ëĲĺ ê³ł
Ġë² Ķ
ëıĦ ë¡Ŀ
ĠìĿ¼ ë¶Ģ
Ġê²ĥ ëıĦ
Ġë°© ìĨ¡
Ġ3 0
Ġë³´ ìĿ¸ëĭ¤
Ġ Ċ
ëª ¬
Ġë§Ī ë²ķ
ĠìĿ¸ íķ´
a l
ê³ ¤
Ġì ¿ł
Ľ °
ìĸ´ ê°Ģ
ĠìĿ´ ë¥¼
Ġì£¼ìĿ¸ ê³µ
ìĭľ ìķĦ
¾ ¸
Ġíĥ Ħ
Ġíķĺ ëĭ¤
Ġìĺģ íĻĶ
ĠëĤ ®
Ġë§Ī ìĿĮ
Ġìĥģëĭ¹ íŀĪ
ë¦¬ ìĹĲ
ī ´
Ġ b
ĠìĬ¤ íĥĢ
ĠëĮĢ íķ´
ĠëĮĢ ìĭł
ìĿ¸ ìĿĺ
ĠíĴ Ģ
2 0
ì± ħ
i t
ĠìĦ± ê³µ
ĠìĹ¬ ê¸°
ìŀĲ ë¥¼
Ġê·¸ ëħĢ
êµ ´
ìŀĲ ìĿĺ
ëĵľ ëĬĶ
ìĻ Ķ
r e
Ġê·¸ ëĮĢë¡ľ
ĠìĹĨ ìĿ´
ĠìĿ´ ìłĦ
íı ī
Ġë² ķ
ìĬ ¨
ëĵ¤ ëıĦ
íĬ¸ ë¥¼
ĠëłĪ ìĿ´
ìĬ¤ ë¡ľ
i s
ëĵľ ë¥¼
Ġ1 00
ë² Į
ĠíĹ ¤
ĸ ìĹĲ
Ġì¢ĭ ìķĦ
Ġë§ ¡
ëł¤ ê³ł
ë² ¤
ìĪĺ ê°Ģ
ì¶ ķ
Ġ1 8
ĠëĬ ĺ
ìŀ¥ ìĿ´
Ġì§ Ī
ê±° ë¦¬
Ġ19 9
ì§Ģ ëıĦ
Ġìłľ ìŀĳ
ĠìĿĺ ë¯¸
í İ
ĠëĨĴ ìĿĢ
ìĭľ ìĹĲ
ìĬ¤ ëĬĶ
Ġìł ĳ
Ġë Ľ°
íģ ´
ì§ ľ
Ġì¤ĳ êµŃ
Ġ1 6
ìŀ ¡
ìŀĪ ëĬĶ
ĠìĽ Ķ
ë¡ľ ìļ´
Ġëį ķ
í ĮĢ
Ġìłľ ìĻ¸
Ġ V
ĠìĹ ĺ
ë§ Īëĭ¤
ëŀ µ
ì¹ Ń
ëħĦ ìĹĲ
Ġê² ©
Ġìļ° ë¦¬
Ġì§ģ ìłĳ
ĠëĤĺ íĥĢ
ë³ ¼
ì ´Ŀ
ë ·
ĠĠĠĠ ĠĠĠ
ĠìĿ´ ëĬĶ
ĠëĲĺ ìĹĪ
ĠìŀĲ ê¸°
Ġëħ ¼
Ġê²½ìļ° ê°Ģ
ĠíĻľ ëıĻ
ì º
ê· Ģ
Ġìķ Ķ
ĠìĽ Į
ĠëĬ¥ ëł¥
ëĬ ĺ
Ġë§İ ëĭ¤
Ġìĸ¸ ê¸ī
ĠìľĦ ì¹ĺ
Ġë© ´
Ġê·¸ ê²ĥ
ë ľ
ë¥´ ê²Į
Ġê° ĸ
Ġë°Ľ ìķĦ
Ġê·¸ ìĿĺ
ĠíĮ Ķ
Ġê¸° ì¤Ģ
ĠìŀĲìĭł ìĿ´
ìĤ¬ ìĿĺ
ĠìĿ´ ìĸ´
ìŀĲ ëĬĶ
ìľĦ ë¥¼
in g
ìĭľ ê°Ħ
ë° Ģ
ĠìĿ¸ ë¬¼
ìĪĺ ë¥¼
ìĶ ¨
ĠêµŃ ê°Ģ
ĠìŀĪ ì§Ģë§Į
ëıĦ ë¥¼
ìĹĨ ìĿ´
íļ į
ĠìĽĲ ëŀĺ
ĠëĮĢ íĳľ
íķĺ ìĺĢ
Ġì± ħ
ì¸ µ
ëħ Ĳ
ê³ ¨
Ġê²° ê³¼
ĠìĿ´ ê²ĥ
ìłķ ìĿ´
ĠëĤĺìĺ¤ ëĬĶ
ì¹ ¨
ìļ ±
ì¹ĺ ëĬĶ
Ġì¶ ķ
íĮ ħ
ëĤ ¸
Ġê´Ģ ê³Ħ
¤ ë²Ħ
Ġê³¼ ê±°
ëıĦ ë¡ľ
Ġëĵ± ìĿĺ
Ġê´ ´
ìŀ Īëĭ¤
Ġìĵ ¸
Ġìī ½
ëĭ µ
Ġë¨ ¼
Ġì°¾ ìķĦ
ìĻĢ ìĿĺ
ëĶ ©
Ġìľł ìłĢ
ìłĦ ìĿĦ
ìĶ ©
ĠìĦł íĥĿ
íķĺëĬĶ ëį°
íķ Ħ
Ġë°© ìĸ´
Ġìļ ¸
ëĲ ł
ĠìĦľ ìļ¸
ĠìĿ´ ëıĻ
ĠìŀĪ ëįĺ
Ġë§Ĳ ìĿĦ
ìĦľ ëĬĶ
ĠìĿ´ ëłĩ
ĠìĹĦ ì²Ń
ĠëĦ £
ì¸ ¡
ëĭ Ľ
Ġ1 3
Ġìĭľ ìłĪ
Ġ U
ìļ° ëĬĶ
ëĮĢ ìĿĺ
ë Ģ
Ġëı Ī
Ġì§Ģ ëĤĺ
ĠìŀĪëĭ¤ ëĬĶ
Ġê°Ĳ ëıħ
Ġë°© ë²ķ
Ġë© ¤ë²Ħ
ĠíĥĢ ìĿ´
ĠìĤ¬ ëŀĳ
ë¶ ģ
Ġì¡° ê¸Ī
ĠíĻ į
Ĳ ëĭ¤
Ġíģ¬ ê²Į
Ġíĸ ¥
íĻĶ ë¥¼
Ġìĸ´ëĸ ¤
ĠëķĮë¬¸ ìĿ´ëĭ¤
ìłĲ ìĿĦ
ëĵľ ê°Ģ
ĠìĿ´ ëŁ¬
Ġìĭ¤ìłľ ë¡ľ
Ġë§ Ŀ
Ġíıī ê°Ģ
ĠìłĦ ì²´
ëį ¸
íķĺ ëįĺ
e s
Ġìķł ëĭĪ
Ġ f
ê¸° ìĿĺ
ì ĩ
ĠìĿ´ ìĹĲ
Ġë°Ķ ëĢ
ĠìķĦ ëĭĪëĭ¤
íĻ ķ
Ġíĺ ¹
ĠìĻ ľ
ì¤ĳ ìĹĲ
ì¤Ģ ëĭ¤
ë´ ī
ìĿ´ ìĬ¤
ì¤ Ħ
ë¦¬ ìĿĺ
ëĮĢ ë¥¼
ë¦¬ ì§Ģ
ìĻ Ķëĭ¤
Ġê½ ¤
Ġìŀ¥ ë©´
Ġê ¹Į
íı Ń
êµŃ ìĿĺ
ëĵľ ìĿĺ
ĠëıĻ ìķĪ
í Ľ
Ġëį ĺ
Ġìľ ¡
Ġ1 4
Ġê· ľ
ĠìĬ ¬
Ġíķĺ ì§Ģ
Ġ c
Ġê·¸ëŁ° ëį°
ëĭ Ŀ
ìĽĲ ìĿ´
Ġì» ¨
ì¹ĺ ë¥¼
ìĥģ ìĿ´
Ġì ª½
Ġì¦Ŀ ê°Ģ
ê³¼ ëĬĶ
Ġì¹ľ êµ¬
ë¦¬ ìĸ´
ĠìķĮ ëł¤
Ġì¤ĳ ìļĶ
ë©Ķ ìĿ´
ëªħ ìĿ´
í Ĥ¬
Ġë¥ ¼
íĬ¸ ê°Ģ
Ġê¸ ī
Ġìłķ ë§Ĳ
ĠìķĦ ì§ģ
í ľ
ĠëĤĺìĺ¨ ëĭ¤
ĠìĤ¬ëŀĮ ìĿ´
ë¨¸ ëĭĪ
Ġìłľ ëĮĢë¡ľ
Ġ d
ì¹ĺ ê°Ģ
ĠìķĦ ë²Ħ
Ġì´Ī ë°ĺ
ê² ¼
Ġí Ģ
ìĿ¸ ìĿĦ
ĠìľĦ íķľ
ĠëŁ ¬
ìĿ´ ìŀĲ
Ġëĭ Ī
ĠëĨ ĵ
ĠìĬ¤ íĨł
Ġê¸ Ģ
Ġë§Į ëĵł
ĠìĿ´ ëķĮ
Ġê·¸ëŀĺ ìĦľ
ĠëĤĺ ëĬĶ
Ġë¬ ĺ
ĠìķĬ ìķĺëĭ¤
ìķ Ļ
ìĭĿ ìĿĦ
ĠìłĦ ë¶Ģ
ìĹ ¼
ëĲĺ ì§Ģ
Ġëĵ £
Ġìķ ķ
Ġìµľ ê³ł
Ġìľł ëªħ
ëĪ Ħ
Ġì ı
Ġê° ĳ
Ġê°ľ ë°ľ
ĠìĤ¬ ëĿ¼
ë²Ī ì§¸
Ġë¶Ī ê°Ģ
Ġì§Ģ ìĽĲ
ìī ¬
Ġë°ľ ìĥĿ
ĠìŀĲ ì£¼
ìĸ ¼
Ġê ¿
Ġíķ´ ëıĦ
Ġí į¼
ĠìłĦ ìŁģ
Ġìĺģ íĸ¥
ìĿ´ ê¸°
ê² Ģ
ĠìĦľ ë¡ľ
Ġë³´ìĹ¬ ì£¼
ĠíĿ ¬
Ġìµľ ëĮĢ
ë§Į íģ¼
Ġëª ¬
Ġíĭ °
ëªħ ìĿĦ
íķĺê¸° ëıĦ
Ġëĭ¹ ìĹ°
ëĤĺ ëĬĶ
ĠìĿ´ëłĩ ê²Į
Ġì¹ ¨
i c
ë² ½
ĠìĿ´ ë£¨
ìĽ ħ
ĠìĤ´ ìķĦ
ĠìŀĪ ìĸ´ìĦľ
ìŀĲ ë¡ľ
Ġ1 7
Ġë ķ
Ġê¸° ì¡´
Ġ2 5
íŀĪ ëł¤
Ġì°¸ê³ł ë¡ľ
ëį ķ
Ġì Ķ
Ġê¹ ¨
Ġë¹Ħ íķ´
ĠìĤ¬ ë§Ŀ
ìĿ´ ë¥¼
a s
Ġìłģ ìĿ´
ĠìĤ¬ íļĮ
Ġëľ »
Ġìĺ¤ íŀĪëł¤
Ġë§Ī ì°¬
ĠìĿĺ íķ´
Ġê·¸ëłĩ ê²Į
Ġ X
ì į¨
ĠëĨ Ģ
Ġt he
Ġì¹ ¼
ìĨ Ĳ
ĠìĿ¸ íĦ°
Ġìľł ëĭĽ
Ġë¹ ¨
Ġë§Īì°¬ ê°Ģì§Ģ
ëł Į
Ġë¹Ħ êµĲ
® ¤
Ġ20 20
ìĬ¤ íĥĢ
ĠíĻ Ī
Ġíĺ ĳ
ì¼ ĵ
ê° ĳ
íĽ Ī
ĠëłĪ ë²¨
ë¡ Ń
Ġìłķ ìĭł
Ġ201 8
Ġìĸ´ëĸ »
ìĿĮ ìĿĦ
ëĬĶ ì§Ģ
íŀ Į
Ġíı¬ íķ¨
ìłĦ ìĹĲ
ìĿ¼ ìĹĲ
ìĸ´ ë¡ľ
íĸĪ ìĿĦ
Ġì° į
ìłĦ ìĹĲìĦľ
ĠìĿ´ëŁ¬ íķľ
ìĻĢ ëĬĶ
ĠìķĮ ê³ł
Ġì Į
ìľ¼ë¡ľ ëĬĶ
Ġ201 9
ê³ ³
Ġëį° ë¯¸
Ġê°ĢëĬ¥ íķĺëĭ¤
Ġëģ Į
Ġë© Ģ
ĠìĹ° êµ¬
Ġì£¼ ë¡ľ
ĠëĬ Ķ
ìĸ´ ëĤľ
ì ģ
Ġë°Ķ ê
ã ģ
ĠíķĻ ìĥĿ
ĠìĹŃ íķł
Ġë ½
Ġì¸ ¡
íĸĪ ì§Ģë§Į
Ġë ī´
Ġ J
Ġìĸ´ ëł¤
Ġíķĺ ë©´
íĴ į
ĠìĹĨ ìĸ´
Ġìĺģ ìĥģ
íķĺ ëł¤
ì§Ģ ìĸ´
ĠìĦ¤ ìłķ
ìĦ ¼
a c
Ġìĸ´ëĸ» ê²Į
ê²© ìĿĦ
Ġì¶ľ ìĹ°
ëł µ
Ġëħ¸ ëŀĺ
ìĿ¸ ìĿĢ
ĠìĿ´ ë²Ī
ĠíķĻ êµĲ
Ġíĥ ĳ
Ġê ¶ģ
Ġ o
ì» ¬
Ġíķĺ ë©°
Ġê°Ģ ì§Ħ
Ġê°ķ ëł¥
ĠìķĦìĿ´ íħľ
íķĺ ê±°ëĤĺ
a d
Ġë ¹Į
ê°Ļ ìĿĢ
Ġë¬´ ê¸°
ĠìķĦ ìĺĪ
ê³¼ ìĿĺ
Ġì ĩ
Ġìļ´ ìĺģ
Ġì¢ĭ ëĭ¤
ĠìĿ´ ìłľ
Ġë¹ ¼
ëıĻ ìķĪ
Ġ p
ìĿ µ
ĠëĤ´ ê°Ģ
Ġë¨¼ ìłĢ
Ġê²° ìłķ
ĠëĲĺ ê³ł
Ġê²Į ëĭ¤ê°Ģ
ĠìĿ´ ë²¤
00 0
ìĺ¤ ëĬĶ
Ġë Ĩį
ĠìĿ¼ ìĿ´
ì ©
ĠìĹ¬ ìĦ±
ĠìŀĪëĭ¤ ê³ł
Ġê·¸ ëĬĶ
Ġë´ ī
Ġìľł ì§Ģ
ĳ ¸
ì¶ ©
o m
ìłĲ ìĿ´
Ġë ĥ
Ġìłķ ë³´
ì± Ħ
Ġë´ Ĳ
ìĺĢ ëįĺ
ĠíĽĦ ë°ĺ
ìĥ Ī
ìĪ Ļ
Ġ201 7
Ġë°ľ ë§¤
ĠìĤ¬ìĭ¤ ìĥģ
Ġ5 0
Ġì° ©
ëĭĪ ê¹Į
ìĤ¬ ëĬĶ
Ġê³µ ìĭĿ
ìĹĲìĦľ ìĿĺ
ëĵľ ë¡ľ
ê° Ŀ
ĠìĿ¼ ëĭ¨
Ġë°Ķ ëŀĮ
ĠìĹĨ ìĹĪ
ë¬¼ ìĿĦ
Ġíĸī ëıĻ
ëħĦ ëĮĢ
Ġìµľ ì¢ħ
ĠíĮĮ ê´´
ë¶Ħ ìĹĲ
Ġê°Ģ ê¹Į
Ġê·¸ëŀĺ ëıĦ
ëĤĺ ë§Ī
ìĺ ¥
Ġìĭ¬ ì§Ģìĸ´
Ġê°Ģ ì§Ģ
ëĭ¤ ë©´
Ġ201 6
Ġíŀĺ ëĵ¤
Ġìŀ Ķ
Ġë³´ íĨµ
Ġìĸ¼ ë§Ī
ĠìĿ Ħ
ĠìĨĮ ìĨį
Ġëĵ± ìĿĦ
Ġì į¨
ìĿ´ ìĸ´
Ġì¶ľ ìĭł
ĠëĬĲ ëĤ
ĠìĥĪ ë¡ľìļ´
ë° ĸìĹĲ
Ġëĵ¤ìĸ´ ê°Ģ
Ġëª¬ ìĬ¤íĦ°
Ġìķ ¨
ĠíĿ Ķ
íĸĪëĭ¤ ê³ł
Ġë³Ģ ê²½
Ġë¶Ģ ì¡±
Ġê³µ ê°ľ
ëŀ ¨
Ġíĺķ íĥľ
íľ ĺ
ìĬ Ī
ĠìĦ± ëĬ¥
ë¥´ ê³ł
Ġì ¿
ëįĶ ëĿ¼ëıĦ
ĠëĤ´ ëł¤
ĠìĨĮ íĻĺ
ĠìĹĨ ìĹĪëĭ¤
ëª »
ë¥´ ë©´
ìĪĺ ìĿĺ
íĻĶ ê°Ģ
Ġë¦¬ ê·¸
ìŀĦ ìĿĦ
Ġëĵľ ëŁ¬
Ġ h
ëŀ Ļ
ĠìĦ¤ ëªħ
Ġë§Į íģ¼
Ġìļ° ìĬ¹
ĠìķĦ ëŀĺ
Ġë¹ĦìĬ· íķľ
ë¨ ¼
ĠëĶ ľ
ìĽĲ ìĿĦ
e l
íļ ¨
Ġìĸ¼ êµ´
Ġìľł ìĿ¼
ìĽ ł
íĤ ¹
ĠëıĻ ìĭľìĹĲ
ë© ¸
ĠìĻĦ ìłĦíŀĪ
ë£ ¡
a m
ëĤ´ ëĬĶ
Ġê°Ļ ëĭ¤
ìĭľ ì¼ľ
íĺ ĳ
ĠëĮĢíķľ ë¯¼
í ĩ´
ëĤĺ ê°Ģ
íĬ¸ ë¡ľ
ĠíĶĦ ë¦¬
ĠíĶĮëłĪìĿ´ ìĸ´
ìļ´ ëĵľ
ī ìŀ¥
ĠìłĦ íĺĢ
ĠìľĦ íķ´ìĦľ
Ġë°ĶëĢ Į
Ġ ã
Ġ19 8
ĠìĽ Ģ
ì§Ģ ìĿĺ
ë³´ ë©´
íĻĶ ìĹĲìĦľ
ëĮĢ ê°Ģ
Ġëª¨ ìĸĳ
íı °
ì ¿
ĠìĿ´ìķ¼ ê¸°
ì ĵ
ĠëıĦ ìĭľ
o w
ĠëķĮ ëĬĶ
u s
ê°Ħ ëĭ¤
ìĿ´ ê¸°ëıĦ
Ġ201 5
Ġíı Ĳ
ìĿ´ íĦ°
Ġë½ ĳ
Ġìŀ ĥ
íĬ ¼
ìĬ¤ íħľ
Ġíķľ ë²Ī
ë¥¸ ëĭ¤
ìŀĲ ìĿ¸
ìĬ¤ ìĻĢ
ĠìłĦ ìĹĲ
ĠìĪľ ê°Ħ
ë³´ ëĭ¤ëĬĶ
Ġë²Ħ ìłĦ
Ġë§Į ëĤĺ
ĠíĻķ ìĿ¸
ë¦¬ ê·¸
íħ Ĳ
ĠëĺĲ ëĬĶ
ëĿ¼ ìĿĺ
ĠìķĬ ìķĦ
ë¡ľ ìĦľ
Ġê¸° ìĸµ
ìĹ ĺ
ĠìĨ ¡
ì ´
ìĶ ¬
a y
Ġë¬¸ ìĦľ
ĠìĬĪ íį¼
Ġë°© ìĭĿ
ìĽ ĥ
ĠìĹ¬ ìŀĲ
Ġë§Ī ìĿ´
ìŀħ ëĭĪëĭ¤
ë¡ ¯
Ġíĺ¹ ìĿĢ
ĠìŀĲ ìĦ¸
Ġê¸° ìĤ¬
Ġê°ķ íĻĶ
ìłģ ìĿ´
Ġìłķ ì¹ĺ
Ġë¶Īê°Ģ ëĬ¥
ĠìŀĲ ìľł
ëªħ ìĿĺ
ĠìĦ± ê²©
Ġê·¸ ë¦¬
Ġìłģ ìļ©
ĠëĤľ ìĿ´
ĠìĬ¹ ë¦¬
Ġ2 1
Ġì£¼ ìŀ¥
í ĥģ
ëģ Ķ
ĠëŃ Ĳ
Ġë¬¸ìłľ ê°Ģ
ëŁ Ń
íķľëĭ¤ ëĬĶ
ìĥģ ìľ¼ë¡ľ
íĶ ½
ĠëĶ°ëĿ¼ ìĦľ
êµ¬ ë¥¼
Ġêµ īìŀ¥
ëľ ¨
Ġ y
ĠíĻľ ìķ½
Ġëĵľ ëŀĺ
ë¦¬ ì¹´
ĠíĿ ĳ
Ġìĭ¤ íĮ¨
ëł ī
Ġëıħ ìĿ¼
ìĸ´ ë²Ħ
ì§Ģ ë¡ľ
ìķ ķ
Ġì¢ Į
Ġìī ¬
Ġë°ľ ê²¬
Ġíľ ´
Ġì£¼ ë³Ģ
e t
Ġê·¸ ëĤĺë§Ī
ì° ¸
Ġìµľ ì´Ī
ĠìĿĮ ìķħ
Ġëª¨ ëį¸
ëĦ ·
i on
ìĸ´ ëıĦ
ì¡° ì°¨
Ġê°Ģ ìł¸
Ġë°° ìļ°
Ġìłķ ë¶Ģ
Ġíĳľ íĺĦ
íķ´ ëıĦ
íĬ¸ ìĿĺ
ìĽĢ ìĿĦ
Ġ n
ĠíĶĦ ëŀĳ
ĠìĽĢ ì§ģ
ĠìĿ ĳ
ëĿ¼ ë§Ī
ĠëıĻ ìĿ¼
Ġê² ¬
ĠìĨ Ķ
Ġì ´
ì° ®
e d
ĠìŀĪ ê¸°
ĠíĮ¨ ë°°
ëĿ¼ ê°Ģ
ê·¸ ëŀ¨
ĠìŀĲìĭł ìĿĦ
ë¹ ł
Ġêµ¬ ìĦ±
ë¡ ¤
º ¼
Ġì¼ ĢìĿ´
ĠíĬ¹ ìĪĺ
ĠìĽĲ ìŀĳ
Ġê²½ìļ° ëıĦ
íĸĪ ëĬĶëį°
Ġíķ´ ìĦľ
Ġë¯ ¿
Ġë°ĺ ìĿĳ
¢ °
ĠìĤ¬ëŀĮ ëĵ¤ìĿ´
ĠëįĶ ìļ±
ĠíļĮ ë³µ
Ġê·¸ ë¦¼
ĠêµŃ ëĤ´
Ġìĭľ ìĬ¤íħľ
ĠìĪ ¨
ë¹Ħ ë¥¼
ĠìĤ¬ ì§Ħ
ĠìĥĿ ìĤ°
Ġíķĺ ë£¨
ê°Ħ ìĹĲ
Ġê¸ ´
ë¦¬ ìĺ¤
ëĮĢ ìĹĲ
ĠìĬ¤ íĬ¸
Ġìĸ´ ëĶĶ
êµ° ìĿĺ
Ġìĵ° ëĬĶ
ìĿ´ ëĵľ
Ġë¹ Ľ
ëŀľ ëĵľ
ĠìĽ ĥ
Ġê¸° ëĬ¥
Ġíŀĺ ìĿĦ
Ġìłķ íĻķ
Ġ Y
Ġ201 4
ìķĦ ê°Ģ
ĠëĶ ¸
ĠëĤĺ ê°Ģ
ìĸ´ ë¥¼
ìĹ ĩ
Ġìľ ¤
Ġëįķ ë¶ĦìĹĲ
Ġìĸ´ ëłµ
ìº Ĳ
ëĿ¼ ë©´
Ġëħ ¹
ĠìĬ¤ íħĮ
íķľ íħĮ
Ġê¿ Ī
Ġë°Ľ ê³ł
ĠíĮ¨ íĦ´
ĠìŀĪ ê²Į
ëĤ¬ ëĭ¤
ëıĦ ìĿĺ
Ġìŀħ ìŀ¥
Ġíķĺ ëĬĶëį°
Ġì°¨ ì§Ģ
ĠíĴ į
Ġì¶ľ ìĭľ
ìĭľ íĤ¨
ìĹĪ ê³ł
ĠëĦĺ ìĸ´
ìĦł ìĿĦ
ĠìĦ ¬
ĠìķĦ ì£¼
ëıĦ ëĬĶ
ë° į
ĠìĦ± ìļ°
Ġíİ¸ ìĿ´ëĭ¤
ĠíĸĪ ì§Ģë§Į
ĠíĺĦ ìĭ¤
Ġë°Ķ ìĿ´
ĠìĿ¸ ìłķ
Ġë³´ ìĬ¤
Ġë¹ Ī
Ġ l
ĠìŀĲì²´ ê°Ģ
Ġìŀĳ ì¤ĳ
íĸĪ ìľ¼ë©°
ëĵ± íķĻêµĲ
ìĽĲ ìĿĺ
ê°Ģ ê°Ģ
ìľ¼ ë¯Ģë¡ľ
ĠìĿ´ë£¨ ìĸ´
Ġìĭľê°Ħ ìĿ´
ĠìĿ´ íķ´
ì£ Ħ
ì§Ģ ìĹĲ
ê²ł ì§Ģë§Į
ì²´ ë¥¼
ëĭ ī
íĥ ķ
ì³ ¤
ë¬¸ ìĿĦ
ì¹ ł
Ġë§Ĳ ìĿ´
ìŀ¥ ìĿĺ
ĠìķĬ ëĭ¤
ëĶĶ ìĺ¤
Ġì½ ĺ
Ġëĵ± ìĿ´
Ġ a
o l
ĠìĿ ½
Ġê³Ħ íļį
ì¹ĺ ê³ł
ì² Ļ
ìĿ´ìĹĪ ëįĺ
ì ·¨
an d
ìļ ķ
Ġëĭ¤ ìĸĳ
ë£ ¹
Ġìĵ ´
Ġê² ¨
Ġì°¨ ëŁī
íĶĦ íĬ¸
ĠìĹĨ ê³ł
Ġê²½ ì°°
Ġëĭ µ
ê· ł
Ġì ³
ê° Ķ
ĠìĦ ¼
Ġëª» íķĺê³ł
Ġìĥ ¤
ĠëĤĺ ìĻĢ
Ġìĩ ¼
ëĮĢ íķľ
ìĬ¤ ëŁ¬
ëł¥ ìĿĢ
íĸĪëĭ¤ ëĬĶ
ĠëĶ ±
Ġìĺģ ìĽħ
i g
Ġë°ľ ëıĻ
Ġëª» íķľ
Ġ2 4
ë©ĶìĿ´ ìħĺ
ë· °
ê°ľ ìĿĺ
ĠëĮĢ ì²´
Ġê ±
Ġê°ľ ìĿ¸
Ġìĥ ī
íĨµ ëł¹
i l
ĠìķĮ ìķĦ
Ġêµīìŀ¥ íŀĪ
v e
ìĬ¤ íģ¬
Ġëĭ¨ ìĪľ
ĠìķĦ ë§Ī
ĠíĻķ ìĭ¤
ĠìĿ µ
ĠëĤ¨ ìŀĲ
ĠíĬ¹ ìĦ±
Ġë°Ľ ìĿĢ
ìĥģ ìĿĺ
ìłľ ê°Ģ
Ġë§ µ
ĠìĪĺ ê°Ģ
Ġì§Ħ ì§ľ
íļĮ ìĿĺ
Ġìĸ´ ë¨¸ëĭĪ
Ġë§Ī ìĿĦ
ĠíĻķ ë¥ł
Ġëķ ħ
Ġê²½ íĹĺ
ĠíĽ Ī
ĠìĤ¬ìļ© íķĺëĬĶ
Ġíľ ĺ
Ġëĭ´ ëĭ¹
ì¼ °
Ġ4 0
Ġë¬ »
ĠëĮĢ íķ´ìĦľ
ìĿ´ëĿ¼ ë©´
Ġìĭľ ìłĲ
ìłľ ë¥¼
ì§Ģ ì§Ģ
Ġë°Ŀ íĺĢ
ĠìĪĺ ë¡Ŀ
Ġê°ĢëĬ¥ íķľ
Ġëĭ¤ ë¥´
íĺ ģ
Ġì§Ģ ìĨį
ĠíĽ ¨
Ġìī½ ê²Į
ĠëĮĢ íķĻ
ĠìĹĲ íĶ¼
ëĵ¤ ìĹĲ
Ġë§Īì°¬ê°Ģì§Ģ ë¡ľ
Ġìĸ ĺ
ê°Ĳ ìĿĦ
íĺ ¹
ìľ¼ ë©´ìĦľ
Ġo f
ëĭ ¥
ĠíĮĲ ë§¤
ĠíĬ¹ ì§ķ
ìķ ¡
p x
Ġì¤ĳ ìĭ¬
ĠìŀĲ ëıĻ
Ġìĸ´ ë¦°
ìĪĺ ëĬĶ
ĩ Į
ë¹ Ī
ê²ł ëĭ¤
Ġìķ¨ ë²Ķ
ĠìľĦ íĹĺ
ìĹĪ ëįĺ
Ġí ĩ´
Ġì°¸ ìĹ¬
ë ¢°
ê³Ħ ë¥¼
ĠìĹŃ ìĤ¬
ĠìļĶ êµ¬
Ġë¬´ ìĹĩ
ë ¿Ĳ
Ġëĭ¹ ìĭł
Ġì½ ľ
ê ¶ģ
ĠíĽ¨ ìĶ¬
Ġê°Ģ ëĬĶ
ê° Ķëĭ¤
ĠĠĠĠ ĠĠĠĠĠ
ì§ Ŀ
Ġë° ¤
Ġëĭ¹ìĹ° íŀĪ
ĠìķĬ ìĿĦ
Ġë¶Ħ ìľĦ
Ġì£¼ ìĿĺ
ĠìķłëĭĪ ë©ĶìĿ´ìħĺ
ëĭĪ ìķĦ
ëį ¤
ĠìĹ¬ê¸° ìĦľ
ìĭ Ń
Ġë¹Ħ íĮĲ
Ġìĺ Ĩ
Ġì°¸ ì¡°
ĠëĮĢ íĨµëł¹
Ġê³µê²© ìĿĦ
ĠìĹ¬ ìłĦíŀĪ
Ġìĥģ ëĮĢë¡ľ
Ġê°ĢëĬ¥ ìĦ±ìĿ´
Ġì¡ ¸
ĠíĻľ ìļ©
Ġíĺ¼ ìŀĲ
ìĿ´ ìĿĺ
ì¹ Ļ
Ġì¡° ìĦł
ëĨĵ ê³ł
Ġëĵ±ìŀ¥ íķĺëĬĶ
ĠìĽĶ ëĵľ
Ġ2 2
ĠìĹĦì²Ń ëĤľ
ìłĦ ìĿ´
Ġê³¼ ìłķ
Ġê³ł ëł¤
Ġìķ ¡
Ġë¶Ī êµ¬
ìľ¼ë¡ľ ìĦľ
ĠìĪ ł
Ġëĺ ĳ
Ġê ¾¸
ë¦¬ ë¡ľ
Ġê°ķëł¥ íķľ
Ġì¦ Ĳ
Ġìĭ ±
íĸĪ ìľ¼ëĤĺ
ìĭ¬ ìĿĦ
Ġë³´ ëĤ´
ĠìĹĲíĶ¼ ìĨĮ
íķ© ëĭĪëĭ¤
Ġìŀĺ ëª»
Ġíķĺ ìĿ´
ê¶Į ìĿĦ
Ġíķ µ
Ġìĺ¤ ë¸Į
ĠìĹ¬ ëĭ´
ìłģ ìĿĦ
Ġëĵľëŀĺ ê³¤
ê°ľ ë¥¼
ë¶Ģ ë¥¼
ĠìŀĪìĹĪ ëįĺ
Ġì§ ĵ
ĠëĤĺ ë¨¸
ĠëĤ¨ ìķĦ
ĠìĿ´ë¦Ħ ìĿĦ
ìĤ ¼
íĨ ¤
Ġ g
Ġíķ´ ê²°
o t
Ġê°Ģ ë©´
Ġì§Ħ ì¶ľ
íħ Ķ
ìĭĿ ìĿ´
Ġê°Ģ ì¡±
ìĪĺ ë¡ľ
ìĹĨ ëĬĶ
Ġê´ ľ
Ġìļ ķ
Ġë¬´ ìĭľ
ê¹Įì§Ģ ëĬĶ
Ġì± Ķ
ê²½ ê¸°
ì²´ ê°Ģ
Ġë³´ ëĬĶ
ĠìĿ´ë²¤ íĬ¸
ìŀ¥ ìĿĢ
ĠìĤ¬ ê³ł
ë¦ ¿
ìĻ Ħ
Ġìļ° ì£¼
ĠëĤĺ ìĻĶ
ĠêµĲ ìľ¡
íĥĢ ë¥¼
ìĤ¬ ë¡ľ
Ġê°Ģ ê²©
Ġì» ´
Ġëĭ¤ ìĿ´
Ġìķ½ ê°Ħ
Ġë²Į ìĸ´
Ġì£¼ ëĬĶ
ì§ ĵ
Ġë Į
Ġìĺģ êµŃ
ìĹħ ìĿĦ
Ġê³ §
ëł¤ ìĦľ
Ġìĭ «
Ġ201 3
Ġë§ ¥
ëĵ¯ ìĿ´
ìĭ ¸
Ġy ou
ĠìĤ¬ìļ© íķł
ë¦¬ ìĻĢ
ê°Ģ ë¥¼
ì° Į
ìĭľíĤ¤ ëĬĶ
Ġ2 3
ëŁī ìĿ´
ì» µ
Ġê·¸ ê°Ģ
ìŀ¥ ìĹĲ
ë¬¸ ìĹĲ
Ġìŀ¡ ìķĦ
Ġë² Ĺ
ë¹Ħ ê°Ģ
Ġê²° íĺ¼
Ġíķĺ ìŀĲ
ĠëĶ° ë¥´ë©´
ĠìĪ Ļ
ëĤĺ ëĿ¼
Ġë°ľ íĳľ
Ġëħ¸ ìĦł
Ġì£ Ħ
Ġë¬¸ìłľ ëĬĶ
Ġë »
Ġë ¿
íķľëĭ¤ ê³ł
ì½ ĺ
Ġë ļ
íĺ ľ
ëĲĺ ë©´ìĦľ
Ġë¶Īêµ¬ íķĺê³ł
ê²ł ëĭ¤ê³ł
ì¶ °
Ġë³¸ ìĿ¸
Ġì¼ Ģ
Ĭ ìĿĢ
Ġìľ ¼
ĠëĬĲëĤ Į
Ġíļ į
ëŁ ´
ĠìĬ¤ ìĬ¤ë¡ľ
Ġì¶© ë¶Ħ
Ġê°ģ ê°ģ
ë§Į íķľ
Ġì¡° ê±´
ë§Į ìĿ´
íŀĪ ëĬĶ
ĠìĿ¼ ìĿĦ
ë· Ķ
ëĤľ ëĭ¤
ìłķ íķľ
ë¶Ģ ìĿĺ
Ġìĵ° ëŁ¬
Ġë§ ¨
ëĶ ľ
Ġê°Ĳ ìĨĮ
Ġí ĳ¸
Ġê°ķ íķľ
ë¦¬ ê¸°
êµ° ìĿ´
Ġìĭľ ì²Ń
ë²Ħ ìĬ¤
Ġëĵľ ëĿ¼ë§Ī
Ġì ¥
ĠìĦ Ŀ
ĠìĿ´ ëģ
ì¹ĺ ë¡ľ
Ġ in
ëĮĢ ëĬĶ
Ġëģ ¼
ìļ° ìĬ¤
íķ´ ì£¼
ĠíĹ ¬
ĠìĥĿ íĻľ
ĠìĿĺ ê²¬
Ġë²Ī ì§¸
ĠìĿ´ìľł ëĬĶ
ĠëĤ Ļ
Ġëģ Ĭ
ìķ Į
Ġì¤ĳìļĶ íķľ
ëł Ģ
ĠìĬ¤í İĺ
íĸī ìĿĦ
ĠëĲĺ ë©´
ìŀĲ ê¸°
ĠíĽĦ ìĹĲ
Ġë§ Ľ
ĠíıŃ ë°ľ
íĺ Ī
ĠìĿ´ ëĿ¼ëĬĶ
íĭ ´
ĠìĿ¼ ìľ¼
ĠìĦ¤ ì¹ĺ
ĠíĺĦ ëĮĢ
ì¶ ĺ
Ġì§ §
Ġìµľ ê·¼
ì¤ ¬
Ġìĺ¤ ëŀĺ
ë¬¼ ìĿ´
Ġëĵ±ìŀ¥ íķľëĭ¤
Ġêµ¬ ì¡°
ĠëĮĢ íļĮ
ë³´ ëĭĪ
Ġëĵ¤ ê³ł
Ġêµ ´
Ġì·¨ ê¸ī
ìĦ± ìĿĢ
ĠíĹ Į
ìĪĺ ë¡Ŀ
íĬ ¹
Ġìŀĳ ìĿĢ
ì£ ł
ĠìĦł ë°ľ
ìŀ¥ ìĹĲìĦľ
Ġìłľ ê³µ
Ġë°Ľ ëĬĶ
Ġë©Ķ ìĿ´
ĠìŀĲ ìĹ°
ìĿ´ ë©´
ë´ ĩ
ĠìĤ¬ëŀĮ ìĿĢ
Ġì¡° íķ©
ë§Į ìĹĲ
ê ¼
ĠíĶĦë¡ľ ê·¸ëŀ¨
ĠëıĦ ë§Ŀ
íķĺëĭ¤ ëĬĶ
ĠëıĻ ë£Į
Ġíķ´ ìķ¼
Ġëį° ë·Ķ
ë¶Ģ ìĹĲ
ë¯ ¹
Ġê·¸ ë¥¼
ëĤĺ ê²Į
B S
Ġêµ ³
Ġë°© íĸ¥
Ġê²ĥ ìĹĲ
ìłķ ëıĦ
Ġë³´ ìĿ´ëĬĶ
Ġì²ĺ ë¦¬
ëłĪ ë²¨
Ġì´Ī ê¸°
ìľĦ ê°Ģ
ê¸° ê³ł
Ġíĥ ĵ
Ġíķľ ìłķ
ĠíĿ ¥
Ġë°Ľ ìķĺ
Ġíķĺ ìĺĢëĭ¤
Ġìĺģíĸ¥ ìĿĦ
ìŀ¥ ìľ¼ë¡ľ
íĬ¸ ëĬĶ
Ġíĥ Ĳ
ìľĦ ë¡ľ
ë§ ¹
ĠëĤĺ ìģ
ĠíĿ ¡
n d
ì¹ ¸
ĠìłĪ ëĮĢ
íĬ ľ
íĶĦ ë¥¼
Ġ201 2
ìłľ ë¡ľ
Ġìļ´ ëıĻ
Ġì§Ģ êµ¬
ìĥ ¤
Ġë§Į ìķ½
ìĭľ ì¦Į
Ġë Ŀ
Ġíķĺ ê¸°
ĠìĹŃíķł ìĿĦ
ĠìĹ ĳ
ĠT he
ìł ł
ë§Į ìĿĦ
ĠëĪĦ êµ¬
Ġíķľ íİ¸
ëĲĺ ë©°
Ġì «
ĠëĤĺ ìĿ´
ëĥ Īëĭ¤
ìĵ °
Ġëª© ìĨĮ
ĠëĤĺ ìĻĶëĭ¤
ì¦ ĺ
ĵ ¨
ĠëĲĺ ì§Ģ
Ġê²½ìļ° ëĬĶ
Ġìĺ¤ ëĬĺ
Ġíı ´
íĤ¤ ëĬĶ
ìł¸ ìĦľ
ĠìĬ µ
ĠíĥĢ ê³ł
ìĹ Ħ
Ġëħ¼ ëŀĢ
Ġë ®¤
Ġìĥģ ìĬ¹
Ġë§ ģ
Ġê° ¤
ĠìĬ¤íĨł ë¦¬
ĠíķŃ ëª©
Ġì²´ ëł¥
ĠêµŃ ë¯¼
ĠíĬ¹ ë³Ħ
Ġê²½ ìłľ
Ġì¤ĳ ìķĻ
Ġ201 0
ìĿ¼ ìĿĦ
ê°Ģ ìĿĺ
ĠëĮĢíķľë¯¼ êµŃ
ìĦ± ìĿĺ
ëĿ¼ ìĿ¸
Ġê¼ ¬
ê°Ļ ìĿ´
ëĲĺìĹĪ ê³ł
Ġíķĺ ë©´ìĦľ
ìŀĲ ëĵ¤ìĿ´
ĠíĿ Ĳ
ĠìķĦ ë¥´
ë´ Ĳ
ëłĪìĿ´ ëĵľ
ĠëĿ¼ ìĿ¸
Ġs t
ĠíĽĦ ë³´
Ġë°ĺ ë©´
ê²Į ìŀĦ
Ġì¤Ģ ë¹Ħ
ìľ ¤
Ġìŀ¥ ë¹Ħ
Ġíģ´ ë¦¬ìĸ´
ìĸ´ ìķ¼
íĶ¼ ìĸ¸
ë¶ Ļ
í Ģ
ĠëŁ¬ ìĭľìķĦ
ìħ Ķ
Ġíķĺ ìĹ¬
Ġë³´ íĺ¸
Ġ v
Ġì°¸ ê°Ģ
r o
ĠíĢ ĺ
Ġìłľ íķľ
ë§Ĳ ë¡ľ
Ġëĭ¤ ëĭĪ
ĠíķŃ ìĥģ
ë§Ī ìłĢ
Ġëĭ¤ìĸĳ íķľ
ëĿ¼ ìĦľ
ëį° ìĿ´íĬ¸
Ġíļį ëĵĿ
ë¡ľ ë¥¼
Ġ19 7
Ġë¯¸ ìħĺ
ĠìĿ´ìľł ë¡ľ
ëĳ ¥
ì´Ī ìĹĲ
ìĬ¤ ëŁ½
ĠìĪĺ ë¹Ħ
ĠëĤ® ìĿĢ
ìĹĲê²Į ëĬĶ
ëĥĲ ê³ł
i d
ìľ¼ë¡ľ ëıĦ
Ġê³Ħ ìķ½
Ġë¸Ķ ëŀĻ
Ġê°Ģ ëģĶ
Ġëĵ Ģ
Ġì¡° ì§ģ
êµ¬ ê°Ģ
Ġ k
ëł¤ ëĬĶ
ìĿ´ëĿ¼ ëıĦ
Ġë² ½
Ġìĺ¤ ë¥¸
ìĤ¬ ìĻĢ
íĭ° ë¸Į
íķĺëĭ¤ ê³ł
ìĨĮ ë¥¼
ëĿ¼ ë¥¼
íķĻ ìĥĿ
ĠìĹĲ ìĦľ
ĠìĤ¬ìĭ¤ ìĿĦ
íķĺ ëĤĺ
ĠìĹħ ëį°ìĿ´íĬ¸
ĠìĿ¼ ìĸ´ëĤĺ
ĠìłĦ ë¬¸
Ġê º¼
Ġì¤ĳ ìĹĲ
¾ ¼
ê²¼ ëĭ¤
ëįĶ ëĭĪ
i k
ĠëĮĢë¶Ģë¶Ħ ìĿĺ
ìĿ¼ ìĿ´
Ġìħ Ī
ëĵ¤ ë¡ľ
Ġ2 6
ì¤ ĺ
ìĿĺ ë¥¼
ìľł ìĿĺ
ë¡ľ ê°Ģ
íģ¬ ë¥¼
ĠìķĦë²Ħ ì§Ģ
ĠìĹĶ ëĶ©
ĠíĮĮ ìĽĮ
Ġë°ľ ìĤ¬
Ġë²Ħ ìĬ¤
ĠíĶ¼íķ´ ë¥¼
íķ¨ ìĿĦ
Ġ2 8
Ġê±´ ë¬¼
Ġë§Ĳ íķľëĭ¤
ìĥģ ìĹĲ
ëĮĢ íķĻêµĲ
Ġêµ¬ ê°Ħ
ë¦¬ ë©°
ĠìĨĮ ìĦ¤
ĠëĮĢ ë¯¸
ĠìŀĲ ë¦¬
Ġì° ¬
Ġì±Ķ íĶ¼ìĸ¸
ĠíĿ ĺ
¨ ìĿ´
ì§Ģ ê²Į
Ġë¯¸ ëŀĺ
íģ Ĳ
Ġ Z
ĠëĤĺë¨¸ ì§Ģ
Ġë¹Ħ ë¡¯
ê¸° ìĻĢ
ĠìłĦ ìļ©
ëŀ Ħ
ìĤ¬ ìĹĲ
íļĮ ë¥¼
ëĭ¹ íķľ
i m
ĠìĺĪ ìłķ
ìłĲ ìľ¼ë¡ľ
Ġë° ĸìĹĲ
ĠìĬ¤ íĥ
ĠëĨĴ ëĭ¤
ĠìķĦëĭĪ ê³ł
Ġê¸°ì¤Ģ ìľ¼ë¡ľ
Ġíģ¬ ë¡ľ
Ġìĭł ê²½
Ġìłľ êµŃ
Ġì¶Ķ ìłķ
íķĺëĭ¤ ê°Ģ
ĠìĹ¬ëĭ´ ìľ¼ë¡ľ
ë¥ Ļ
Ġë¶Ģ íĻľ
ë¦¬ ë©´
íķĻ ëħĦ
Ġìłģ ìĿĦ
Ġìĸ¸ ìłľ
íı Ĳ
ëł¥ ìľ¼ë¡ľ
ìľĦ ìĹĲ
Ġìĸ´ ì©
ĠìĹ° ê²°
ĠëĴ ·
Ģ Ģ
Ġë°© ìĺģ
Ġë°° ê²½
Ġì¢ĭ ì§Ģ
c h
ìĭľ ë¥¼
ìĺĢ ê³ł
Ġê´ľ ì°®
Ġìľł ëŁ½
Ġëŀ ľ
ë¦¬ íĭ°
Ġëª© íĳľ
Ġì¸ ł
Ġëį ¤
ìłĦ ìĿĺ
Ġë¬´ ìĬ¨
ì§Ģ ê¸°
ĠëĦ ĵ
Ġê²ĥ ê³¼
ĠìĥĿ ê¸´
ìĽ ĢìĿ´
Ġ2 7
ìķ Ķ
Ġë³´ ìĿ´
ĠìłķëıĦ ìĿĺ
ĠëĳĲ ê³ł
ë§ ŀ
ĠìĹĨ ìĿĦ
ìĿ¸ ë¬¼
ë¬´ ë¥¼
Ġëª¨ ë¥´
Ġê±° ê¸°
Ġëĭ¤ ë¥´ê²Į
Ġëª¨ ëĵľ
ëŀ į
Ġê²Ģ ìĿĢ
Ġë¥ ĺ
ìļ´ ëį°
Ġë° ´
ëĤ Ļ
Ġë©Ķ ìĿ¸
ìĦ¸ ë¥¼
Ġê°ĳ ìŀĲê¸°
íĹ Ī
Ġt o
ĠëįĶ ë¶Ī
ëĭ¤ ëĭĪ
Ġë°Ľ ìķĺëĭ¤
Ġë¶ģ íķľ
íģ¬ ë¡ľ
Ġëª» íķĺëĬĶ
Ġìĭľ ëıĦ
Ġìľł ë¦¬
ĠìŀĲ ëŀĳ
Ġëıħ ë¦½
Ġê¸° ëĭ¤
Ġëį ±
ĠëģĿ ëĤĺ
ìľ¼ë¡ľ ìį¨
ê³ł ëĬĶ
ĠìĥĿ ì¡´
ĠìĥģíĻ© ìĹĲìĦľ
Ġíķĺ ëĬĺ
Ġë³´ ëĭĪ
Ġì§Ģ íķĺ
ĠìĹ ¼
ìĽĲ ìĿĢ
ĠìľĦ ìĹĲ
Ġë§Ī ìĬ¤íĦ°
Ġë ±
Ġê²½ìļ° ìĹĲëĬĶ
ĠìĮ ĵ
Ġ â
¯ ¤
ĠìĨĮ ëª¨
ìĬ¤ ìĹĲ
Ġìĸ» ìĿĦ
Ġì į
Ġë¶Ģ ìĤ°
ĠìĶ ¨
ĠíĢĺ ìĬ¤íĬ¸
Ġì¢ħ ë£Į
ĠT V
ĠíĺĦìŀ¬ ëĬĶ
ĠëĤĺ ìĦľ
Ġëĭ¬ ëł¤
ìŀĲ ìĻĢ
í Ī
ĠìłĦ ìŀĳ
ê´Ģ ìĿ´
Ġíĭ Ģ
Ġë¶Ģ ëª¨
ĠëĮĢ ìłĦ
ĠìŀĪëĭ¤ ë©´
Ġë² ¨
ĠëĤĺ ë¦Ħ
ìĸ´ ëĵ¤
ìł ¤
Ġê´Ģ ë¦¬
Ġíİ ¼
ìĿĮ ìĹĲëıĦ
ĠëĬ¥ ëł¥ìĿĦ
Ġìĸ µ
Ġì£¼ ìļĶ
ì¡° ê±´
Ġë°ĶëŀĮ ìĹĲ
íĺ Ķëĭ¤
Ġë²Ī ìĹŃ
ë ¹Į
ìĭ ±
Ġê¸° ê°Ħ
ëĭ Ĳ
Ġìłķ ìŀĳ
Ġì§Ģ ëĤľ
ìĿ´ ëŀĢ
Ġ 000
ĠìĦ± ìŀ¥
Ġë¬¸ íĻĶ
ĠìĿ´ìĥģ ìĿĺ
ĠS t
ì£ ½
Ġìµľ ìĨĮ
ĠìĿ¸íĦ° ë·°
ĠìĹ° ìĨį
ì£¼ ê³ł
ë¶Ģ ê°Ģ
ëĭ¨ ìĿĺ
Ġëª¨ìĬµ ìĿ´
e m
ìĭł ìĿĦ
ìĽĶ ìĹĲ
Ġë¶Ħ ëħ¸
Ġë¶Ī ëŁ¬
ìĭľ ê°Ģ
ëªħ ìĿĢ
Ġì¶ķ êµ¬
íĮ Ķ
Ġë§Į ëĵľëĬĶ
Ġê±´ ëĭ´
Ġê°ģ ì¢ħ
ìľĦ ìĽĲ
Ġìŀ¥ ì°©
ë ī´
ìĹ¬ ìĦľ
ëĿ¼ ìļ´ëĵľ
Ġëĭ¬ ìĦ±
ëł ¬
Ġê¸° ëĮĢ
ĠëįĶë¶Ī ìĸ´
u n
s t
Ġë¹ł ë¥¸
ë¦¬ ê²Į
Ġíģ¬ ë¦¬ìĬ¤
ë¹ Ļ
ëĲĺ ê¸°
Ġìľł íĬľ
ĠìĹĲ ëĦĪ
ìĦ Ń
Ġì³ Ĳ
ĠìĹ° ì¶ľ
ëĤ ¼
ĠëĶ° ë¡ľ
Ġëª» íĸĪëĭ¤
E R
ĠìĺĪ ìĥģ
ìĩ Ħ
Ġì¹ Ń
ĠìķĬ ê²Į
Ġë³Ħ ë¡ľ
Ġ20 00
ì¼ ĢìĿ´
ë° ¥
Ġ201 1
ìĿ´ ë¡ľ
Ġìľł ëĭĪ
ī ìĿĢ
ĠìłľìĻ¸ íķľ
ëħĦ ë¶ĢíĦ°
i r
íĭ ±
Ġìĭ¸ ìļ°
Ġìľłëªħ íķľ
Ġë°ĺ ëĮĢ
ĠíķĦìļĶ íķľ
ê³ł ë¥¼
ĠìĿ´ ëĿ¼ê³ł
ĠìĿ¼ ìłķ
ëĭ¨ ìĿĦ
ìĦľ ë¥¼
Ġê²½ ìŁģ
ìĻ¸ ë¡ľ
Ġê¹ Ķ
ì¢ħ ìĿĺ
ĠíŀĪ ë¡ľ
Ġì§Ģ ë°©
ĠìĿ´ ê²Į
Ġê·¼ ìłĳ
ìĬ¤ëŁ¬ ìļ´
ì¹´ ìĿ´
ëĤ´ ê³ł
Ġëı ¼
Ġìłľ ìĿ¼
ĠìĹĨ ëĭ¤ëĬĶ
ĠìĪĺ ëĬĶ
ĠìĥģíĻ© ìĿ´
ĠìŀĪ ìľ¼ëĭĪ
ĠìłĦ ë°ĺ
ë²Ħ ë¦°
Ġë¶Ħ ëªħ
ĠìĭĿ ìľ¼ë¡ľ
Ġìłģ ìĿĢ
ìĹĪëĭ¤ ê³ł
ĠìĤ Ń
Ġë¹Ħ íĸī
Ġê³µê²© ëł¥
Ġë¬¼ ê±´
Ġê²ĮìŀĦ ìĿĦ
Ġê°ľ ëħĲ
Ġë¶Ģ ë¥´
Ġë§Į íĻĶ
íĥ ĳ
ĠìĹĲíĶ¼ìĨĮ ëĵľ
ìĪĺ íķľ
íĶ Ī
ë³´ ëĬĶ
Ġìŀł ìĭľ
íĥĢ ë¡ľ
ĠìĿ´ìķ¼ ê¸°ë¥¼
ĳ ł
ìĦł ìĿ´
ĠìķĦëĭĪ ë©´
ĠìĹĶ ì§Ħ
ĠìķĦìĿ´ ëıĮ
ĠìłĦ ì°¨
íĺ¸ ê°Ģ
ë¯¸ ê°Ģ
Ġë³¸ ìĿ¸ìĿ´
ĠíĽĪ ëł¨
ê² Ĳ
íķ´ ì§Ħ
ĠìķĪ ìĹĲ
Ġì§ ķ
ëĳ Ķ
íĹ Į
ì§Ģ ë©´
ê¹ Ŀ
ĠìĿ¼ë³¸ ìĿĺ
Ġì§Ģ ì¼ľ
ĠĠĠĠĠĠĠĠ ĠĠĠĠĠĠĠĠ
Ġì°¨ ìĿ´ê°Ģ
Ġ6 0
ĠëĤĺ ë¬´
ìĬ ´
ìĭľ ì¼°
ì£¼ ë¥¼
ĠìĦ¸ ìĿ´
ì¢ Į
Ġë¬¼ ë¦¬
Ġìķķ ëıĦ
Ġ2 9
ìķ¼ ë§Ĳë¡ľ
ë§Ī ê°Ģ
Ġ e
ì µľ
Ġë¸Į ëĿ¼
ĠëĤĺ ìĺ¬
Ġë¹ ħ
Ġìĺ ·
ĠëĴ¤ ìĹĲ
ìĭľ ìĿĺ
ĠìĬ¤ íĶ¼
ì´ Į
Ġê°ĸ ê³ł
ìĭľ ë¡ľ
ĠìķĦ íĶĦ
ìĥģ ìĿĢ
Ġìķł ì´ĪìĹĲ
Ġëĵ± ìľ¼ë¡ľ
ĠìĺĪ ë¥¼
Ġíı¬ ì¼ĵ
ê³Ħ ìĿĺ
Ġìĭľìŀĳ íĸĪëĭ¤
ì§Ģ ìħĺ
o d
ìķĺ ëįĺ
ëŀ Ń
ĥ ¼
ĠíĶĦëŀĳ ìĬ¤
ë§Ī ìĿĺ
ëĤĺ ìĿ´
ìĿ¸ ê°Ģ
ĠìĹĨ ëĭ¤ê³ł
Ġì§ĳ ì¤ĳ
m m
ë ®¤
ìķ Ĺ
íĺ¸ ë¥¼
Ġë¬ĺ ìĤ¬
ëıĻ ìĿĦ
ìĽĲ ìľ¼ë¡ľ
ëı Ī
Ġê¸° ìĹħ
Ġê³Ħ ìĹ´
ĠìĨĮ ê°ľ
ĠíĴ Ī
Ġëľ ¨
Ġíķĺ ê²Į
ìĭĿ ìľ¼ë¡ľ
v er
ĠìĪĺ ìłķ
ĠìĿ´ ê±¸
Ġë°Ķê ¿
ìĹĪ ëĬĶëį°
ìĭľ ëĬĶ
ĠíĻķ ìłķ
ĠìĿ´ ìª½
Ġê¼ Ń
ĠëŃ Ķ
Ġëĵ£ ê³ł
ĠìķĪ ìłķ
íĿ ¥
ĠíĬ¹ ìłķ
ĠS K
ë²Ħ ëł¸ëĭ¤
ĠëĤĺíĥĢ ëĤĺ
ĠìŀĪ ìľ¼ë©´
Ġê² ª
ĠêµŃ ìłľ
ë© ĺ
ëĶĶ ìĸ´
Ġë¹ł ìł¸
ëĵľ ìĭľ
ĠìĤ ¶
ê³Ħ ê°Ģ
ĠëĬĲ ëģ¼
ìľ¨ ìĿ´
ë¬ ĺ
Ġë¯¼ ì£¼
ĠìĿ´ ìĻ¸
Ġìĺ Ľ
Ġëĭ¬ ëĿ¼
ëĮĢ íķĻ
Ġì§ ľ
Ġì¶ľ ìłĦ
ĠëıĮìķĦ ê°Ģ
Ġë¯¸ ìĤ¬
ĠìĿ¼ íĸī
Ġ3 1
a k
ĠìĿ´ëģ Į
Ġê²ĥ ìĿ´ëĿ¼ê³ł
ĠìĻ ¼
ìĿ¸ íĬ¸
íģ¬ ê°Ģ
ĠíķŃ ê³µ
ì° į
ĠìŀĪ ìľ¼ëĤĺ
íķľëĭ¤ ë©´
ĠìķĦ êµ°
ĠëĤ ©
ĠìĻ¸ êµŃ
Ġê½ ĥ
ĠìĻ Ķ
ĠìĦľ ë¹Ħ
ĠìĤ¬ëŀĮ ìĿĦ
ìĭ¬ ìĿ´
ìĦ¸ ëĮĢ
ë§Ī ìŀĲ
ê°Ĳ ìĿ´
ĠìŀĲìĦ¸ íķľ
Ġë¨¸ ë¦¬
ëłĪ ìĬ¤
ig h
Ġê³µ ìĹ°
Ġíĥ ±
ë¶Ģ ë¡ľ
ëŀ Ĳ
Ġìĺ µ
Ġëĵ Ŀ
Ġë§Ĳ ìĹĲ
ìĿ´ ì¦Ī
Ġì§Ģ íľĺ
ĠìĤ¼ ìĦ±
Ġìłľ íĴĪ
ëıĦ ìĹĲ
Ġë³¸ ëŀĺ
Ġë¶Ģ ìłķ
ĠìĨĮ ë¦¬
ĠìĿ´ë¦Ħ ìĿ´
u t
Ġì½ ¤
Ġë¬´ ëł¤
Ġíķľëĭ¤ ëĬĶ
ĠíĮĲ ëĭ¨
Ġì¹ ¸
ìħ ī
ĠíĸĪ ëįĺ
Ġë§ ¹
Ġê³µ ì¤ĳ
ĠëĤĺ ì¤ĳìĹĲ
ĠìłĦ ìĦ¤
Ġíļ¨ê³¼ ë¥¼
ĠìĦł ê±°
B C
Ġë¡ ¤
Ġì¡¸ ìĹħ
ĠìĹ¬ ê¸°ìĹĲ
Ġë¹ł ë¥´ê²Į
ëĥĲ ëĬĶ
Ġê°Ģê¹Į ìļ´
ĠíĬ¹ ìĿ´
Ġíı¬ ê¸°
ê ½
ĠìĿ´ íĥĪ
Ġìļ´ íĸī
Ġê¸° íĥĢ
ĠìĨĮ ëħĢ
ìĭł ìĿ´
ĠìĿ´ìļ© íķ´
Ġë°ĺ ëĵľìĭľ
Ġê³¼ íķĻ
Ġìµľê³ł ìĿĺ
Ġìĺģ ìĸ´
en t
a g
ë ļ
ĠìĹĺ ë¦¬
İ ìĿĢ
Ġì¡´ìŀ¬ íķľëĭ¤
Ġë° ĸ
ĠíĦ ¸
ĠìĥĿê°ģ íķ´
ëŀ «
ìĹĪ ì§Ģë§Į
ë¡Ń ê²Į
ì½ ľ
ĠìĥĪ ë¡ľ
Ġìľ¼ ë¡ľ
ĠìĿ´íĽĦ ë¡ľ
Ġìļ° ìĦł
Ġì¿ ¨
Ġë°° íĭĢ
Ġìĺ ®
ĠìļĶ ìĨĮ
Ġìĺ ¥
Ġì¤ĳ ìĹĲìĦľ
Ġìĭľê°Ħ ìĿĦ
Ġìĸ¼ë§Ī ëĤĺ
Ġê± ±
Ġì£½ ìĿĢ
Ġ8 0
Ġë³´ ìķĦ
ĠìĹ° ê¸°
Ġë° ĳ
Ġê¸° ê´Ģ
íķĺìĺĢ ê³ł
ĠìĮ į
ĠëĤł ìķĦ
Ġ19 6
ĠëĲĺìĹĪ ê³ł
5 0
Ġíı¬ì¼ĵ ëª¬
ĠêµĲ ì²´
ê ¾¸
Ġê¸°ë³¸ ìłģìľ¼ë¡ľ
ĠëĿ Ħ
ë ¤
ëĭ¤ ìļ´
ĠìķĦë¬´ ë¦¬
Ġìķ¼ êµ¬
ĠìķĮ ê²Į
ĠìĿ´ ê±´
ĠìĤ¬ëŀĮ ëĵ¤ìĿĢ
ë§Į ìĿĺ
ë¸ Ĳ
Ġë°Ķê ¾¸
¨ ìĿĦ
ìł Ŀ
Ġìµľ ê°ķ
ĠìĤ¬ ë¡Ģ
Ġìķŀ ìĹĲ
Ġìĭľ íĹĺ
ĠëĬ ¦
ĠìĬ¤ íĮĮ
Ġëĥ ī
ĠìŀĪ ìĬµëĭĪëĭ¤
u r
ë³´ ê³ł
íĮ ©
ĠíĸĪ ìľ¼ëĤĺ
Ġê²ĥ ì²ĺëŁ¼
ĠíĥĪ ì¶ľ
ëŁī ìĿĦ
ac k
Ġê²° ìĬ¹
ë°© ìĨ¡
Ġê¸° ëıĻ
Ġê·¼ ì²ĺ
Ġëªħ ëł¹
ĠìĬ¤íħĮ ìĿ´ì§Ģ
ĠëĤĺ ëĿ¼
ì ¥
Ġìı ĺ
ì§Ģ ìĻĢ
ĠìŀĪìĹĪ ê³ł
ĠíĻĺ ê²½
Ġê³¼ìłķ ìĹĲìĦľ
ìĽĲ ìĹĲ
ë¶ĢíĦ° ëĬĶ
ĠëĤ¨ ìĿĢ
íĻ į
Ġíĺ Ī
ĠìĬ¤ íı¬
ë§ ¥
Ġë³´ ìľł
1 0
ëĭ¨ ìĿ´
ëĵ¤ ìĸ´
ìĿ¸ ìľ¼ë¡ľ
ĠìĪĺ íĸī
Ġëĵ±ìŀ¥ íķľ
Ġìłľ ëª©
ĠìłĲ ìłĲ
Ġë°Ľ ìĿĦ
ë²Ħ ë¦°ëĭ¤
ĠìłĲ ìĿĦ
Ġìĭ¬ ê°ģ
ê²ł ëĭ¤ëĬĶ
ĠëķĮ ë§Īëĭ¤
ìĿ´ ëĭĪ
Ġê·¸ ëķĮ
Ġê°Ģ ë¥´
Ġë§İ ìķĦ
ë¯¸ ë¥¼
íķ ĳ
Ġt h
Ġë°ĺ ëĮĢë¡ľ
Ġìĸ´ëł¤ ìļ´
Ġì¢ĭìķĦ íķĺëĬĶ
ì ¯¤
Ġìĭľ ìłĦ
Ġë°Ķ ëĿ¼
Ġìĵ° ê³ł
ã Ĥ
ë¶Ħ ìĿ´
ĠìĻĦ ìłĦ
Ġì¤Ģ ëĭ¤
Ġë°ľ ìłĦ
Ġì£½ ìĿĮ
ìłľ ìĿĺ
Ġìłĳ ê·¼
ìĦ¸ ê°Ģ
ì§Ħ ìĿ´
ìŀĦ ìĿ´
íĦ° ë¥¼
Ġê·¸ëħĢ ìĿĺ
Ġì§ģ ìĹħ
ĠìľĦ ìĿĺ
íĻĶ ìĿĺ
íķĺ ëĿ¼
Ġë© ¸
ĠìķĬ ìľ¼ë©´
Ġ9 0
Ġíķ´ ìĻ¸
ĠìłĢ ì§Ģ
ĠëıĪ ìĿĦ
t er
ĠìłĦ ëŀµ
ĠìĻĦ ë²½
ĠìŀĲì²´ ëĬĶ
Ġê¸° ë°ĺ
ĠëĮĢ ìĤ¬
ĠìĤ¬ ëĥ¥
ìĩ ¼
ĠìłĦ êµŃ
Ġê·¸ ëŁ¼
ëĤĺ ìĿĺ
ĠíļĮ ìĤ¬
ëĤ¸ ëĭ¤
Ġìĥģ ê´Ģ
ì§Ģ ëĿ¼
Ġëĵ±ìŀ¥ ìĿ¸ë¬¼
Ġì« ĵ
ìļ° ê°Ģ
íİ ľ
ëª ½
ë Į
ìĸ¸ ìĿĦ
ë¹ Ľ
ĠìĨĮ ìŀ¬
ĠìĹ° ìĬµ
Ġë´Ĳ ëıĦ
Ġìĥģëĭ¹ íķľ
íĥĢ ê°Ģ
ĠëıĦ ìŀħ
ìłĲ ìĿĢ
2 1
Ġ and
Ġìĥģíĥľ ìĹĲìĦľ
ë ĸ
Ġë¹¨ ë¦¬
ë¬¸ ìĿ´
ĠíĮĮ íĭ°
ì§Ģ ë©´ìĦľ
e c
ĠíĸĪ ëĬĶëį°
Ġë§Ī ë¬´
Ġíļ¨ê³¼ ê°Ģ
Ġê³ł ìĸĳ
ĠìĤ¬ ìĹħ
ëħĦ ìĹĲëĬĶ
Ġëĭ¤ íĸī
ĠìķĦ ëĵ¤
ĠìĹĨ ìĸ´ìĦľ
ĠëıĦ ì°©
ìĸ´ ìļĶ
ê¸Ī ìĿĦ
Ġë¶Ģ ìĹ¬
ìĨ Ķ
ê°Ħ ìĿĺ
ĠìĹĨ ì§Ģë§Į
ĠìŀĲ ë¦¬ë¥¼
ê¹ ¨
Ġê·¸ ë£¹
Ġê°Ģ ìĦľ
ê²ĥ ëıĦ
ë¡ ±
ìĹĲ ë§Į
ĠìĻĦ ìĦ±
Ġë³´ ëĭ¤
Ġëŀ Ń
Ġìłľ ê±°
Ġìľł ìĤ¬
Ġë¹Ħ ë°Ģ
Ġê³ł ìłķ
Ġë°° ì¹ĺ
ì¹ ¼
ĠìĨĲ ìĿĦ
ĠìĿ´ ê³³
Ġë¶Ģ íĥģ
Ġëĭ¤ ìĨĮ
ë§ İìĿĢ
ĠëĨĴ ìķĦ
ëĶ ĺ
ĠìĿ¸íĦ° ëĦ·
ê ¾¼
Ġëĵ¯ íķĺëĭ¤
ĠìĤŃ ìłľ
Ġêµ¬ ë§¤
ë¹Ħ ìķĦ
ëł¥ ê³¼
Ġëªħ ì¹Ń
ìľĦ ëĬĶ
ĠíĮĮ ìĿ´
Ġë¿ Į
ìĸ´ ìĿĺ
Ġëĸł ëĤĺ
ìĬ¤ íĭ°
ĠíĥĢ ìŀħ
ĠìŀĪìĹĪ ëĬĶëį°
ëĲ Ĳ
ì°¨ ê°Ģ
í ĵ¨
ë£ ¬
Ġê°Ģ ìļ´ëį°
ëĲ Ĳëĭ¤
Ġë²ł ìĿ´
ĠëģĿ ìĹĲ
Ġìłķ ìĥģ
¬ ìĺģ
Ġê¸° ì²´
ëħ ¼
ĠìłľìĻ¸ íķĺë©´
Ġì§Ģ ì§Ģ
Ġê±´ ìĦ¤
ĠëıĻ ìĥĿ
ìĹŃ ìĿĦ
ĠìľłíĬľ ë¸Į
ĠìľłìĿ¼ íķľ
Ġìŀĳ ê³¡
ê» ´
ìĭľ íĤ¬
ëĲĺ ë©´
Ġìĥģ ìľĦ
Ġì§ Ĳ
Ġì§ģ íĽĦ
ë³´ëĭ¤ ëıĦ
íģ¬ ìĿĺ
ìĦ¸ ìļĶ
Ġëĭ¤ ë£¨
Ġë³´ìĹ¬ ì¤Ģëĭ¤
Ġë³Ģ íĻĶ
ĠìĹĲ ìĿ´
Ġê´Ģ íķľ
ĠëĽ° ìĸ´ëĤľ
ĠìĿ´ë¦Ħ ìĿĢ
ìĺ¨ ëĭ¤
ĠìĤ¬ìļ© íķľëĭ¤
Ġíıī ë²Ķ
Ġì¡° ì¢ħ
ĠìľłìĿ¼ íķĺê²Į
Ġì²ĺìĿĮ ìľ¼ë¡ľ
Ġë¬´ ì¡°ê±´
Ġìķ ¤
ĠìĨĮ ë¹Ħ
Ġì¶Ķ ì²ľ
Ġêµ³ ìĿ´
Ġì£¼ ê³ł
Ġì¶©ë¶Ħ íŀĪ
ĠìĦł ìĥĿ
Ġì¶© ê²©
ì¹ĺ ìĿĺ
êµ° ìĿĢ
íķĻ ê³¼
ìĦ ¯
Ġëĭ¤ íģ¬
ĠìĽĮ ëĤĻ
Ġìĭ« ìĸ´
ĠìĤ¬ìĿ´ ìĹĲ
ì°¨ ë¥¼
ĠìķĦ ëĤ´
ëĥ Ī
Ġì¹ ł
Ġë³Ģ ìĭł
Ġì§Ģ ë°°
ĠL G
ĠëĤ¨ ìĦ±
ì£¼ ê°Ģ
Ġì¹ĺ ë£Į
Ġë§Ī ì¹ĺ
ë¶Ģ ëĬĶ
íĭ ¸
ĠíĥĢ ê²©
ë¡ľ ìĿĺ
Ġìĺ¬ ëł¤
ë³´ ë¥¼
Ġë³´ ê¸°
Ġê² ¸
ìłģ ìĿ´ëĭ¤
Ġ r
ĠìĪĺ ìĥģ
Ġë ĩĮ
ĠëıĦ ìĻĢ
Ġìłķ ë¦¬
ìŀ ĸ
ìī ½
ĠíĬ Ģ
Ġì¢ħ ë¥ĺ
Ġë§ŀ ì¶Ķ
ĠìĪĺ ë§İìĿĢ
Ġê·¸ ê±¸
Ġì¶Ķ ì¸¡
ĠìĿĺ ìĻ¸ë¡ľ
Ġë¦ °
ì§Ħ ìĿĦ
Ġíģ´ ëŀĺ
ĠìłĦ ê°ľ
Ġíıī ìĨĮ
Ġíŀ Ĳ
ìľ Ī
ëĦ ĺ
ìĪł ìĿĦ
ĠìĿ´ ë¡ľ
ĠëĲĺ ëĬĶëį°
Ġì§Ģ ëıĦ
ë ±
ëį ´
Ġì¢ħ ì¢ħ
ĠìĿ¼ ëŁ¬
Ġë³µ ê·Ģ
Ġìŀ Ĭ
íĶĦ ê°Ģ
íĬ¸ ìĹĲ
Ġíĳľ ê¸°
ê¹ Ģ
ì¦Ī ìĿĺ
Ġê·¸ ìķ¼ë§Ĳë¡ľ
Ġíıī ê·ł
ëĲĺìĹĪ ìľ¼ë©°
Ġì¤ĳ ê°Ħ
íĦ° ê°Ģ
ëª ĩ
ìĺĢ ìľ¼ëĤĺ
ìļ© ìľ¼ë¡ľ
Ġ7 0
ìĦł ìĿĺ
ĠìĨĮ ëł¨
ĠìķĦ ì¹´
ĠëĮĢ ê¸°
ĠìĹħ ê·¸
ĠìŀĪ ì§Ģ
Ġë§Ĳ íķĺëĬĶ
igh t
Ġì¹´ ìļ´
ĠëĦ Ĳ
íĥĦ ìĿĦ
ë°Ľ ìĿĢ
ĠíĻĶ ë©´
ë°© ìĿĦ
ëł¤ ë©´
Ġë© ĭ
Ġëĵ¯ íķľ
ìĸ´ ì§Ħ
íĶĦ ë¡ľ
ìĿ´ ìħĺ
ë°Ľ ëĬĶ
ì£¼ ë¡ľ
Ġìº ł
ëĦ £
Ġë² ¤
ëĳĲ ê³ł
ĠëĿ¼ìĿ´ ë¸Į
ì§Ī ìĿĦ
Ġ 00
Ġë¹Ħ ì¤ĳ
íĺķ ìĿĦ
Ġëªĩ ëªĩ
ëı ¼
Ġê²½ ê¸°ë¥¼
Ġëĸ ¡
ìĹĪ ìĿĦ
Ġíĥĵ ìĹĲ
Ġì£¼ ë¯¼
ĠëıĦ ì¤ĳ
ëª¨ ê°Ģ
ìĦ¸ ê¸°
ìĦ± ìĹĲ
ìĦĿ ìĿ´
ì Į
Ġì´ ¬ìĺģ
Ġìŀ¥ ìĨĮ
ëĵľ ìĻĢ
íĦ ¸
Ġëħ Ģ
ìŀ Ķ
Ġê·¸ ìłĢ
ĠìĥĿê°ģ íķĺë©´
íĹ ¤
ĠìĿ¸ íķľ
ĠìĤ´ íķ´
Ġêµ° ìĤ¬
Ġë³¸ ê²©
êµ° ìĿĦ
in e
Ġëª¸ ìĿĦ
Ġ19 4
Ġê¸° ê³Ħ
Ġì¤ĳ ë°ĺ
Ġë¶Ī ìķĪ
Ġê³ ¤
ìłķ ìĹĲ
íĤ¤ ê°Ģ
ë Ĵ
Ġë¬´ ìŀ¥
íĸĪ ê¸°
ê´Ģ ìĿĦ
ìłģìľ¼ë¡ľ ëĬĶ
ĠëģĮ ìĸ´
ëĶ °
Ġê³µ íı¬
ĠëĨ Ī
Ġìĥģíĥľ ë¡ľ
ĠìĿ¸ ìĭĿ
ìĿĮ ìĿ´
íŀ Ĳ
ì¹´ ìĻĢ
ĠíķľêµŃ ìĿĺ
ĠëıĻ ë¬¼
ëĵł ì§Ģ
Ġê°ľ ê·¸
ĠìĤ¬ ëĬĶ
íĻĶ ëĲľ
ĠëĮĢ ëĭµ
Ġê±° ê¸°ìĹĲ
ĠĠĠĠĠĠĠĠ ĠĠĠ
ìĺĢ ì§Ģë§Į
Ġìķ ī
Ġìĭ¤ íĹĺ
Ġìĭ¸ ìĽĢ
Ġìķŀ ìĹĲìĦľ
Ġëĭ ¥
Ġìĭ Ń
ĠëĬ¥ ëł¥ìĿ´
ìĽĲ ìĹĲìĦľ
¾ Į
ĠìŀĪìĹĪ ì§Ģë§Į
Ġíı¬ ì§Ģìħĺ
Ġë³¸ ìĿ¸ìĿĺ
ìŀĲ ëĵ¤ìĿĢ
ë ķ
ĠíĬ¹ ìľłìĿĺ
Ġë²Ħ ê·¸
íķĺ ëıĦë¡Ŀ
ĠìĪĺ ë°ĸìĹĲ
ĠíĪ¬ ìŀħ
Ġë§ĪìĿĮ ìĿĦ
ĠëĮĢ ìĥģ
Ġë§ŀ ì¶°
Ġì² Ļ
Ġë°Ķ ëĭ¤
t h
S T
Ġíķ© ë¥ĺ
ĠìĤ¬ëŀĮ ìĿĺ
ì¿ Ħ
Ġë°ĺ ë³µ
Ġë³´ ìĺĢëĭ¤
Ġìĺģ íĺ¼
ê°ľ ë¡ľ
Ġìĸ´ë ĳł
ĠìķĦ íĤ¤
Ġì§Ģ íĤ¤
ìĦ± ê³¼
Ġìĺ¤ ëŀľ
ë§Ī ë¥¼
Ġíĸī ë³µ
ĠìĿ´ íķĺ
Ġë¨¹ ê³ł
ĠëķĮ ëıĦ
Ġíŀĺ ëĵł
ìħ ľ
Ġë¶Ģ íķĺ
Ġëĭ¤ìĿĮ ê³¼
ëŁ ¿
Ġê° Ķ
ĠíĤ ¹
ĠìłĲ ìĿ´
Ġëª¨ ë¥´ëĬĶ
Ġë¡ ¯
Ġì¢ħ ì¡±
Ġê³µ ê°Ħ
ëıĦ ìĻĢ
Ġìļ´ ìļ©
ĠìĹ° íķ©
Ġê°Ħ ëĭ¨
ê½ ĥ
ìķĦ ë²Ħ
Ġë¯¸êµŃ ìĿĺ
íĮĲ ìĿĦ
ê³µ ê²©
Ġìĭľë¦¬ì¦Ī ìĿĺ
Ġìŀĳ ê°Ģ
Ġìĭ± ê¸Ģ
ìĪĺ ëıĦ
Ġì§Ģê¸Ī ìĿĢ
Ġìµľ íĽĦ
íĸ¥ ìĿ´
ĠìķĪ ìłĦ
ìłķ ìĿĢ
ĠíĻ Ģ
ĠëıĦ ìłĦ
ĠìĽ ¹
Ġì¹´ ìĿ´
íħĲ ì¸ł
ëħ ķ
ë¬¸ ìĿĺ
Ġì§Ģ ìĥģ
Ġ200 9
íļĮ ê°Ģ
Ġë¶Ī ê³¼
íķĺ ëł¤ê³ł
Ġ5 00
ìĬ¤ëŁ½ ê²Į
ĠíĮĢ ìĿĺ
ĠíĥĪ ëĿ½
Ġìķŀ ìľ¼ë¡ľ
ìĬ¤ íħĮ
ĠìĻ¸ ìĹĲëıĦ
ê¹ Ĳ
ëŁ¬ ìĬ¤
Ġìķŀ ìĦľ
ëªħ ìľ¼ë¡ľ
ĠìĬ¤ íģ¬
íı ´
ëª °
ã ĢĢ
Ġìĺ¤ ë²Ħ
ëĳ ĺ
ì§Ģ ë©°
Ġìĺ¤ íĶĦ
ĠëĮĢ êµ¬
ë³´ ìŀĲ
ëł¥ ìĿĺ
ëĭĪ íĭ°
Ġë¬´ íķľ
ĠìĽ ¨
ĠëĪĦ êµ°
Ġë¦¬ ëįĶ
Ġì¡° ìĤ¬
ĠíĿ¬ ìĥĿ
ĠíĬ¸ ìľĦ
ĠëĽ° ìĸ´
Ġëĵ ł
ĠíĸĪ ê³ł
ĠìķĬ ì§Ģë§Į
Ġë§ŀ ëĬĶ
ëł Ľ
ĠìĨĮ ìľł
íķ Ģ
ĠìĬ¤í İ
ìĬ¤ íĨł
Ġìłķ ìĭĿ
ìĿ¸ ê³¼
Ġë© °
ê°ľ ìĽĶ
ĠìķĦ ëĬĶ
al l
ë »
ĠíĦ ´
ìĿ´ ë¯Ģë¡ľ
ë¡ľ ë¶ĢíĦ°
ìĬ¹ ìĿĦ
ëĵ ¬
Ġì¢ħ êµĲ
ĠìľĦ íĺĳ
Ġìŀ¥ë©´ ìĿ´
ĠìĿ¸ ì²ľ
Ġë§Ĳ íĸĪëĭ¤
ìłķ ìľ¼ë¡ľ
Ġëļ «
Ġê¸°ì¡´ ìĿĺ
Ġë» Ķ
ĠíĶĦ ëłĪ
íķĺ ëĭĪ
Ġë¬´ ë¦¬
ìĦ¸ ê³Ħ
ìª½ ìľ¼ë¡ľ
ìĹĲê²Į ìĦľ
ĠëĤĺìĺ¤ ì§Ģ
ĠëĮĢ ìĿĳ
ì§Ģ ìĹĲìĦľ
ëŁ¬ ê°Ģ
Ġì± Ļ
íĬ¸ ìĹĲìĦľ
Ġë§Ĳ ìķĺëĭ¤
ìĭľíĤ¤ ê³ł
ì² ©
ĠëĶĶ ìŀĲìĿ¸
Ġíĸī ìłķ
ì¹ĺ ê²Į
Ġë¯¸ ëĭĪ
Ġìłģ ê·¹
ë°Ķ ìĿ´
Ġì¹ĺ ëªħ
íĬ¸ ìĻĢ
Ġë º
y le
Ġë© ĺ
Ġë¡ľ ë´ĩ
Ġê³µ ëıĻ
Ġíķĺ ëĵľ
ëŀĺ ëıĦ
íķĺìŀĲ ë©´
ĠìĥĿ ëªħ
ìĦĿ ìĿĦ
Ġì»´ íĵ¨
Ġëĭ¤ë¥´ ëĭ¤
Ġê°Ģ ê¹Ŀ
ĠìĤ¬ íĥľ
Ġí Ĥ¬
Ġë¶Ī ë¦¬
íĤ¤ ìĿĺ
ĠëĮĢ ëĭ¨
a p
ĠìĿ¼ ìĿĢ
Ġë²Ķ ì£Ħ
ĠìĿ´ ìĻĢ
ëĿ¼ ë©°
ĠìĤ¬ ê¸°
ĠìĿ¼ëŁ¬ ìĬ¤íĬ¸
ĠìķĦ ë¦Ħ
ĠìļĶ ì²Ń
Ġìłķ ê·ľ
Ġìŀħ ê³ł
ĠìłĦ íĨµ
Ġëŀ Ģ
íĶĮ ëłĪìĿ´
ì²´ ìĿĺ
ìķĪ ìĿĦ
ëĵľ ìĹĲ
Ġê°Ģ ìĬ´
Ġëħ¸ ëł¥
ĠëĮĢ íĺķ
Ġë§ º
ìŀĲ ìĹĲ
Ġëª ½
ĠëĮĢ ì¤ĳ
o s
ã ħ
Ġìĸ» ìĸ´
Ġë¬¸ìłľ ë¥¼
ĠìĦ ŀ
ĠíĨµ íķ©
Ġì¼ Ħ
Ġìŀĳ ìĹħ
ĠìĿ¼ ìĸ´
ì½ ¤
Ġë© Ī
Ġì±Ħ ëĦĲ
Ġìĺµ ìħĺ
Ġê³ł íĨµ
ĠëķĮ ê¹Įì§Ģ
ĠìĿ´ ìłģ
ìŀĲ ëĵ¤ìĿĺ
Â ł
ĠíĥĢ ì¹´
Ġë°Ľ ëĬĶëĭ¤
ëĨ Ī
ĠëĤĺ ìĿĺ
Ġíĳľ ìĭľ
Ġê´Ģëł¨ ëĲľ
Ġìļ° ë¦¬ëĬĶ
ì²´ ëĬĶ
Ġë¸Ķ ë£¨
Ġëį° ëł¤
Ġ3 5
ĠìķĶ ìĤ´
ik i
Ġê±° ë¶Ģ
Ġ Q
Ġìĥģ ì§ķ
ĠìĿĺ íķĺë©´
êµ¬ ëĤĺ
íĬ¸ ëĿ¼
Ġë¹Ħë¡¯ íķľ
Ġê·¸ ë¦°
ĠíĮĮ ìĿ¼
ĠëĮĢ íĻĶ
ìĬ¤ ì¼Ģ
ĠìĹ° ìŀ¬
Ġê¾¸ ì¤Ģ
Ġìłģ ìłĪ
Ġëĭ¨ìĪľ íŀĪ
ìĭ¤ ìĿĦ
u m
c e
í ĳ¸
ëª¨ ë¥¼
ëĿ¼ìĿ´ ëįĶ
Ġìĺ¬ëĿ¼ ê°Ģ
Ġì°¨ ìĿ´
ĠìĦ± ìļ°ëĬĶ
ĠìķĦëĭĪ ì§Ģë§Į
Ġìŀ¥ ê°ĳ
ĠëĤ «
ìĿ´ìĹĪ ê³ł
Ġë¶ īìĿĢ
ĠìĪ «
ĠëĮĢ ê²°
ì³¤ ëĭ¤
íĮ ¬
Ġê·¼ ëį°
ìĿ´ ëĭĿ
ĠìĥģíĻ© ìĿĦ
ì§ Ĳ
Ġë° ¥
Ġë´ ¤
ë¶Ħ ìĿĦ
ìĭł ìĿĺ
ĠìķĦ ìī¬
ìĿ¸ ëĵ¤ìĿ´
ìłķ ìĿĺ
ĠíĮ¨ ì¹ĺ
ê²½ ìĿĦ
Ġì¡° ìŀĳ
Ġë¶Ħ ë¥ĺ
Ġë°Ķ ëĭ¥
ĠìĿ¸ ëıĦ
êµ¬ ìĿĺ
ĠìĨį ìĹĲìĦľ
ĠìĿ´ë¦Ħ ìľ¼ë¡ľ
ìļ° ê³ł
Ġ re
ĠëĤ¨ íİ¸
Ġë§Ī ì¹¨
Ġë°Ŀ íĺĶëĭ¤
Ġê±± ìłķ
ìĬ¤ ìĹĲìĦľ
ë¡ł ìĿĦ
ĠíķĺëĤĺ ìĿĺ
ĠíĬ¹ìĦ± ìĥģ
Ġê°ģ ìĦ±
ĠëĤ´ìļ© ìĿĢ
ĠëĬĲ ê»´
ĠìĿ´ ê¸°
ìķĺ ê³ł
ì¡Į ê³ł
ë¡ľ ìļ°
ì½ ©
ìĽ ¨
Ġê±° ì§ĵ
ĠìĤ¬ ë¬´
Ġë¯¸ ë¦¬
Ġë¹ Ļ
ë¡ľ ëĵľ
ĠíŀĪ ìĸ´ë¡ľ
Ġëħ Ħ
ë²ķ ìĿĦ
Ġëĵ± ìĹĲ
ĠëĪĪ ìĿĦ
ĠëĬĺ ìĸ´
Ġë¬´ ëĦĪ
ĠíķĺëĤĺ ë¡ľ
ë§Į ìľ¼ë¡ľ
ëĵ Ģ
A R
ĠëĪĪ ìĹĲ
Ł ìķĦ
ĠíĶ ½
íİĺ ìĿ´ì§Ģ
Ġë¶Ļ ìĸ´
ìĹ ½
Ġì¹´ëĵľ ë¥¼
ëĤĺ ë¥¼
ĠíķĦìļĶ ê°Ģ
Ġìŀ¥ ëĤľ
ĠëŁ °
Ġê½¤ ëĤĺ
ĠëĤ´ ìĹĲìĦľ
ĠìĹŃ ëĮĢ
Ġ200 8
ĠìĿ¸ ìĥĿ
ìļ´ ëıĻ
ìĿ¼ ìĿĺ
ĠìłĢ íķŃ
Ġë° ¸
Ġë¶ ķ
ĠëĲĺ ë©´ìĦľ
Ġì į¼
íķĺëł¤ ëĬĶ
ĠíĮ¨ ëŁ¬
ìĽĮ ìĦľ
Ġìĸ´ ì°Į
ë¡ľ ê·¸
Ġë¶Ģë¶Ħ ìĿ´
ĠíĬ¸ ë¦¬
Ġë§Īë¬´ ë¦¬
Ġë§ŀ ìķĦ
ĠìłĲ ìĿĢ
ĠíĽ Į
ĠíĽĦ ìĨį
Ġëª© ìĪ
ìĺ ·
Ġìħ ĭ
Ġí ĥĿ
Ġë¹¼ ìķĹ
ĠìłĲ ìĹĲìĦľ
Ġìµľì´Ī ë¡ľ
íķ´ ì¡Įëĭ¤
ĠìĨį ìĦ±
Ġê²½ê¸° ìĹĲìĦľ
Ġìŀ¬ ë¯¸
íķ´ ì§Ħëĭ¤
Ġë¡¯ ëį°
ìĿ´ ìķ¼
ë²Ħ ë¦¬ëĬĶ
Ġê·¸ ë§Į
Ġì¹´ ë©Ķ
ìĭľ ìĺ¤
ĠëĮĢ ë¹Ħ
Ġê·¹ ìŀ¥
Ġê±° ìķ¼
ĠìĤ´ìķĦ ëĤ¨
ê·¸ ë£¹
A N
Ġìļ° ë¦¬ê°Ģ
Ġì§Ħ ìŀħ
Ġì° Į
ëª¨ ë¡ľ
Ġë§Į íķľ
ĠíĿ ī
Ġë© ľ
Ġw iki
1 9
ìĿ´ ìĻĢ
ìķ½ ìĿĦ
ìĭľ ë§Ī
Ġë¡ Ŀ
Ġìĺ¤ ë¦¬ì§Ģ
Ġëª¨ìĬµ ìľ¼ë¡ľ
Ġê°Ĳ ìķĪ
ĠíļĮ íĶ¼
u l
ìĹĲê²Į ëıĦ
ë§ Ľ
ëĭ¨ ê³Ħ
Ġë§ī ìķĦ
Ġíħ Ĳ
ëĭµ ê²Į
ĠìĽĶëĵľ ì»µ
Ġìłģ ìĿĺ
Ġëį ľ
ë¶Ģ ìĹĲìĦľ
ĠëĮĢíķľë¯¼ êµŃìĿĺ
ĠìĤ¬ ê²©
ĠìĿ´íĥĪ ë¦¬ìķĦ
ìŀĸ ìķĦ
Ġë§Ĳ ê³ł
ëĨĵ ìĿĢ
êµĲ ìľ¡
Ġì²´ ëł¥ìĿ´
ìħ ¨
ìķĦ ìĿĺ
ĠìĿ´ìľł ê°Ģ
Ġëį° ìĿ´íĦ°
ìĿ¼ ë¶ĢíĦ°
ĠëıĮ ëł¤
ëĭ¤ ë¥¸
Ġíģ Ĳ
ìłģ ìĿĢ
Ġst yle
ìĸ´ ëĬĶ
ĠíĻķ ìŀ¥
ĠëĦ¤ ìĿ´
Ġìłķ ì±ħ
íķ´ ë¥¼
Ġê³µ ëŀµ
ëĤĺ ìĻĢ
ë¯¸ ìĿĺ
k m
ì¹´ ê°Ģ
ĠìĦľ ìĪł
ë¤ Ħ
ĠìłĦ ê¸°
ê¹Įì§Ģ ëıĦ
Ġê² ¹
Ġìĭľ ëĮĢ
ĠíĻķìĭ¤ íŀĪ
at ion
Ġê¸°ìĪł ìĿĦ
ĠëĤĺìģ ĺ
ìĬ¤ ì½Ķ
ĠëĶĶ ìŀĲ
ĠëĤĺ ëĪĦ
Ġìłķ ìĿĺ
Ġëľ ¬
ĠìĨĮ ëħĦ
ĠëĮĢíĳľ ìłģìĿ¸
ë ĩĮ
ĠìŀĪìĹĪ ìľ¼ëĤĺ
ìĿ´ëĿ¼ ìĦľ
ìĿ¼ ìĿĢ
Ġíķľëĭ¤ ê³ł
ĠìłĦ ìĤ¬
íĢ ´
Ġëĭ ®
íı ¼
íĬ¸ ë¦¬
ë°© ìĹĲ
Ġâ ĳ
Ġë³´ ì¡°
Ġìĥģ ì²ĺ
Ġìĭľ ìĦ¤
o p
ĠìĨĲ ìĹĲ
ê³ł ê°Ģ
íĺķ ìĿ´
Ġìĺģ ìŀħ
ëŀ Ĳëĭ¤
Ġ3 2
Ġìĸ¸ ë¡ł
ìłĦ ìľ¼ë¡ľ
ìĽł ëĭ¤
ìĹĪëĭ¤ ëĬĶ
a b
ĠëłĪ ëĵľ
Ġì£½ ìĿĦ
ĠìĨį ëıĦ
Ġìĭľ ê¸°
ĠëĲ Ĳ
íķĺ ë¯Ģë¡ľ
Ġìĭ¶ ìĿĢ
ìļ© íķľ
Ġìħ Ģ
ìĭľíĤ¨ ëĭ¤
ë¥´ ìĿĺ
ĠëĮĢíķ´ìĦľ ëĬĶ
ĠíĶĦë¡ľ ìłĿ
Ġëĭ¤ ìļ´
Ġìĸĺ ê¸°
Ġìŀ ī
ĠìĿ¸ ê¸°
ì» ¨
ìĹŃ ìľ¼ë¡ľ
ìĹ° íŀĪ
ì¡° ìĿĺ
íĴ Ģ
Ġë°Ľ ì§Ģ
ĠìĤ¬ ê³¼
ëª¨ íĨł
ĠìĿ´ ëĵ¤ìĿĢ
ìħ Ģ
ĠëĤĺìĺ¤ ê³ł
Ġê¸° ëħĲ
ì ¨
ĠìłĦ íĻĺ
ë¦¬ ìŀĲ
ë£Į ë¥¼
Ġê·¸ ëł¤
ìļ© ìĿ´
ĠíĿ¬ ë§Ŀ
ĠìĥģëĮĢ ê°Ģ
êµ¬ ëĬĶ
Ġê¹ Ĭ
ĠíĥĢìĿ´ íĭĢ
ĠìłĢ ê²©
Ġìĸ´ëłµ ëĭ¤
Ġv s
ĠìĦľ ë²Ħ
ëģ Ħ
Ġìł ĬìĿĢ
ĠëĤĺ ë¥¼
Ġê±° ëĮĢíķľ
Ġì§Ģ ìłģ
Ġì¤ĳìĭ¬ ìľ¼ë¡ľ
ëıĻ ìĥĿ
ĠëĤł ëł¤
Ġìĭľ ë¯¼
ĠíĻķ ë³´
Ġëª¨ íĭ°ë¸Į
Ġìĺ¤ ë¥´
Ġê°ľ ì¡°
ĠE X
ĠëĪĦ ê°Ģ
Ġì»¨ ìħī
ĠìĿ¸ ë¥ĺ
Ġì§Ģ ìłķ
ë´ ¤
íķľ ëį°
ì§Ģ ìŀĲ
Ġì§ĳ ìĹĲ
Ġë¹Ħ ëĤľ
íħ Ģ
Ġë¬¼ ìĸ´
ëłĢ ëĭ¤
ĠíĻĪ ëŁ°
ĠëĶ± íŀĪ
ìĤ° ìĿĦ
Ġìĭľ ëĤĺ
ë¥ł ìĿ´
ëłĪìĿ´ ìħĺ
Ġê²¨ ìļ°
Ġê·¸ ìĹĲ
Ġëª» íķľëĭ¤
Ġë§Ī ë¥´
ìłĦ ìĿĢ
ë¦¬ ë©´ìĦľ
ëĿ¼ ìĬ¤
ĠP C
Ġìŀł ê¹Ĳ
Ġë¹ĦêµĲ ìłģ
ĠìĦł ë³´
ĠìłĲ íĶĦ
ĠìĤ´ ìĿ¸
íĮ¨ ë¥¼
Ġìłľ ìĭľ
ìķ Ĭ
Ġê¼ ½
ë¡ľ ëıĦ
ë¦¬ ìĺ¨
ìłģ ìĿ´ê³ł
ĠìĽ ¬
Ġìŀ¡ ê³ł
Ġë¶Ģ ëĭ´
ĠíĨµ ê³¼
Ġê°Ģ ìĪĺ
ìŀ¥ ê³¼
Ġìŀ Ń
Ġëĵ± ê¸ī
Ġê°¤ ëŁ¬
Ġë¬´ ìĤ¬
Ġë³´ ìĿ´ì§Ģ
Ġëĭ¹ ìŀ¥
ĠìĨį ìĹĲ
íļĮ ìĹĲìĦľ
Ġì¢Ģ ë¹Ħ
ìłĦ ìŁģ
ĠìĨĮ ë¦¬ë¥¼
Ġê±¸ ìĸ´
ìĺĢ ëĬĶëį°
ĠëĤĺ ë
ìłľ ìĹĲ
Ġ3 00
Ġê¸¸ ìĿĦ
Ġëį°ë¯¸ ì§Ģë¥¼
Ġìķ½ ìĨį
Ġìłķë³´ ë¥¼
ì¦Ī ê°Ģ
ĠìķĦ ìĬ¤
ê°ľ ê°Ģ
Ġê²Į ìĿ´
ĠìŀĲìĭł ìĿĢ
ĠëĤĺ ëĪ
ë¦¼ íĶ½
ĠìĿ¼ë°ĺ ìłģìĿ¸
ê¸° ìĤ¬
ìĥĿ íĻľ
ìª½ ìĹĲ
ëĬĲ ëĥĲ
ìĦ± ëıĦ
Ġë¬ ¶
ĠëıĦ ìĽĢìĿĦ
ìľ¼ë¡ľ ë¶ĢíĦ°
Ġì¸¡ ë©´
ĠëıĦ ì¿Ħ
ìĩ ł
ĠëĤĺ ìĿ´íĬ¸
Ġê°ľ ìµľ
Ġê°Ģ ê²Į
ĠìĥģëĮĢ ë¥¼
T V
Ġê·¸ê²ĥ ìĿĦ
íĺ¸ ìĿĺ
ĠìĿ´ ëĭ¤
Ġë¨¹ ëĬĶ
Ġ i
ĠìĿ´íĽĦ ìĹĲ
ê ¿
íĴĪ ìĿĦ
ĠíĶĮ ëŀĺ
ĠìľĦì¹ĺ íķľ
Ġë¶Ģ ë¥´ëĬĶ
ĠíĻĶ ìĹ¼
Ġë¿Ĳ ìĿ´ëĭ¤
Ġì¢ ģ
Ġë§ģ íģ¬
ĠìµľëĮĢ íķľ
Ġìľ Ī
íĺ Ķ
ìĭ¬ íŀĪ
íĻĶ ìĹĲ
ìľĦ ìĿĺ
Ġìº ¡
ê¸° ê´Ģ
Ġíĺ Ĳ
íļĮ ìĹĲ
íŀĮ ëĭ¤
ĠìĹĨ ê¸°
ĠíĮĢ ìĿ´
o c
ĠìķĦ íĮĮ
ê° Ĵ
¶ ¤
ëĮĢ ìłĦ
Ġê·¸ ëŁ´
ëĭ¨ ìĹĲ
ĠìĬ¤ ì½Ķ
ĠìĿ´ê²ĥ ìĿĢ
ĠìĿ´ê²ĥ ìĿ´
Ġë§Ī ë¦¬
ìķ¼ ë§Ī
ì¹ľ ëĭ¤
Ġíķ´ ìĦĿ
ĠëĤľìĿ´ ëıĦ
Ġíıīë²Ķ íķľ
ĠìĹ ī
Ġíĥĳ ìŀ¬
Ġë©Ģ ë¦¬
ìĻķ ìĿĺ
Ġì»¤ ë®¤
Ġë¿Ĳ ë§Į
ĠĠĠĠĠĠĠĠ ĠĠĠĠ
Ġìŀ ĩ
ëĮĢ íĳľ
Ġê°Ģ ìłķ
ĠìĬ¤íı¬ ì¸ł
Ġìŀ¥ ê¸°
Ġëª° ìķĦ
Ġìłľ ìķķ
ĠC h
Ġë°© ë¬¸
ìĦł ìĪĺ
ìłľ ëĬĶ
ëıĻ ìĿ´
ëłĪ ìĿ¸
ë¥ Ń
Ġê·¸ ê²Į
Ġìĭľìŀĳ íķľëĭ¤
ëª© ìĿĦ
ìŀĲ ìĹĲê²Į
ëł¥ ìĹĲ
Ġë§ŀ ê³ł
ëķĮ ë¬¸ìĹĲ
Ġëĭ¤ ë¦Ħ
ĠìĪ ²
Ġìķħ ë§Ī
Ġìĺ¤ë¦¬ì§Ģ ëĦĲ
ĠíķĦ ìĤ´
ĠëĲĺ ê¸°
êµ¬ ìĹĲ
ĠìĥĿ ê¸°
ĠìĥĿ ìĦ±
O N
Ġb e
Ġíĺ ģ
ê° ¤
Ġíİĺ ìĿ´
ìĿ¼ ëŁ¬
ĠíĮĮ ìķħ
Ġì¥ Ĳ
Ġíŀĺ ìĿ´
ĠìĹ¬ íĸī
ĠíĪ¬ ìŀĲ
ëĿ½ ìĿĦ
íĮĲ ìĿ´
Ġ200 7
ìĿ´ìĹĪ ìľ¼ëĤĺ
Ġ on
ĠëĮĢ ëĨĵê³ł
ìĭľ ë¸Į
Ġë³¸ ìĿ¸ìĿĢ
Ġê±° ëĳĲ
ĠìĺĪ ìłĦ
ĠìĦ¤ ë¦½
ìĦ¸ ìĿ´
ĠëĶĶ ì§Ģ
ì³Ĳ ìĦľ
Ġëħ¼ëŀĢ ìĿ´
ĠìĹĦì²Ń ëĤĺê²Į
Ġíİ ľ
Ġìĭ¶ ìĸ´
Ġë§Į ëĭ¤
Ġë°Ķê¿ Ķ
ìķħ ìĿĺ
ëĿ¼ ìļ°
Ġ3 3
Ġì§Ģ ëĭĪ
ì§Ģ ìĹŃ
ou nd
Ġëĭ Į
ĠìķĦ ì¹¨
Ġë¯¸ ëĵľ
ê² ģ
ìŀĦ ìĹĲëıĦ
Ġì» ¬
ë°© ìĿĺ
ìĭľ íĶ¼
Ġì½Ķ ìĬ¤
ĠìŀĪ ëıĦë¡Ŀ
ëĮĢ ìĹĲìĦľ
ĠëķĮ ìĿĺ
il l
ë¦¬ ìĹĲìĦľ
ë¹ µ
íĬ¸ ë¡¤
Ġì§§ ìĿĢ
ĠìĹ¬ ë¦Ħ
ë°Ķ ë¡ľ
ëł ´
Ġìµľì´Ī ìĿĺ
ĠF C
ë°Ľ ê³ł
Ġã ĥ¼
ĠìĬ¹ ë¦¬ë¥¼
Ġ4 5
ì§Ħ ìĿĺ
ĠìĿ¸ ê¸°ê°Ģ
ĠëģĿ ê¹Įì§Ģ
ĠK BS
Ġê¼ ´
ĠìĽĲ íķĺëĬĶ
ĠëŃĶ ê°Ģ
ëħĦ ìĿ´
ĠìĿĢ íĩ´
ê¸° ë§Į
ëŀ ¬
Ġë°Ķ íĥķ
íĺ¸ ëĬĶ
ìŀ ī
ê³Ħ ìĹĲ
ĠY ou
ìĭĿ ìĿĺ
ĠìºĲë¦ŃíĦ° ê°Ģ
ĠëģĿ ëĤ´
íģ¬ ëŀĺ
ì§Ī ìĿ´
Ġíģ¬ ëĭ¤
Ġì§Ģ ëĭĮ
ëĭĺ ìĿ´
Ġë³´ ë³ĳ
ĠëįĶ ë¸Ķ
Ġë°Ģ ìĸ´
Ġê·¸ëħĢ ëĬĶ
Ġê³ł ë¯¼
Ġëħ¸ ëıĻ
ĠëıĦ ìĽĢìĿ´
ê°Ģ ë¡ľ
Ġì´Īë°ĺ ìĹĲ
ê¶Į ìĿ´
ìĦľ ê°Ģ
Ġì£¼ ë¬¸
ĠìĿ´ìķ¼ ê¸°ê°Ģ
Ġìĸ´ ìļ¸
ë°ľ ìĿĦ
ĠëĴ¤ ë¡ľ
ë¥´ ê°Ģ
ĠìĿ¸ê°Ħ ìĿĺ
Ġëĸ ¨
ĠíĻľëıĻ ìĿĦ
Ġê´ĳ ì£¼
Ġëª© ë¡Ŀ
Ġê°ľ ìĦł
Ġëĳ Ķ
Ġê¸Ī ì§Ģ
ìĥģ ìĹĲìĦľ
Ġìĸ´ëĬĲ ìłķëıĦ
Ġì¶Ķê°Ģ ë¡ľ
ĠìĤ¬ ì¿ł
ĠìĦł ìĸ¸
ĠìĥĿ ê²¨
ë³µ ìĿĦ
i e
ĠíķĦ ìĪĺ
Ġìľ Į
Ġ x
íķĺê²Į ëıĦ
Ġë³´ ëĦĪ
ĠìĿĺ íķľ
Ġì´ ī
ì¹´ ìĿĺ
íķ¨ ìĿ´
ĠìĦľ ë¸Į
ĠëħĢ ìĦĿ
Ġ200 6
ìĿ´ ìĹĲ
Ġê³³ ìĹĲ
Ġìĺ¤ íĨł
íŀĪ ê³ł
Ġëª¨ ë¥¸ëĭ¤
ĠìĪĺì¤Ģ ìĿĺ
Ġë°ľ ìĸ¸
ĠìŀĲ ê¸°ê°Ģ
Ġíıīê°Ģ ë¥¼
íģ¬ ëĬĶ
ĠëĿ¼ ë©°
ìĻĢ ìĦľ
ĠëĤ´ìļ© ìĿĦ
ëł¸ ê³ł
ĠìĹ ł
íĨ ¨
Ġëį°ë¯¸ ì§Ģ
Ġêµ¬ ë¶Ħ
ĠëıĦ ë¡ľ
íĦ° ìĿĺ
ar t
ë§Ī íĬ¸
ĠìļĶ ë¦¬
Ġíĸ¥ íķ´
Ġëªħ ìĿĺ
ê²Į ëıĦ
ĠëĤ ¸
I N
Ġìī¬ ìļ´
ë£¨ ê°Ģ
ì½Ķ ê°Ģ
ĠëĮ ĵ
Ġê°ķ ì¡°
Ġë°© íķ´
Ġì±ħ ìŀĦ
ĠìĥģíĻ© ìĹĲ
Ġë¶Ħ ìķ¼
ĠëĲĺ ë©°
Ġë§Ĳ íķ´
Ġë¶Ħ ë¦¬
ĠìĽĲ ê±°ë¦¬
Ġíķ´ ì£¼
Ġëª¨ ìķĦ
Ġê·¸ ëłĪìĿ´
Ġë³´ ì»¬
Ġê·¸ëłĩ ëĭ¤ê³ł
ëį ľ
Ġì§Ģê¸Ī ê¹Įì§Ģ
ĠìĤ¬ëŀĮ ëĵ¤
ĠëĶ° ë¥¸
i z
ĠëģĿ ëĤľ
u p
Ġê¶ģ ê·¹
ëĿ¼ ìĻĢ
P C
Ġë¹Ħ ë¡Ŀ
ìĤ¬ ìĹĲìĦľ
ĠìĿ´ìłĦ ìĹĲ
ì» ·
Ġë¶Ģ ëĮĢ
ĠìķĦë¬´ ëŀĺëıĦ
ë¦ ĩ
ĠìĽĲëŀĺ ëĬĶ
Ġìķ Ļ
ìľ µ
Ġíķµ ìĭ¬
ĠìŀĲìĭł ìĹĲê²Į
Ġìķ¼ ë§Ī
ĠíĪ¬ ìĪĺ
Ġë¬¸ìłľ ë¡ľ
íĤ¤ ë¥¼
ê° ĸ
ĠìķĮëł¤ ìł¸
Ġê³ł ìĨį
ĠìĹ´ ìĭ¬íŀĪ
ë¯¸ ëĬĶ
ì½Ķ ìĿĺ
ĠìľĦíķ´ìĦľ ëĬĶ
Ġê² ģ
Ġì£ ł
Ġë§Įëĵ¤ìĸ´ ì§Ħ
Ġëªħ ì¤ĳ
ê³µ ìĿĦ
íĻĶ ìĹĲìĦľëĬĶ
Ġì§ģ ìłĦ
ëĭĪ ìĬ¤
Ġìķł ë§¤
ìĿĦ ëķĮ
ĠìĿ´ìļ© íķľ
ìĨĮ ê°Ģ
Ġì´Ī ëĮĢ
Ġê²ĥìĿ´ ìĹĪëĭ¤
or d
íĻ Ģ
ì°¨ ë¡ľ
Ġë°ĶëĢĮ ìĹĪëĭ¤
Ġëª¨ íĹĺ
Ġ3 6
Ġë°ľ íľĺ
Ġê¾¸ì¤Ģ íŀĪ
ĠìĹĦ ë§Ī
Ġíļ¨ ìľ¨
Ġë°ĽìķĦ ëĵ¤
Ġíĭ Ī
ê³ł ëĵ±íķĻêµĲ
Ġë¯¸ ì¹ľ
Ġë¨¸ ë¦¬ë¥¼
ĠìłĲ ëł¹
1 1
ĠíĹĪ ìļ©
ĠíĥĢìĿ´ ë°į
ì¹ĺ ì§Ģ
Ġë¡ľ ë§Ī
ĠH P
Ġëª» íķ´
Ġë³ĳ ìĤ¬
íĥĢ ëĬĶ
ìŀĲ ëĵ¤
Ġë¶Ģ ë¥¸ëĭ¤
ì¦Ī ë¥¼
ëĭ¬ ëĿ¼ê³ł
Ġê±¸ ë¡ľ
ĠìľĦ ìĹĲìĦľ
ĠêµĲ íĨµ
ìĹĪ ìľ¼ëĤĺ
Ġê° ±
ìĭľ ëĮĢ
ë¬¼ ë¡ľ
Ġíŀĺëĵ¤ ëĭ¤
Ġì¤ĳ ìĿ´ëĭ¤
íĿ ĳ
ĠìĤ¬ìĭ¤ ìĿĢ
Ġê²ĮìŀĦ ìĿĺ
Ġê³ł ëĮĢ
íı¬ ë¥¼
Ġëĸ¨ìĸ´ ì§Ħ
ë¥´ ê¸°
ìĹŃ ìĿ´
Ġíĥľ ìĸĳ
ĠB G
Ġì²ĺìĿĮ ìĹĲëĬĶ
ì´ ī
ĠM P
ĠìľĦ ë¡ľ
ĠìĨį ëıĦê°Ģ
ìļ° ìĿĺ
Ġë³´ìĹ¬ ì£¼ëĬĶ
ĠíĽĮ ë¥Ń
íĿ Ĳ
ìĹĲìĦľ ë§Į
ĠíĿĶ íŀĪ
ĠìĦł ìłķ
Ġëĸ¨ìĸ´ ìł¸
Ġëĭ¤ ê°Ģ
ĠìĥģëĮĢ ìłģìľ¼ë¡ľ
Ġã ħ
Ġìĺ¤ ëĬĶ
ĠìĹĨ ê²Į
Ġ19 3
Ġë©Ģ íĭ°
ê°ģ ìĿĦ
ì²´ ë¡ľ
Ġëł Į
ĠëĮ Ħ
Ġê´ĳ ê³ł
ìĮ į
Ġê±´ ê°ķ
Ġm e
ĠìĬ¤íĤ¬ ìĿĦ
ì¹´ ëĵľ
Ġíĺķíĥľ ë¡ľ
Ġëĸ¨ìĸ´ ì§ĢëĬĶ
ĠìĥĿê°ģ ìĿĦ
ĠìĬ¤ ìľĦ
ë¥ ľ
ĠíķĺëĤĺ ê°Ģ
ìĿ¼ ë¡ľ
ĠëĦĺ ìĸ´ê°Ģ
Ġìĺ¨ ê°ĸ
Ġë§Į ì¡±
ĠìŀĦ ë¬´
êµŃ ìĿ´
Ġì§Ģ ê¸ī
o k
Ġê·¸ ëĵ¤ìĿĺ
ĠìĦ± íĸ¥
Ġë©¸ ë§Ŀ
ëł Ĳ
ĠíĮ ©
ĠìĤ¬ìļ© íķľ
Ġì²ĺìĿĮ ë¶ĢíĦ°
ë¡ł ìĿ´
ëŀĢ ëĵľ
Ġìĸ´ì© Ķ
ĠìłľìĻ¸ íķĺê³ł
Ġì¤ĳ ìĹĲìĦľëıĦ
Ġë§Ĳ ëıĦ
ĠìĿ¼ ìĸ´ëĤľ
ëł¥ ëıĦ
Ġë³¸ íİ¸
Ġëį ©
© ëĭĪëĭ¤
ĠëĬĺ ìĸ´ëĤĺ
Ġì¤Ħ ìĸ´ëĵ¤
ĠìķĦíĶĦ ë¦¬ì¹´
íĶĦ ìĿĺ
ĠëķĮ ë¶ĢíĦ°
íĨł ê°Ģ
Ġë§Ī ëł¨
ê·ľ ëª¨
ĠëĦ¤ ê°Ģ
Ġíı¬íķ¨ íķľ
Ġê²ĮìŀĦ ìĿ´
Ġë²Ķ ìľĦ
ìĦľ ìĿĺ
ĠìĨĶ ë¡ľ
ĠìķĦ ëĤĺ
Ġìľł ëıĦ
Ġìŀĳ ìĦ±
ê¶Į ìĿĺ
ìĿ´ìĹĪ ì§Ģë§Į
ê²© ìĿ´
A T
ĠìłĦ ìĪł
ĠìĹ° ì£¼
Ġíĺķ ìĦ±
Ġíĺ ľ
Ġê²¨ ìļ¸
Ġìĭľìŀĳ íķľ
ĠíķĦìļĶ íķĺëĭ¤
ëħĦ ìĿĺ
ĠíĻĪ íİĺìĿ´ì§Ģ
ìĥģ íĥľ
ĠëĤĺìģ ľ
Ġë°ĺ ìĺģ
Ġê±° ìłĪ
ĠìĦ¤ ê³Ħ
Ġê³µ íĨµ
ĠëĤ´ ë¶Ģ
Ġëª¨ ìŀĲ
Ġìĺ¤ íĽĦ
Ġì§Ħ íĻĶ
ìĦ¸ ìĿĺ
Ġ it
ĠíĮĢ ìĿĦ
ĠìĿĺ ìĭ¬
r a
ìĿ´ ëįĺ
ì¡° ê°Ģ
ĠìĬ¤ ì¹´
Ġì¹´ ìĺ¤
Ġê´ĳ ìĹŃ
ĠìķĪ íĥĢ
Ġë³´ ê¸ī
ĠìĿ´íĽĦ ìĹĲëĬĶ
Ġì¶Ķê°Ģ ëĲľ
Ġê´Ģ íĨµ
f f
Ġê±° ëŀĺ
íİ Ļ
ĠìĹ° ìŀ¥
ĠìĹĨ ìľ¼ë©°
Ġëĵ± ë¡Ŀ
Ġê²Į ìĭľ
ĠìĦľë¹Ħ ìĬ¤
ëĿ¼ ë¦¬
ê³¨ ìĿĦ
íĪ °
Ġë¸Į ëłĪìĿ´
Ġê¹ İ
Ġëĭ¹ íĻ©
ĠìĤ¬ê±´ ìĿ´
íķĺê¸° ë¡ľ
ĠìĤ´ ì§Ŀ
Ġêµ¬ ìŀħ
Ġì»¨ íĬ¸ë¡¤
r i
Ġë°¸ ëŁ°
Ġëĸł ìĺ¬
Ġëį° ìĿ´
Ġêµ¬ ì¶ķ
Ġë¬´ ê¸°ë¥¼
Ġê°ķ ìłľ
Ġì½Ķ ëĦĪ
Ġ100 0
ìĪĺ ìĻĢ
on t
Ġë´ī ìĿ¸
Ġê°Ģ ëĵĿ
Ġíİ¸ ì§ĳ
ìĦł ìĹĲ
ĠìĤ¬ëŀĮ ëĵ¤ìĿĦ
ìĸ Ģ
Ġìļ° ëł¤
ĠëĤ ³
ĠìŀĲ ìĤ´
ë¬´ ëĿ¼
Ġê·¼ ê±°
Ġë¶Ħ ìĦĿ
ī ĺ
Ġê³ł ëĵ±íķĻêµĲ
Ġì¤ĳ ëĭ¨
ìĿ¸ì§Ģ ëĿ¼
Ġëĵ± ëĵ±
ëħĦ ê¹Įì§Ģ
ëĭ¹ ìĿ´
Ġê·¸ëħĢ ë¥¼
ĠìĪĺ íĺ¸
Ġìĺ¤ ìĺ¤
íĥĢ ìŀĦ
ìĭľì¼° ëĭ¤
ìĿ´ ìĥģ
Ġì°© ìļ©
ĠìĤ¬ìĿ´ ìĹĲìĦľ
Ġë°©ìĭĿ ìľ¼ë¡ľ
Ġì§Ģ ìĺ¥
ĠíħĮ ëŁ¬
ĠíĶĦë¡ľ ëĵĢ
ĠíķĺëĤĺ ë¥¼
ì¹ĺ ê¸°
Ġì¥ ¬
Ġì¶ ¤
Ġë¬´ ìĦľ
ĠëĨĵ ê³ł
Ġìĭ¤ ì§Ī
ëģ¼ ë¦¬
ĠíĮĮ íĬ¸
ë©´ìĦľ ëıĦ
ĠM BC
ìĭľ íĭ°
ì°¨ íĶ¼
ëł ģ
Ġìĭ¤ ìĭľ
ĠìŀĪ ìľ¼ë¯Ģë¡ľ
ĠìĿ¸ ê¸°ë¥¼
Ġê·¸ ë¦¬ìĬ¤
Ġê°Ħ ëĭ¤
ë¦¬ ìķĪ
ìķĺ ì§Ģë§Į
Ġê°ľ ë´ī
Ġë§Įëĵ¤ ìĹĪëĭ¤
Ġìĸ´ ì°¨íĶ¼
ĠíĬ¸ ëłĪìĿ´
ìĤ¬ ìĿ´
ĠìķĬ ê¸°
íĶĦ ëłĪ
Ġíķ´ êµ°
ĠìĤ¼ êµŃ
ìļĶ ìĿ¼
Ġê¸°ë¡Ŀ íĸĪëĭ¤
ĠìĥĿê°ģ íķĺëĬĶ
ĠìĿĮ ìĭĿ
ëł ĺ
Ġì¦Ŀ ê±°
ëŁī ìĿĺ
ìĥ ·
ĠìķĬ ìľ¼ë©°
ĠëĮĢ ëĭ¤
ë¬¼ ìĿĺ
Ġëĵľ ëĿ¼ìĿ´
ĠìĻĦ ë£Į
ĠìĤ¬ëŀĮ ëıĦ
Ġ200 5
Ġê·¸ ë§Įíģ¼
ĠìĥģëĮĢ ìĿĺ
ĠëłĪìĿ´ ìłĢ
Ġì»´íĵ¨ íĦ°
Ġê³Ħ ìĤ°
Ġìļ© ë³ĳ
ĠíĿ¡ ìĪĺ
Ġëĵ¤ìĸ´ ìĺ¤
ĠìķĦ ëĭĲ
Ġì£½ ìĿ´
Ġ19 5
ĠìļĶ ìĭľ
ëıĦ ìĭľ
Ġê±° ëĮĢ
ĠìĹ´ ë¦°
Ġê´Ģ ê´ĳ
Ń ī
Ġë³´ ìŀĲ
íķĺê¸° ìĹĲ
ĠìĹħê·¸ ëłĪìĿ´ëĵľ
ë© į
Ġëĳĺ ìĿ´
ĠìĬ¤íİ Ļ
ĠìĿ¼ ì¢ħìĿĺ
ë³´ ê°Ģ
l ay
Ġê·¸ ëĭ¤
Ġë²Ĺ ìĸ´ëĤĺ
Ġê²ĥ ìĿ´ëĿ¼
ë¶ ķ
Ġìĥ Į
Ġìľł ìļ°
Ġ200 4
ĠëĴ¤ ì§ĳ
ëĤĺ ëĭ¤
ĠëıĻìĿ¼ íķľ
Ġë§Ī ìĤ¬
Ġê·¸ ëıĻìķĪ
ìĸ´ ìł¸
Ġìĸ¼êµ´ ìĿĦ
Ġì¶ľ ë°ľ
ĠìĿ´ìĥģ íķľ
ĠíĸĪëĭ¤ ê³ł
P S
Ġë§Īì§Ģë§ī ìľ¼ë¡ľ
ìĹĪ ìľ¼ë©°
ìŀĲ ëĵ¤ìĿĦ
Ġìŀ¬ ë£Į
ë¡ľ ëĤĺ
ĠëĤ´ìļ© ìĿ´
Ġê·¸ëłĩ ì§Ģ
ìķĦ ìĽĥ
Ġê²ĥ ìĿ´ëĿ¼ëĬĶ
at e
ë§Į ìĿĢ
ìŀĪ ëįĺ
ĠíĻ© ê¸Ī
Ġìĭł ì²´
Ġëĸ ¼
ĠìķĬ ìķĦìĦľ
Ġìĥģíĥľ ê°Ģ
ĠìĿ´ ëĿ¼
Ġë²Ħ íĬ¼
o ve
ĠìķĦ ìĭľìķĦ
Ġìĸ´ ì¨
ì¤¬ ëĭ¤
Ġëĭ¹ìĭľ ìĹĲëĬĶ
Ġëª» íķł
ĠíĮ¨ëŁ¬ ëĶĶ
ë¬ µ
Ġì½Ķ ë¯¹
ĠìĦ¤ ëĵĿ
Ġê²½ ìĺģ
ìĨĮ ëħĢ
ê» ı
Ġë°° ìĭł
ìłĲ ìĹĲìĦľ
Ġê±° ì³Ĳ
Ġìĺ¨ ëĿ¼ìĿ¸
Ġë°Ģ ëł¤
ìłĦ ìĤ¬
ĠìĭľëĤĺ ë¦¬ìĺ¤
Ġíı¬ ìĿ¸íĬ¸
ĠëĮĢ ë¡ľ
íĨł ë¦¬
Ġê·¸ ê³³
ĠëĵĢ ìĸ¼
ĠíĪ¬ íĳľ
ëį ©
ê¸° ìĿ¸
íķĺ ìĿĺ
ë¹Ħ ìĿĺ
ê¸° ìĪł
íķĺ ëŁ¬
Ġì¤ĳ ê°ĦìĹĲ
Ġìķ½ íķľ
Ġê¸° íļį
Ġê·¸ê²ĥ ìĿ´
íĻĶ ë¡ľ
ĠìķĪ ìĬµ
íĭ° ìĸ´
ê¸´ ëĭ¤
ìĬ¤ ìĹĲê²Į
ĠìķĦ ìĽĥ
ĠëĤ´ ëĤ´
ëĲĺ ëĬĶëį°
ĠìĿĺ ìĤ¬
ĠìĻĢ ìĦľ
ĠëĿ¼ ëĶĶìĺ¤
ìĦ± ìľ¼ë¡ľ
ê³ł ìĨį
Ġì§Ħ ìĺģ
ĠëĿ¼ ìĿ´íĬ¸
ë¨¹ ëĬĶ
ĠI n
ĠìķĦë¬´ ëıĦ
Ġê·¸ê²ĥ ìĿĢ
ëıĦ ìļ°
ĠìĺĨ ìĹĲ
íķĺ ê¸´
Ġê·¸ê²ĥ ëıĦ
es t
ì¹ĺ ìĹĲ
ĠìĿĢ ê·¼
ëĲĺìĹĪ ëĬĶëį°
Ġëĭ¨ ëıħ
Ġ200 2
ìļ© ìĿĦ
Ġíĥĳ ìĬ¹
c m
ìłĲ ìĹĲ
ëįĺ ê°Ģ
ëĭ¹ ìĿĺ
ĠìĽĲ ìłķ
t t
Ġê± ·
ĠëłĪ ìłĦ
ĠìĥĿê°ģ ìĿ´
ì¡° ë¥¼
ë¦¬ ìĬ¤íĬ¸
ìĬ¤ íĤ¬
ê º¼
ìķĺ ëĬĶëį°
ĠìķĦë¬´ ëŁ°
in d
ĠëĳĲ ëł¤
ê´Ģ ìĿĺ
ĠN o
Ġì¹´ íİĺ
ĠìķĬìķĺ ê³ł
ĠìĦł ë°°
Ġëĭ¤íĸī íŀĪ
Ġíķ ¸
Ġë§Ĳ ìĿ´ëĭ¤
ĠìĤ´ ê³ł
Ġ9 9
ĠíŀĪ íĬ¸
Ġë³´ ìĥģ
Ġë§İ ìķĺëĭ¤
íĶ¼ ìķĦ
ëĲĺ ê¸°ëıĦ
ĠìĬµ ê²©
Ġë²Ħ íĭ°
ìķĺ ìĿĦ
Ġë§Įëĵ¤ ê³ł
I A
Ġë¶Ī ë¦¬ëĬĶ
ìĪĺ ìĹĲ
ĠëĪĪ ì¹ĺ
ìĺ¤ ê°Ģ
ë¥´ íĬ¸
ë°© ìĿ´
ëł Ļ
ĠìŀĪìĸ´ ìķ¼
Ġì»¤ë®¤ ëĭĪíĭ°
i a
ĠëĦ ¥
Ġ3 4
ĠìĤ¬ìĭ¤ ìĿ´
Ġë´ Ħ
ëŁī ìĿĢ
ĠíıŃ íĥĦ
Ġíķ´ ê¸Ī
Ġìłķë§Ĳ ë¡ľ
Ġë§Ī ëĤĺ
Ġë²Ħ íĶĦ
ì° ¾
Ġ7 5
ìłĦ ìĹĲìĦľëĬĶ
ĠíĥĢ ìŀĦ
Ġìŀ¬ ìĥĿ
ĠìĿ´ ìĤ¬
Ġëĵ¤ìĸ´ ìĦľ
ĠI I
Ġíķ´ ìĦ¤
Ġëĵ¤ìĸ´ ê°ĢëĬĶ
Ġë§Ĳ íķł
ĠìĹĲëĦĪ ì§Ģ
Ġìĵ° ì§Ģ
Ġì»¤ ë²Ħ
Ġf or
Ġìľł ëŀĺ
Ġë§Ī ì£¼
Ġíķĺ ëĭ¤ê°Ģ
ëĴ ¤
ĠìĭľìłĲ ìĹĲìĦľ
ê°Ģ ìĹĲ
ì¦Ŀ ìĿĦ
ĠìĿ¸ ìĤ¬
íĥĢ ìĿĺ
ë² ¼
Ġê°Ĳ ìĹ¼
I C
Ġíģ´ ëŁ½
Ġìĸ´ ì§¸
ëĵ± ìĿĦ
ĠëĲ Ĳëĭ¤
Ġë¯¼ ì¡±
íĮĲ ìĹĲ
ìķĺ ëĭ¤ê³ł
êµ¬ ë¡ľ
ìĦ ¬
ĠìĻĢ ì¤ĳìĹĲ
Ġìı ŁìķĦ
ĠìĪ¨ ê²¨
ìĺĢ ìľ¼ë©°
ĠìķĦë¬´ ê²ĥëıĦ
ëĵ¤ ìĿ´ëĭ¤
Ġê³µ íĻĶ
Ġì¢ħ íķ©
Ġë§Ĳ íķľ
Ġíĺ¼ ëŀĢ
Ġíķĺ ëįĺ
íĨ ±
ë§Ĳ ìĿĦ
ĠìĿĺë¯¸ ê°Ģ
ì¹ĺ ìĻĢ
Ġê±° ì£¼
ìĤ¬ ê±´
ĠìĹĨìĹĪ ëįĺ
ĠìĤ¬ ëł¹
ìĽĲ ëĵ¤ìĿ´
ìĭľ ê³ł
Ġìĸ´ì¨ Į
ĠìłĦ ìŀĲ
ìĦł ìĿĢ
ĠìłķëıĦ ëĬĶ
ĠìĿĺ ìĭĿ
ĠìĻ¼ ìª½
ĠëĨĢ ëĿ¼
Ġì°¨ ë¡Ģ
Ġê·¸ëħĢ ê°Ģ
ĠíĿ °
Ġìłľ ìķĪ
íķ´ ìł¸
ìĽĲ ê³¼
Ġìŀħ ìĿĢ
ĠëĤľìĿ´ ëıĦê°Ģ
Ġ199 0
íģ¬ëŀĺ íĶĦíĬ¸
ĠëķĮ ëł¤
Ġìłģ ìĹĲê²Į
ĠìĤ ½
ìĦ °
ĠíĶĮëłĪìĿ´ ìĸ´ê°Ģ
ì¼ Ħ
ë ĺ
Ġë¬´ ëĤľ
ĠìĤ° ìĹħ
ê²ĥ ìĿ´
Ġê° ĵ
Ġì½ ©
Ġìĺ¤íĶĦ ëĭĿ
ĠíĸīëıĻ ìĿĦ
Ġë¶Ļ ìŀ¡
ê±° ë¦¬ê°Ģ
ì¿ ¨
Ġëĵ¤ìĸ´ ê°Ħ
Ġë½ĳ ìķĦ
Ġê±´ ëĦĪ
ë£¨ ë¥¼
Ġìĸ» ìĿĢ
Ġíķĺ ê¸°ëıĦ
Ġë§Į ëĤľ
Ġë¶Ģ ìĥģ
ĠìķĦì§ģ ëıĦ
ĠìĬ¤íĥ ł
ĠìĿĺ ëıĦ
ĠT h
ê¸° ìĹĲëĬĶ
ĠìļĶ ì¦ĺ
Ġê·¸ëĭ¤ ì§Ģ
Ġìĺģ ìĽĲ
ĠëĤĺìĺ¤ ëĬĶëį°
íĻĶ ëĬĶ
Ġìĭł ë¢°
Ġê°ĸ ì¶Ķ
Ġë¡ ±
ëħĦ ê°Ħ
ìĺ¤ ìĿĺ
Ġì±Ħ ìļ©
ĠíĿĶ ëĵ¤
ë¹Ħ ëĬĶ
ëĶĶ ìħĺ
ê¶Į ìĹĲìĦľ
Ġìĸ¸ ëĭĪ
ë°Ľ ìķĦ
íĮ ¡
Ġëįķ ìĹĲ
ëĤ ©
ìĭ ¼
ìĨĮ ëħĦ
Ġì¿ Ħ
Ġìĸ´ì© Į
Ġê³µ ë¶Ģ
Ġì§ĳ ìķĪ
íĨł ìĿĺ
íķ´ ì£¼ëĬĶ
íĮĲ ìĹĲìĦľëĬĶ
ĠëĪĪ ìĿ´
Ġê³ĦìĨį íķ´ìĦľ
Ġê·Ģ ì¡±
Ġë°ķ ìĤ´
Ġê´Ģ ìĭ¬ìĿĦ
ëĵľ ë¦¬
Ġì§ĳ ëĭ¨
ĠíĻķë¥ł ë¡ľ
Ġëį° ìĬ¤
Ġë¬´ ëł¥
ĠìĿ¼ë¶Ģ ëŁ¬
Ġê º
íķĺì§Ģ ëĬĶ
Ġê°ľ íİ¸
ĠìĿ´ ëŀĢ
Ġëŀ ĺ
ĠíĻľìķ½ ìĿĦ
Ġì° °
Ġë± Ģ
ëĮĢ ìĻĢ
ĠëıĻ ë§¹
Ġì¶Ķê°Ģ ëĲĺìĹĪëĭ¤
Ġ is
Ġìľ¡ êµ°
Ġë°Ķíĥķ ìľ¼ë¡ľ
Ġìĸ¸ìłľ ëĤĺ
Ġë§Į ìĹĲ
Ġëħ¸ëŀĺ ë¥¼
ĠíĨµ íķ´ìĦľ
ĠìĹŃ ìłĦ
Ġê°Ģê¹Į ìĿ´
Ġì¡´ìŀ¬ íķĺëĬĶ
Ġíķ ĳ
íĨł ë¥¼
O R
Ġê°Ģ ë¡ľ
Ġë³´ìĹ¬ ì¤Ģ
Ġë¶Ģë¶Ħ ìĿĢ
ìĸ´ ì£¼
Ġê°Ģë©´ ëĿ¼ìĿ´ëįĶ
ê³¼ ë¥¼
ĠìĪĺ ìļĶ
4 8
A M
Ġìĵ´ ëĭ¤
ĠR e
ìħ ĭ
ìĤ Ń
íĺķ ìĿĺ
Ġì£¼ ëıĦ
ĠìĤ¬ íķŃ
ì§Ħ ìĿĢ
ê´ĳ ìĹŃ
ĠëķĮë¬¸ ìĿ¸ì§Ģ
Ġëª¨ ìħĺ
íķł ëķĮ
Ġë©Ķ ê°Ģ
ĠìĿ´ ëĵ¤
ĠëĮĢ ê³µ
ĠìĦľ íı¬
ê³Ħ ë¡ľ
ĠìĿ´ ëĵ¤ìĿ´
an t
Ġë°Ľ ê²Į
e a
ëĲĺ ìŀĲ
ĠìŀĲ ë£Į
Ġë§¤ ìĿ¼
Ġê±° ë¦¬
ëĳ ĳ
Ġê ¶¤
ìļ° ë¥¼
ĠìĤ¬ ìĥģ
Ġì£¼ ëł¥
Ġë¡ľ ì¼ĵ
ĠìĨĮ ìļ¸
ìĭľ ìĻĢ
ìĬ¤íĬ¸ ë¡ľ
Ġê¸ į
Ġë§İ ê³ł
ĠìĪľ ìĭĿ
ĠíĻķë¥ł ìĿ´
íķ´ ì§ĢëĬĶ
ĠìłĦ ëĭ¬
Ģ ëĭ¤
¼ Ī
Ġìĺģ ìĥģìĿĦ
ĠíĥĦ ìĥĿ
Ġëª© ìłģ
Ġë¹Ħ íķĺë©´
Ġëĵľ ëĶĶìĸ´
ë¥´ íģ¬
ĠìŀĲ ë¦¬ìĹĲ
Ġëį° ë¦¬ê³ł
ĠìĻ¸ ìĹĲ
Ġë£ °
Ġëį ®
Ġë¶ķ ê´´
ĠìĻ Ķëĭ¤
ìĦł ìľ¼ë¡ľ
Ġëĭ ¿
Ġë°©ë²ķ ìĿĦ
íĦ° ëĬĶ
ë ¿
ĠêµŃ íļĮìĿĺ
íķĻ ìĿĦ
Ġê±¸ ëł¤
Ġë§Ĳ ìĿĢ
Ġìłģ ëıĦ
ë©´ ìĿĦ
Ġë¶Ī íİ¸
Ġëĳĺ ëŁ¬
ĠìķĮ ëłī
Ġëŀľ ëį¤
Ġì¡° ìłķ
Ġê¸Ģ ìĿĦ
ĠëĲĺ ìŀĲ
ëĲĺìĹĪ ëįĺ
íĮĲ ìĿĺ
O S
ìķĦ ìĿ´
ĠìķĦìĿ´íħľ ìĿĦ
ĠìĬ¤íĥ ¯
Ġì²ĺ ì¹ĺ
ë§Į ìĽĲ
Ġê¸° ìłĪ
ê°Ģ ìĻĢ
ĠìķĮëł¤ ì§Ħ
ê´Ģ ìĿĢ
íħ į
íķĺìĺĢ ìľ¼ë©°
ĠëĳĲ ë²Īì§¸
ĠìĤ¬ëŀĮ ëĵ¤ìĿĺ
Ġìĭ¤ íĸī
Ġì¹ĺ ê³ł
ê±° ìļ´
Ġê¸° íļĮë¥¼
Ġìĵ° ëłĪ
ĠìĬ¤ íĤ¨
ì» ´
ĠìłĦì²´ ìłģìľ¼ë¡ľ
Ġìĭľ íĸī
ëĭĺ ìĿĺ
Ġë¦ ´
Ġê³µ ìľł
Ġíİĺ ë¥´
ë¦¬ ëĭ¤
Ġ20 21
ìłĢ íŀĪ
ĠìĪľìĭĿ ê°ĦìĹĲ
ê°Ģ ëĿ½
Ġíķĺ ìľĦ
ê±° ë¦¬ëĬĶ
ëĤĺ ë¬´
Ġì±Ħ ë¡ľ
Ġì»¨ íħĲì¸ł
Ġë¶Ģì¡± íķľ
el l
ĠìķĪ ëĲĺëĬĶ
Ġì¹´ ì¦Ī
Ġë³´ ìĪĺ
ĠìĺĽ ëĤł
Ġê°Ģ ìŀħ
ìĦ¸ íĬ¸
Ġë³µ ìŀ¡
Ġë¬ µ
ëķ ħ
Ġë¬¸ ìĿĦ
Ġë§ĪìĿĮ ìĹĲ
Ġìº Ķ
ĠëĤ© ì¹ĺ
Ġì£¼ ìĸ´
ë¡ ¬
Ġíķľ ëķĮ
Ġë³´ìĹ¬ì£¼ ìĹĪëĭ¤
ĠëĽ° ìĸ´ëĤĺ
Ġìłķ ê¸Ģ
Ġìķ¡ ìħĺ
Ġìŀ¬ ëĬ¥
ë³´ ëĭ¨
ĠìĪĺì¤Ģ ìľ¼ë¡ľ
ë¦ ī
Ġë¶Ī ëªħ
Ġê·¼ ë¬´
Ġê·¸ ëĵ¤ìĿĢ
ĠíĻ© ìłľ
p s
ê¸ī ìĿĺ
Ġì¶© ëıĮ
Ġì¶Ķìłķ ëĲľëĭ¤
êµ° ìĹĲ
Ġì£¼ìĿ¸ê³µ ìĿ´
ëĶĶ ìķĦ
Ġìĺ¬ ë¦¼íĶ½
ĠëĿ¼ìĿ´ ë²Į
Ġìłľ ì¡°
ĠëıĮìķĦ ìĺ¤
Ġ0 1
g r
ë²Ħ ë¦¬ê³ł
Ġ3 8
ĠìĪĺ ìŀħ
ĠìłĪ ë°ĺ
Ġê·¸ëŁ° ì§Ģ
ĠìĬ¤íĬ¸ ë¦¬
Ġë¹ Ķ
e e
Ġìª½ ìľ¼ë¡ľ
ìĿ´ìĹĪ ëĬĶëį°
Ġë³´ ìĿ´ê³ł
Ġê¹ ĬìĿĢ
Ġê³³ ìĹĲìĦľ
ĠíħĮ ë§Ī
ìŀĲ ëıĦ
Ġë°©ë²ķ ìĿ´
Ġìĭľ ëĤ´
ë£¨ ìĿĺ
ĠìĻ¸ ëª¨
Ġê·¸ ëŀ¬
ëĬ¥ ëł¥
ìĭľ íķľ
Ġì¡° ì¤Ģ
ë¯¼ ì£¼
ĠìŀĪ ê¸´
ë³Ħ ë¡ľ
ĠìłķíĻķ íŀĪ
ĠëĤ´ ìĹĲ
Ġê³µ ìĿĦ
ĠíĿĺ ëŁ¬
Ġìłľ ë¡ľ
ĠëĤ ļ
ëĵ¤ìĹĲê²Į ëĬĶ
êµŃ ìĿĦ
Ġìĭł ê·ľ
Ġìĺ¤ë¥¸ ìª½
ĠëķĮ ìĹĲëĬĶ
Ġêº¼ ëĤ´
ĠìķĦëĭĪ ìĹĪëĭ¤
ĠëĦĪë¬´ ëĤĺ
ë İ
ĠíĨµ íķľ
ĠíĻį ì½©
it h
ìĥī ìĿ´
Ġìĭ¬ê°ģ íķľ
ĠëıĮ íĮĮ
Ġë°ľ ìĿĮ
Ġëĭ¨ ì§Ģ
Ġìĭľ ìŀ¥
l d
Ġê°ľ ìĿĺ
Ġê »
ĠìĦ±ëĬ¥ ìĿ´
ìĦł ìĹĲìĦľ
00 00
ĠíĸĪ ìĿĦ
Ġìłķ ì²´
Ġíģ´ ë¡ľ
ìĭ¤ ìĹĲ
Ġë®¤ ì§ģ
Ġëĭ¨ ìłĲ
ê¸° ìĹĲìĦľ
Ġê³¨ ëĵľ
ëŀ ©
ëľ ©
Ġìĥģ íĴĪ
ĠìĹ¬ ê²¨
ëĲ ¨
ĠìĹĲ ìĸ´
ê¶Į ìĹĲ
Ġìĭł ìĿĺ
ìĬ¤íĬ¸ ë¥¼
ë¥ĺ ê°Ģ
ëħĦ ìĿĦ
ë¦¬ ëĤĺ
Ġë°©ìĨ¡ ìĿĦ
ë£¨ ìĬ¤
ìĽ ¨ìĸ´
ĠíĻĶ ìĤ´
Ġëįĺ ìłĦ
ìĻķ ìĿ´
Ġìķķ ë°ķ
A C
ĠìĿµ ìĪĻ
Ġë¥ ´
ĠS P
Ġë§ĪìĿĮ ìĿ´
ĠíĻĶ ëł¤
ĠìĤ¬ìļ© íķĺë©´
ĠìĿ´ ìĬ¤
ã ĥ
Ġëĵľ ë¦½
Ġ200 3
ĠìĨĮ ë¦¬ê°Ģ
ìĤ¬ ìĿ¸
Ġc om
ĠìĿ´ë¦Ħ ìĿĺ
Ġìłľ ê¸°
Ġì·¨ ìĨĮ
Ġê° Ĵ
ìľ¼ ëł¤
Ġê³µê²© ìĿ´
ĠíĮĲ íĥĢ
Ġíķľ ë§Ī
ĠìĹĲ ìĿ´ìĬ¤
ĠìĥĿ ê²¼ëĭ¤
ë§Ī ìĬ¤
Ġíı ¼
ĠìĹ¬ëŁ¬ ê°Ģì§Ģ
Ġíı¬ ë¥´
Ġìµľ ìķħìĿĺ
is t
Ġìľ µ
Ġëħ¸ íĬ¸
Ġíķĺ ëįĶëĿ¼ëıĦ
ìĵ ¸
ìķħ íķľ
Ġíı °
ĠëĲľ ëĭ¤ëĬĶ
Ġì¡° ìĭ¬
ë£ ©
u e
ĠìĦ¸ íĬ¸
ĠëıĻ ìķĦ
Ġì¦ī ìĭľ
Ġë¨¹ ìĿĦ
Ġìĭ¤ìłľ ë¡ľëĬĶ
íİ ´
íĻ Ī
ĠìĹŃ ìľ¼ë¡ľ
ĠìĻ ĢìĿ´
A L
ìĿĢ íĸī
ì¤ĳ íķľ
Ġì´Ī ìĽĶ
Ġë³¸ê²© ìłģìľ¼ë¡ľ
ĠS h
Ġëį ´
Ġëĭ¹ìĭľ ìĿĺ
ĠíĨµ ìĿ¼
ì į
Ġêµ¬ ëĭ¨
ĠK T
Ġëª° ëŀĺ
Ġëª¸ ìĿ´
íĸĪëĭ¤ ê°Ģ
ë³ĳ ìĿĦ
Ġë¯¼ ê°Ħ
Ġê´Ģê³Ħ ë¥¼
i f
ëį ±
Ġìł ł
ĠìĦł íĺ¸
l y
Ġìĸ´ ê¹¨
ĠëıĮ ê²©
ĠìĿ´ë¯¸ ì§Ģ
ĠìĿ¼ë°ĺ ìłģìľ¼ë¡ľ
ĠìĨĮ ë©¸
ĠëĲĺ ëıĮ
ë¹ ¨
Ġê¸ Ģë¡ľ
ìĤ° ìĿ´
1 2
Ġìłľ ìĿ´
Ġíİ¸ ìĿ´
Ġëĭ¤ëĭĪ ëĬĶ
íĮĲ ìĿĢ
ĠìķĪ ìĹĲìĦľ
ìĭľ ë¦¬ì¦Ī
ĠëķĮ ê°Ģ
ìĭ¤ ìĿ´
Ġê³µ ì£¼
ì¥ ¬
ĠìĿ´ìª½ ìĿĢ
Ġíķ´ ìłľ
ìĿ į
ĠëĶĶ ìĬ¤
íĥ Ĳ
ëĤ´ ë©°
Ġë°ĺ ëŀĢ
ĠS T
ĠìĥĿ ë¬¼
Ġë¬¼ ëŁ¬
ìĺĢëĭ¤ ê³ł
ĠëĦ Į
ĠêµĲ íĻĺ
ëħ ģ
L C
ìĿ¸ ìĹĲê²Į
Ġìĭ¸ ìļ°ëĬĶ
Ġì£¼ ëª©
ëĭ «
Ġì¦Ŀ ëªħ
Ġëį°ë¯¸ ì§Ģê°Ģ
ìĦ¼ íĦ°
íĸĪ ìĬµëĭĪëĭ¤
Ġì¶Ķ ì§Ħ
ëŁ¬ ë¥¼
ì¹´ ë¥¼
Ġë§¡ ìĿĢ
ar d
Ġê¹Ģ ìĦ±
ìĽ ¨ìĿ´
Ġê´´ ë¬¼
Ġìĺ¤ ë¡ľ
ĠìĿĺê²¬ ìĿ´
ĠìĬ¤ íĶĦ
Ġì¹´ìļ´ íĦ°
Ġíħ Ķ
Ġëĵ¤ ìĿĢ
ìĨį ëıĦ
Ġìĵ°ëŁ¬ ëľ¨
ĠìķĦ ë¹ł
ìĺ¤ ë¥¼
Ġêº ¾
Ġìŀ¥ ìķł
Ġë¬´ ê²Į
ì¢ ĭ
Ġì¡°ê¸Ī ìĶ©
Ġê³ł ìľł
ĠìĿ¸ ì§Ģ
Ġìĭł ì²Ń
Ġëĺĳ ê°ĻìĿĢ
ĠêµĲ ìĪĺ
ĠP S
i ve
íĨ °
ëł¸ ìĿĦ
Ġíħ ľ
Ġì§Ħ ìłķíķľ
ĠìĿ´ ë¥´
ĠìĹ° ìĺĪ
Ġëĭ¹ íķľ
ëĵľ ìĹĲìĦľ
Ġëĸ¡ ë°¥
on e
ìļ´ ëĭ¤
Ġê· ł
ê°Ģ ëĬ¥
Ġê·¸ëŁ¼ ìĹĲëıĦ
ĠíĽĦ ìĹĲëĬĶ
Ġë°©íĸ¥ ìľ¼ë¡ľ
Ġíģ¬ ë¦¬
ĠíĮ¨ ì¹ĺë¡ľ
Ġìľł íĤ¤
Ġìĵ° ë©´
Ġëª¨ìĬµ ìĿĢ
Ġê±° ëĿ¼ê³ł
Ġëª» íķĺê²Į
Ġê³ł ê¸ī
Ġëª ¹
Ġê´ľì°® ìĿĢ
ĠìĿ´ ëŀĺ
ìĭĿ ìĿĢ
íĿ ¡
ĠìĿ´íĽĦ ë¡ľëĬĶ
ĠìĿ´ ë¡ł
ê³Ħ ìĹĲìĦľ
Ġë¶Ļ ìĹ¬
ê¹Į ì§Ģë§Į
ìĹ° êµ¬
Ġëª¨ëĳĲ ê°Ģ
Ġíĺ¼ìŀĲ ìĦľ
Ġì£½ ëĬĶ
Ġê²¬ ìłľ
Ġë§ŀ ìĿ´
ĠìŀĲì²´ ë¥¼
Ġìŀ¥ ìłĲ
Ġêµ¬ íĺĦ
Ġ3 7
ĠíķľêµŃ ìĸ´
ê¹ Ķ
ĠíĶ¼ ìķĦ
Ġìĺ¤ ë¹ł
ë§ĪìłĢ ëıĦ
Ġìĸ¸ ìĸ´
ĠìĤ¬ê±´ ìĿĦ
Ġë¹ĦìĬ· íķĺê²Į
ĠëĮĢ ìŀ¥
er s
ĠíĶĦë¡ľ íĨł
an g
ë¯¸ ëĦĲ
Ġìŀĳ ìłĦ
Ġê³ł ìĥĿ
Ġì½¤ ë³´
Ġíĺķ ìłľ
ĠìĦ± ìłģ
ĠìĿ¸ êµ¬
Ġë° Ł
Ġìłģ ìĸ´ëıĦ
ë© ľ
ĠìĿ´ ëĵ¤ìĿĺ
Ġëį §
ĠìĿ´ ìĬ¹
ĠíĮ¨ ìĭľë¸Į
ĠìĪĺ ë¦¬
Ġë°© íĮ¨
Ġëª©ìĪ ¨ìĿĦ
ëĵľ ëĿ¼
ĠìĹ¬ ìľł
Ġë¶Ģë¶Ħ ìĿĦ
ëĥĲ ë©°
Ġìĭ¤ ëł¥
ĠìĥĿ ê²¼
ĠëĤ Ń
ĠíħĮ ìĿ´
Ġëĺĳ ê°ĻìĿ´
ĠA P
Ġëª¸ ìĹĲ
ĠëıĮ ì§Ħ
Ġë©Ķ íĥĪ
Ġë¶Ģ ì§Ħ
Ġê°¤ ëŁŃ
ĠìĬ¤ ë§ĪíĬ¸
Ġì£¼ ì§Ģ
Ġê²½ ê¸°ëıĦ
ĠíĺĦìŀ¬ ìĿĺ
ĠíĮĢ ìĿĢ
Ġê³¡ ìĿĦ
ĠìķĪ ëĵľë¡ľ
ê¼ ¬
A S
ĠíĶĮ ëĿ¼
Ġì§ Ŀ
Ġë³´ ìĿ´ë©°
Ġê²© íĪ¬
ĠìĬ¤íĮĮ ìĿ´
ĠíĬ¸ ëłĪ
Ġë§Īì§Ģë§ī ìĹĲ
Ġì¶Ķ ëĿ½
Ġê¹Į ì§Ģ
Ġb ack
Ġìĸ´ëĸ ł
ĠìĹ¬ëŁ¬ ëª¨ë¡ľ
ĠìĦłìĪĺ ê°Ģ
V E
Ġìĸ´ëĶĶ ê¹Įì§Ģ
ĠíĢ Ħ
ì ¾Į
ĠíķĺëĤĺ ìĿ¸
Ġê³³ ìĿ´
ĠíħĮ íģ¬
ê°Ģ ê³ł
Ġëħ¸ ì¶ľ
íĹ ¨
ĠìĿ´ ëĵĿ
ìķ¼ ê°Ģ
Ġë§Ī ëħĢ
ì±ħ ìĿĦ
ĠíĻĶ ìŀ¥
íĥ ±
ê²ł ì§Ģ
Ġ or
Ġë¹¨ ê°Ħ
Ġì¡° ê°ģ
Ġìµľ ìĥģ
ĠìľłìłĢ ëĵ¤ìĿ´
ë¸Į ë¥¼
ĠëĮĵ ê¸Ģ
Ġìĸ¼ ìĿĮ
er e
ìĺ¤ íĶĦ
Ġë¡ľ ëĵľ
ĠëĦ¤ìĿ´ ë²Ħ
ì¦Ī ëĬĶ
Ġìŀħìŀ¥ ìĹĲìĦľëĬĶ
Ġëģ Ķ
ìĿ¼ ê¹Įì§Ģ
íķ´ ë³´
Ġë£ Į
ëĦĲ íĭ°
Ġë¬´ ìĸ¸
Ġìłľ ë²ķ
ĠëĮĢì²´ ë¡ľ
ĠëĤ´ ëĬĶ
Ġìĵ° ìĿ´ëĬĶ
ë¥ĺ ë¥¼
ìĭľê°Ħ ìĿ´
Ġíķ Ģ
ĠìĺĪ ìĪł
Ġìĥģ íĸ¥
Ġm y
ĠíĻį ë³´
ëħĦ ëıĦ
ĠS p
ê²½ ìĿ´
ìŀĳ ìĿĦ
ìĹ° ìĿ´
ìĹŃ ìĹĲìĦľ
Ġë§ ĺ
ìĿ¸ ëĵ¤ìĿĢ
Ġê¸°ëĬ¥ ìĿĦ
íĺķ ìľ¼ë¡ľ
Ġë°ĺìĿĳ ìĿĦ
íļĮ ëĬĶ
Ġìħ °
ĠìĦ Ń
ëĭĪ ê°Ģ
Ġìłķ ëĭ¹
ĠìľĦ íķĺìĹ¬
Ġê·¼ ìľ¡
Ġê³µ ìĤ°
Ġ4 8
ìĿĺ ê°Ģ
ê¸° ê°Ħ
ìķĪ íĥĢ
íľ ´
ë¬´ ìĽĲ
Ġê²ĥìĿ´ ê³ł
Ġì²« ë²Īì§¸
Ġì²´ íı¬
ĠM S
Ġìĸ» ëĬĶ
ë©´ ìĹĲ
êµĲ íĨµ
Ġìĺ¬ ë¦¬
ĠìĿĳ ìĽĲ
Ġë³¸ìĿ¸ ëıĦ
íĺ¸ ìĦł
ar g
ìĤ¬ íķŃ
ĠìĹ° ê³Ħ
Ġê·¸ ìĹĲê²Į
íĺķ ìĿĢ
ĠìĤ¬ì§Ħ ìĿĦ
ĠëĦĺ ëĬĶ
Ġìļ´ ìłĦ
ĠìĹĨ ìķł
ĠíĽ Ķ
Ġê°Ĳëıħ ìĿ´
ë¡ľìĦľ ìĿĺ
Ġíı¬ ìĿ¸
Ġê°ĳ ìĺ·
ĠìķĶ íĿĳ
ĠìĿ´ ê±°
ĠìķĬìķĦ ëıĦ
ë Ĩį
ì§Ģ ì»¬
Ġê²½ ê¸°ê°Ģ
a in
Ġì£½ ìĹ¬
Ġë§Įëĵł ëĭ¤
Ġëŀ ©
Ġê°Ģ ìĿ´
ĠìĦ±ëĬ¥ ìĿĦ
Ġì§ĳ ìĸ´
c t
ĠëĮĢ ë¥Ļ
Ġì§ ¤
ì© ¡
ìĺ ¹
ĠìĿ¸ ìĥģ
Ġìĸ´ ì§Ģ
Ġíĳľ ì¤Ģ
ëª¨ ë¦¬
Ġìª½ ìĿ´
íķĺë©´ìĦľ ëıĦ
ĠëĦĵ ìĿĢ
ìĤ¬ ì¹´
ë¶Ģ ìĻĢ
íİ ł
Ġì¡° ìļ©
ĠëıĻ ìĽĲ
ìĹĨ ëĭ¤
ìĬ¤ íĮħ
ĠN PC
Ġìļ°ìĬ¹ ìĿĦ
Ġì£¼ ë¨¹
Ġê²° ì½Ķ
Ġíģ´ ë¦¬
ĠìĦľ ìĦľ
Ġê¹ ĥ
Ġëĭ¨ ìĿ¼
Ġì½Ķ ë¡ľëĤĺ
ĠìĹħ ë¬´
ĠìĹ° ìķł
ĠìŀĲëıĻ ì°¨
Ġê·¸ëŀĺ íĶ½
íĮĮ ìĿ´ìĸ´
Ġê³µê²© ëł¥ìĿ´
ìŀ¥ ìĿ¸
Ġíĸī ìĤ¬
ë¯¼ ìĿ´
ĠëĤĺ ë£¨
ĠíĬ¹ë³Ħ íķľ
ĠìŀĲìĭł ê³¼
Ġíķĺ ê±°ëĤĺ
Ġë§¡ ìķĺëĭ¤
Ġìŀħ íķĻ
Ġê·¸ ìĻĢ
ëŁ¬ ìļ´
ĠíķĺëĤĺ ëĬĶ
1 6
ìĦł ê±°
Ġìŀĳ ëıĻ
Ġë¬´ìĹĩ ë³´ëĭ¤
ĠìĿ´ê²ĥ ìĿĦ
ĠìĬ¤íİĺ ìĿ¸
ĠëĬ ĳ
ĠëĲĺ ì°¾
Ġë§Īë²ķ ìĤ¬
ĠìķĦ ëĿ¼
ë¬¸ íĻĶ
ĠëıĦ ëĭ¬
Ġë¹Ħì¤ĳ ìĿ´
Ġê¸į ìłķ
íķĺìĺĢ ìľ¼ëĤĺ
Ġê³ł íĸ¥
ê¹Įì§Ģ ìĿĺ
Ġê±°ê¸° ëĭ¤
íĤ ¥
Ġë¹ł ì§Ħ
ĠëĦ£ ìĸ´
Ġíĺ¸ íıī
Ġì²ł ëıĦ
ĠìĥĿê°ģ íķĺê³ł
Ġëī´ ìĬ¤
Ġì¹´ëĵľ ê°Ģ
ë¯¸ ìķ¼
Ġìĺ¤ íĶĪ
d ing
ĠìĪĺ ìĿµ
Ġêµ¬ ì²´
Ġê·ľ ëª¨
Ġë¯¸ìĤ¬ ìĿ¼
ĠìķĦ ìķ¼
Ġ15 0
Ġì§Ģ ëªħ
ĠëłĪ ìĿ¸
ĠëıĻ ëĦ¤
Ġëĵľ ëŀį
ë²Ħ ë¦¬
ĠíĬ¸ìľĦ íĦ°
Ġë¶ģ ë¯¸
3 0
ĠìłķëıĦ ê°Ģ
Ġê²© íĮĮ
ĠìĿ´ ë¤Ħ
ì§ľ ë¦¬
ê´Ģ ê³Ħ
Ġê·¹ìŀ¥ íĮĲ
ĠìĦł ë¬¼
ĠëĪ Į
ìĬ¤ íı¬
ìĹħ ìĿ´
Ġëĵľ ë¬¼
ĠìķĦ ìĺ¤
ëĭ¨ ìĿĢ
ëĭ¹ íķĺê³ł
Ġëªħ ìĺĪ
ĠìĬ¤ íı°
Ġëĵ±ìŀ¥ íĸĪëĭ¤
ĠìĻ¸ êµĲ
Ġê³ł ìłĦ
ê²ĥ ìĿĦ
F A
ĠìłĢ ëħģ
ĠìĿ¼ ëıĦ
Ġë¶Īê°ĢëĬ¥ íķĺëĭ¤
Ġë§ĪìĿ´ ëĦĪ
Ġëªħ ìĿ´
ê³¼ íķĻ
ĠìĿ´ ëĤł
ìŀ¥ íķľ
Ġ200 1
Ġì¶ľ ì²ĺ
ĠëĮĢ ë¦½
Ġíķ´ ì²´
ìĭľ ìĦ¤
ëĭ¨ ìľ¼ë¡ľ
Ġëĭ¬ ìķĦ
Ġë°Ķ ë¥´
Ġê±´ ì¶ķ
ĠìºĲë¦ŃíĦ° ìĿĺ
Ġì°¨ ë³Ħ
Ġíıīê°Ģ ê°Ģ
Ġëĵ± íĮĲ
Ġì°¨ ëĿ¼ë¦¬
ìķĦ ë¥¼
ĠìĦ¸ ìĽĶ
ĠëĴ¤ ë¥¼
ìĿ¸ ìĿ¸
ĠìĬ¤íĬ¸ ëĿ¼ìĿ´
Ġí Ī
ad i
Ġê²Ģ ìĥī
Ġìĸ´ ê·¸
íĳľ ë¥¼
ì§ģ ìĿĦ
Ġìłľ ì£¼
ĠëĳĲ ìĤ°
ĠìĹ¬ ëıĻìĥĿ
íķ´ ì¡Į
Ġ0 2
Ġê² ī
Ġê³µ ê¸ī
ëĪ Ī
Ġíķ´ëĭ¹ íķĺëĬĶ
ĠìºĲë¦ŃíĦ° ë¥¼
íĤ¤ ìĻĢ
ĠìĤ¬ìĿ´ ê°Ģ
Ġë¬´ ë£Į
Ġê¶Į ì´Ŀ
Ġë³´ìĹ¬ì£¼ ê³ł
Ġh tt
Ġì§ĢëĤĺ ì¹ĺê²Į
Ġíķĺ ëĭĪ
ĠìĿ´íĽĦ ìĹĲëıĦ
s s
ĠëĤ´ êµ¬
Ġëī´ ìļķ
ĠìŀĪìĹĪëĭ¤ ê³ł
Ġê¸° ì´Ī
Ġê²ĥ ìŀħëĭĪëĭ¤
Ġëįĺ ìł¸
Ġëª¨ ë°Ķ
Ġê³ ģ
ìĭ¤ ìĹĲìĦľ
Ġê´Ģê³Ħ ê°Ģ
ëĵł ê°Ģ
ĠA l
Ġê³ °
Ġê°Ĳ ìĤ¬
Ġê´´ ë¡Ń
Ġìłģê·¹ ìłģìľ¼ë¡ľ
ĠB l
Ġìĺ¤ ë¦¬
ĠìĺĪ ìĻ¸
ĠìĬ¤íİĺ ìħľ
Ġìĺ¤ ëŀ«
Ġ5 5
ëª ¸
ĠëĤĺ ëıĦ
or t
ĠìĤ´ ëł¤
Ġê°Ģ ê³ł
Ġëĭ¨ìĪľ íķľ
Ġìĺ® ê²¨
ĠL v
íķ¨ ìľ¼ë¡ľìį¨
ĠìĤ¬ ìłķ
Ġíĳ¸ ë¥¸
Ġê² Ĳ
Ġì¹´ ëĤĺ
Ġì¤ĳ ìĿ¸
Ġë©ĶìĿ´ ìłĢ
ìĭľ ìĬ¤
Ġíķ´ ë°©
ê´Ģ ìĹĲ
êµ° ê³¼
ĠìĺĪ ì¸¡
ĠìĤ¬ìĿ´ íĬ¸
Ġìĸ´ëĸ»ê²Į ëĵł
Ġë°ĸ ìľ¼ë¡ľ
ĠìĤ´ íİ´
ĠëĤ® ìķĦ
ëĲĺìĹĪ ìľ¼ëĤĺ
Ġíķ´ ìłģ
Ġë¶Ģ íĦ°
ìģ ĺ
ĠìķĦ ìī½
ë²Ī ìĹĲ
ĠíļĮ ìłĦ
ì¹´ ëĬĶ
Ġë³µ ìĪĺ
Ġëĵ¤ ìĿ´
ì¡± ìĿĺ
r y
Ġìĸ´ì¨Į ëĵł
ĠN C
Ġê³§ ë°Ķë¡ľ
Ġê²½ ê³Ħ
ĠëĬĲëĤĮ ìĿ´
ë¿Ĳ ë§Į
ìľ¨ ìĿĦ
ĠëıĮìķĦ ìĺ¨
íķ¨ ìĹĲ
Ġëĭ¤ ìĪĺ
Ġê°Ģ ë¬¸
Ġíĥľ ìĸ´
Ġê³Ħ ìĬ¹
Ġìĭľ ê°ģ
Ġì²´ ìľ¡
ëĭ¤ ìĿ´
ĠíıŃ íĴį
ì§Ģ ë§Ī
ìŀĳ ìĿĺ
ĠìĿ´íĽĦ ìĿĺ
ĠìĹ° ìĥģ
Ġì±ħ ìĿĦ
Ġëª° ëł¤
Ġë¶Ī ê½ĥ
ë²ķ ìĿ´
ìĿ¸ ëĵ¤ìĿĺ
Ġë³Ģ íĺ¸
ĠìŀĲ ìĽĲ
ĠìľĦ ê¸°ìĹĲ
Ġëĵ± ìĹĲìĦľ
ĠìķĬìķĺ ëįĺ
Ġìĥ ĺ
Ġìĭ¬ íķľ
Ġìļ°ë¦¬ ìĿĺ
Ġê°Ģ ë¦¬
us t
ã ĥ¼
ĠìĿ´ìłľ ëĬĶ
Ġê²ĥ ë§Į
ê¸° ì§Ģ
íķ´ ê°Ģ
Ġì§Ħ ì§Ģ
ĠìķĦ ìĤ¬
ĠìłĦ íĻĶ
Ġìī½ ëĭ¤
íĶĦ ëĬĶ
ëĦ ¬
ĠìľĦ íĤ¤
ĠìĹĨ ìľ¼ëĭĪ
Ġíķ© ëĭĪëĭ¤
ë© Ģ
Ġê°Ĳ ìłķ
Ġì¡ ±
Ġìłķ ëł¹
Ġ0 3
ĠìĿ´ ëĤ´
Ġíģ¬ ëłĪ
ìĹŃ ìĹĲ
ĠìŀĲ ê°Ģ
ĠìľĦì¹ĺ ë¥¼
ìŀĲ ëĵ¤ìĹĲê²Į
ĠíĮĮ ìĿ´íĦ°
ĠëĮĢ ìĥģìľ¼ë¡ľ
ĠëĮĢ íıŃ
ĠìĹĨìĹĪ ê³ł
Ġí ĵ¨
Ġê¸° ìĸ´
Ġë§Ĳ íķĺë©´
ĠëĶľ ëŁ¬
Ġíģ¬ ê³ł
ë³ĳ ìĿ´
ĠìĦ¼ íĦ°
Ġê·¸ ê±´
ĠìĿ´ ìĬ¬
ĠíĬ¸ ëŀĻ
ë§ģ ìĿĦ
Ġìĩ ł
ĠìĬ¤ ì¼Ģ
ĠìĻķ êµŃ
Ġë³´ ë©°
Ġíĺĳ ëł¥
Ġìĺ ¹
ì½Ķ ëĬĶ
ì§Ģ ëĬĶëį°
ë£ ¸
Ġëª© ìłģìľ¼ë¡ľ
Ġìľłëªħ íķĺëĭ¤
Ġë¬´ ëĮĢ
ìľ¼ ëł¤ê³ł
ì²ł ëıĦ
ìĤ¬ ëŀĮ
Ġìĭľ íĤ¤
ë¥´ ë¥¼
Ġì¡° ìłĪ
ĠìĹĨ ìľ¼ë©´
ìķĺ ìľ¼ëĤĺ
Ġë³´ ëıĦ
Ġê¸° ìĬµ
ĠìĦłìĥĿ ëĭĺ
ĠìķĬìķĺ ì§Ģë§Į
ĠìķĦë²Ħ ì§Ģê°Ģ
Ġê·Ģ ìĹ¬
ë§Ī ìĿĦ
ĠíĹ¤ ëĵľ
ë¶Ģ ëĮĢ
ĠëıĻ ìĺģ
ìŀ¬ ë¥¼
Ġê°Ģ ë³
ĠS BS
Ġíķľ ëį°
ĠíĮ¬ ëĵ¤ìĿ´
ĠëģĿëĤĺ ê³ł
Ġê·¹ ëĭ¨
Ġí ĥģ
ĠìŀĦ ëªħ
Ġì¶© ìłĦ
Ġíħ į
Ġìļ¸ íĬ¸ëĿ¼
Ġëĭ¨ ì²´
Ġê³Ħíļį ìĿĦ
Ġê°Ħ ìĿĺ
ĠìłĪ ë§Ŀ
ëıĻ ìĿĺ
ëĶĶ ë¡ľ
íĸĪ ëĬĶì§Ģ
íĸĪ ìĹĪëĭ¤
Ġì§ĢëĭĪ ê³ł
ĠìłĲ ì°¨
ìĹ° ìĿĦ
ĠëĵĿ ìłĲ
ëĭ¹ ìĿĦ
Ġê°Ģë³ į
Ġíķľ ì°¸
Ġë§ŀ ì§Ģ
ë¦Ħ ìĿĦ
ë¨¸ ë¦¬
Ġê° Ķëĭ¤
íķĺê¸° ëĬĶ
Ġê³Ħ ê¸ī
ĠìŀĲ ìĿ´
Ġì§ĢìĨį ìłģìľ¼ë¡ľ
ì£¼ ë©´
ĠìµľìĨĮ íķľ
Ġì´Ī ì°½
ëĭ´ ìĿĦ
íĻĶ ëĲĺìĸ´
Ġê³łìĸĳ ìĿ´
Ġê±° ë¦¬ê°Ģ
ìĭľ ìŀ¥
ìĿ¸ ìĹĲ
ìĨĮ ìĹĲ
ëıĻ ìĹĲ
ì¡° ë¦¬
Ġíİ¸ ìĿĺ
ê²© ìľ¼ë¡ľ
ì°¨ ìłĦ
Ġì¹´ ë¥´
Ġê³³ ìľ¼ë¡ľ
ĠìĿ´ ì¤ĳ
Ġê°Ģê¹Ŀ ëĭ¤
ìĶ¨ ê°Ģ
ĠíĮ¬ ëĵ¤ìĿĢ
Ġê¸°ëĬ¥ ìĿ´
Ġë¬¸ íķĻ
ĠíĹ¤ ìĸ´
ĠíĮĮìĿ¼ ëŁ¿
íķ´ìĦľ ëĬĶ
Ġì§Ģê¸Ī ëıĦ
ìĨĮ ìĿĺ
Ġìľł ìļ©
ĠìĿ´ìļ© íķĺìĹ¬
Ġíķĺ íķĦ
Ġìĭ¶ ëĭ¤
Ġê¸°ìĸµ ìĿĦ
Ġë Ŀ½
ìŀĲ ë§ĪìŀĲ
ĠíĮĮìĿ´ ëĦĲ
Ħ ëĬĶ
ĠëĤĺìĻĢ ìĦľ
ĠìĦ¸ ëł¥
ĠëŁ¬ ë¸Į
Ġëĭ¬ ë¦°
ĠìķĦ ìļ°
ëĭ¹ íķĺëĬĶ
ĠíĶĮëłĪìĿ´ ë¥¼
Ġëĭ¨ ìĸ´
Ġíķľ ê¸Ģ
ìķĪ ìĿ´
Ġìĺ¤ ìĬ¤
ë¨¼ íĬ¸
ìŀĳ ìĿ´
íķł ìĪĺ
ë¡ľ ìĬ¤
Ġê±¸ ë¦°
ĠìķĦë¦Ħ ëĭ¤ìļ´
ĠíĺĦ ìĥģ
ëıħ êµĲ
Ġì¶ľ íĺĦ
Ġë¹ Ĺ
Ġê³¼ ìĹ°
Ġê´Ģ ìĭ¬
Ġëĭ¤ ìĦ¯
o g
ĠìĿ¸ê°Ħ ìĿ´
ë°Ľ ìķĺëĭ¤
Ġíıī íĻĶ
Ġëª¨ ìľ¼
Ġ4 2
Ġìĸ´ ë¥¸
Ġã ĢĢ
Ġë¬´ ë¦
e w
ĠëıĦ ìĽĢ
Ġë¯¸ ëĤĺ
ê³¼ ëıĦ
Ġê¹¨ ëĭ«
ĠìĹ ®
Ġë³Ģê²½ ëĲĺìĹĪëĭ¤
Ġê³ł ë°±
ì© į
Ł Ī
Ġíģ¬ ë£¨
ëŀŃ íģ¬
ì§ ±
ĠìĹĨ ëĬĶëį°
ĠìĹĲ ìĬ¤
Ġëħ¸ ìĺĪ
Ġê·ľ ìłķ
ĠíĮĮ ëŀĢ
Ġê° Ŀ
Ġëı ķ
ĠíķĻ ìĤ´
Ġìĺ¤ëŀ« ëıĻìķĪ
ĠìķķëıĦ ìłģìĿ¸
Ġ j
Ġê°Ī ëĵ±
ĠíĻ Ģë¡ľ
Ġìĭ¬ ë¦¬
ìĹŃ ìĿĢ
Ġíİ Ģ
Ġê°Ģ ëĵľ
ë§Ī ë¦¬
Ġìŀ¡ ëĬĶ
ìĹĪ ê¸°
ĠìķĦëĭĮ ê°Ģ
Ġë¹ µ
Ġê¸¸ ìĿ´
ëĭ¹ íŀĪ
ëĶĶ ìĸ¸
Ġìĵ° ìĿ¸ëĭ¤
Ġìĭł ìĿ¸
Ġíķľ ëıĻìķĪ
Ġíİ¼ ì³Ĳ
ê³µ ìĿĺ
Ġê°Ļ ìķĦ
Ġêµ¬ íķ´
ë° ´
P G
Ġíļ¨ê³¼ ëĬĶ
ìĭ¤ íķľ
ĠìµľíĽĦ ìĿĺ
íĮĮ ë¥¼
4 0
Ġì¶Ķ ìłģ
ĠëıĦ ì¤ĳìĹĲ
Ġê·¹ ë³µ
Ġê¹Į ëĭ¤
ĠìĦ¸ ìĥģìĿĦ
ìĿĺ ë¡ľ
ĠìĥĿê°ģ ë³´ëĭ¤
Ġê·¸ëłĩ ëĭ¤
íķ¨ ê³¼
ĠìŀĪ ê¸°ìĹĲ
Ġêµ¬ ì¶ľ
ìĭľ ìłĪ
ĠëĤĺë¦Ħ ëĮĢë¡ľ
ìº ł
ĠìłĦíĪ¬ ë¥¼
íķĺê³ł ìŀĲ
Ġë°´ ëĵľ
Ġê¹ ľ
Ġë§¡ ê³ł
Ġë§ī ìĿĦ
ìĿ´ ê¸´
ĠëĮĢ íĻĶë¥¼
ĠìĨĮ íĻĶ
ĠëįĶ ë¹Ļ
Ġê¸°ë¡Ŀ ìĿĦ
ĠìĦ¸ê³Ħ ìĿĺ
Ġìĸĳ ìĤ°
ëĿ¼ ê¸°
Ġíķ¨ ìłķ
Ġì¤Ħ ìĸ´
ĠA I
Ġë¬´ ìłģ
Ġê¸°ë°ĺ ìľ¼ë¡ľ
Ġê°Ī ìķĦ
Ġì°½ ì¡°
ì¢ħ ìĿ´
Ġ3 9
íķĺëł¤ ë©´
ĠëĲĺ ìĸ´ìĦľ
ì£¼ ìĿ¸
ĠìķĦ ë©Ķ
Ġë Ĥ¬
ĠíĻĶ ìĿ´íĬ¸
ëĤ´ ê¸°
Ġëĵ± ìĿĢ
Ġíķľëĭ¤ ë©´
ëĭ¤ëĭĪ ëĬĶ
ĠëĤ ¼
ĠS S
Ġë¹ĦìĬ· íķĺëĭ¤
ë°° ë¥¼
Ġëĭ ī
ĠìłĦ íĺķ
Ġìķī ìķĦ
Ġë§Ĳ ìķĦ
Ġê²ĥ ìĿ¸ì§Ģ
E D
ĠëĮĢ ì²ĺ
or e
íĻĺ ìĿ´
Ġë§İ ìķĦìĦľ
ìĬ¤íĬ¸ ëĿ¼
ĠìķĬëĬĶ ëĭ¤ëĬĶ
ĠíĽĮë¥Ń íķľ
Ġë°ĽìķĦ ëĵ¤ìĿ´
ĠëĦĺ ê²¨
Ġë¸ĮëĿ¼ ì§Ī
Ġë³´ ëĤ¸
ìĺ¤ ê³ł
Ġë²Ħ ë¦¬ê³ł
ĠìĬ¤íĥĢ ìĿ¼
Ġìĥģ ìĥģ
ĠìĤ¬ëŀĮ ëĵ¤ìĹĲê²Į
ĠëĲĺ ì§Ģë§Į
ĠìħĪ ìĿ´ëĭ¤
Ġê·¸ ëĵ¤ìĿ´
ì¹ĺ ë©°
Ġê´Ģ ê°Ŀ
ĠíĮĮ ìĿ´ìĸ´
ĠìĦ ¹
ìĺģ ìĿ´
ë¦¬ ëıĦ
Ġëĭ¥ íĦ°
ĠëĮĢë¶Ģë¶Ħ ìĿ´
Ġë§Ĳ ë¡ľ
Ġì°© ê°ģ
ë¯¸ ìĻĢ
ìĹ° ìĿĺ
ê³ł ìĿĺ
ĠíĮĮ ê²¬
Ġëĭ¹ ìĦł
ìķ¼ ìĿĺ
ëĵ Ń
Ġë§Īì¹¨ ëĤ´
ĠìĤ¬ìĿ´ ìĿĺ
Ġê¿Ī ìĿĦ
íķĺ ëĿ¼ê³ł
ì°¨ ëĬĶ
Ġ198 0
ì£¼ ì§Ģ
ìĨĮ íķľ
ĠëıĦ ìĦľ
ìĥī ìĿĦ
ë³´ ìĬ¤
ĠëĮĢ íķĻêµĲ
ê´Ģ ìľ¼ë¡ľ
ĠíĴĢ ìĸ´
ĠíĨµ ìĭł
u b
ëľ »
E C
ĠíĬĢ ìĸ´ëĤĺ
Ġì¤ĳ ìĹĲëĬĶ
ìĤ¬ ìĹħ
ì²´ ìĹĲ
ĠíĮ Ŀ
Ġë¶ĦìľĦ ê¸°
ë§Įíģ¼ ìĿĢ
Ġê³µ íķŃ
Ġìį ©
ìľ¼ ë¡ł
Ġìŀĳì¤ĳ ìĹĲìĦľ
ĠìĦ¸ ìĽĮ
Ġê°ľ íĨµ
ëĭĪ ìĸ´
ĠëıĻ ìĭľ
ìĭ¬ ìľ¼ë¡ľ
íıī ê°Ģ
ĠìłĢ ê·¸
ĠìĥģíĻ© ìĿ´ëĭ¤
Ġìľł íĸī
ëĵľ ë¦½
ĠëĮĢ ëŀµ
Ġëª¨ ìĹ¬
Ġëĳ ¥
ĠìķĦ ë¨¸
ĠëĮĢ íķĺìĹ¬
Ġë°©ë²ķ ìĿĢ
Ġì°½ ìŀĳ
ĠìŀĲìĭł ëĵ¤ìĿĺ
ìŀĲ ê³ł
ĠìłĲ ìĿ´ëĭ¤
Ġë³´ ìĿ¼
Ġë§¤ ëĭĪ
ĠëģĮ ê³ł
ĠíĥĢ ìĽĮ
ĠìĤ¬ ìŀ¥
ê¸Ī ìĿ´
Ġê°Ħ íĺ¹
V P
Ġë²ł ë¥´
ĠìĿ¼ë³¸ ìĸ´
íĬ¹ ë³Ħ
ĠìĪĺ ì§ĳ
ĠM C
Ġì½Ķ ëĵľ
ĠíĶĦë¦¬ ë¯¸
Ġê´Ģ ìĭ¬ìĿ´
Ġë³Ģ íĺķ
ĠìłĦ ê¹Įì§Ģ
Ġë¶Ī ë²ķ
ĠìķĮ íĮĮ
Ġìŀħ ìĿĦ
ê´ĳìĹŃ ìĭľ
Ġì¶Ķ ê²©
ĠìĪĺ ìĤ¬
Ġê¸° ìļ¸
Ġëĳĺ ì§¸
ê¸° ìĹħ
Ġì»¤ ë§¨
ìĿ´ëĿ¼ ë©°
íĥĢ ìĿ´
Ġìį¨ ìĦľ
Ġìłľ êµŃìĿĺ
Ġíĺķíĥľ ìĿĺ
Ġëª¨ ë¥¸
Ġë³´ ìŀ¥
Ġìĸ´ëĶĶê¹Įì§Ģ ëĤĺ
íĺĦ ìĿ´
Ġ4 00
ĠìĿ´ ëĵ¤ìĿĦ
Ġìĭľ íĭ°
Ġì§Ģíķĺ ì²ł
on g
ĠëĤĺíĥĢ ëĤľ
Ġ9 5
Ġê²½ ìľł
ĠíıĲ ì§Ģ
Ġíķľ íĻĶ
it y
ĠìĪľ ìĪĺ
ĠíĬ¹ìĿ´ íķľ
ìłķ ë³´
ĠìĥĪ ë²½
Ġì¡´ìŀ¬ íķĺì§Ģ
ĠìĿ¼ ìĥģ
ìķ ŀ
Ġë¦¬ ë²Ħ
Ġìĭľ ê¸°ìĹĲ
Ġê·¸ ë¡ľ
ĠìĬ¤íĤ¬ ìĿ´
ĠìĪĺ ìļ©
ar e
Ġë© į
Ġë²Ħ ëł¤
ĠìŀĪëĬĶ ì§Ģ
ìĥī ìľ¼ë¡ľ
ĠìĤ¬ëŀĳ ìĿĦ
ĠìĦ±ê²© ìĿ´
ìľ Ļ
as t
ëĬĶ ê°Ģ
ĠìľĦíĹĺ íķľ
ë¯¼ ìĿĺ
Ġëĭ¤ ëĵ¤
ĠìĦ± ìĿ¸
Ġë¦¬ ë©ĶìĿ´
Ġëļ ľ
ĠìķĪ ëĤ´
Ġë©Ķ ì¹´
ĠìĪĺ ìĽĲ
Ġê¸°ìĪł ìĿ´
Ġìĺ· ìĿĦ
Ġìľł ëł¹
ëĲĺìĹĪ ì§Ģë§Į
ĠìĦ¤ ìłķìĿ´
ĠìĻ ł
ìĹ° íķ©
ĠìłķëıĦ ëĭ¤
ĠìĿ¸ ê·¼
íģ¬ ìĻĢ
Ġìĵ° ê¸°
ĠìĬ¹ ê°ķ
ë¶Ħ ìĿĺ
ëįĶ ëĿ¼
en d
Ġë¹ł ë¥´
ĠìĪĺ íķĻ
O L
Ġìŀħ ëł¥
ìŁģ ìĿ´
ĠëĮĢ ê·ľëª¨
Ġìľł íĿ¬
ĠëĬ¥ëł¥ ìĿĢ
ĠìĥĿíĻľ ìĿĦ
ë²ł ë¥´
ĠëĤ´ ëĨĵ
Ġë³´ ì§Ģ
Ġì´Ŀ ìĿĦ
Ġìŀĳ ìļ©
Ġê²ĥ ìĿ¼
ë¦¬ ìĸ¸
Ġìħ Ķ
Ġë¶Ļ ìĿĢ
Ġëĵ¤ ìĿĦ
ëĭĪ ìĿĺ
Ġë¹ ¡
Ġì£¼ë³Ģ ìĹĲ
ì¥ Ĳ
ĠíĮĲ ìłķ
ëį° ë¯¸
ĠìŀĲìĭł ëıĦ
Ġíķł ë¨¸ëĭĪ
Ġìĭľ ì¼ľ
ĠìķĦëĭĪ ëĥĲëĬĶ
ìĿ¼ ìĹĲëĬĶ
íĥĢ ìŀħ
íģ °
Ġì¤ĳ ìĹĲìĦľëĬĶ
1 5
ê¶Į ìĿĢ
Ġìŀ ¦
ĠìĿĺ ì¡´
ĠìĦ¸ê³Ħ ë¥¼
Ġë ¼Ī
ê´Ģ ë¦¬
Ġìŀ¡ ìĿĦ
ìĺĢ ëĭ¤ëĬĶ
ĠM A
ìŀĪ ê³ł
ĠìłĦíĪ¬ ìĹĲìĦľ
Ġíķł ìķĦë²Ħ
Ġì§Ģê¸Ī ìĿĺ
Ġê¹ ¨ìĸ´
ëĵ± ê¸ī
ĠëĤ¨ ê²¨
ëĲľ ëĭ¤ëĬĶ
ĠëĤĺ ìķĦ
Ġëª© ê²©
ĠëĤĺë īĺ
ĠìĻ¸ ìĹĲëĬĶ
Ġíķ© ì³Ĳ
ìĪ Ń
ëĭ¹ ìĹĲ
Ġì°¸ ìłĦ
ë§Ī ëĬĶ
ĠìŀĳíĴĪ ìĿĺ
ë²Ħ ëł¤
ĠC P
Ġêµ¬ ìĨį
ĠA K
Ġê·¼ì²ĺ ìĹĲ
ĠìĹĨ ëįĺ
ë¹Ħ íĬ¸
ìĬ¤íĬ¸ ê°Ģ
ë¦¬ìķĦ ìĿĺ
ĠíĶĦë¡ľìłĿ íĬ¸
ĠìĦľ ìĸĳ
ĠìĿ¼ ìĿ´ëĭ¤
ĠëĤĺ ì¹´
ê°ľ ë°ľ
ĠìłķíĻķ íķľ
ĠìĿ¼ ì°į
Ġì²´ ëł¥ìĿĦ
Ġë§İìĿĢ ëį°
ëĵ¤ê³¼ ëĬĶ
Ġì§ĢìĹŃ ìĿĺ
Ġë§ŀ ëĭ¤
ì¤ĺ ìķ¼
I T
Ġìĸ´ ëĳĲ
ìĿ´ìĹĪëĭ¤ ê³ł
ìĭł ìĿĢ
ĠìºĲë¦ŃíĦ° ë¡ľ
ĠìĪľ ìľĦ
Ġíķ© ê²©
Ġíļ Ł
Ġê²Ģ ìĤ¬
Ġê³µê²© ìĹĲ
ĠD LC
ĠëĮĢ ì¶©
ìĭ¤ ë¡ľ
ĠìĹ° ìĤ¬
ëĬĲ ëĿ¼
Ġìĸ´ëĸł íķľ
ĠëłĪìłĦ ëĵľ
ĠëŃ ĺ
ĠìłķíĻķ íŀĪëĬĶ
ë©´ ìľ¼ë¡ľ
Ġë©Ī ì¶Ķ
Ġìĭ¤ ëł¥ìĿĦ
ëĶĶ ê°Ģ
ì¡°ì°¨ ëıĦ
Ġì«ĵ ìķĦ
Ġìłľ ê°Ģ
ĠíıŃ ì£¼
ìłķ ë¶Ģ
íĬ¸ ëĤ¨
ëĭ¤ ë³´ëĭĪ
ak e
ĠíĮ¬ ëį¤
Ġëĺĳ ê°Ļ
Ġê²½ ìĥģ
Ġíĥ± ì»¤
Ġíĺĳ ë°ķ
ìĸĳ ìĿ´
ĠëģĮ ëł¤
Ġëĵ¤ ëł¤
ë¡ Ģë¡ľ
Ġê¸° ëıħêµĲ
Ġê°Ģ ìķ¼
Ġê·¸ëŁ¬ íķľ
Ġì£½ ìĿĮìĿĦ
ĠëĿ¼ìĿ´ ëįĶ
Ġì§ģ ìĽĲ
Ġë°ĺìĿĳ ìĿ´
ë²Ī ìĿĺ
ĠS N
ĠëĮĢ ìĥģìĿ´
ìķĺ ëĭ¤ëĬĶ
ĠìĨĮ ì´Ŀ
Ġê²°ê³¼ ë¥¼
Ġì¤ĳ íĻĶ
ĠìĽĲ ì¹Ļ
E N
Ġì¤ ĺ
ĠìĿ´ ìĦ±
Ġìĭł ê¸°
Ġëĭ¤ ë¥¼
ìĤ¬ íĤ¤
íĨµ ìĿĦ
ĠìĿ¸ ê³µ
ĠC D
gr ound
ìĬ¤ íĦ´
Ġëĭ¤ ë¦¬
Ġëª¨ë°Ķ ìĿ¼
8 0
ĠëĵľëŁ¬ ëĤĺ
Ġëĵ± ê³¼
Ġìĥ ·
ĠëįĶ ëįĶ
ĠìķĦ íĭ°
Ġê°¤ëŁŃ ìĭľ
ĠìļĶ ìĥĪ
Ġ19 2
ë£ °
ĠBG M
Ġê²½ íĸ¥ìĿ´
Ġë³´ ìĿ¸
Ġêµ¬ ë©į
Ġìłģ ìĿĳ
ĠìĺĪ ëĬ¥
ê ¶
ĠìĪĺ ìĨ¡
Ġëĵ¤ìĸ´ ê°Ħëĭ¤
Ġë°ĶëĢ Ĳ
ĠìĿ´ ë¦¬
ĠìĻ¸êµŃ ìĿ¸
ĠêµŃê°Ģ ëĮĢíĳľ
Ġíķľ ê³Ħ
Ġê° ĩ
ĠíĸĪëĭ¤ ëĬĶ
ĠìłĪ ëĮĢë¡ľ
Ġ4 7
Ġë¹ ļ
Ġëĭ¤ë£¨ ëĬĶ
Ĭ ľ
Ġê³ł ê°Ŀ
Ġíı¬ íĥĳ
ìľĦìĽĲ íļĮ
Ġë³´ ê²Į
íķĺëĬĶ ê²Į
ĠìĿĺ ë¢°
Ġë§Ī êµ¬
ĠìŀĪìĸ´ ëıĦ
ĠíĻķ ì§Ħ
ë¬´ ê¸°
Ġë©Ķ ìĭľ
Ġê¹Ģ ìĺģ
s e
ĠA n
ĠíĢĦ ë¦¬íĭ°
ĠìŀĪëĭ¤ ê°Ģ
ĠìĬ¤í Ĭľ
ĠíĺĦ ì§Ģ
ĠìĿĢ íĸī
ĠìłĦ ìĽĲ
ĠìĦ±ê³µ íĸĪëĭ¤
Ġëº ı
Ġë§ī ìŀ¥
Ġë¹Ħ ìļ©
Ġ199 9
ĠìĤ¬ ê±°ë¦¬
Ġì½ľ ëĿ¼
Ġë§ī ê¸°
ëĭ¹ íķ´
Ġë¬¼ ìĿĦ
Ġíķĺ ëĿ½
Ġìĭł ìĿ´
Ġëĭ¬ ê³ł
Ġìĸ´ ë¦´
Ġë¸Į ëŀľëĵľ
Ġì¦ Ī
ìłĦ íĪ¬
ĠíĸĪ ìľ¼ë©°
ĠìĪĺ ìĭŃ
Ġëį ¸
ì¤ĳ ìĿ¸
ìĬ¤ íĥĦ
ê²ł ìĬµëĭĪëĭ¤
ĠìķĦ ìĭľ
ìĹŃ ìĿĺ
ìĨĮ ìĹĲìĦľ
Ġíģ¬ë¡ľ ìĬ¤
ìĸ´ë²Ħ ë¦°
ê³µ íķŃ
Ġìŀ¥ ìĭĿ
Ġì ¾Į
Ġì¶ ĺ
ìĦ¸ ìĹĲ
ë¦¼ ìĿĦ
ĠëıĪ ìĿ´
1 4
ë» Ĳ
íķĺ ìĹĲ
ë¦° ìĿ´
ĠëįĶëįĶ ìļ±
Ġê²½ ë¹Ħ
Ġë³´ ìĿ´ì§Ģë§Į
Ġê²½ìļ° ìĹĲ
ëĿ¼ ìĹĲ
ìŀ ĺ
ĠìĿĺ ë£Į
6 0
Ġë©Ģ ì©¡
Ġë¶ĦìľĦ ê¸°ë¥¼
is p
ìŀ¬ ê°Ģ
ìĦľ ë¡ľ
Ġìłķ ë¥ĺ
ĠìŀĲ ìĭĿ
Ġëķ Ĳ
iz e
ĠëłĪ ìĺ¤
ìłľ íķľ
Ġëıħ ìŀĲ
Ġìĭł ê³ł
ĠìŀĪìĹĪ ìľ¼ë©°
ĠìĹĳ ìĬ¤
íĮĮ ìĿĺ
Ġë§ŀ ìĿĢ
ĠìĪĺ ì¹ĺ
ê¸° ê¹Įì§Ģ
Ġë§ŀ ê²Į
Ġê³¼ê±° ìĿĺ
ĠìĽĲ ë³¸
Ġë¶ĦìľĦ ê¸°ê°Ģ
ĠíĮ¬ ëĵ¤ìĿĺ
Ġê°ķ ìłľë¡ľ
Ġìŀĥ ìĿĢ
ĠíĢ ¸
Ġë¯¸ ìķĪ
Ġ4 4
ĠìĿ´ìĥģ ìľ¼ë¡ľ
ĠíķĦ ëĵľ
Ġíŀĺ ìľ¼ë¡ľ
Ġë§Į ëĤ¬
Ġê¸° ë¶Ħ
íķ µ
Ġë§Ī ì¸ł
Ġë§Ī ëıĦ
Ġì°¾ ëĬĶ
ĠìĹ¬ ìĻķ
Ġìµľê°ķ ìĿĺ
Ġë¯¿ ê³ł
Ġì¤ĳêµŃ ìĿĺ
ĠìĿĺ íĺ¹
Ġì£¼ ìłĦ
Ġê¸°ë³¸ ìłģìĿ¸
Ġì§ĳ ìĹĲìĦľ
1 3
Ġê°ķ íķĺê²Į
ĠíķĻ ìĽĲ
ë¬¼ ìĹĲ
ĠìłĦìŁģ ìĿĦ
ì¦ Ĳ
Ġw h
Ġì¹Ń ì°¬
Ġìłģ ëĮĢ
ëĳ¥ ìĿ´
ê¸ ĭ
i p
Ġëĭ¨ ê³Ħ
ĠìĻ¸ ë¶Ģ
ĠìķĦëĭĪ ëĿ¼ëĬĶ
Ġëĭ¤ ë£¬
Ġ he
ĠìķĦëĭĪ ëĿ¼ê³ł
Ġ199 8
ĠíĽ Ĺ
ĠëĤĺ ê°ĢëĬĶ
Ġë°ĺ ë°ľ
ĠìĤ¬ëŀĮ ëĵ¤ëıĦ
Ġì¢ĭ ìĿĦ
ê³¡ ìĿĦ
ĠìĿ¸ ìĪĺ
Ġê²Į ìĿ´ì§Ģ
ĠëŃ ī
ëĭ¹ íķľëĭ¤
Ġì¤ĳ íķĻêµĲ
ĠìĨĮ íĶĦíĬ¸
ìĬ¤ ëıĦ
Ġê´Ģê³Ħ ë¡ľ
ë ®
ĠìĿĢê·¼ íŀĪ
Ġê·¸ëłĩ ì§Ģë§Į
ĠìĻ¸ ê³Ħ
Ġê¸° ìĹ¬
Ġì½ĺ ìĦľ
ĠìĤ¬ìļ© íķĺê³ł
Ġê³µ êµ°
ĠíĨµ ìłľ
ìĦ¸ ëĬĶ
Ġë§Ī ìĪł
Ġë¯¸ ì¸ł
ì¦Ī íĤ¤
Ġëľ ¯
ĠíĮĲíĥĢ ì§Ģ
ĠêµŃ ë°©
1 8
Ġíıī ìĿ´
Ġì£¼ ê¸°
Ġìĺ¤ íķ´
ë¸Į ë¦¬
E M
Ġíķľ ìŀĲ
ĠëĦĪ ìĿĺ
íĮĢ ìĿ´
ë²ķ ìĿĢ
Ġê°Ĳ ìĭľ
Ġê°Ī ìĪĺë¡Ŀ
Ġìĭľ ìķ¼
ìĦĿ ìĿĢ
Ġë°© ìĹĲ
Ġë§Īë²ķ ìĿĦ
Ġìĭ¸ ìļ¸
Ġëĵ¤ìĸ´ ê°Ī
ĠìĦ± ìłģìĿĦ
íħĮ ìĿ´
Ġë§Ī ìĿ¸
ëıĻ ìľ¼ë¡ľ
Ġë²ķ ë¥ł
ë§Ŀ ìĿĦ
ìĦ¤ ìĿĦ
Ġìķ ±
ĠC C
Ġíĸī ìĦ±
ĠëĤĺëĪ ł
ĠíĻľ ìĦ±
Ġì£¼ ìĹĪëĭ¤
ĠëŀŃ íģ¬
l ine
ëĲĺ ì§Ģë§Į
Ġìĺ¤ ì§ģ
ëĭ¹ íĸĪëĭ¤
ĠìĤ¬ìļ© íķ´
Ġë°Ķ ë³´
ĠëĲĺìĹĪëĭ¤ ê³ł
Ġë¶Īê°ĢëĬ¥ íķľ
Ġëĥ Ħ
Ġì» ·
ìŀ ł
Ġìĭ¤ ëł¥ìĿ´
ĠìĿĺ ë¬´
ëŁī ìľ¼ë¡ľ
Ġback ground
Ġì²ĺ ë²Į
ĠìĿ´ ê¸¸
Ġë¸Ķ ë¡Ŀ
ëŁ¬ ìĿĺ
ĠìŀĪìĹĪ ê¸°
Ġíķ «
ĠìłĢ ì£¼
ìĿ´ ê²Į
ĠìłĦ ëł¥
ĠëĤ´ ìĦ¸
íİ¸ ìĹĲìĦľ
Ġëĭ¹ íķ´
ĠíĶĮ ëłĪ
ĠíĬ ľ
Ġê·¸ëŁ¬ ìŀĲ
Ġíķĺ ìĸĢ
ëĲĺìĹĪëĭ¤ ê³ł
Ġp ad
ĠìĿ´ìĸ´ ì§ĢëĬĶ
ëħ¸ ê°Ģ
ĠìłĦ ìĹĲëĬĶ
ìķĦ ëĬĶ
Ġë¬´ë¦ İ
Ġ12 0
ĠD J
ëĤ¨ ëıĦ
Ġê°Ĳ ìĺ¥
ĠíĮĮíĬ¸ ëĦĪ
Ġë¶Ģ íĴĪ
ë°Ľ ìĿĦ
Ġê·ľ ì¹Ļ
Ġëª©ìĨĮ ë¦¬ê°Ģ
ìĿ¸ ì§ĢëĬĶ
Ġ4 3
ì¡° ëĬĶ
ê³µ ìĿ´
ìĭ¬ íķľ
íĦ° ë¦¬
ĠìłģìłĪ íķľ
Ġìŀ¥ êµĲ
Ġë´Ĳ ìķ¼
Ġìŀ¥ë©´ ìĿĦ
ĠìŀĲë¦¬ ìĹĲìĦľ
ĠìĿ´ìłĦ ìĿĺ
ì§Ģ ìĽĲ
Ġê²ĥìĿ´ ë©°
Ġë¹Ħ ìĭ¸
ë¹Ħ ìĹĲ
Ġê°ķ ì²ł
Ġê³ł ìļ©
Ġì¶Ķ êµ¬
ĠëĮĢ ìĤ¬ë¥¼
ĠìļĶ ê´´
Ġê°Ģê²© ìĿ´
ĠíĶ¼ ë¥¼
arg in
ĠìĪĺ ëł¨
Ġë³Ħ ëĭ¤ë¥¸
ĠëĮĢ ë§Į
Ġpad ding
Ġìĸ¼êµ´ ìĿ´
ëį° ëĭ¤
Ġìĺ¤ëĬĺ ëĤł
ìĭĿ ìĹĲ
Ġë¯¸ ìķ¼
Ġì§Ģ ëĤ´
ĠíĬ¸ ë¡ľ
Ġìłķì¹ĺ ìłģ
ĠíħĶ ëłĪ
Ġë³´ ëĿ¼
Ġê½ Ĥ
Ġë°ľ ëĭ¬
ĠìķĦ ë¦¬
Ġìĸ´ëĳł ìĿĺ
ëĭ¤ ëŀĢ
ĠëĮĢíĳľ ìłģìľ¼ë¡ľ
ëĲĺìĹĪ ìĿĦ
ëĿ¼ìĿ´ ìĸ¸
Ġë© ķ
Ġíİ¸ ìĦ±
ëł¸ ëįĺ
ìĦ¸ ë¡ľ
ë¡ł ìĿĺ
Ġì°¾ìķĦ ê°Ģ
ĠíĶĦ ë¦°
Ġë¬´ ê¸°ë¡ľ
ĠìłĦ íĽĦ
Ġíķľ íĥĢ
ĠìŀĪìĹĪ ìĿĦ
ëħ Ķ
íĶ¼ ìĬ¤
ĠëĤľ ëĭ¤
Ġì£Ħ ëĭ¤
Ġë§Ī ìĭľ
ĠìľĦ ì£¼ë¡ľ
ìĺ µ
ì¦Ŀ ìĿ´
Ġëĵ¤ ìĹĪëĭ¤
ìĺĢ ê¸°
ĠìķĦ ê°Ģ
ĠìĽ¹ íĪ°
Ġíĥľ ìĸ´ëĤľ
Ġê²Ģ ì°°
ĠìĤ¶ ìĿĦ
ĠìĦ¸ ìĥģ
Ġì§ĵ ìĿĦ
Ġì¢Į ìļ°
ĠìĿ¼ìľ¼ íĤ¤
ëŀĢ ëĭ¤
íĻĺ ìĿĦ
ĠëĦ ·
ĠíĹĪ ëĤĺ
Ġì§ĳ ìĿĦ
ĠëĮĢ íķŃ
ĠìĤ¬ìļ© íķĺì§Ģ
íĪ¬ ë¥¼
íĮĲ ìĹĲìĦľ
Ġë¶Ģ ìĥģìĿĦ
Ġìĥģ íĺ¸
ĠíĹ Ľ
Ġëıħ íĬ¹
Ġì°¨ ëĭ¨
ëĮĢ íļĮ
ëĭ¤ ìĭľ
íİ¸ ìĿĺ
íķ´ ì§Ģê³ł
ĠìłĦ ìĦ±
ĠëĨĴ ìĿ´
Ġíİĺ ìĿ´ìĬ¤
Ġìĸ´ì§Ģ ê°Ħ
ë¡ľ ë¡ľ
ĠH D
Ġëª¨ ë¥´ê³ł
ĠëĤ´ ìĿĺ
êµ¬ ìĻĢ
ou r
Ġë§Ī ë¦¬ìĺ¤
Ġê·¸ ëĿ¼
Ġì¹ĺ ëĬĶ
Ġë°ķ ìłķ
ì¸ Ħ
ĠìķĦìī¬ ìļ´
ĠìĿĺë¯¸ ë¥¼
Ġë³´ ìķĪ
Ġìł ¤
Ġìĺ¬ ë¦°
Ġê°ķ íķĺëĭ¤
ĠìĿ´ ìŀ¬
ìĭľíĤ¤ ê¸°
ìĿ´ ê¸°ìĹĲ
Ġëħ¹ ìĿĮ
ĠëĤĺ ëĤĺ
Ġê°Ĳëıħ ìĿĺ
ĠìĿ´ë£¨ìĸ´ ì§Ħ
Ġì¿ł ë¡ľ
Ġê°Ļ ì§Ģë§Į
Ġìłķìĭł ìĿĦ
E S
Ġì§ĢìĹŃ ìĹĲ
ĠH e
ĠëĮĢë¯¸ ì§Ģë¥¼
ĠíĹ ĺ
ĠìĪĺë¡Ŀ ê³¡
ĠëĦĪ íĿ¬
ë´Ĳ ìķ¼
ĠT H
Ġë°ĿíĺĢ ì¡Įëĭ¤
ìľ¼ ëŁ¬
ĠìłĦ ë©´
Ġëª¨ìĸĳ ìĿ´ëĭ¤
ëĲĺìĸ´ ìĦľ
Ġìı ´
Ġm argin
ìĭł ìľ¼ë¡ľ
ĠíķľêµŃ ìĹĲìĦľ
Ġì»¤ íĶĮ
Ġëĵľ ëĬĶ
Ġì¡° ìĦ±
ì£¼ ëħĦ
íķĺê¸° ê°Ģ
ĠìĿĮ ë°ĺ
ĠíħĮ ëŀĢ
Ġìį¨ ë¨¹
ë°© ìĹĲìĦľ
Ġíĺ¸ íħĶ
ë° ¤
ĠëĬĲëĤ Ħ
ê³ł ë¡ľ
ê²½ ì°°
Ġê·¸ ëĵ¤ìĿĦ
k g
ëł¹ ìĿĦ
Ġìļ¸ ìĤ°
Ġ199 7
Ġíĸī ìľĦ
Ġìŀĥ ê³ł
Ġìĸ´ëł¤ ìĽĮ
ĠìłĢ ìŀ¥
ĠëĲľ ëĭ¤ê³ł
Ġë°ĺ ê²©
ĠëĤĺìģĺ ì§Ģ
ĠíĮ¨íĦ´ ìĿ´
ì¸ł ìĿĺ
ĠìĨĲ ìľ¼ë¡ľ
Ġê°Ģ ìĨį
ĠëĮĢ ê°ľ
ĠìĿ´ ì§Ģ
ĠìŀĲ ê·¹
íĻĶ ìĻĢ
ìłģ ìĿĺ
íĥĢ ìĻĢ
ĠìĺĪ ë¹Ħ
ìĽĶ ë¶ĢíĦ°
Ġìŀĳ ê°Ģê°Ģ
ĠF A
Ġëĭ «
ìĭľ ì½Ķ
Ġ0 9
Ġì²ĺ ëŁ¼
Ġìĸ´ ë§Ī
ìŀĲ ë¦¬
íķĺ ìĭľ
ec t
ĠìłĦ ì§ģ
o od
ìĦľ ìĹĲ
Ġì±Ļ ê²¨
Ġì£½ ìĿ¸
Ġ6 4
Ġê³¼ ìłķìĿĦ
ë°© ìľ¼ë¡ľ
Ġìłķ ì§Ģ
Ġì¢ĭ ê²Į
ĠO n
ë± ħ
Ġìĸ´ ëĵľ
ë¯¸ ëĭĪ
ĠëĶĶ ë²Ħ
ĠìĤ¬ ìļ´ëĵľ
Ġìĵ°ëłĪ ê¸°
ë¬ĺ íķľ
ì§ĳ ìĿĦ
ag e
ĠìĦłìĪĺ ëĵ¤ìĿ´
ĠëĤĺ ìķĦê°Ģ
Ġìļ° ìĹ°íŀĪ
íķ´ ì¤Ģëĭ¤
Ġëĭ¤ìĿĮ ëĤł
Ġìĺ¬ ë¦¬ëĬĶ
Ġë³Ħ ê°ľë¡ľ
Ġê³ ½
ĠìĪĺ ìĺģ
ĠìºĲ ëĤĺëĭ¤
ê² Ł
ì¡ ¸
Ġ19 0
ëĭ¹ íķł
Ġê°ķ ëĤ¨
íĨ ¡
ëĮĢ ìŀ¥
ĠëĤ´ ì§Ģ
ë¥´ ì§Ģ
Ġê³µê²© íķĺëĬĶ
ĠëĮĢë¯¸ ì§Ģ
ĠìĺĪ ê³ł
Ġë¶Ī ìĿĦ
ĠìķĦìĿ´ ë¥¼
Ġì£½ ìĸ´
Ġ0 5
ĠìŀĲìĦ¸ íŀĪ
Ġìĭ¬ íķĺê²Į
Ġì±Ħ ìĽĮ
íĻĪ ëŁ°
ë²Ī ìĿ´
ĠìĿ´ë²Ī ìĹĲëĬĶ
ë²Ī ìĿĦ
ĠìĿ´ ë¥¸
íİĺ ìĿ´
ìĨį ìĦ±
Ġë§ĪìĿ´ íģ´
Ġë³´ìĹ¬ì£¼ ë©°
íĶ Ķ
Ġëĵ¤ìĸ´ ìĺ¨
Ġìĭ¸ ìĽĢìĿĦ
Ġì£½ ìĿ¼
Ġë¬´ íļ¨
Ġìĸ¸ ìłł
ĠìķĦë§Ī ëıĦ
Ġë°©ìĸ´ ëł¥
Ġìłķ ì°©
ìĬ¤ íĨ¤
ĠìĿ¼ ë°©
Ġë°ľë§¤ ëĲľ
Ġê¹Ģ ìłķ
ĠìĿ´ìĻ¸ ìĹĲëıĦ
Ġë°©ë²ķ ìľ¼ë¡ľ
ë¡ł ìĿĢ
íĨł ëĬĶ
Ġëį° ëĭ¤ê°Ģ
ĠìŀĲëŀĳ íķľëĭ¤
Ġë¶Ī ë¦°ëĭ¤
Ġìŀł ìĪĺ
ĠìĬ¹ ë¶Ģ
ĠìŀĦ ìĭľ
ĠìŀĲ ë³¸
ĠìĹ° ëĿ½
ĠëĦ£ ê³ł
Ġìĥģ ìĪł
ĠìĬ¤ ì¹´ìĿ´
ĠëĪĪ ë¬¼ìĿĦ
Ġíı¬ ìĬ¤íĬ¸
Ġê°ĢëĬ¥ íķĺë©°
Ġs h
Ġì» ¸
ĠìľłìłĢ ê°Ģ
Ġíķĺ ìĪĺ
Ġëĭ¹ìĭł ìĿ´
ĠìŀĲ ë§¤
Ġê³ł êµ¬
Ġíĸ¥ ìĥģ
Ġê°Ģ ì¡Į
Ġë§Ĳ íķĺê³ł
Ġìĭł ìĦ±
ĠëĴ¤ ìĹĲìĦľ
Ġê°ĢëĬ¥ ìĦ±ëıĦ
Ġì² ¨
Ġì± ķ
Ġê°Ģ ì§ľ
Ġíĥľ ìĸ´ëĤĺ
Ġê·Ģ ì°®
ĠìĿ¼ ìĭľ
ì°¨ ìĹĲ
Ġë³¸ ëĭ¤
ĠìĦ¸ê³Ħ ê´Ģ
ĠìķĦ ë°Ķ
ĠìķĮ ê²łì§Ģë§Į
Ġìķ½ê°Ħ ìĿĺ
Ġì¤ĳ ê³Ħ
íĮĮ ê°Ģ
ĠëĶĶì§Ģ íĦ¸
Ġë¸Ķ ëŁ¬
ë¦° ìĿĺ
Ġë¹Ħ ëĶĶìĺ¤
ĠìĿĺë¯¸ ë¡ľ
Ġê±¸ ì³Ĳ
Ġìķ µ
ĠëĤ´ ë¦¬
ĠA T
Ġê°ľ ìŀħ
ĠìĿ´ ìĿµ
Ġë©Ķ ëī´
ĠA r
Ġìŀ¬ íĺĦ
Ġëĵ¤ ë©´
ë§ī ìĿĦ
ord er
ĠìĬ¤ë§ĪíĬ¸ íı°
Ġë¶Ģ ëĶ
Ġìĭľ ëĭ¬
Ġê³µê°ľ ëĲľ
Ġë°ķ ê·¼
Ġëĸ¨ìĸ´ ì§Ħëĭ¤
ìŀĪ ìĸ´
ĠíĨł ëª¨
Ġê³ł ëĵ±
íķľ ìĿĦ
ĠD e
ë¦¬ ëĿ¼
ĠíĽĹ ëĤł
ëªħ íķľ
Ġìŀ¡ íĺĢ
Ġìļ© ìĿĺ
ĠíĽĦìĨį ìŀĳ
Ġê°ĲìķĪ íķĺë©´
ĠìĽ ¨ìĿ´
Ġìŀ¥ ìĪĺ
Ġë¹Ħ ìĭ¼
ĠìĿ¸ íĺķ
Ġìī ´
ĠW h
Ġw ith
Ġê°Ģ ì¹ĺ
Ġf ont
ou t
ĠìłĦíĺķ ìłģìĿ¸
Ġê·¸ëŁ¬ ëĭĪê¹Į
Ġë¦¬ë©ĶìĿ´ íģ¬
Ġëª¨ ì¡°ë¦¬
íĮĮ ìĿ´
Ġìľł ìłĦ
Ġì¶ľ íĮĲ
êµĲ ë¥¼
ë§Ī ë£¨
ëĭĪ ìĻĢ
Ġì° Ķ
ĠP D
ĠíĮĮ ëĿ¼
ĠíķĺëĤĺ ëıĦ
Ġëĸł ìĺ¤
ĠíļĮ ìĿĺ
isp lay
ĠíĽĦ ì§Ģ
íĮħ ìĿĦ
ĠëłĪë²¨ ìĿ´
ĠìŀĲ ëĬĶ
Ġì§Ģ ìĸ´
Ġë¬´ ëłµ
u re
ĠìķĦë²Ħ ì§ĢìĿĺ
Ġì§Ģ ìĭĿ
íĸ¥ ìĿĦ
ĠìķĬ ëıĦë¡Ŀ
Ġë§ĮëĤĺ ê²Į
i v
Ġë¬´ ë°©
ĠëĤł ê°ľ
Ġë²Ħ ëł¸ëĭ¤
Ġíķĺ ìķ¼
Ġë¶Ģ ë¥¸
ĠíĻķìĿ¸ íķł
Ġíŀĺëĵ¤ ìĸ´
íĨ¨ ë¦Ń
ì¢ħ ìĿĦ
Ġê²ĮìŀĦ ìĹĲìĦľ
Ġëĵ¤ ìĹ¬
Ġë¬¼ ê³ł
ìģ ľ
ìĸ´ ìĻĢ
Ġëª° ëĿ¼ëıĦ
ìķ¼ êµ¬
ĠíĻĶ ë¥¼
ĠëĲĺìĹĪ ëĬĶëį°
ìĹĲ ëĭ¤
M A
ĠìĤ¬ëĿ¼ ì§Ħ
ĠëĤ´ ê²Į
ĠíĿ¥ íĸī
ĠëĤĺ ìĿ´ê°Ģ
Ġì£½ ê³ł
Ġìłĳ ì´ī
ĠìĪĺì¤Ģ ìĿ´ëĭ¤
Ġì§Ī ë¬¸
ìķ ¤
ë²Ħ ëł¸
ĠìķĬìķĺ ìĿĦ
Ġth at
ĠìĨĮ íĺķ
ìĨĮ ë¡ľ
ĳ ¼
Ġê·¼ ë³¸
ëļ ±
íļ¨ ê³¼
Ġyou r
ê¸° ëĤĺ
Ġë²ł ìĿ´ìĬ¤
Ġë¹Ħ ìĥģ
Ġë£¨ íĬ¸
ĠíĹ ¨
im e
R A
Ġíķ´ ë³ĳ
ĠíĶĦ ëĿ¼
ìľł ë¥¼
ë§ µ
ìŀ ĩ
ĠìĪ ¨ìĸ´
ĠìłĦ ë©¸
Ġìļ°ë¦¬ ëĤĺëĿ¼
ĠìŀĪ ìĿĮìĿĦ
ê¸ī ìľ¼ë¡ľ
Ġê¹Ģ íĥľ
ĠìłĦ ë¶ĢíĦ°
Ġì¼ ľ
ĠìĻĦë²½ íķľ
ëłĪìĿ´ íĦ°
ë¦¬ íĬ¸
ĠíĽĦ ì¿ł
ìĤ° ìĹħ
íĺĦ ìĿĺ
Ġê³¼ê±° ìĹĲ
Ġê¸Ī ìľµ
Ġê²½ ê¸°ëĬĶ
ìĭľ ëĭ¤
ĠìĨĮ ìĪĺ
íļĮ ë§Ĳ
ĠìĿ´ìĬ¬ ëŀĮ
1 7
Ġëªħ íĻķ
ĠìŀĲëıĻ ìľ¼ë¡ľ
i re
ĠìĿ´ìĥģ ìĿĦ
ĠìĿ¸íĦ°ë·° ìĹĲìĦľ
ë¹Ħ ìĬ¤
Ġìŀ¡ ìĿĢ
ĠëĦ ī
Ġë£¨ ìĭľ
ĠG T
ìĽĮ ëĵľ
ĠA R
Ġê¹Ģ ì¢ħ
ìĺĢ ìĿĦ
Ġíĺ¹ ìĭľ
ĠìĿĺ ìĽĲ
ĠS C
ĠìłĦ íķ¨
Ġìļķ ìĿĦ
ĠìĤ¬ê±´ ìĿĺ
ĠíĻĺ ìĺģ
Ġê¹Ķ ëģĶ
ĠëĪĮ ëŁ¬
ëł¹ ìĿ´
Ġíİ ł
ì½Ķ ë¥¼
ĠëĦ¤ ëįľ
ĠìĭľìłĪ ìĿĺ
ìħ °
Ġëģ Ī
ĠëĦĲ ë¦¬
ë³´ ê¸°
Ġì¢ĭ ê³ł
Ġìŀĳ ê°ĢìĿĺ
Ġì¤Ģ ìļ°
I S
Ġìłģ íĺĢ
Ġë§Ī ìĻķ
ì§ģ íķľ
ĠìłĲ ìĪĺ
F C
ĠìĿ¼ë³¸ ìĹĲìĦľ
Ġìī½ ì§Ģ
Ġëĭ¤ ìĪĺìĿĺ
ĠíĻľ ë°ľ
ìłĦ ì°¨
ìļķ ìĿĦ
ĠìłĢ ëĬĶ
Ġêµ° ëĭ¨
Ġê³Ħìķ½ ìĿĦ
ìķ½ ìĿ´
ĠêµŃíļĮìĿĺ ìĽĲ
ëª¨ ëį¸
Ġë¹Ľ ìĿĦ
Ġë¯¸ ìĬ¤
ĠëĨĴ ê³ł
íŀĪ ì§Ģ
ëħ¸ ìĿĺ
ë¬¼ ìĿĢ
ĠëĲĺìĹĪ ìľ¼ë©°
9 9
Ġë²Ħ íĶĦë¥¼
Ġì£¼ìĿ¸ê³µ ìĿĺ
ĠíĿ ł
Ġìĸ¸ê¸ī íķľ
Ġê°Ģ ëĿ¼
íķĺ ê°Ģ
om e
Ġê³¡ ìĿ´
ë¹Ħ ë¡ľ
Ġ0 4
ĠìĨĮ ìĭĿìĿĦ
ìĸ´ ë¦¬
ĠìĿ´ ëĤĺ
êµŃ ìĿĢ
Ġë°° ìļ°ëĬĶ
ìº Ķ
ĠíĥĢ ì¼Ģ
ĠìĶ ¹
íı¬ ê°Ģ
ìĨĮ ë¦¬
Ġíľĺ ëĳĲ
Ġê°Ģ ë§Į
íĶ¼ ë¥¼
êµŃ ìĹĲ
B O
Ġìľł ë¡ľ
Ġë§Ī íģ¬
Ġíķľ ìª½
ĠìĤ¬ëŀĮ ìĹĲê²Į
ĠìĬµ ëĵĿ
ë©´ ìĹĲìĦľ
Ġì§ĳ ìľ¼ë¡ľ
Ġ199 5
Ġëĭ¤ìĿĮ ìĹĲ
íĸĪëĭ¤ ë©´
ĠĠĠĠĠĠĠĠĠĠĠĠĠĠĠĠ ĠĠĠĠĠĠĠĠĠĠĠĠĠĠĠĠ
Ġê±° ëĵŃ
ìķ½ íķľ
Ġëĭ¤ìĿ´ ìķĦ
Ġë¬´ ëį¤
ìĿ´ ëĵł
ĠU S
ĠìĬ¤ ìĬ¹
ĠìĹĨ ìĿĮ
Ġê³³ ìĿĢ
ĠëĤ´ ë³´
Ġ0 8
ĠìĹ´ ìĩł
Ġêµ¬ ìĤ¬
Ġë¨¸ ë¦¬ê°Ģ
o b
ĠëĤĺ ë©´
ĠìĻľ ëĥĲ
Ġëª¨ ë¦¬
ìĿ¸ ìĿ´ëĭ¤
ìŀĲ ëıĻ
ĠëĤĺìĺ¤ ê¸°
íļĮ ìĤ¬
ìħĺ ìĿĦ
ë°Ľ ëĬĶëĭ¤
ĠìĤ¬íļĮ ìłģ
ĠF I
êµĲ ìĿĺ
Ġìĸ´ì§¸ ìĦľ
Ġì¿ł íĤ¤
Ġì²ľ ìŀ¬
Ġìłĳ ìĨį
Ġë¶Ģ ìĦľ
2 5
ĠìĪĺ ìĹħ
Ġì¼ĢìĿ´ ìĬ¤
Ġëį§ ë¶Ļ
ì§Ģ ë°©
Ġë§Ĳ íķĺìŀĲë©´
íķĺ ìĿ´
Ġê¹¨ ëĭ¬
ê°Ģ ë©°
ëį° ìĬ¤
ĠíĦ° ëľ¨
Ġ0 7
Ġë²ł íĬ¸ëĤ¨
Ġìºł íİĺ
ìĹĲ ê²Ĳ
Ġì§ĢìĽĲ ìĿĦ
Ġëı ĭ
ë¦¬ ìĸ¼
Ġì° ¢
ĠA C
ĠíĽĦ ìĪł
ì¸ł ê°Ģ
ĠíķĻìĥĿ ëĵ¤ìĿ´
ìķĦ íĮĮ
ĠìĤ¬ ìĸĳ
Ġì£½ìĿĮ ìĿĺ
Ġíİĺ ìĿ´ì§Ģ
ìĥĿ ìĿĦ
ìľ¼ë¡ľìĦľ ìĿĺ
Ġê³ł ìŀĳ
Ġì¡° ì§Ģ
ë³ ĢìĿ´
ë§Ī ë²ķ
Ġê·¸ëŁ¬ ëĭ¤ê°Ģ
ë¡ľ ìĻĢ
Ġíļ ¡
Ġê°Ģë³į ê²Į
íķĺ ëįĶëĿ¼ëıĦ
Ġì£¼ ìĹ°
ëªħ ìĹĲ
Ġíķľìłķ ìľ¼ë¡ľ
Ġë¬´ ì²Ļ
ĠìĬ¹ ê²©
íĥĦ ìĿ´
ìĤ¬ ëŀĳ
Ġë¶Ģ ìĪĺ
ĠíļĮ ìĪĺ
íķĺ ëĿ¼ëĬĶ
Ġê°ķ ìĽĲ
ëłĪ ëĤĺ
Ġìĺ ³
Ġì¶© ê²©ìĿĦ
Ġëĭ¹ìĹ° íķľ
ĠëıĻ ë°©
Ġë¹łìł¸ ëĤĺ
Ġì¶ľ ìŀ¥
íĺ¸ ìĻĢ
Ġê°Ħ ìĭł
ìĤ° ìĿĺ
ì± ł
Ġë¬¼ë¡ł ìĿ´ê³ł
ĠìľłìĤ¬ íķľ
ĠìłĢ ëŁ°
Ġì§Ģ ëĬ¥
ê²½ ìĹĲ
Ġê²°ê³¼ ìłģìľ¼ë¡ľ
ìĿ¸ ëĵ¤
ĠìĿ´ ìĭĿ
ìĦĿ ìĿĺ
Ġëľ» ìĿĦ
ĠìĿ´ê²ĥ ëıĦ
íĻĶ íķľ
ëĤĺ ëĿ¼ìĿĺ
Ġê°Ģ ìĤ¬
ê±° ìķ¼
ĠìĿ´ëģĮ ê³ł
Ġëľ¬ ê¸Ī
ĠíħĮ ìĬ¤íĬ¸
ĠìĭĿ ìĿĺ
Ġë§Į ëĤł
ĠìŀĪìĹĪëĭ¤ ëĬĶ
Ġì¤ ¬
ëıĦ ìĹĲìĦľ
ĠëĦĪ ëĬĶ
ìķ¼ ë§Į
ì¤ĳ íķĻêµĲ
ĠìŀĲì²´ ìĿĺ
Ġì¶Ķ ìĸµ
ë¨¹ ê³ł
Ġìĭľê°Ħ ìĹĲ
Ġin line
Ġë³´ëĦĪ ìĬ¤
ê±´ ìĿĦ
ì½Ķ ìĻĢ
ìłĦ ê³¼
ìĭľ íĹĺ
Ġëĳĺ ìĿĢ
íĬ Ģ
ĠìĿ¼ìľ¼ íĤ¨
ĠëĮĢ ìĤ¬ê°Ģ
ĠìłĢ ëł´
ĠíĹĮ íĦ°
Ġê±° ë¦¬ë¥¼
ëĮ Ħ
ĠV S
Ġë°ķ ìĤ¬
ĠìĬ¤ íĭ°
Ġì²Ń ëħĦ
ìŀĪ ê²Į
Ġê·¸ëŁ¬ ë©´
id e
Ġb order
oc k
Ġëªħëł¹ ìĿĦ
íĥĿ ìĿĦ
Ġë§Ĳ íķĺë©°
ìĥī ìĿĺ
ĠëıĦ ë°ľ
ë² ħ
ëģĦ ëŁ¬
ĠìĨĲ ê°ĢëĿ½
ĠìĨĮ ëĭī
ĠíĨµ ìĥģ
ìĬ¤ íĤ¤
ë§Ŀ ìĿ´
es s
Ġê°Ĳ ìłķìĿĦ
ĠìĿ´ ìĺģ
Ġê°ķ ìļĶ
Ġë¬´ ê´Ģ
ë¡ľ ìĽĮ
Ġì»¤ ëĭ¤ëŀĢ
ìĦĿ ìĹĲ
Ġë¶Ħëªħ íŀĪ
ëĭĺ ìĿĦ
ë§ģ ìĿ´
ĠëĤĺíĥĢ ëĤľëĭ¤
Ġë¬´ìĭľ íķĺê³ł
ìĤ¬ ëł¹
ĠìķĦ ìĿ¼
as s
u c
Ġì°į ìĸ´
ë¥ł ìĿĦ
Ġëĭ¬ ëŁ¬
ĠìºĲ ìĬ¤íĮħ
ì¦Ī ìĻĢ
Ġìľł ì¹ĺ
Ġëĭ¨ ëĭ¨
ìĭľ íķĺëĬĶ
Ġê°ľ ë§ī
ĠìĹĨëĭ¤ ë©´
ì¹ĺ ë©´
Ġìĸ´ë¦° ìĿ´
ê¹ ¥
Ġìľµ íķ©
adi us
ë³´ ëĵľ
Ġë¶ĢëĶ ª
ëł¬ íķľ
Ġê²ĮìŀĦ ìĹĲ
ĠìĿ´ ê²¨
ĠìķĪ íĭ°
Ġíľ´ ëĮĢ
ë¹Ħ ìĻĢ
ìĬĪ íĥĢ
Ġëĭ¹ íķĺëĬĶ
Ġê¸° ìŀĲ
Ġíķ© ìĦ±
ëĶ §
Ġë¬´ ìŀĳ
Ġê±°ê¸° ìĦľ
